node {
  name: "input"
  op: "Placeholder"
  attr {
    key: "dtype"
    value {
      type: DT_FLOAT
    }
  }
  attr {
    key: "shape"
    value {
      shape {
      }
    }
  }
}
node {
  name: "label"
  op: "Placeholder"
  attr {
    key: "dtype"
    value {
      type: DT_FLOAT
    }
  }
  attr {
    key: "shape"
    value {
      shape {
      }
    }
  }
}
node {
  name: "transpose/perm"
  op: "Const"
  attr {
    key: "dtype"
    value {
      type: DT_INT32
    }
  }
  attr {
    key: "value"
    value {
      tensor {
        dtype: DT_INT32
        tensor_shape {
          dim {
            size: 3
          }
        }
        tensor_content: "\001\000\000\000\000\000\000\000\002\000\000\000"
      }
    }
  }
}
node {
  name: "transpose"
  op: "Transpose"
  input: "input"
  input: "transpose/perm"
  attr {
    key: "T"
    value {
      type: DT_FLOAT
    }
  }
  attr {
    key: "Tperm"
    value {
      type: DT_INT32
    }
  }
}
node {
  name: "reshape/shape"
  op: "Const"
  attr {
    key: "dtype"
    value {
      type: DT_INT32
    }
  }
  attr {
    key: "value"
    value {
      tensor {
        dtype: DT_INT32
        tensor_shape {
          dim {
            size: 2
          }
        }
        tensor_content: "\377\377\377\377\t\000\000\000"
      }
    }
  }
}
node {
  name: "reshape"
  op: "Reshape"
  input: "transpose"
  input: "reshape/shape"
  attr {
    key: "T"
    value {
      type: DT_FLOAT
    }
  }
  attr {
    key: "Tshape"
    value {
      type: DT_INT32
    }
  }
}
node {
  name: "w_in"
  op: "Const"
  attr {
    key: "dtype"
    value {
      type: DT_FLOAT
    }
  }
  attr {
    key: "value"
    value {
      tensor {
        dtype: DT_FLOAT
        tensor_shape {
          dim {
            size: 9
          }
          dim {
            size: 64
          }
        }
        tensor_content: "\033M\276=\267U\323\273\271\200\017\276\333\255\004>0\332\032\275\213Lq>%_\240>\002\202`\275\337;\354=\355$\331<\334\022\255\275\"\034\254\276\310\357\232\274\275\001\273\274\005S\213\276\025-\364\274\244\322\221\276\221\300\274\276YZ\371;\240\363>\276v?\351==\377H>-\257\020\276\326\300a=\"\376\036\277\016\345\317\275,J%\275\032G\026\276.J\240\275\215\304\003?\306\354\366=\202\203\366=bm\371\275\234J}>\355f\'=\304\020?\2768\207\225\275\345\376H>R\307\231=\267\305\001\277\0174\361\275nm\322=n\310\020\272\003\216\262\276\275\013h\275\313rQ=\035>\272\275\\\276\345=2\226\n>\013S\306<\231\271\343==\223N=\'\"X\271\314P]\027X\023d\276u?\354=\327\036\210<\036U\203\276\271\340\206=\372\"\351=A*/>Q\304p\275|\270\007\277Dr\361\275\026\310\307\275\201\360\3277\341\374E\275\237^\221=\237e\013>\243\027\340\275\362\371\244\275\266\334\217=ijw\275,\335\213<\225\344\310\273\374\337(=b\366\014<d\311\005\275b\304\267=)\247\240\275\367\335\205=Cw+=\017\n\'\275-\224\341\275;\201K=P\350\237<K;\033=\373\036\300\275`\017\200=\250\377\307\275\357\365\240\274,\017\345\274M\034\023=\352Pl\276m\372\360\275ro\006\276^\207\010<#\006\233=\270\220\351<p\311\026\275\367\025\003\276\244q\252\275Y\251\355<\360\373\261=\377\233S\275\260\204N<\310\357\330\274=\345(\275*b3=_\014\362\274\226\263\353\275U\224\374\275{\005=>k\260\213\275\2512j\275\334H\253=3\3603\275k\352<\230\247\305[<l\2670>9\361\237\272}\236==\207P\214\275\343\\?\275Y\350\271\275,\335\250:[k >\024\370\336\274\010\227C\275\224\005L8\232\031\030\275f\344\311=\003k\252=\212K\301\275\213]|\275\326*l=Gx*\274\374\217\'\275\201\355\257\275\323\356\207=I\273\346\273p\023\220\275\241 \237=\307\t\250\275\216\341\347=.T\237=2A\014\274\221)s\275\363\262\261=a\2325=\333\341\330=\3520\240\275\3239\264\274\364\332\202\275D%\033\275\305\201\222\274\035\354\353<V\300\317\275\023\277\031\275\347\244y=\014\352p=\221 \210=\230g\225<yWW\275\202[\364\275d\332\232\274W\350)=\361P\270=\314\203.\276\214\217*\275\361)V\274\267\002R\275\256~\036=\256\027:\275\377\220\250\275\034\311\237\275\005\224\272=\277\236\002<F7~\273\276\243\300=\325D\350\273\375\004\302\027\305z\202\274\332\247(>D\256!;\213\243\025>n\377B<\364q1\275\203-2\272\361\241e\274\213\235\364<\r\205\305<\315\321\306\275\370\n\276\273\366\2669\276}\261>>\310\007\237>\311\360\242<\350\265\225\276\366d->\227\320n>p\021\343;\351\250\214\275:_\276>w7\236<\306%\224\2762\'\t\274K/\340\272/9w\275\203\236\004?3\361\010>\242\007}\275\210\006\313=e\323\236\274\027\221\036\276\307\262\211>8\272\261<\373\247\007\2766SO\276(G\025>Di\226\275\276\2463>\023\374\035\276\032\224\311>\324\217(\275\212\222\207>\020^\323=M\356\305\275\n~\"\277+44\276\"\031\006\276\025\330=\276\324\247\325\275\333P\316=\003\344\337\276\340\004\326\276\rk\025\274o\321\337\275\337\310\324\275\316\371<>\\\255\213>\1774C\276\1773\256<\211}\372=\250\265a\274\377\215\\-\2435o\276\324\253\n>\032\263\257\275\"\311\325\276\301\314v\274 \010\207\275\360\r\302=\021\341\005\276\234\032\313=8\214l>\340hq\275@A/\274^\304\274>\347T\236=\207\302P\276\374u>\276\321\350\206\276\235q\305=\326e\324>\350&D\276\202\252\243\276\355\021\301:\035<\332\274S\"\000=)V!>\360\323\235\274\301jz>\nLs\275\205\230\341=%\270\270<\357\220\245=\030+C\276\266q\221=\342<\205\275{t\025\2764;\t>\245\337\341=\205)\362<\337\000\225\276\"U:>%+B=\035I\334>\2755\216>\27770\276zR\000\277!\320\233=/\010P<BR\320\273g\336\250=\263\233\207\2740H~=\205;\003\275w\n\027\276J\353c\275\236\'B=\032V\211\276v\207\217\275~Y\021?\377\375>\276#\203\205\276\373~R>\337Y\004>\340\033\373\275Q\336\325\247\277\303\210>?s\343<\220N=\274^\237x\276;\370\374>3\240\263=O\036\023=\305#]=\226 \025\276\374\361`?F\303\027<\027\2175;}:\277=\231\206X<*|\374=\340NL\275\206\201<\276A\354\324\274\017\217%\275T(@=\341\026\252=\3712\231\273\337\353\034=\021\355\034>\247X\207>K\301(<\273QA>\355s\337>\'\237\256=\020C\032\275\010\236D\274C\332\027\274$E\270\275\232\233q=`\025\">=5{=\227\024\033\275\346\\\320=y\360\322>\256k\247\276Z\227A\276\271\016j\274J\303\254=\200\322b\275\355R\213\275\246M\224=\333\350\365=G\017\301\273\202P\232\275\274\003F>\231\235m>s\037\204=\247c\331\275\2402\301\275\354\324\271\273\022c/>\260$\"<\241\254\254\274N\201h\274\000\356\260\276\255!\333\274\356\372\031\275\257*\305\274s\364\245(X}\352=.D\330<\275\271\3429nB\270=\302\317\256\275\240\321\313<R\0264\276\n\034:=\203\270I=\357\333\035>H\016\210?\262s\242\274.gP>\327\230\362\276Mh\032\275\332u\001?\250\251d?\355\000\341\276:{\232>8\344\274>\223rq=\205\200g\274\255\321\313\275\021t\330\275?\362)\277\003\317C>$\211\003\277\355&U\277t\203\t\276`}\373\275\363\357\347?\346D\205?\253D\257\276f^\221?d\234\260\276N\263X\276\234\341\340\276\353\177\020?\332h\311\277\261Y\246>\206K\020=t\322\240=K\240#\276\303n\224>9\261\033=\231\200\301\276\321Z\373<\014\375\346\276\200\204\241>\322F\235\277`\225\230>\323pR=\254\303c\275\254\272Z\277n\005\264\275\312\371\260=\026\251\313\276\343\325\201>\230W\010>*\327\203>\354\217\311<\250\366->]\272-?\035\021\003\262`\234\365\276\247Ve?\276q\323\274+:\206\276A\250\367=\021\301[>^\276\211?fw\003\276\226(\234\277E\206\262\276\360\353\321\275\014\205\036;\000\204\320\275b\017\340>4\307[>\261\321\203\276\tU9>\n\322\306=\337e\377\275|\273\247<\236\361\324\276\031\035\356\275T`D<w\206]\276\330\363V>\376\332\236\276\265\202\270>{\263\277>\n*\236\275;\332\230\276\340\354\337>\341\321\216>\250 \372>\366\335\323\276\000\026\377\276\361\n\303\276\216\220\242>\370\254\272\276\330\214F?\035\351\270\276\372yl>y5\322\2760\035E>-\203\000?\\\003\231>m\256k\276*2\271\276\001RF?\312/\223>B5\266\276\342\376\262\275\027\230\340\275 \362\250>\371)\253\276\034>1>~6E\276\326lg\276\366\374\247\276,\347Z?\305\311\025\276\362\256\036=t\274\251>\257\367B\275\217;\247%\227\254\005\276\275E5?A\3437\273\255|S?\236[\002>\232\000\254\275j\206D=H]\326\274fY\034\277i\2112\276\350\275.>\273\237\353;q\266\213\275b\334=\276\361\3343>\350d\260\276\304<\247\274\341\t\022>\010\211\216\276\245\'\r>\010dt=\331!\n\275\335\336E\275\361Q\241=\314\210\300>\"8\361=\202Kr>\234\024\344\276\236l0<\036\307\217\276\210_[>\317#\311>\3365\344\275h\007\267\275J\357\306=\204\364\315<\0226\'\277\332\354$\272W\267\021=)\025%\277l\367\252\276|\377\216=(\3554=\2272\342\275\325\333Y\275\177\377G=O\313\036\276\2137C?\227w\244\275\3306\023?CE!?\004D\263>\26201\275R\312\341\276Lo\n;\235\270\201>\276v\336\275^\322\031\276U\014\214>S*\374\274\035&l\275\332 r=\"\223\361\275\021\241\346\230\370[\327=\325\362\220>r+p8\227;y\276*\'\257\276!W(>X\355D\276\217\217\017<t\240\201>\t\355r\276"
      }
    }
  }
}
node {
  name: "w_in/read"
  op: "Identity"
  input: "w_in"
  attr {
    key: "T"
    value {
      type: DT_FLOAT
    }
  }
  attr {
    key: "_class"
    value {
      list {
        s: "loc:@w_in"
      }
    }
  }
}
node {
  name: "b_in"
  op: "Const"
  attr {
    key: "dtype"
    value {
      type: DT_FLOAT
    }
  }
  attr {
    key: "value"
    value {
      tensor {
        dtype: DT_FLOAT
        tensor_shape {
          dim {
            size: 64
          }
        }
        tensor_content: "\336\r6?+\022\355\273D\031,\275}\303j?\274\273\"?\222\370\265?\236\226\203?-\366g?\257`\351=\374E\270?:\337\277?T\345\006=C{\264=\320h\305=\2277\200?\363\350\317?\003\203v?\376\326B?\224\357\336=Q\241\205?e4\312?}\005\261?C}y?\005\010\222?\356IC?\027\357\207?Z\301\320>\373- ?\336\360\332?.d8\275Y\000\324?X\3068\276|\002\305>\346>\216>\260\250\035?[\206\266?y\177S=Y\023\370>\216\373\025?\375\314\306?\027\341t\276f\375X>\016\262.?=\223\252?\250\376\214?\337&%?)\231\337?\347\344o\274#y??\017\244\223\276\007\357\025?\347\241\345?\303\334I?WKO\262a\242\375>\342a\363\274\263\240@\275K\037\334>\2040\222=a\244\353?\243\031-?\031\364\350=7\232\317?|\247\350>"
      }
    }
  }
}
node {
  name: "b_in/read"
  op: "Identity"
  input: "b_in"
  attr {
    key: "T"
    value {
      type: DT_FLOAT
    }
  }
  attr {
    key: "_class"
    value {
      list {
        s: "loc:@b_in"
      }
    }
  }
}
node {
  name: "MatMul"
  op: "MatMul"
  input: "reshape"
  input: "w_in/read"
  attr {
    key: "T"
    value {
      type: DT_FLOAT
    }
  }
  attr {
    key: "transpose_a"
    value {
      b: false
    }
  }
  attr {
    key: "transpose_b"
    value {
      b: false
    }
  }
}
node {
  name: "add"
  op: "Add"
  input: "MatMul"
  input: "b_in/read"
  attr {
    key: "T"
    value {
      type: DT_FLOAT
    }
  }
}
node {
  name: "relu"
  op: "Relu"
  input: "add"
  attr {
    key: "T"
    value {
      type: DT_FLOAT
    }
  }
}
node {
  name: "split/split_dim"
  op: "Const"
  attr {
    key: "dtype"
    value {
      type: DT_INT32
    }
  }
  attr {
    key: "value"
    value {
      tensor {
        dtype: DT_INT32
        tensor_shape {
        }
        int_val: 0
      }
    }
  }
}
node {
  name: "split"
  op: "Split"
  input: "split/split_dim"
  input: "relu"
  attr {
    key: "T"
    value {
      type: DT_FLOAT
    }
  }
  attr {
    key: "num_split"
    value {
      i: 128
    }
  }
}
node {
  name: "rnn/Shape"
  op: "Shape"
  input: "split"
  attr {
    key: "T"
    value {
      type: DT_FLOAT
    }
  }
  attr {
    key: "out_type"
    value {
      type: DT_INT32
    }
  }
}
node {
  name: "rnn/strided_slice/stack"
  op: "Const"
  attr {
    key: "dtype"
    value {
      type: DT_INT32
    }
  }
  attr {
    key: "value"
    value {
      tensor {
        dtype: DT_INT32
        tensor_shape {
          dim {
            size: 1
          }
        }
        int_val: 0
      }
    }
  }
}
node {
  name: "rnn/strided_slice/stack_1"
  op: "Const"
  attr {
    key: "dtype"
    value {
      type: DT_INT32
    }
  }
  attr {
    key: "value"
    value {
      tensor {
        dtype: DT_INT32
        tensor_shape {
          dim {
            size: 1
          }
        }
        int_val: 1
      }
    }
  }
}
node {
  name: "rnn/strided_slice/stack_2"
  op: "Const"
  attr {
    key: "dtype"
    value {
      type: DT_INT32
    }
  }
  attr {
    key: "value"
    value {
      tensor {
        dtype: DT_INT32
        tensor_shape {
          dim {
            size: 1
          }
        }
        int_val: 1
      }
    }
  }
}
node {
  name: "rnn/strided_slice"
  op: "StridedSlice"
  input: "rnn/Shape"
  input: "rnn/strided_slice/stack"
  input: "rnn/strided_slice/stack_1"
  input: "rnn/strided_slice/stack_2"
  attr {
    key: "Index"
    value {
      type: DT_INT32
    }
  }
  attr {
    key: "T"
    value {
      type: DT_INT32
    }
  }
  attr {
    key: "begin_mask"
    value {
      i: 0
    }
  }
  attr {
    key: "ellipsis_mask"
    value {
      i: 0
    }
  }
  attr {
    key: "end_mask"
    value {
      i: 0
    }
  }
  attr {
    key: "new_axis_mask"
    value {
      i: 0
    }
  }
  attr {
    key: "shrink_axis_mask"
    value {
      i: 1
    }
  }
}
node {
  name: "rnn/MultiRNNCellZeroState/BasicLSTMCellZeroState/stack/1"
  op: "Const"
  attr {
    key: "dtype"
    value {
      type: DT_INT32
    }
  }
  attr {
    key: "value"
    value {
      tensor {
        dtype: DT_INT32
        tensor_shape {
        }
        int_val: 64
      }
    }
  }
}
node {
  name: "rnn/MultiRNNCellZeroState/BasicLSTMCellZeroState/stack"
  op: "Pack"
  input: "rnn/strided_slice"
  input: "rnn/MultiRNNCellZeroState/BasicLSTMCellZeroState/stack/1"
  attr {
    key: "N"
    value {
      i: 2
    }
  }
  attr {
    key: "T"
    value {
      type: DT_INT32
    }
  }
  attr {
    key: "axis"
    value {
      i: 0
    }
  }
}
node {
  name: "rnn/MultiRNNCellZeroState/BasicLSTMCellZeroState/zeros/Const"
  op: "Const"
  attr {
    key: "dtype"
    value {
      type: DT_FLOAT
    }
  }
  attr {
    key: "value"
    value {
      tensor {
        dtype: DT_FLOAT
        tensor_shape {
        }
        float_val: 0.0
      }
    }
  }
}
node {
  name: "rnn/MultiRNNCellZeroState/BasicLSTMCellZeroState/zeros"
  op: "Fill"
  input: "rnn/MultiRNNCellZeroState/BasicLSTMCellZeroState/stack"
  input: "rnn/MultiRNNCellZeroState/BasicLSTMCellZeroState/zeros/Const"
  attr {
    key: "T"
    value {
      type: DT_FLOAT
    }
  }
}
node {
  name: "rnn/MultiRNNCellZeroState/BasicLSTMCellZeroState/stack_1/1"
  op: "Const"
  attr {
    key: "dtype"
    value {
      type: DT_INT32
    }
  }
  attr {
    key: "value"
    value {
      tensor {
        dtype: DT_INT32
        tensor_shape {
        }
        int_val: 64
      }
    }
  }
}
node {
  name: "rnn/MultiRNNCellZeroState/BasicLSTMCellZeroState/stack_1"
  op: "Pack"
  input: "rnn/strided_slice"
  input: "rnn/MultiRNNCellZeroState/BasicLSTMCellZeroState/stack_1/1"
  attr {
    key: "N"
    value {
      i: 2
    }
  }
  attr {
    key: "T"
    value {
      type: DT_INT32
    }
  }
  attr {
    key: "axis"
    value {
      i: 0
    }
  }
}
node {
  name: "rnn/MultiRNNCellZeroState/BasicLSTMCellZeroState/zeros_1/Const"
  op: "Const"
  attr {
    key: "dtype"
    value {
      type: DT_FLOAT
    }
  }
  attr {
    key: "value"
    value {
      tensor {
        dtype: DT_FLOAT
        tensor_shape {
        }
        float_val: 0.0
      }
    }
  }
}
node {
  name: "rnn/MultiRNNCellZeroState/BasicLSTMCellZeroState/zeros_1"
  op: "Fill"
  input: "rnn/MultiRNNCellZeroState/BasicLSTMCellZeroState/stack_1"
  input: "rnn/MultiRNNCellZeroState/BasicLSTMCellZeroState/zeros_1/Const"
  attr {
    key: "T"
    value {
      type: DT_FLOAT
    }
  }
}
node {
  name: "rnn/MultiRNNCellZeroState/BasicLSTMCellZeroState_1/stack/1"
  op: "Const"
  attr {
    key: "dtype"
    value {
      type: DT_INT32
    }
  }
  attr {
    key: "value"
    value {
      tensor {
        dtype: DT_INT32
        tensor_shape {
        }
        int_val: 64
      }
    }
  }
}
node {
  name: "rnn/MultiRNNCellZeroState/BasicLSTMCellZeroState_1/stack"
  op: "Pack"
  input: "rnn/strided_slice"
  input: "rnn/MultiRNNCellZeroState/BasicLSTMCellZeroState_1/stack/1"
  attr {
    key: "N"
    value {
      i: 2
    }
  }
  attr {
    key: "T"
    value {
      type: DT_INT32
    }
  }
  attr {
    key: "axis"
    value {
      i: 0
    }
  }
}
node {
  name: "rnn/MultiRNNCellZeroState/BasicLSTMCellZeroState_1/zeros/Const"
  op: "Const"
  attr {
    key: "dtype"
    value {
      type: DT_FLOAT
    }
  }
  attr {
    key: "value"
    value {
      tensor {
        dtype: DT_FLOAT
        tensor_shape {
        }
        float_val: 0.0
      }
    }
  }
}
node {
  name: "rnn/MultiRNNCellZeroState/BasicLSTMCellZeroState_1/zeros"
  op: "Fill"
  input: "rnn/MultiRNNCellZeroState/BasicLSTMCellZeroState_1/stack"
  input: "rnn/MultiRNNCellZeroState/BasicLSTMCellZeroState_1/zeros/Const"
  attr {
    key: "T"
    value {
      type: DT_FLOAT
    }
  }
}
node {
  name: "rnn/MultiRNNCellZeroState/BasicLSTMCellZeroState_1/stack_1/1"
  op: "Const"
  attr {
    key: "dtype"
    value {
      type: DT_INT32
    }
  }
  attr {
    key: "value"
    value {
      tensor {
        dtype: DT_INT32
        tensor_shape {
        }
        int_val: 64
      }
    }
  }
}
node {
  name: "rnn/MultiRNNCellZeroState/BasicLSTMCellZeroState_1/stack_1"
  op: "Pack"
  input: "rnn/strided_slice"
  input: "rnn/MultiRNNCellZeroState/BasicLSTMCellZeroState_1/stack_1/1"
  attr {
    key: "N"
    value {
      i: 2
    }
  }
  attr {
    key: "T"
    value {
      type: DT_INT32
    }
  }
  attr {
    key: "axis"
    value {
      i: 0
    }
  }
}
node {
  name: "rnn/MultiRNNCellZeroState/BasicLSTMCellZeroState_1/zeros_1/Const"
  op: "Const"
  attr {
    key: "dtype"
    value {
      type: DT_FLOAT
    }
  }
  attr {
    key: "value"
    value {
      tensor {
        dtype: DT_FLOAT
        tensor_shape {
        }
        float_val: 0.0
      }
    }
  }
}
node {
  name: "rnn/MultiRNNCellZeroState/BasicLSTMCellZeroState_1/zeros_1"
  op: "Fill"
  input: "rnn/MultiRNNCellZeroState/BasicLSTMCellZeroState_1/stack_1"
  input: "rnn/MultiRNNCellZeroState/BasicLSTMCellZeroState_1/zeros_1/Const"
  attr {
    key: "T"
    value {
      type: DT_FLOAT
    }
  }
}
node {
  name: "rnn/multi_rnn_cell/cell_0/basic_lstm_cell/weights"
  op: "Const"
  attr {
    key: "dtype"
    value {
      type: DT_FLOAT
    }
  }
  attr {
    key: "value"
    value {
      tensor {
        dtype: DT_FLOAT
        tensor_shape {
          dim {
            size: 128
          }
          dim {
            size: 256
          }
        }
        tensor_content: "\330\\\212\274\355\252\037\274\210\2124\274\256\263\270\274\007\321N\2745[Z\274\222\232;\274N%;\274\030@\216\274L1\310\274\212\306\347\274\263\226\232\274\237E\241\274\"\263\377\274\021P\244\274C\004\201\2742QF;\330S\005\274\\\353\276\274\330\305\231\274\361[o\274\254\332J=q\231\201\274@wQ\274=g4\274\307\200\376\274%.\"\275\220\232\354\273\241\355X\273\023M>\274*\366G\274\020o\260\275\003\367\243\274\242\214$\274\t\234\316\273=\275\276\274&\0060\275X\344\222\274\324^\230;\311I\207=K\2749=\365x\356;+\256\224=XU\'=c\240\037\276\303\317\352<\356\014d=\370\310\222\2753\212\000;\001\320\362\274m\305\026=C^\001\275\274\302\246\274\256&\014\275\376\372\272\274\037\217\025<\205\320\234\274\003\373P\273\\\323\266\274e*\013\275>Y2\275\302\236\007\275C\230\275\275O\347\n\276BK\222\273\372\345i\272\222a\003\273W\341\013\274\302\\\030\274\347\372~\274\222\226\344<c\314H\275=(\277\273\370\260#<\334H\305\274\235\276\021;\001\335\311:$p\217<\370#k\273\010\377\347\274\033S\301=lV\233;I\321l\273z\341g:\273W\341<m\207[\275\364+\210\273\377\350\355\272\034^\273=\240\256\035;\251\257\236\274\020\027q<\212(\255<\366s\366\273\016\325\265\271\266:\273=,o\376\272-\222==\031`\010\275\2146\037;\375\n\271\275\310Z\036;\223W\'=\264\355\270\272jy\333<S@T\275\223\311\266\275\361\373\251\2757\353\210<\247\277D=\ro\334=\010-\344<\343\214\355;\3339%\274\351\022\224\275\365\264\206\274VY\024\273&\314\257;\230\251\013;^\242\261\274\003\002\235\273\354(\365=\005\024\231\273\363\3603=\337\251-\274\365x\211<<\246\375\275Hc\n\276I\330c\274_c8\274\262\037\027\274i\372\215\274I\223\335\273\300\300\247\274\344UL\274\tQ8\275L\352l\274\305\327\235\274&\215\322\274\303ze\274,!{\274\235\372\301\274\200\375\206\2741&@\274E\277\331:G\3710\274\025\270r\274\231\264e\274S\213c\274\325\244\343\274\236\320r\274=\277Z\274\346\014k\274\016zU\274\331\003\002\275w\277\010\274\237S4<~% \274\003\321n\274I\035\246=\316\234d\274I\272\272;\370nF\274\014\367\270\274\275\321\005>\242\254V\274\003\037\205;fz_;\177[\261\274\026\351\333\274\002\237\210<\312\340\345=*\037\'=\325\205\223\274\212\223\231;\365\266\001\275\037\361^\275\010\324\265\274o\3349=7\305\305\274\341\0340\274\277K\206\274\021\230s\274\227\222q<\006)Q\274)\257\225=]F\242\2748~\245\274\256\322\220;\254\371\344\274\341N\271<\004kg\274\313\233\034;\356\201\205\275\323\032\007\275\203\202\276\274g|\306\275\350\324\002\275cK:\274b\307\344\274\265\014\232\274\037\231\341\274\313s\321\274@\215\302\274tb\272\274\273X\003\275\320&\275\274\3523\205\274\2713,\275T\ng\274\223\017\327\274\363\243\240\274\202]x\274\216d\241=Pc\271\274\251\276\250\274\355-C\274C9\r\274\343\0236\275\335\303M\275\235~J=\217\"I\2742L\350\274C8\243=Sh\250\274\022\324\231\274\t\357U\275\361\211^\274Fz\264=D=\233\274\201b\207\275\035\335\255=\007\361K=\261\202\016;k\203\224=W!\314=m\351\236=\221\310\301;\266Xg=\027m\010=\224\305`=\230\300\006\275\363x\224=\2716\000\275\315]\250\274\203\026\203\274\257G\201\274\302\177%\275\202\267\372\274\335\210\241<\207\221\233\274\362\026\'\2755\227\221\274\257}\031\275\277/\021=Q2L=\027zS4\246%T6h\321\2164\024s\2534Y\016\2244\006\263\000\265\252\266\3115\303\355\307\267G1\0215\366\251p\264E$,5\006?\334\262u\213F50\342\237\265\304u\202\264\262E\3124\177F\2216<MK\265:\016\227\265\302\271\2674kl\3104\371 G\266\351\317D\265\340\"\262\262\344\210\3114c\025\000\264\010\210\2726\0253\3005\013\301.7\237P\0304\\Qk4/R\275\272k \247\264\330\221U5\336\35215\337K\3456\317\321\0138\354\367\036\264\200\207\025\266Tjg\266c\tX\265\255#\2626\343\017\2515\244m\014\272\320b\272\272&\372x\265\025\316\2436h\275\302\270\017u\000\272;\343Q5\314C,6\372\226\2075 S\3303\007\331\177\265|]\3134\004\373\2765\331\'\030\265\023\007z:\317\271\2715p\004\2305\334\030}\263\203\020h\266E*9\270$\223G;r\311\r\267\334\341\003\266\241\221A5\222\345/\266\261.\345\271\276Z\3358\250>\2119k\324\2428\316V\2116\340e\0359C\003\2773\250\357\2666\262\346P\270\200\010\00161\345\3147\t\271\2306\211b48\2563\2728n\233\226\266\220q.5\371\314;6!\332\367:\317\360T\267i\204\025\270f\"\0068\211Y\3304zE\3236a\325\0027v\360\016:`\023\377501Z6d\215\224\274Y\030:6\301\235\2266\002\037U\266P8\0136Z\224\271\271Xt&6&\367r8N\277c9\216\014O:D\350\214:,z\010\273\241\225\213;\245\'\036<\241\372\0017\325R+:;\223\0378Q\023\251;\023\006h\266\377\225\2177\223\222M\267q\302\3146U\210P\266\210\257\027\266\'\3750\266\0205\3264\375\361\305\273\337\303!8{\024\314\273\"\"\n\270\333\267I7\355\022\005\267\360\375\023<\001\314$5\370\264\336\265\022q\315\263\226U\2174\340J\2515\254+\0136?\000\311\264\326\031\265\266\327\033\2744.Q\031\264\227>\3554\273\225\0244\214\363A\265l%\0324D\311\014\265\362\305\3324\277\343\2076u\027\2404\013^\2104\205\342\2354\2639\0025\311\224\2046\256fD\265\'\247q2Ed\3654\307\237\317\264\213\241\2416\271\202\2075w\260\0177f\373,4\206\335\2754S!\344\270\241\264J\264W.\2275\014e\3324\317\035\2516\222\326\r\266\007\031\037\263\230&\2216@\364\3666\177\032\272\267\0139\n\267F\347\\\272\027c\3636\334\'w\272\353\344\361\265PR\314\267\225*\364\270`\210\3668Z\365l5\371G28\343#d5T\273\2404\334\305)\264\231*\2464\244$\2435`\302+\264`\035\2627\315\377\2745\371d\0216\204Lf5\327\313\2266\252\235^\270\321k\343:\262\306\00458\tQ\267\351Q\366\263\032!]4u\203\2545\017\312*6\275_\005\266\371\312\00263UL5\017\312\3534\330\200\3374\275\000\0075\254\327\235\266g]\251\266#t\315\265\374\013\2204[\311!7\204\246\261\264\336\301s3Rm\3504\374x\3524\363\351\3036\265\230\276\265\003^\214\264\266 \245\264D\246\2764jl^5\376\004\3055\266\334\2174\263`\0164\233#\0025@\033\317\265V\300\2424\250\306\004\267\206:\2705\372G\2016t\202i6\357\032\277\263u\251\0028w\371}\267\324\232\004\266\213#\3545\016\356\2526\365p\2014U\351\221\270\317\260\2507a\"\2408\376\367S\267R\000!\264>\377\23153\347\2466\301\215\3055\001i\230\262O\2274\266\337\265\255\265P\254\310\270\202\323\347\264\244/v6\240\326\2205\031\230\0347\352\354\3344\306\327@\266\003C\361\2668\3642\267\364\266\234\272r\364B\272\306X\243\271\352\255\201\272:X\035\273\2745\200\273&_\251\272x\020L\273v\324\322\272:|\005\273\327\222|\273b\322\377\271\241\206$\272\370_Y\273\026\246\321\271\263\013\201\2727aC\272\026Q\256\272Gbe\271Bwy\273j|\212\272\364.\276;\221\212\255\271C\200\335\272\340\000\336\272BI1\273uv\256\272\320k\315\272\177;\312<\2613L\272`\263/\273\244\2014=\302\274\000\271\224@@\273\323\233\372\272h\025\t\273\261\274\030<\362h\t\272\024\230\257\271\022\3610<\'\002\031<@i\3729\215(\003<H\276d=;\270!\276X\361\034\2740ek<g\260\226\273\300\035z=\033\367g\273;\0377\272\272\243\266\273X\037^\272\rN0\273\243\371\340\272>\207\276:\240F\0058B\364\212\275\264\024\032\273\"z=\273|}4\273\224\314x\273\367\225\240;\333\357g\273U\260\301\272u~\020;g\'\230\272h\301s:\276\244K;\300\242\260\274\223*\377\272\005\024\007;\370\324\362:PI\3117\364\031^\273\240+u:\243q\223\273\341.,\273\210\211g:\304jo\273o\007\016<\241G\346:\335\2069\273\351\006\31492\212\240\272\004\264\316<\034\026\226\272\247\234\026\272\207{\254;\250\375\0357\207\332\256\2727\234w\272\3502\321\274\367k\001\273\330v\004:\360#\330\275\202\337\263\272.;\"\274\252qk\271\332\030L\272\332\014\277=CR\243\272\270\325>\272/\230\326\273K\311V\274\310\207\000\275I[\026>\3575\225<\365\307n\276p[\223\274V\263\007\276mlN=\325\311\033\274g\'d;\373{\234::\3620;*+\312\272\374.\245;r\264D;\275w\007\273\000`\017\272\361\272&>\251\000\367:\rsS<\030)\222\272\007\256\271;\227\352:\275\022\317\306\275\316\341\267\272t\230:\272\205c\244\271`\3477\272z5q\273,\272m\273\305?b\272\225\212\2567%\207\235\2723\345\026\273\311\336\022\273\2451\316\271\311\007\n\272\2748\331\272\r\325\252\271\203\231\227\272\322]):\244\\\232\272\2326\010\2719\001\223\273\3256\217\272\373\\f=\246\260\363\271\350\022\230\272\202\271\311\2724f\027\273\264\364\022\271\341\233$\273\211\272V\272\371\331Q\272O\2750\273\307A\271<\275\0079\2704\306\202\273\317{i\272\340\234\260\272\237\212$<\363\221\000\272\332\206+\272.K\001=\211\276\272\273y\224\257\273\274X\021\274\337M\206<F\357\024\273\026\304\274;\257m\364\273T5\212\274d\301\266<\275:.\273\366S\025\274\311\313o\273MP\014\272p\374\001\273\001\005\232\272\204\005\352:\206z\0249\032k\313\275\270\375\261\272\360\007\316\272\207\035\006\273\275(S\273\246!\3059\225FZ<}G%\273\002\241\r\273i\220\014\273\367\"\247\272\007\341\016\274\364t\334\272\007\357L\272\nv\'\273\260\354\305\272\266\3238\273t\301V\273\244\001\014\273\256\226+\272\030\235\216\273\025\n\355\271u\032s\272\232\035\262\272\362\024\266\272\211:\275\271[d\200\273\323L\233\272\327\177L<\237\201\021\273^>\010\273\203A\266\272\377^9\273u\030\262\272\323\2040\274u\3335<`\216H\272\2244\347\273Ad\231<\010\371\371\270)/(\274\236\301\334\273\351I\366\272\001\353\002<\230\r$\272\375l\227\274G\\\206<\004W\367;.[P\270\032\304t<$kc<\321\025\352<V\017\005<K7A<F\253\307\272l\376\217<\2149\211\273\316A\333;\343\224\247\273\036=$\272b\275\016\273\203c\004\273\306\013-\274\007j\271\272\372\232N<\2605#\273kQI\273\004\t\'\273\3407\231\273\010\254\3509\363\240\027\273=0}\273\201\246\207\272{\266\226\272\350s\225\273V\275\326\273!]\n\274\340K8\273\036\233]\274\353\014\217\273\220\215Z\273\002\216\035\274\034\207\245\272\274\007c\273\237y\001\274B\336y\273\211\r\004\273\333X\252\272\276<\341\272\031\344\354\272\372\227L\273\352\376\032\273u5\230<\034\316T\273`\r\"\273\315\'\211\273\225\346\233\273~r\210\2739q=\272\253x|\272\202T\307\272\314\371x\273\\\373\325<\257\311\347\272Z\224\236\273\3427\0209\335\261\235\273\205n8\274D\356(\273\325\037\370:\360\345\236<<\2655<\321\352[:\340\273\223<\215J[\274\233{\377=\307xn\272kw?<U\016\313<\214\324\345:\202.\254\273*\\\250<An\224\273\014\"\010\2731\036\246\273>\"U\273x\242I;R|\r\273\334\343\'<\264\274\320\273\203~\272\271\250r\211\273!\325\033\274^\202\361;\022\375\240\274P\010\222\273N\242p:\356\207\031:i\223\227\272a\205\267<\337\272\005=\242 \332<o\377\353<\007I\031;TW5;\254i\214\273f\013\205;\262I\307\272L\232\331:\210\013\235;\032$\202;\277#v\274\210\24718\351r\347:\227=\277;\177\r\277;\223dJ\275\351a\266\272\246\337\\;T\007h\274.X\333;\225]\t\274y|!<]}T=2%\20395\234\213;\001!\360=\364\034;;\364\246\315<\016%\252\272\263\225[;\300\324\350<\242\3764\273r<\345;\356~0=\343\273p=\360\273\030=i\341D\275qA,>\243\024\346\274\226\205\265=\215\213:=\022|\304=\237\nS\275\017\023t\273R\261\005\276P\027\023\274\243\233\311;\300\216\351\272\010\317\203\272c\205\300\2733\340v;\337%\024\275\235\201\230\271)\017\215;\206\026\317\273\035\206\034<\346\rx=9\014\024>\003\255\214\273\000\003\205\272\037H\223\272n [\273,\264\007\274-\257\025\274\241\002M\273\363\374\245\273\217s\\\273\027\316\030\273\254\256\343\273D\333\363\271\251\2714\273\267AV\273\202\034H\273\020\344\246\272\271\367~\273d<\316\272\347:\362\271f\257>\273\337\365\374\272\347\215\005=\237\312T\273\353\312\032\273\322\206\212\273\360A\207\2731\272\305\272V\266\004\273\217\337\301\271\266\302\315\272\003\"V\273\263\004\025=\340 h\272\333\221\225\273oQu\272\217\032\217\273\221\200\270<d\007\217\2721P\025;n\216\267<yHm\274\234c\004\274<H<<\331Z\236\274\331\215\212\273\262\372\265\270\021b\276<2=\002=\225\013\027=\323%N\273~\\s=\261]N\273z=\222\272>\336\245\273\020q\027\273\206\320\227;mK\360\2726\035\212=\2437\234\273\360\217Q\2727\003c\273kW\277\273o(^\274\335r\212=Bq\271\273SO\316\273\367\315\306\273\217q\241\273\353\310\303\274\306\336\037\274\334\312\'\273\027`)\274\322D\210\273x\3530\2734f\'\274\336\005\223\273I\330\211\273\343\341\030\274\273\313\253\273\312-\024\273\315\304\003\275\031\242F\273\034mY\273\'\252O\273{P\005\273\024\312\004=K\213\221\273a\"E\273=Nm\273\275\\\241\273\240\340\315\273\033\315\340\2734^\224<_&\316\272r\027\023\274\013\202V<\215T\217\272\205\270\204\273\325\367R\274\213\005\271\273Rf\320<\036g4\273G\037>9#\\\026=/\314\020<\204D\026\273\235\002\352<\227\307\234<\'6\236<N\237^;\252e\266<n\227\356<\236\271\032=\257e\262\273\013i\326<\356m\351\273w6\002\273\344\354\251\273\270Gg\273-\005M\272\371(\305\273\355a\006=\371\205\330\2738%\330:\034\257\251\273\nT\'\274\323\306\002=Q\213\353<\344)\331\273\351\006\363\272\024#\252\272\243\210\363\273\321\327\330\273w\366;\274\r\317}\273\257\n\376\274\3350\322\273\314\222\304\273\202\tL\274\312\001x\273\205\234\232\273u@+\274\375k\275\273\342\320\177\273Sq\340\272\322P\326\272\037\026\316\273{+\225\273=\233\227\273\303\347\247<\336\230\261\273\033f\205\273C\216\216\273\365\221\360\273\303\217&\274h\355\031\273T_\211\274g\035\036\273\323xn\273(\341\332\275J@\254\273\"\250\237\273\201B\210\272\346)\222\273VLZ\275\347\016\256\273\3014D;_\r\301<B\262a<\224\241u\273R\216\330<\204\332v<SW\224=\210\332\375:~D\232<\361~\217<:\205(=\004F\"\274)8\316<\267\237\n\274\234\353\217\273\267\214\022\274\271\310\321\273.xX;D\312G\273B\317J=\013z\003\274\n\346`\273\357\312R\274\021LQ\274\346\254\247<\254\323==\331i\377\273\204\302\355:V\t\234:\004\314(\272\370\3678\274\211\365$=\201m\204\275\022d\032\274\033\250\223\272\214\341\313;q`\260\273|Z\354:\276\256\007;Tj$<KU\002\273-\002\n;\231 O=i2\007:\027;\030\273\035^\t;$\0242<\364\374,\275Ag\334\272\025\330\323;}\214\255\273\362\256j;\255\367l\274\335\020\"<\245\277\036=W-\232\272\346e\204;a\3118>\226n\226\272\"\374\247<\302\211\344\273\363-\232;\277\372\227\275\363\356\250:z\225{<\337\326\233=\214I\241<\0104\\==n\2738?\004\305<\'\266\226=\001:\231=\301\r\201\275d\241\276:M\302\004\276\007\252\251\273\001\036\310=\301z,\274\212?,;\210\014\025\273lN!;\1778\366\2736\220\t;xS\331\274\006\232\227\273B`+\275&\262\353\273\363#\026<\3116\007\274\000\016\026>PJ\302\273\003\340\"\273m-\227\272\033\036\276\273\261\303\372\273\27320\274\332\315\217\273\253w\363\273\277\036\266\273^U\234\273\355\223/\274\206\362\024\273\205\273\210\273\014\347\267\273\031F\226\273!Q\021\273\025R9\273\241+\350\272L$N\273\242]v\273\333\270t\273C\306\337\274?\025\252\273A\'\207\273\325k\220\273\005I\274\273\263\334\317\273W\264k\273m_\257\274e\t\010\273\2256\204\273\267\260k=\365\263P\273\035\354\017\273\323\301\020\273\310`\365\273\026\341\203=\017\232>\273\207\243];F<4\275\366\2079\274\340\364]\2743!d\273\002N\307\274\r\006\256\273X\214.<\332\315(=N2+=E\301e<l.\313\273\241\357\330;X\312\305\273\031p\006\273\210]\325\273\270\273\245\273\000\246\273;\235\346#\273ed\022>\360\221\350\273%/\217\273\275\232E\273\326M\376\273\373U\253<\332f\266=\365\363\362\273\334\377s\274\000\177\'\274`\337\377\273\tE\307\270Gys\274\304X|\273\020\304Q\274\234\037\314\273?\262\210\273a\266B\274\340\271\000\274\027\217\307\273\335\362=\274I\210\355\273P\231\221\273\300\262K\274<$\246\273\206m\003\274O\207\236\273\226di\273\t\275\007=\035/\251\273\224\225\266\273\3305\321\273PK\021\274\231\255W\274g\376\356\273G\'\232<\360$/\273\323\027\221\274\344?\216<Bt\230\273\351gc;E\rz\274\205!\372\273\301\021\r=!\303\270\2734\214\320\273b\225\376<hH^<\004\360\007\274\347\031\027=\233<\007=\035\002I<\330\334\r<\270\371\352<\001F\360<\024\031\027=\230\034*\274\006o\366<\211\"1\274\300p\206\273\177o\333\273v\243\326\273\001\322/<vp\'\274R\013h=\257\205\t\274vaQ;c\353\334\273NE`\274\232\337\355<[/L=\374\022\235\274\312\3615\274\316\261R\274K\\\305\274j\261\200\274\017\263\231\274\037VB\274\025\210I\275\334u\216\274\347$\313\274e\351\002\2750\301\251\274\312m\252\274X\'\017\275sD\267\274\207\025\215\274\2702\177;\2626\016\274\261n\323\274!\307\242\274\316}\203\274,\301j=\317\215\213\2743\034g\274\235at\274\235\014\215\274V\3339\275S\262\364\273\310N\323\275\006#N\274+\227X\274\312\232*\276*\355\253\274r\273\027\274s!\344\273\3100\310\274 \022\246\275$\013\244\27425\301;\352\305\224=r\377;=V[\207:\236\230\237=J5M\275\236\327\030\276\224BB\275\200\001]=w\017\303\2745\252T=\033W\005\275^\3657=\257o\013\275\204y\271\274\350Y2\275u\005\264\274b\300\036<1\341\263\274\030\035\321\275E\002\315\274\370\273\327\274&}0<\035\034\036\275o\375\362\275\345\314\246\275L@\005\274\361\320\021:\317\275[\273Km3\273i\027\330<<\373\n\274p\311S\27426\272=\014nq<i\370\314<\037:\344\272\2022\221;\215\346\261\271<\236~<\252\204\201:\215\257\005\273\351+\021=\252\376\327\271\210\363\270:\333b\";\021\347\256<\007!\035>6E\276\273\356\226\221\272Vi\2117\364\035\327:\000\317\220\274\302Y\244<\206&\251=\231\036,<$W3;\344T\035>.\316\264:6\245\223=j\254\030\275\211\310\354\273\203\013-=7+\220\272\373\177M<\200\320W\275\374*\270<G\3542=\342\270@=\344\264L\275\033n\250=\022\201\321\275\354\335\274\275\374o5\275\3717\322=v\'Y\274\316\273\332\275zy\243\274\27134\272tM\265\273\311\313\030\273K\201\276\274\353\275\261\273R\t\272\275\260wC;M\351\177\275\216J$\274(\003\225<\364\251\256\274\030w\010\275\025\025\212\274{\310O\274\205\235$\274\223\330\233\274\351\260\033\274Q,\376\274\243\331`\2742K\372\274=\346m\274r\010\243\274g\370\351\274\224\252u\274,*k\274\027\346\330\274\377s\222\274\222\352D\274k\257\350;\025\2478\274\331\245\206\274\300\354s\274\366B{\274-\245\321<D+\213\274\341\364j\274&\036\036\274\303g\224\274$\027\026\275\001\303\007\274\236Z\017\276\271\342)\274\352rw\274^)|=9\017c\274\256\035q\274\247lY\274\252\305\253\274:a%>UNm\274L\260\304;\026Aw\275L\3216\275\275bo\274j\207\334\274\217T}=Z\231\320;\370T>\273\2441\017\275cT\301\274\337\024w\275\324T\307\274\255\273\332;\\l\326\274\216\030B\274(?\215\274\342\311\201\274\255\301\203<\243\351k\274y|\211\274\275\357\266\274\033\255\261\274uM\265;\371t\003\275\244V]\275\330\261\314=\334/\222\274\336\315\'\273\305\316\014\275\036\312\312\274\177\023\306\275\243o\017\275\312(O\274\317\227\n\275(Vx\274\373t\220\274\262\303\352\274v\243\315\274\351\\\301\274|\234\032\275n\276\323\274|d\224\274e\345_<\330m\254\274\004\246\354\274k\253\253\274\274\t\210\274*\t\260=!p\257\273\241(\334\274\252\030\355\274\010\201\243\274\253\360N\2758\323\275\274\313\255\001=\244\216\\\274\274\355/\275\007\350\271=\315\317\261\274\370?\343\273r\272\243\274\365\340\311\274\212=\311=Y\341\254\274M+H\275C\343\306=\266\261==\302\037\033\274:\211\217=\013\023\256=\253)+=\251a\t=\305mN=\327\374\277<\355\325\222=\r\037\024\275R.\222=v\376\001\275O\004\276\274K\231\225\274\212u\271\274\223\225_\275$o\t\275\342_h=\3517\327\274\306\254k<\325\325_\274\t\2222\275\000\235\001=\001\271\271=\375?\232\274\007\362\'\274gF<\274\372\346\277\274\337[)\274\302\234\326\274P\256;\274{\254\007\275&C\222\274),\300\274M\021\003\275\'\266\236\274\302\202\271\274>\027\017\275\306\345\261\274a\r\212\274+\362I;\314n\022\274\371\314\300\274a\252\246\274\227\246y\274\347$.=A8\210\274\251?k\274\303\206c\274\315\353\226\274\320\026/\275\320\300\372\273!x^\275\t\307C\274\352\274P\274\334\234e\275\343\202\251\2746\312\r\274j\263\314\273+D\254\274\354v\032\276\235\022\232\274\245h\272;\247\322\207=c?>=*\315^\271s\375\224=8(\305\2744\362}\275\004\202\216\274sH\206=W\353\366;A\201\276\275\261\273\376\274\274t\227=r\370\004\275\007\305\250\274vu\363\274\304\234\251\274N\261#<\204\221\251\274\032E\241\275$\216\277\274OX\256\274[)a\275\031\321\023\275\333\366\316\275\227A\260\274\253G\335\273\3609\253\271\253\r\230\272\311\233m9\333^)\275\031\277\344<\227\"h=n\335\312\275\271R\373;!\302\262;Y\034\277;\370\302S;\210C\304:\342\313\214<\223Je\273\214\277\270\274c,K=-\245\242\273\027\213$\273\304\016\270:\327F@<\353\217\373=\204\360\261\273\301\002\371\271\217\341\304;N\254\243;\037\216\242\274\303\306b<\373J\000=D\003\030<\377\332\322;/\001\204=pm\364\272\221\203P\275\206\350\n\275\221\'5<\265\000\330=R \022;\370-\266<n\n\221\275\324\332O\274=!\237<\250\243\277\275\310\216J\275B\324\243=\302\234\354\275`\021\265;v\322\317\275p\315v\275\251t2\274\2178\320\275\222\017\205\274\240\037]\2713\333\000;\337\367\247:\322a\301\274\267\363\237\273:\343#\2769S\344\272o*\314\275\226/I\274C\374\217<\201\351\315=\213l\330\275\313N\206\274\230}F\274 w\016\274kJ\227\274\327\275-\274\245\276\005\275\343\304_\274-\000\034\275\343C\207\274Ix\227\274\020\253\350\274?\024d\274{z\223\274\225\236\316\274\3656\223\274\321\004V\274\232\275\025;P\2120\274#El\2744\217{\274\tbf\274a@b\275e\247\204\274\t\001g\274r9Y\274-\240`\274\251\254\010\275\023/#\274)\237\331\274N\247%\274\320Zr\274\266\320\000>\010Tp\274\225\375\025\274?\270I\274\007\002\211\274j0\315=\231\363^\274\232j\243;\031\177\266\275\tf\373\274<\242\341\274\272\215\000\275\373\352Z>\r\310\272=\024\220!=\330\370\327<\031\234&\275\245$\000\276@\177\273\274\350\251\375<\371G\315\274\224\036@\274\016A\242\274\357\276\205\274#;\205<\233\330e\2744n\022\275\007A\261\274\371\204\252\274}\220\333\273 /\367\274\006\277h\273\245\016B\275\326w\342\274\ns\243\274\236\275\331\274M\347\303\274\241n\370;\266\234\006\275?uH\274\350j\331\274\267G\204\274Z\023F\274\031M\345\274\337#\324\274\334\352\313\274\036T\022\275Q\367\313\274\025/\216\274pg\274\2747\271\203\274\257p\332\274O\274\256\274\255\202x\274\0351\217=\177\377\004\275\030\014\230\274\301\005 \274\037\256\030\274\274dF\275\376\373\222\275\274\267\026=\261\270K\274\260\216\231\275u\003\274=\325\211\252\274mi\264\273p\252<\275%\303\312\274\235\300\302=KR\243\274\206\031!\275\271{\213=\016\252A=\315\2667\274wf\237=t\022\271=p\224\335=\245\257\271\274\240N\236=B>\353<\303\340>=>U\014\275<\315\215=\001 \014\275\335\321\262\274*\274\253\274\t\017\252\274\255\366\236\275\302\020\001\275M5\226=Mb\300\274)\005\023<\216m\316\274\214\032&\275\214\017\023=s\350L=\343V\241\273\316\232\246\272\377S\242\272\221\235\274\273\277\016\323\273\224\316\033\274\tXO\273\016\246\241\274\201\034\244\273*\311\221\273\214\362(\274\336C\n\273\330\000\204\273g\017\024\274L\020\224\273\340\006!\273\352\246<\272i\017\341\272\226\352s\2732\222a\273\303\"$\273\213\\\217<rZ\205\273:,[\273\002m\200\273\177\204\266\273u\223\350\273\013\370\334\272/\335\247<\246\302\344\272\341;`\273h;g\275\003P@\273\223yX\273\021\021q\272ZU\242\273\376\023r\273o\357`\273\261F7;5\270\234<\r]F<\330\211\203:\373|\277<JU\350\274_\264\004>\253\325\326:\205\003\257<\362Q\002=\266\272\001;\240S\345\273\243\306\221<\013\027\336\273\314\241.\273\374&\302\273p\253\223\273\215\014E;\373\341\017\273\330\360\367\274\270\021\335\273\211\273\334\272\354\364\t\274\346\262#\274)\013\005=\270{\027\275\373\365\270\273\241\250=;\302\025l:\366\177v\272\204`\022<\215k\207;h\306@={\353\317;\206\031\330:a3@\274\337w\032\274\353\014I;r6\202\271\261Y\246;z<\252:\265\376@;\366\272\344<\375\270\307:\377\263\3659\323ml;\264cI;\262\"\231\275\373$\372\272F\234\250;\2157\027\274\200\177\247;?\312,\274]~ <\332&\363<\217~\3739\340\211\212;iV\034\275[\371\327:\263f)=\360\316\'\273\0268s;{(\223\275\205\232\316\272eS\213<\366\366\262=\366\375\246<\214A\324;Y\240 \275\3317\277=\276I\217<a>\220=\322\024\246=*|\315=\260l\000>\215\357\226\273\247c\362=Vj\017\274\303\264u;t\223\232\272\016WC:\207\245\331\273\270\251L;\351s\236<\302j\025\273f\014\257\275$R\273\273+\231*<\351\370\312\274\016\373\263=\336\355\240\273`F\326\272\017\267\204\272U\341\220\273\007\304\364\273\341\020+\274?\330g\273\001\235\n\275\233\361\205\273\0224c\273\002\233\010\274w\312\211\272\316\337S\273\013,\216\273nFj\273\363\341\313\272\031\361\006\273\230\014\337\272\243\337\302\272\304>C\273fZ\020\273$\213\342<\311\317\202\273\035=[\273\224\371v\273He\237\273\222G`\273<lR\273\014\272\006;\314\010\316\272\032\025N\273\371\013\200=n\373\310\272\026\203\213\273\n\323\346\272j\334\241\273_\264\032=\005\325\321\272\313dh;\021C\324<\256\026d\274\\\030\001\274\031\366\\<|\032R\275\303\207\263=\222b\022<J\302\305<\321\207\017=Ll~=\373\260\213\273\376\207\350<C\014\230\273\'\017\250\272\321\320\266\273JHd\273\370\323\250;#\366\347\272&\'\014>\236\267\257\273Q\254&\273\236Ry\273\016}\277\273\246(\235<I=I=\347l\"\274\006\225\023\274\036\313\362\273-\373\311\273\204k\307\274x\324H\274\005j=\273\356;(\274\206\330\234\2732\255L\273\222\325*\274bq\306\273\\\264\263\273%\230$\274x\324\304\273}\317>\273#3\007\275\035H\205\273p3\253\273\n\\l\273\332}\022\273\323\326\010=\205\356\247\273\010(}\273\"\013U\273l\232\276\273\224\257\034\274\332m3\274\273r\276<\036\027\367\272\352\000G\274\370|p<\310\002\"\273\030\256\375\273G-\213\274\220T\321\273\017\207\351<i\333y\273\200\007\023\273g{\013=}\341\'<\340k\244\272\370\350\t=M\010\355<\324Z\331<\354\306U<4P\360<T\230\001=\274u(=y\252\356\273\033\'\306<\350\304\025\274\361\310\031\273\030\321\274\273\3565\236\273\332\246\332;D\272\367\273D\234#=G\273\342\273\033`\177\272\350d\275\273\303\260*\274G\324\021=c+\037=xT\232\273\372\371\244\272;\301\257\272Ns\233\273\341\200\362\273o\372\321\273H!J\273[e\312\273\206D\240\273K\304\277\273Tw\023\274\251c\004\273\307\"\246\272\0016\023\274\024\201\014\273\230C\016\273\314OW7\367c\006\273\250\221\025\273\235C\246\273\236\007N\273\313\321\001=x\306R\273\324^|\273k\204d\273V\034\267\273\016\366\333\273?\345m\273$\347u\274\375\"\360\272[\307\260\273\375\321[\275\200\337\360\272\227\225\200\273x\260\2519<S\317\273\016q\221\275\257%2\273\262zt\272|\326\335<\314M\231<\217n\215;)\333\220<\023\350\020>\034\016\013\275\356\267\242;\346\031\204<\235\232s\274\314T\205<\300\246\005\2746XU<\273\254\t\274N\030,\273\245\342\264\273\316\273\231\273\224\321\034;7\201\030\273\2252\016\276)\376\332\273\271\035\307\273\356\302\373\273\000\334-\274\213\352q\273\200Q\004\276\314\204,\273\347\037\245:\310\\\024\272k~\376:`6z<\215\3225\274\322\223[<\356\247\254<\267x\020;\226-\031<\365(\225\273\024\321\0249\013\265N\273\202\367*;\016\317^;g\031\036\272f\363\222<\213D\357:\236\367\007\273\021#\2449^\236N;\240\233\277=u&\2319\016\335\372\271\235\301#\273C.!\273\255\266\345\273\276\370C;\356\2066=\352\243\010\273\022\365\026\272g\334Z=\252~\245\271K\243\301=\337`j\273l\2243:\000*%=\204\345Q\272\265\n#\272\304M;\276\371\265\207=\032\355\313\272q\233\234=\026\n\002>\034R\316\275\330\036\016=b\231\263\275Ed!\275\223<F>\252\341\266\272z\237\270<\251\227x\273\253\332\335\270pn\260:\374\3267;1Y\221\273g|\004;X3\027>\023\262W:\302\033\367;\235\032\211\273\002\3155<\n\345\267\275{\360\000>\237\004\225\273\246M\302\272a1\247\272\276Ch\2736\201\030\274\020\272\006\274E\361P\273\222P7\275(.\213\273\010\215\243\273M_\355\273H\311\251\272Z\347z\272\253v\211\273\006\224\276\272\333`\005\273\334\243\241\272\220\376\317\272\261\373Z\272E\243\303\273\256I\036\273\271*\204=\000\311U\273\352zo\273\026Ub\273\021W\242\273,\311E\273\336\031\254\273\341\350+\275\274Y\374\272\254Q\231\273\333\000t=\\K8\272A\235\253\273L\326\213\272\014\361\302\273Z\010\035=\'\376\212\272\254\276/\273\324\024\272<g\200T\274\377\341\354\273\231\354y\274\315\310D\274\316\336\332;WC\353;nD\215\275\313\246*\275\313\376\023\275\202\322\255\273\2770\342<\355\361\277\273+\370\272\272Q\265\302\2735\210s\273\003\364C;\025J\346\272hv\352\274\000\023\254\273\377\313\247\273\325\204\253\273\356\355\373\273\350C\214\274s\003\261=\334\311\327\273\247\350\347\273\200\335\345\273\254\304\254\273\245,\206\274\330\030\373\273\006\320#\273\233~\n\274\007\301\230\273\233~\272\273\360\341\025\2740\035\270\273\261\222\313\272\213!#\274o\2112\273\341\362A\273\206<\272\272\2155{\273T\013e\273\327`\252\273\226\003(\273\224\356\034=\321b\255\273\274\304\201\273\306]\016\273\323\226\277\273m\201\005\274\304E\217\274G\264\355;\343\005\371\272X\307\204\274\023S\342<\267\351\345\272\225XG\274\"\313\223\274\010R\362\273ib\276<\301\327G\273\204\236\367\274\210\364\017=\324\367\204<=b\210:\246\235\352<\342C\314<\014\323J<\271~\274<\206\235:<\257\350\307\273\225\312\372<k\001\013\274\330\027\251<\030\365 \274\\\033\024\273\276 \325\273\351\247\237\273\333\035\210\274\367q\332\273\346\334\307<\017m\335\273\314\224\013\274b\247\263\273\026\004C\274j\272(\272\377\307\t=\373\'\227\274\315M\035\274D\255(\274\t\017\267\274f\220?\274\234\311\000\275B^:\274\251\203\301\274\034\240\221\274\363B\241\274!<\001\275\242#\225\274I\340\253\274\032\302\006\275\255\325\250\274\345\322|\274\347\324\363:\321Q\002\274\037\007\271\274\301\035\233\274j\026g\274m\314E=>\334\204\274,\236S\274\021\355E\274y\002\237\274\340\326)\275\351\307\352\273\226\201\217;\276,4\274|\2139\274@\326Z\275\337Z\237\274\337f5\274\2569\275\273\337s\244\274\353\206\302\275\253\345\222\274\237\306\330;A\037\207=\035\232,=\363\2764\273\260\235\227=Wl\261\275U%\002\276\200\234\207<.O==P\357\334<1\272\013\275\230n\364\274L\247\"=;\241\370\274\026\257\236\274\340\024X\273=\246\247\274\327M\036<iy\236\274WW\341<z\216\274\274\333N\233\274Gid\275\352\022\021\275Li\004\275\310\316\277\275\234\3720\274\267\343\022:\354\024\241\272H*\257\271\220\033r\275C35=\202\364a=\347@\222\275\303fB\274\276\037\313:AO\213\274\026\357\222;0\336\014;\322A\215<(\313\021\273\016u\212\274\031\205v=z\206r;\013\316\256\272\320\273=;\355\226z\273p%\341\275\200H\276\273\\\347\t;\233(\2679t\314\256;yS\241\274\310k\235<\205d\352:\335+\225\273\2673\367;\254Yc\275c\201\254\271\314h\337=G\021\016\275\360\004\006<\301\372\313=72\321:V\t\026=\246\010\003>mj\350\274\334\317\267=\024\364\333\275\215\314\364\2754^\212=z\031\023\275 \230\236=b\037\256\275\262\034\214\2743\353I\274eE\017\274Q[\236\274\331r\242\271`\236\201\272\316\252\232:*\346\274\274\036]T\273\351=\201\275l)\t\274\232\265M=\341d\037\274\220Z\241<\325\340h=\252\235\225=(\032\204\274-\332;\274EE\001\274\231\231\220\274\203=\304\274\006C\270\274\357\346U\2747\037:\275\303\364~\274\307\300\203\274\t1\346\274Y\376M\274\033\306\210\274!\372\301\274\000\010\213\274\315~9\274\006.\000;\027\340!\274}6a\274\264th\274\276\\V\274\212}\316\274\357\010|\274\321\347X\274\177\375P\274`\366\234\274\255\320\004\275\327\250\021\274/\315i\2736#\026\274<\020R\274\2020\004>dU\\\274\225\2407\274\355VG\274\256\270\210\274-s\245=\255\205O\274\037\246\337;\356qV\275\201Q\020\275\252\311\311\274\317\251A\275\232&\254=\031\2315=\234\243N\274\\\337t\273K\234a\275\343\252A=\333U\261\274*\224q<a\016\277\274\226\346.\274F^\233\274\007B\201\274\246\242\205<\250\364Q\274\334\025l;\367\371\251\274\305\216\220\274\361\250\333\274Q\322\351\274\330\306\205=\314&\303=\257\337\365\274\246W\365\274\251\221\307\274\203a\276\274*\375t\275\022s\002\275\037\210?\274\205q\000\275\217+\225\274u\261&\274\316\264\344\274o\221\303\274#>\300\274\253\215\007\275\373\300\303\274\233\033\204\274\306%\206\2759\300}\274\260\034\322\274K\276\243\274\301\217f\274\265\374\242=\030{\246\274\0258\205\274\025G\006\274FP\346\274a@@\275\252\0057\275m\3241=\346\246<\274\206\3618\275/S\244=\301\372\240\274\227\224\220\2750\204\224\275\033l\266\274?\305\276=\021N\233\274p\332\036\275\037f\236=D;0=\315.4\274>Q\304=\322\320\264=A\232\223=\316\312\204=\264g\273=\333\207M=q\317\314=\300_\006\275%C\223=hg\005\275\275\200\245\274w\245\226\274M\306\240\274!#S\275\231\231\370\274\311E\212=V\177\274\274K}\372\274Z,\240\274\220\335!\275m\216J=\246\330\255=f?\212\274{\321\006\274\007\315\356\273\3333\241\274Z\2602\274@\270\310\274\014|&\274\n\357\035\275\346\332\203\274\020/\223\274\'(\347\274\360Xy\274,\000\200\274r}\361\274\247\320\216\274\233|R\274*<\\;Q\350\305\273\370\232\243\274v\"{\274\231\331M\274.\306\031=J^n\274(\023B\274\211\3102\274\022\356\230\274\234\262\033\275\374<\360\273\334\355}\274\'\237\021\274\332\201%\274\027\233[\276{\324\203\274\202*9\274\203\225\210\273:\177I\274\205\001\263\274\254\310\200\274,q\313;\272\246f={I\023=2\372!\273Z\244\206=CS%\276$\014\262\275\362\335\275<W\204e=#\366\204\274F~\200=\206\213\337\274\313l8=5\367\341\274\216>\200\274O@\373\274\361\200\211\2741\247\010<\020\305w\274Gr\217=\263@\247\274\025C\200\274u\223\007\275\203\234\006\275I\024/\275\032\204\260=\031\035\362\273bq4;\254X\325\272d\\A\273\316\346\036\275\260\251\036\265i^W<\002\013\264=\223\007\231;\354\365\202\272Yf\325\274\215\224\255;\302\374\3659F\017\203<\000m\234\266\220\034(:\250\3641<\276\225/:\325^\2469\223\257e;\361\310\224\274\313\375/\275\337\376w\273a\323\214:\033^\223\274\376r\244;\243\243\214\274L\212\217<-\230\267\275\017\031\315\2720}\247;\242\356/\275R\271e:\231\270\273=A\266\007\275u\261\260;4\000\243<lo\314\271Tm_\273\224\310\205\273\032\315\233\273.\031\251=8\007)=\251\370&\276\355\310\321:vq{\275B\336\361\275\232;\277=\310\262@;\333tP\274t\254\340=\311\222\241\274\237\252$:)|#;l\014\3539\363Q\244\274R\006@\273N4\001\276\314\217x\273\263I\277;\323E\372\273U\327\250<:s\260\275\034\022\251=\351ms\274\321Q$\274k\271\273\273\3622\177\274\261$\236\274\356=\301\274\021\335@\274\006R\235<\300\313]\274=\275y\274\022\314\317\274\335C(\274\375\212<\274\353y\250\274\'s`\274\323\314\r\274?\271R;\204J\365\273\n\241B\274\306\r?\274\005\0057\274\311\240\310\273/\277b\274\020!D\274\275F\035\274[qf\274\006\236\355\274\341d\034\274\364\315\254\275\321i\353\273\264l=\274&M6=\311\316\'\274\0208\244\273\3371/\274\005\026n\274\213\370\265=\217X,\274\022\303\323;\021j\350\274\002\366\014\275iT\220\274\227\326\003<\330\265$>\260J_=$\360y=\023\021s=\250\374\017\274wf\033\275pb\240\274p\006\216<\2544\252\274h\020\010\274\341L\216\274\351JT\274\2358b<\030\324 \274d\017\234<O\205\233\274\000\'\207\274G\272\335\272:\375\314\274\017\215\225;\034\264\030\275\2005\326\274K\026\014\275\314\262\340\274l\010\247\274s\330\236\275|\177\006\275X\022,\274K\261\312\274\325g{\274\233OE\274BP\316\274Yb\257\274n-\230\274\241\372\363\274\024\017\250\274\304\273j\274|\223\013\273\004\034r\274,9\274\274c\n\205\274[\270<\274\023n\204=\2069\264\274\035\310\036\274~h\271\273]\374\017\274\212\3371\275\273\221\216\275Q-\034=\315m\033\274\355\ts\275\376\020\234=c\255\204\274\334\337\336\273\265H\342\2746\372\214\274\372\217\251=/=\210\274\355\375\367\274C\007\223=Cz\014=,\227\035\274\313\253\241=\375\016\306=[5\215=\316\313\224=\375\203\225=\r\330\016=Idp=\256,\370\274\215\254o=\010\323\352\274\257\234\204\2740\230\217\274yH\204\274\2274O<\214.\332\274\005\335T=4\303\251\274\203/8<\214B\223\274l\375\025\275\031\371\026=\250\350>=P\213\231\267\264\r\246\271tP\023\2715\000\273\271\273\222\r\272\217\244\r\273\rf\000\272<\374\3509\230\010P\272\334D\023\272>\244\302\272:\261\3467\010e\362\267\202\373:\272\361\014\274\271!_H\271\335\237J:\004s\324\2707C\352\270\265\271\013\271\374\226t\271\345 \241;\r\226\032\271@fP\271\007\271\025\272\001\366\210\272\314\017\265\271\231\024\213\272\232\253\221\273\245\231\211\271a7\236\271\360\230\022\274\257\211)\270\371\205\266\272\215:Z\273\212\024\312\272-\361\201\274\360\230\372\270;&\32796HS;\001\206];VQ59S]\266:\346\0274\275\3619\206=\361\336\207:%\351=:\243\316\324\271\362\304\245<\004\206P\272L\235\353;\254J\230\272E\266\021\271fS\251\2728\370\312\271\010B\371\271\307\\\233\270\327{\276<\265\034\'\272\256~*9pQ\305\272&^&\273\263\200\275<\373\371\303;|\321}\272\005Qf;\330}!\273\342\324v:2\347\316;\025\337M\273=!v<$\255\204;\256\353T\270\326\305\210;\332\331<\273R\207\26385R\201\272\215\240J\272UG\023;\020\337\235:Y\361\030\272\344\231&\272\'*\3038\304&\302:I\206\032:B)C\273\251\307\3017\362#\003;\005EM;\305\333\"\272Y\004\247\272L\355\265\272\260\365?=\304\274u\271\n\001\251;1\0275\276\257x\266\271z\345r<A\275\223:A\341/:\213e\r\276\221 \320\272\236V\006;)\352\244<#H\336\274n\363\332;\312\214\365=\356\030\264\275\010\303\242\275>\375==\235\271-\276/\007\236=\263\373k=\200\362\243:\t\204q<\225W\177:\303\351E\272!\322\337\272d@\221:i\317\3639\230I\354\272\375N\305=\334K\314\270\300KR9@h\242\270\206\'\235\272\360N\212\275\0073N>\235a\3048J\034\215\271\020\3523\271\273\270f\271Hq\013\273>{@\272\2223\347\271N\014\302\272\327\226\365\271\264\303\352\271\374\315\205\272\332\336I9\363\324u\270\026\305\021\272\245>\363\271\377\377\216\271[\\\335\271\321\263\027\271\n\256\021\271\246\377v\271\333\315L\271\301{\220\274b\r\030\2716Mg\271\336P\353\271\317\222&\272_\016\251\271\250J\205\272\242\216\370\273\023\355\241\271\223b\335\271\035T\360:\376\320i\270\320E\221\272\371\021y\273\237<\277\272\257#y<\350\314\\\271s\237\026:\341X\216;\017\235\263:\336p\352\272\313#\265\273\226}\203\275\254\333b\275\307G\177;\rM{\274\322\365h\272\341\247\214<\016\355\026\272\261\204{<uUh\272:}\27667\226l\272\313$\245\271I\3562\2717\211z\270>\301M=o\235\235\271\252\025\023\272P\256\234\2729\330\355\272\251\207\224<]7\226=Ia\\\272<\322\032\272w\377B\272\200\324\276\271\237\377\210\273L\2132\271\331\033\216\271\035\021\200\272\236dR\272\300\212s\272|\356\303\272\307S|\271\366\371\274\270Amq\272n\372\304\271\272=V\271EgS\274\350\243\'\271bK\302\2714\357\017\271\005\262\204\271\2622\227;\000\2160\272v\336\240\271\266\301)\272i)\241\272\"b?\271\320\256x\273\314\276\2579\016\023\206\271.8\355\272]4\321:\337\273.\270\364\352\214\273\022+M\273\353\177\366\272\004\001/;C0\026\271w\216\323\272\342\340)<\032\033-;\236\316\0309\267\003{;Z\311\222;O\274\356\273R\340\007;\311m\316\272\035*\360:\022g\233<eCk\272\231\260\217;\030w\257\272[\220\004\271\321\225\372\271\317\024\317\271\277\357\271\273\232\250$\271\235\363:<7\223I\272\313\350\\9\265\327\272\272=\246D\273\236\006\342;\300\335\243<\340\256\036\270\250Lb\270\334\224\"\2708\233\3467\302q\342\265\354\254K8\334\373\3266\353\240?\271 \201\0015\024\273\352\266>\330\360\271\372\010\2478R\022\2677\246L\263\271&\273v6\221\342\204\267\333y\3179^\330\2707\233\351]8:/z8I\227\3766\230\000J9\251\237\2326\r\363\3756F\345\321\270\241B\3458\354\266y\2714V\240\271E:\t\272\300\t\361\267\330\341\2327\310\273\212\273)\252\3217W\242\247\270\237\241\025:\025\340\2237\004\345\313\2712\365\000\2708\177\2478\301\203\2438\273\203\t:r~\2108\237c\203\270]`\356\273\03016<\2423\2009\241\220\2429\377\202q\272\310\25238\'~\3458j\206Q:\004c\0247\366\311\3747X+\324\266H*\262\2671@\3137\221%;8BRD<\017J&8 \214\0029b/\2258p~\304\271M\236\372\272\232\333_<\216\342I9\014\334\260\272`\025\240\272\r\\\024\271\230\343Z:\335\347\236\270\005\334\233:\316\027(8\017\227\3319\224\017\367\270h\034\2469\250\016\001:a\201\3427[3\277\271\226\231\2549\324\271P\270w\227f9\240\371\375\271\223\371q:Z\250\3119<\026S7\231\204 \274g\365\351\270\301|\027\270\261\022\232:C\313[:\220\327\0049(0\213\271\372\342\010<\3162V8\245(M9\037\365\033\274}\3743:\3026\2538\300\031\2239Z!\2428\273\336\341\273@a\344\271u\373\0039\306\345\t<\225\306\323:\347k\037;\275\255\352;j\2555=p&i\274\365\313e:a\355h;\205\201\034<\303t\227;(\216\352\270\3374]:\034\n!\270\272o\0079S\255\032\272]\204\260\271*^\220\270+V\\83I\236\274V\336\2447s\323\r\273\331z\253\271\367\340}\271\236d\264\273\376\242\022=ZR\233\267\032\t\216\267\372\010\013\270\025k\3127m=\345\266\201\362\2257\207\246\207\267\373\315\2047\234N\3117\000\256k\267`\303g\271\201q\2328\261\007\2117C,\006\271]\266S6P\234\255\267gdw9\240?h8\302\302\0177\243\322m8\3350\3777J\025Y;\375\031c6\"\317\3256\236)\215\270\"\271\3318\310\304\346\270\013{;\271\317EC\271D\315)\270\360]t\270\364\253R:\360\366\0048c\037\247\270\030\252\014\272)\277\3168\277\260\230\271rP\021\270\265\345\3658\027\367\024:\343\255\2639\361h\01793,\245\272\223\333\276\273\314x\302\272\250\351a:8\261O;\354\352\0367\014\342`;\332\017\2559\317\224\361:\332N\2167\237\001Q7\274JR\267$\275\224\2671\267\3228\031$\0357\325d\002;J\321\0178\347\235\3268#\354\3358\215I\251\271\313\202\225\272n\2758;T}\0248\300\331\326\267\256W\242\267hI\0068\221\307\334\270\232^B8\353|o\266\2700<7\212\030285\\`\267\317z\332\271\203}[8F\345\\7\004s\017\271\277\327\324\266\272x\246\267\224m\2278\020\371\334\267\225{\2266\301\361^8\371s\0208C\376\3249D\252\3356\370\313L\270T\273\336\270\206\226\3048:6\227\271\033h\2138\252\3223\271s\342\007\270\246\351\327\270\323\315\3129\351o\2178\025\261&\271\317w\016\271\227\224\n9\375\335\016:(\261\023\270:\373w9(\004}9\335\373\2519<\274\0319\215k\0249\344xS:\237-\2459\330)\245:\t\013;:\350\263%\271\274{\346\270ro\23599\007;:G\365x8o%\0008{\251M\267\256P!\2669\336\033:\214e\303\267\2070\3669q\316\224\266\247\025;94\360\0229.\215\361\271\203\272\035\272)\031\326:\3778\220\272^\377\t9\360I\263\270\315\234\001\272f\'\243\272\276\316:\272\263\02199;g\370\270\210q\353\272(\342\214\2724\276I\273\034\014I\271\021\371+\272\335\316\027\273\253r\242\271\337y\367\271\244\311\2459H\234\2479hha9\312a7\272\205\013\257\271&?\354:\347)\2107\346l\t8\352\300\021\272*Z\254\271Z\371\221\272}\242(\273\362V\272<\232\205\250\270\215j\035::\021\325\274\360\221\3168\014\271D\273\313>>\273\010\230j\272\312\037\'=wS\205\271\2165\2628\224<\217\271\315\177~;\331\032n\272\326\024\326;\305\332\215\275\226\264\375\275*\217\365\271\304\3754;\n5V<\225\252\223;4g\035\273&,\363:\216f\240\272\317O\035\271J\370\3268\036\257\310\271E\364\2759,M\t8\337\376\341;O\'\305\272\207\370\"9n\233\230\2725\017\363\272\275\237\352\273\343\2378=01\3337\210\341\226;Bwy\273R\260\027;c\027!;\t\032\305\273\037U\227:Z\243J:$\2643\274\365_\235\273\216Hn:\016\247\326\272yS\252\273G..\273\246\002\220:\306?d\273o\241\3129w3\302;#\263\315:\300F\001\272U`K\273\304|\357<\246\001\036\272\313\020\";\004/k;]\374A\273DND:#\353B\273\264\214\223\275Pb3\270$c\200:>R\357\275l\365\3539\032\320\360\2722\230B:\216\036\274\273\314\375\267\275\024\365\227\273\005\021\247:\201\233\263<vk\211\274#J\363;pz\036> \006\031\276\272\315\372\275_-\341;b\256w\274\264\237\214=#\353@=\000\364_;h\374\370<D\251\003; \3735\272\270C\r;\252&\254;Q@\256\2713\037\213\273N\273\'=-\257\232;\332\327;:34$;\020\201\2448\210\332T\275y9\350\275B,P\272_\254\210\271\340\023S\270|\232\312\271\027\272\251\272\332\320\r\272\223\332\25590\322\226\271WF\303\272*\2113\272\342\021\376\272\016\3042\271\353\266\367\271\207\372\322\272\002>C\271Y\377\366\271\237\342\3509R\210\324\271\326Vi9u\0254\272\3578\204\271\t\027$\274\253\257\2347\214\315Y7w@\345\271i\237?\271\335\013\325\271\001\032(\273\375\265E<\320 g\270\236\301\010\271\027\000\244<rX\2508\233C\206\273\210\303D\273TB\222\272\202\002\006<4\253x\271D\222\3269\262\220\372;\244\033\303;E\367\'\272\004j\364<\275\201\351<\365\334\006=\200(8\273\364\265\326;]`:<\332C\333<_:\226\272Y\327\303\274\'[\005\272\335\035j\271\332\003\2059&*\227\2719e6:\344\213s9\237\020\001\274\270\236s\272f\227\2127D]>\2721\253\023\2738\337\214\273\342=5\275\001\342C9b\316\231\271\020d\221\265\331\363\006\272\022H\230\272\362[\037\272vfb90\351\223\267\310\246\002\273\270\266K\272\347\"1\273!\031\260\270\305\235\264\271RYx\272\347\315*\271nI\377\271g\344u;\205\266\251\271\234-H9\224+G\272\262/\255\271P\317\r;\347\017,7\232\003_\270\3004\001\272\307\264\247\271\250T\232\272\254\277\001\273\311\222\020<}5\214\270\256\010\0369\026+\257:\354l\3158\227\274\201\273*\276\301\272\316\330-\273\001\274\212:\213\307\213\271\262\264\2559\315\225/:\357b\220;v\316\241\272i\341\361;~\332\302:\316Y\304;\226{\033\271kw*;\'\352\374;\013\205\033<8\262\022\273\033Lx;a\024\027\273\321t\301\271MD\2239\227\267\225\271\035\370c;\361\200\2678\006#\022\270\265\214\317\272d\306\3539\364\321t\272F\237\'\273\353t\213;\222\030\354\273\346\254\305\272\016h\220\272OX\"\272\222\217\203\273\261R\210\273\r\204\037\274/\215\n\273\356j\373\273\331\005G\273\252\354\034\273{2\341\273\304U\313\272\327Lj\273><\260\273Y\001\205\273Y\371\363\272\200\326\266\270.\352\235\272Id\333\272\236\010I\273\367\233\260\272\327\344=;\000vK\273\000\232\t\273W\306L\273\3147y\273\257\034\\\273\227\0311\272\'e\225=\275D\203\272\253\211\270\272\273\245x\275Q\3454\273\325\320\220\273\215\312\253\272K#D\273<\321\271=\323c\353\272\311\317/;X\367T<\255\343-<\022=39\241\372\302<\2309\307\274ge\206=\nv*\273\214\270\232< \016;=\337\217\313<\333_\204\273\333/\302;\002L\205\273\305\206\341\272p\214Z\273\253\023$\273\262}(;\022_\231\272\371\206\352=[\005\204\273F\2120:N\337\210\273\316\332\273\273\263A}=\336\220\207=e\r\337\273\016c\212;\214\216\003:\252lL\273\r\277\031\274+R$;\004\270x;\210U\240\274\225s\022;\313\006v\274n\212\024\274<\235\220;\260\211\236:_%\305:\315q\344\272>\236\t;\017k\305\273\003\0021;XN/:\245\215\216;X\030\227;\322wQ\276\224\327\257\272\224\303\300;\247\265\231\273C\'\354;\334\304\032\274\333n\023<\257%u\274\233\351\313:\n\002\350;X]\204\275}e$;\335_\301<]\253\2558\372yg;$E\272\275\233\355\333\272\032\317H<\272\334\211>\326\027F<\372\204;;\007N+>V\3739=\361\233\276\275\363\025\277=\033\032\233\273\332`\306=\017\256\032\276\241\236e\273\301\332e>6\225\017\274?\252\";\017\354\001\272F\003r:\236\364\271\273\306\305,;\223w\264=\343dt\273c\272\251\275W\265\241\273\347t\345;Zs\206=p\226\211;ak \273\033\037o\272\203\213\032\272\226\336F\273\267\263\232\273\336\324\n\274\n\311\305\2721t\214\273qe\004\273*\230\360\272Gr\276\273\244\270\010\272\322\262C\273\226\236>\273\331\311]\273\362\264\222\272\305{\347\272\037\357\272\272\252\262\034\272\177\343\023\273\017I\206\272\250\005\361<\311\'@\273\320\325\020\273\027{D\273\267\355L\2736\265p\272\217\355\002\273d%\223=\177<l\272\241\346\204\272\210\2337;\3758\352\272cn\257\2733u\t\273\035\217\023\273\310\263+<\255m\212\272\335\360\221;\255\241T=V\370M\274\272_\356\273\375)\310<\367R\327\275\324\322,=)\332\255\273\335f\212=\314\320y=\306o\001>\326q(\273\376\"\027\272\313\272I\273\035\247}\272^\t\022\273\226a\004\273qn\241;}\312\251\272\265\2302>]\306[\273Xc\3169\306\177K\273I\242W\273\273CY=i\'\346\2740\325\206\273\303[\234\273\300r\215\273P0\215\273\255+K\274\034\246\020\274(*\223\272\025\235\366\273\272\0013\273\2476\002\273A\243\356\273\372\313w\273\213\321\204\273\234&\342\273\2279\232\273\330\263\322\272h\007\360\274\356T\"\273\351\0379\273\213\024]\273\222\215\235\272f_\327<K\266p\273@K2\273\036\334L\273\225=\222\273k5\222\273\374\370*\274\212\316\023=\244\376\232\272\325h\234\273\235\253\026<\334\311\357\272\317\025\227\274\260\230\374\273\031\243@\2731A\227<\217\\\002\273F\3748<\275`\360<\251\327\252;X\211\241\267\221\364\001=V\370\252<f\3610=\236\326\001\274\002\n\360<\030\3076=\002\030\037=H\317\217\273t\233\213<+9\304\2739\315\344\272[\223*\273l\246d\273j`\232<\342\356\230\273\304\364/=\355y\204\273\000Hh;\314<\226\273F]\301\273\235O@=\377\016C<L;\230\274\243\347&\274635\274\2510\272\274\342\323>\274\222\277\331\274\337\031?\274D\334\230\274\233\236\230\2744W\246\274\320\336\375\274\t\303\234\274\366\331\256\274\323\342\010\275;\345\255\274\301!\202\274nch;\322\027\t\274\253\201\305\274\262\330\237\274\361\257n\274\230\254Y=\241\304\205\274\231\276Y\274\021!@\2743\361\341\274\376\3170\275\026\'\357\273\332\"\266<iQ<\274\037\234;\274\251m~\275/\316\245\274N\231<\274[p\321\273\373\355\304\274W\257\224\275%\226\227\2740M\334;\313\037\214=\264\0211=\274\241\2028\237\233\236=\022[\246\275\215\331\304\275H<\273\274\342\026\210=G\234-=\221\327\344<4\337\371\274.o!=\004\350\001\275\323\351\247\274\241*\263\274,\272\224\274\227\303 <\216E\244\274Y\0047=M\201\272\274\271\211\303\274M\257R\275t\333\023\275\250\332\271;\336\251\241<\356\202\311\273\375\225\253:\333\021\014\273VY\237;4\251\356<\nw\232\275\241\003F=hgP\275\363QS<\352\351\202\274C\013\363\274R\200\252;\256R\306:\343\230\203<\010\251\3029\005\236\211<\216K$=(D\337;\023i\2309\006\023Z;1\304\026\273\202\350E=\027\215\226;\311\227\256:\237,\227\275\377]\257;\025\263\215\274q\235\226<\275\315\203=1\200Q;!\345\336;,@\000\2750\010\271:\260~\315\273\216\357\024\275\267\225\260;\370VT=np\236\271R\355W\273\223n\202=\257\253\177\275\273\375|\272\361\007\212\274\022D\242\275@\332\361<\276J\264=\004\033\301\275\316\270\242=\243\235\213=\251\374Z\274\254\274\246=J\325\251\274\2040i\272\363\353\201;t\n\236\271\266t\300\274i\226n\273\271\316\341=\377\020\327\273\304\332\325\274L\007\326\273K\307\250<\2342b\273\273b\316\275\224\252\207\274\204\326B\274p{\016\274j\250\223\274y\241R\274;\237\264\274\305\313X\274\303\361\262\273\0233|\274\010\n\212\274\014\013\344\274\227\036[\274\310\305\213\274\336\303\311\274\373\204\216\274h\342<\274\210\300;;(\265,\274U`y\274\017\332n\274,\273a\274\243\236C=\3510\200\274q\004b\274k& \274\331\233p\2746\242\014\275N\266\031\274\0014\254<\026F\035\274\243\224Q\274\261\315g=.9f\274gaV\274g\360Q\274\363\232}\274\250\311\000>\035\272Y\274\260G\355;A~\267\273g\200\017\275f\247\363\2744\300\010\275\332\223\351=k\024,\274\243\325\235=X\215\215;\270\273\224\2746(\361\274 \363\266\274\324Q\223<\335\362\307\274\245X4\274|h\215\274p\322\204\274\017\376\210<\224\270W\274Dr\324=\303h\254\274\006-\227\274\332\336\216\273\241&\362\274$\265\345\274\311\036\301=z5\002\275\272\003s\275IR\002\275\016\352\300\274\336k\233\275\302\351\004\275\020oE\274\267Q\006\275\254\356\213\274\222j\257\274ac\340\274\262\177\304\274E\207\307\274\356\301\003\275%\335\311\274\2165\210\274\345\320\206\273*\177\217\274\256\326\335\274\210\245\250\274\356\334r\274\234[\260=\203\261\273\274\2408\241\2740M.\274_\331+\27521F\275\320\025\002\275\301iS=\256.G\274O\002D\275\216\326\252=0\232\251\274\233|d\275%\344\200\275\224\234\220\274?8\301=y\341\237\274\032\031G\275\353\304\203=\357.%=\363(\341:\214\\\307=\013\n\324=[\325\265=4\203\242=\244s\226=\2425F=\021\305\341=\220\375\t\275d\317\224=[\275\372\274\213\263\254\274\215\320\244\274a\237\260\274\300\374892\364\374\274\246\315\266=\321}\314\274\320\017\356\274\271\373\224\274\274}%\275A\227K=\360\002\255=\313\255[\273,\371\246\272\272c\203\272\352\034\251\273\304\267\252\273\302\3612\274\237\"1\273\351W\036\274Rh\201\273h\313]\273\332\302\023\274m\021\361\272;\324\225\273\322\363\000\274^\335\241\273\225D)\273\035\020h\272\014\266\330\272\277\007\005\273\361\320r\273\272s\013\273\203\016\325;\203Sy\273\253\031A\2736\337w\273V,\254\273\377\\\321\273\215x\253\272\376\027\227= \224\304\272t\1772\273^xa=\207\017@\273\270\321\260\273\213g/\272Z!\216\273\363\350\236=\263Z\020\273\324\225,;S&\217<\002XC<\344\032\021:2h\326<\241\007\332\274\245*Y=\237t\220:\3416\264<\3260\036=\203|1=\211q\267\273\256^(<\"v\272\273\336= \273\301\204\224\273V6K\273(vR;\260W\377\272\226g\314=\262:\265\273;\017\034\272Z\305\266\273\364\223\005\274K\355<=\312\317\223<\014k\333\273#\343e;\222P\220:\025\324<\273\245\271\262\273\021N\365\272\310p\030;\034\362\307<\237\304\\;\022\232\267\273\244;\223\2737\214\242;\246\341\244\270q~*;\206\024\3229\261\360\254:\373\002\031\274\230\361\302:\t\333\016:\262\350\245;K6\212;\221\006Q\276\253\333\027\273\204\342\226;s\205\226;v\300\364;\260\351.\2747f\026<\374bp\275q,\001:\257F\336;\214\215\215\275E\022\";4\336\331\273\336\260i\272b\026I;Qh\216\275\314\263\013\273\261\307\"<\t\204v>\323\317.<m\275\035\275@\375\004>\034~\017>\023\356\\\276\0314m\2733v\352=O@\275=\007\323\262\275B\315\205\273L\211\005=*\033\034\274\201\345r;4\236x:v,\201:5w\347\273\272fW;h\211\341=\337\312\030\273\232\006\314\275m\372\306\273\225M\n<\010\212W=fX =\223U\177\273N\004\216\272\241\260j\272@\313\200\273\005l\313\273\300\004#\274\226\001\024\273\312\324\021\273\305Q:\273\215\",\273\352\311\361\273\310FC\272\005-q\273\331\374\213\273\324\257\204\273\210\213\317\272sVA\273\247\325\371\272R\3544\272AL:\273\230<\325\272\335\1770=\256\307s\273\374\375=\273b\224\200\273\366\214\221\273\233\367\036\273-\270D\273>\327\214=\371J\260\272dZ\026\273\323\022r<J\241\354\272\030\315\324\273& \320\272\324\343[\273^\3717<Fk\243\272I\016z;z\252T=\214\300\202\274i\241\t\274k\305\271<\232\375J\275\035\\;=\370\365\244\273\215y\226=\000nW=\210\250*>m\004k\273e+%<\306!\205\273^|\263\272j\322z\273\253\357\031\273\317\367\274;\026\344\350\272R\374\003>\211\214\223\273\t\376P\272\t\246y\273\327\232\241\273\216n/=\364j\204\274\363t\253\273m\317\312\273\373\243\273\273Xy\265\273\362\234]\274P_/\274\016\n\366\272\224\276\032\2748\021u\273\334\302>\273g\257\032\274X\375\252\273\\\305\252\2730\221\025\274qj\303\273(~\035\273\235\001\037\275\251ab\273\034\005X\273\020\347\203\273V`\367\272\265\336\371<\241t\236\273\017Nh\273\234\337\201\273\272\024\263\273\330\004\001\274\304\364M\274t<\027=\017\213\325\272=\334\376\273\221\270\205<\267<\004\273(\025\256\274\n~0\274i\n\222\273\023\241\303<_\245.\273/,\272;\010\323\016=YC\333;\340=\321\271\013\323\016=h\344\317<\354QO=\371\021\010\273Y(\010=Q\2171=[\255.=\007C\306\273\033\342\275<\030c\004\274\354\037\025\273\325K\204\273.\246\202\273\n/\270<I\242\305\273\271X:=w\254\270\273S\305\016;v\353\263\273F?\014\274\014\232?=\n\3267<\260n\3439\266&\001\272\026\204\037\271\\\255\032\271\270l\337\272\351q\220\273\004\037\370\271\023\021T\273\250n\235\270\200\002\265\2716\237\331\272#\333\2639w\005;\272\242\325a\272\001$p\272@\342\2148\260O\323:h`~\271\354\316/8|Zd9E\225\3768\226\371M<\216\271\364\271\221\220\0359J\250\252\272\371\307\327\271\005\323!\272-z\234\271\330\336\223<\026#$\2712\017\333\271Q\252V=\023\02159\200\343\331\272A7E\273\337\3478\272|\022\017\272\022G\202\270Q\177.:\035\\\232;\235(\201;]`\207;5Y\206;\2536\263\275\313(S>\257`\r\273\300\0038\270\025\247\243<\276e==W\2164:y\365I<\002\2102:E#\2248|\242\263\272\376\002\r\270V\367(:\272\2245\271\305R\t>\310ni\272\034Pq;\207\261\303\272\213F\257\272Q\331&=\272\013\361=\372\"\324\272\370\370P:\303\017\215\272\332\225U\273t\201\252<4\3710<\235\305v<\262\222\312;\001\240\222;\236\034\003<\220Sa\273!\221P;ZN\027:\250p\217\272be\236;\376L\255;\037\212\027\272(\347\205\272y\226\234:\017\207i;\216Ef;\341+7\2765\216\231:\313p\253;*@\262;\273\225\210;\320&Y\2724A\026;\237\306\306=\226\334\224:f\375w;?\327\\\276C\340\305:\261\276\211;\303\301\2239\325\020u;\230^\213\276q\256\034\273\207\315\277;\2208\002>\303\031\200\274\013r\n=Cu[>\300i\264>\177\252\034\276\001\267\010=W/.\275z\2050>\347Wo\276B4\360\271\327d\232\275\340L\307\273qT\200;\226D\215\273b\325\010\273O\307\306\272\234\352\2018\226\001\227=\232\035*\273\302\275\364\274;=\251\273v\246\374:\375Qq\275\265\316\311>\3014\":\213\363\366\271\275\014J\271\014\356T\270\221\220\274\273\n\n\206\273\377\033\314\271\272\234+\273T\010`9\354\031\0367\010\305\227\272#\356\3169\026\013\023\272\355\002\375\271]\343D\272\231\004\2279\371\2701\272\351\321\221\2718\340\351\270\301\252\1779\272\227G9\307[\266\274\351S\350\271\304n\0239\nS\204\272\016\303T9\227\036\003\272\355\211f\270\223\214\235<\315\200H\271V\342\007\272\224je:/\373!9\232\346\204\272qKB\273\260\004k\271\253_}:Qu\r\270f\313\224:6\304`<!\030\313\273G;\021;^\337w;J\323*\276\362\350\217\275\334\277\277:\276\2323\273\222\357\013=;ae<\376!\3549\250-?=F\207\025:\277\310\3138\301K\020\272FX\2037\263 \264:\321\330>\271\304\300\275=7\006\037\272\375\274\315:\302\376\222\272t\027\201\272\275\342\030=\270\353\275=l\353q\272en;\272\304]b\272s7T\271\264\0323\274SiO\273\200\263\013\271cC\010\273f\005\320\270U</8\355m\365\272>t\332\270%VT\272\031\356\353\272\267\316\252\272\020\342\0229\311\362\341\274\306x\231\271q\270\2578<\203H943\3658Gz\226<\261\035?\272\274\271B9\023\264\257\272<I]\272G#\361\271\235\217s;\357-!<U-\017\271\330O\177:\325Q\253\267\322#\0359\241\275\216\272\212\277X\273\n\223\201\271\346X\234;\260\277}\270H\030[<d=\300<\221\362\032:\010\275\267;P\353\'<\270O\334\272\262-\237\270W\001T\273\322\212)\272\310\022\263<!4\023=&\310R:`\237\322;E\212\2659\326\220\3268\370\233\321\271 .-\271\\\342\341\273o\357T\271\272\\\346<-\350_\272\357g\247;\233\340\213\272\373:\314\272\262u\301<\3423\377<\265:\3438\247\334\264\270\204\222c\267]\2774\270\033zm\271\3055\3348^{\216\270\'m\330\271\r\004\205\270\366T\356\270\330D\226\271\317\235\2467)\247\002\267\354\313\354\270\354\000T\270\301\314\331\267\211\277\027:*\223[\270\003\021W\270\020\n\271\267&\362\0305\203m(;^\344\025\267&k\212\270\2728\3417\344\234\246\270\337\266x\271`\262\237\271d7\233;\343\305\"\270\034\224\2138<c\251\274\350?\331\264\007\214\007\272\'\265\251\272\353\330\005\271\271\036(\274K\025+\270\276+U9\300 \244:\251]\244:\362\t\016:\223\257o:\023\024\351<J\263\"<\324#\221:}\250\311:#\376\274:\310C_<a:$\270\254\247\267\271\325\256\302\271,\034#\267\200\243M\271@\254\300\270\355\360\013\271\020\0324\270\201-u\273\"\355\316\270\035\337h9\243\202\261\271W\256\367\271\241\2018<\207tx\272\245\204\220\2712\036\303:\334\236A\272e\312\3177T n;5\265\026\273d\341\024<Q/\267:>#.\271\231I\003:\271Ng\272\n\020\313\270\244e\237\271\244\260\'\272\220\341R:s\230\0239Q\226\2449\274\"\2329\234x\314:&\360\0039\365]|82;\313<&j@8\344\000\3349\332\317,;\004L\177\271\311j\3568\016\320\323\271U\254\315:\223\t\2259\017\245c:\025f\376<\237\300\010:f\327\347:\362[\013:\032m\2759#\347x\275]\262\365\271@\210\2549\261\344\030\274\003\332\306;#\266V\273\232-,=\336b\275=cA=\275\314\2318\274\2251\320\274\025E\252<*\010\354<w\251\2738\334\\\354\274\177\252\2448\016\212C\271\036d\324\271H\244\3049\000\330\0349\314\217<\272\017\302\315=Li\2368\334\022\007:f.\3179{\371\"\271\272\363\224\274:\322\272=\201\223\0029\003o\235\270\000\304d\270k\314\371\267\264\212\013\2721\r\2078BS=\270\n\310\264\271\210V\335\267\247\n\323\270\240\376E\2714o\3727\263\036\276\267\233p\312\271w\210F\270p2.\271fu\3659_lU\270h\274\027\270+\372\316\267\016\025\3415\366\216\256<\323\007\236\267Lua\270\314C\2417\334\230\205\267\323\276\031\271\335io\271\372\337\277:\353yJ\270}\020\3238\251\231\320\272\350}\272\265\376g\022\2721w\001\273\337\211\210\270\371\013\010;\337s\307\270\020\033\3209\240\023Z<\314\242\214:LP\2119\037\226\006\272\r\271\036\275\376O/\274$\320\316:\355`\313\272\033\201\305:M\010\027<Mn\200\270y\335\006<>\342r\271\360@\242\267\010\201{\270\200\324\241\270K\263\320\270\000\254\'\267\026#4<\264$\342\267\335+\300\270\234\367\211\271\341\270\330\271\rg\004<\242\247\201<\377v\304\270\201\315\022\270\340g{\270\233\017k\270\257!\323\272\233\010%9fV\021\270\250\344\217\271HDh\270\211\317\267\270\010y\\\271)%\350\266\254\375\177\270\302b,\271\000\350D\270\325o\255\267\031\350\361\272c1\341\267\377\027\240\2672\270B\270\002>d6\322\260\303:\222\214\271\270~\255\233\270F\2026\270zf\023\271\312\257^\271js:\271\321\201\206:9\367\355\267\247718\374D\3478\252\373\26651\255\202\272\310&\337\271#\362\205\270V\234\2649\317\034E\270\377,\364\271*\236r;h\347\306:\014\021l:\004\025\226:\t%\253:\361%:\271\352\235\313:\260 \3408Pj\201:\221N\266;\205\\\334\270\333\373E:\2325\2057\236h\361\265LO\013\270\270\333\313\270\234\366V\273Hwy\265\236\3240;cm\327\270#Y\3239\217CV\271\326\251\025\272\t\202\237\271IF\303;mO4\274j\204\216\273\341\314%\273\347\322G\274\244\023\031\274\204>\234\274\226\020\322\273\276\033C\275%\025&\274\317\027D\274z\005\234\274\242\202\376\273\330\251\374\273\304\206\235\274\251\351\035\274\021I\350\273Y\031\027;\232^a\273\316{1\274~m\006\274Q\376\353\273P\026\347<m \026\274\206\252\370\273\222>\353\273\304\336P\274\335\247\305\274f<\262\273r\2364\274\024\263\237\273H\306\351\273\315\264\000\276f\023\006\274\000\320\016\274\3426\214\271\347\3608\274\375\n\214=F\033\030\274QgJ;\336\305 =\366\211\302<4\322\006\271\307\217.=\214i \276+$.\276\334Cp;}\300\277<\014\3275<b3\334=;\027\213\274\227\232\022= \357\206\274\375\013\007\274\215\357\237\274\001-&\274\322\303\235;f\311\321\273\350\021U\275\316d\\\274\306\364<\274\205E\234;\027V\261\274\273\324`\275\250s\347=b4_\273\343\342m;\265\262\306\272\272 W\272\256\333\334;.{\232\274\tp\375\274\214\241\037\275\344\260\354\272v,e\273\\n\010\274R\234\234;\216\352L\273 K\022<\025v\246;\243\022\211\273\014\037\272<\353c6:[\377I;\274q\211;\010-\\<\276G\215=\263\230}\273x{\324\272\221\344\240\274q\276&;\334\3421\274\341\227R<\372\255(\275\270U\221:\343a*;`\231\313\275\244\032:;k\203\217=u\363\254\274\274\265\306:\372=(\274\000bG\273\243\217\240<1\362\360=d\025\332\275\377\373\266:\204r6<g\3560\274\030#A\275\253\253\211=y\374\001\276\251\031\026\275Z\202\222=g\345\035\274\354[\000\276\321\364p\274\367\022A;\036Y-;\376\210K\272\357@=\274\211\336\232\272\317\270\362=A\022\212:\211\304\"\275~<\274\273\037\270\226<Fj\376\275\251\327+=+\342\037\274\024\316\266\273\233\007$\273\306\220\034\274\243bm\274\032K\220\2743\036\362\273\200Q\247\273\320\323\017\274\\~$\274\242\331\206\274\200\\\233\273\'\033\227\273\233\373Q\274\031(\343\273Z\272\222\273\254\013\262:f8\211\273\267\367\271\273\334\323\354\273\266\256\317\273\307>\341<p\"\017\274\224s\374\273\257u\333\273\223\374%\274\244\252\214\274ZU\357\273\322\317M\275\0265\200\273h5\374\273&+V=\266\247\222\273\323ZA\274\177\215\222\273\277\330&\274\237#\212=\022\345\255\273\'s/;\312\205\006=\022\256\007\275K\203a\274\375P\315<\342\236\'>%k\216=\271\347\245\274pu\322;b\335\232\274\241~(>\010\231A\274!\253\033=\364]F\274\'y\205\273J\266C\274\345\007\013\274\270\375\001<\367+\226\273\301&\233\275\036cF\274\374Y7\274\203\350!\274\000$n\274\023R\342\274\256\304\302=\344\307\001\274\221h(\274\314\215k\274}hR\274\301\313\010\275\216\t\273\274\267\206\316\273\233X\216\274\362\233\031\274\026\324U\274f\367\214\274+\312Z\274hN\034\2746\247\240\274\214A;\274\311\315\020\274F\206\274\274#\224\026\274\210\351Z\2744\306\016\274\022E\323\273\361\326B=\203Cd\2747h\024\274V,k\274\231\236s\274B\352\343\274\212\010\253\274Bw\305<B\325\254\273\2732\313\274\177\221f=\336\332\004\274J{6\275\224\233\004\275\215\276O\274\n#Z=\346|#\274\320\234\t\2751xm==5\246<\0243Z\273\007pf=}\006c=\245\035M=\202\272D=\307\276\316<\326$\240<\020\363\214=B\302\231\274\004\246)=c\337\234\274\241\204\000\274{\313F\274\202s0\274\035\235X<2J\211\274\227\367q=mWd\274\213\035\262\2745\207&\274\002\352\300\274\216/\242<\226\0142=\0258\361\274[\\\231\274\226\213\023\275\367t&\275\020\2473\274(\021\\\275\005d\245\274\231\337/\275q\371\020\275\023\t,\275L\326=\275o\021\030\275\351B)\275\325b_\275\035P\035\275+X\350\274\303|\213;\356\274\255\274\363\3038\275H\201!\275))\336\274\207\206\300=|q\322\274?<\261\274~\365\223\274\256y\257\274\362\253\213\275l\204\017\274)a#\274\266i\277\274\305\371\233\274\010\tw\274[\267\037\275\211-\035\2741I\222\274\240\316%\274\177\240I\276\335\274\013\275\360\227 <\304.\347=\321|\235=\023\271L\271\235\010\000>\024o\002>\014{\327\274\201\312\365<\273\277\217=`\206\324\274m\225\242\275\016\277T\275\244\341\322<\254d[\275\312 0\275CRe\275|\364*\275\256\352\214<f%;\275Jk\316\275\235\021\017\275m\220D\275@1\244\275##e\275=\230\246\275\342\005\205\276\273\356\242\274\241\372\206\272\020\312w\273\360\377\241\274\272F\273<\332\024\313\274\177\343,\275\253j\342\275\276G\037\2741\214\373\274\275\026+\274)so;<l/;\225\216\242<^\342\026\274\243W\t=\2779`=\212@\245:\373\222p\273^5w:\331\3332\275D\031m\2757}\330:\036\005\203\272\356\213\211<\2135\363;\247P\210\274\322(\n=!\374:=}5b<\203<P<\350u\202;\337\247.\273\302&\223<8\312 \275\222\362><\3046F\275\317\230\200;\3634\224=n\267|\275fH-<\274\257*=\014v\020\276<O\312=\271\244\311\272S$}<\251E\355=\377\360\005=4\364\340\275\313\307`\274;\240\244=K\271\255\274d\322\326\273#\366\020\274L?\202;\252h$\275\t-\001\274\303H\241\274\243x\317\273\243\362\227=u.g\274{\305\245<\260\334H=\302\2327=n\023\341\274\233\330\247\274<\226\314\274\323\310\367\274\373 \200\274\211\244W\275zK\265\274\227\377\032\275\203\177\343\274\325q\002\275\265\005,\275\221\225\354\274\321k\n\275\304\2244\275jn\005\275\207\342\313\274r\240\263\273\321\202\271\274\034\351\375\274\216\256\363\274Iu\326\274\332\252\022\275\366\035\340\274\221\261\304\274\305M\221\274\nJ\342\274\334\\k\275\356\177\343\273\005\207W\274\003?\254\274{\002\242\274\206.\367=$\232\356\274&N\033\273\267=\237\274\001\345\200\274\352\240\251=\367\236\333\274\315|5<n\272\213\275\320\323\244\2748\331\211\275~\266\235\275\006\210\307=\031\022\214<\216\323\301=\371\307\222\275\033\232\231<\330\030\270\275\250=#\275\263\225\227;\222\3510\275P\251\332\274\037\242\374\274\007\227\013\275)\r\346<\366 \003\275\271\343\016=*A\017\275\005\206\336\274\242\344]\275\267\250P\275\212tn=$\263\261=e2\004\275;\020\274\275\212\020z\275\257>3\275a\227\027\275\275\007(\275\377N\246\274\242\035P\275\024\352\306\274\213_\335\274\212\203#\275\025Q\"\275pO7\275o\374P\275S\2161\275XY\362\274\344jU<{F\016\275-\373I\275\330\206(\275hD\356\274a\317\374=\271\336\364\274\022$\200\274\355LQ\275\007\257\233\274\274\004\232\275\232\303X\275\323x\257=^-\307\274/f\246\275y\257\016>\036e&\275\2639g;\233\n\206\275\021r1\275\223\304\035>\256\010\020\275C@0\275$\350\335=\025Q\247=\351\\\177\274\032\022\016>o3!>$6\250=\240\306\035;E\022q=\243\312H=\326\252\254=\224ah\275\354,\005>\204Go\275\'\216=\275\375\220\357\274\336\335\371\2743\225A\275\035rQ\275.\017\021>\327c\021\275\222\257]\275)\363\256\274d\'\201\275I\250\244=\322\243\316=r\226\267\274\010\255Y\274\336\312\235\274\251\223\353\274\23005\274\355\302\002\275[\225d\274\303\251\335\274!\257\254\274Q\376\336\274T\r\032\275\210w\320\274\350\362\351\274\315\362(\275b\202\336\274\3655\247\274\231X#;:\375L\274dA\377\274\001\252\332\274\240\t\234\274v\025}=>\267\251\274\340\301\210\274fc\222\274\000\030\355\274\243sS\275\261\210\001\274\310Z\033\275\003,\200\274\371uo\274\036\022\205\275K\037\335\274I@D\274\204\266/\2741\035\023\2744\317\026\276;V\303\274\313)\005<\200\360\251=#\027c=\355\243];V\272\275=\231\020|=\311\206\207\275b\220\201=\254Ag=\263r\\\273\257\024~\273\366,\034\275\004\313[=7\232!\275\027,\344\274\252r^\2735I\275\2743\310S<\271\355\357\274ug\205\275\020e\340\274J9\242\274M\270@\274z\334/\275\272\225H<\340\305\232\275\260l\234\274\\B\205\272\221f\256\272\203\225\370\272\2036\202\273\257\251\222\274B\032u\275\367\372\200\275\013\3001<\267\305%;\277\355\263\274\366Ki;\247\t\203;\255X\243<A\247f\273\375\240\264\274\266\341\342;=\341\323\271\232u\211\273\222\204\373:\250\005\005=\370\236\177\2758C\225\273nU\276;\227\034v\275C~\234;/F\277\274\3742\267<X[\275=\2722I<\273\317\t<\033\022\037>\204\262\364\272\213\245\037=\023\336\027\275\360?\306;\300\336\205\275\272-J;\323Z\270<\027\201\030\275\325\260\274=\357J\267=E\263\001\276R\362\216<@\205\031>c[5={`\312=`\000\200\275\036j\313\275\t\367K\274pbd=k(\237\274\207\321K\273#_ <\037\237*;Ep\370\274IB\240\273\272\207)\275\244a\014\273XW\220=P\022\007\274[K\211<z\223L=\nnm\275q\252\222\274\261\303x\2747\001a\274_x\272\274\2541\001\275|\236\361\274\300\037\207\274\\ \277<\3477\225\274\211\227\263\2746O\013\275\010\327\231\274\016\250\275\274m\336\000\275\272\305\272\274\260\377\206\274\030\331\265;5\310m\274\201l\246\274S\235\243\274\255_\224\274^\360}<\210\230\236\274s\370\212\274-\353\204\274fS\300\274\034\371+\275O\361$\274-\031\373<s#^\274|\370\203\274\371r\t>V)\240\274\201h\252;L\002\201\274\254\250\222\274k5\261=\"\364\222\274\364\266\013<4\333\215\275;\376\361\274\256\346E\275d30\275M\033*>\367\324_<\361]\'=\340<F;4i\306\273\275\332\241\274}\343\350\274\204\364N=9 \376\274bz\204\274z\351\277\274V\326\270\274\006\'\261<\247\315\241\274\371\366$=\250r\324\274\250\303\255\274:\375#\275\315\231\027\275T\311\215=\0226\375<\262\247E\275\333\004\233\275\324I\343\274\310b\357\274\003\255S\274Z\346\022\275>Zw\274)\260\031\275\205\233\210\274\027z\277\274\252\255\010\2755c\356\274s\n\001\275\353\0044\275\263\354\371\274\237\035\254\274\274\324\004:\246x\301\2743\361\014\2753\243\344\274\335\221\242\274\376\023\305=r\3504\275\260\306\204\274K C\274\310\265\020\274\226jl\275$\271\360\274\253m\202=\037\333\205\274,&\235\275wA\303=\262\211\343\274\303\314V\275\227\266\310\275z\312\346\274w7\357=F\234\315\274)(r\275?\251\304=\370\207U=>\334\256\273\341\275\263=e<\374=\256:\337=q%\377<\265}\204=\244+y=cf\237=\025\034+\275\203\221\301=)\t(\275\322O\362\274H\327\245\274\227A\244\274D\265\363<\023\006\037\275Z\365\261=\004\354\362\274b\215\325\274\2558\206\274o3F\275\243\034\204=\210`\311=P\311\327\273\230\303\327\272\353\363\334\272\035\001\351\273\373\024\363\273i\247H\274y\203}\273\271\215^\274 \216\305\273Io\270\273\2456X\274\240.9\273\353E\326\273\330\363@\274\220T\330\273)\350\202\273*\316\216\272\201D\034\273\277\\J\273\344\355\244\2733\tY\273\301\366%<\276\000\246\273\217\234\217\273`\245\276\273m\310\350\273\313\361\"\274\241\360\006\273W\321Z<\323\353\026\273\"\024\237\273\221\271\337=$\251\203\273\371\264\315\273\026V_9&~\341\273#\324Y=wy\203\273\023\".;\311\202\272<E\033g<]\200\334\272\032\255\336<.\200\002\276\271\202\371<\350\302\3668\205G\300<\265H\356<\364V\221:Z\316\014\274\004\263\331<\"\017\013\274\301\300j\273\006X\343\273+\341\241\273\022\271\204;\311\033e\273\323\263\213=\346Q\r\274\262\224P\273\367\327\t\274\316\205U\274\362\216\232\273\316|\005<\346d\255\273\201&M;\370\366\215::\371\335\272i\334\234<b\220\306<\307\213\260<\352K\'<\027\202:;\243\323x\272\214\000s\273\346\032\252;\013\360#\273^N~;\363\277^;}\220\026:\336^\031\275K\241\2609\300%\373:\376\273\312;\031@\365;];K\274o\317\006\273v\036\227:\nM\341<\017\213\001<x\0029\274\250\314(<\327\232\206=\235\337\213\2714S\272;5\340\026\276\347\364&;\255\254\244\274\342\344\267\273\007\265L;\214\357\211\275:\371Z\273*b%<\274I\221=Q\263\304<\257\240\277<\371\222\253\275[\212\026>*\332\'\276p\371\031=\006\361.\275\263\352\273\2733\304\n\276\355 \276\273>?&\275\226\267-\274W\371\310;3\371\016;\014bv\272>\217\013\274@\2264;\233\266\363\275X\372\3039\263A\356\273\363\270\343\273\311\201J<bA\347<\373jt\275\001\344\320\273\230\346\366\272b\307\277\272\272\357\257\273\346\343\026\274\264\002O\274\241\311\\\273\327b\215\274p\342\232\273\276\366\223\273\341\270+\274X\274\261\272>\323\243\273W}\311\273\235\346\253\273|\345\035\273\252\0108\273\357w$\273:\224\202\272y\315\210\273I 9\273rB\341<uw\244\273~<\212\273R\301\276\273\265J\313\273\352]\227\273i6\213\273x\253\003<\3310\r\273\270\263\216\273W(q=\036=!\273\340\364\356\273\371\353\226\272\277Z\274\273\0169\262<\317%\002\273\002<T;l\251\307<Q\326\241\274\2542R\274V\211\277;\350\265f<\2049J=5\000\016\274_\304&=\352\214\031=Q\240\333=\263L\264\273%\025\034=\004\033\311\273\013X\010\273\263\361\343\273\346 r\273\234\r\330;\332s;\273\332\303q=\317Y\345\273\325\017i\273\013\255\242\273\005\300\005\274\222\261\002\274\203\010\005\275=\221\003\274\"\2036\274\306\357\013\274o\257\370\273\3501\321\274\376|s\274\241\2778\273$\366V\274\247!\277\273[\365\244\273N\377Z\274\360\232\361\273\367\363\357\273\241\007[\274\235\327\005\274\3235\213\273 \246#\275x\247\252\273\225\263\235\273\302\214\260\273`qJ\273j\213\001=\234\265\323\273\230d\243\273?\376\240\273\034\261\345\273X\262P\274\336\320\202\274\244\206\341<2\032 \273\314\347k\274\342\362\376<\r\235D\273\214\"\000\275\261\341\212\274J\262\366\273M\224\021=\347\363\231\273*\267\305\273\307\000+=\340\2119<=x\230\273\236\264\033=%\304\t=\334\034]=\326\302\362:sl\031=`\345\r=\023\036;=s/\027\274e?\007=\227\267A\274C\253m\273S\261\365\273\253\010\262\273\257\330M;\241=\024\274*\344!=\014M\022\274\014<\376\272\222o\361\273\315\332d\274u#\020=(\306\211<\223\341\262\274\213\017R\274\333\352\230\274\351\031\347\274\351\332J\274\237\200(\275\256\265q\274<\222\254\275\355\375\306\274\343\034\372\274:-\026\275\023\213\313\274\335\227\320\274_}\"\275\375\213\324\274\247\317\246\2746]n;\234\2643\274^\361\371\274\340D\311\274\214\267\233\274\270\034\235=x\217\246\274\273\367\210\274\317\240\205\274\255\033\277\274\372\030R\275\313\344\027\274\263\251,\275\232\032x\274\224\014\201\274\033\270\000\276\332\373\317\274v\202\021\274\374\324-\274bG\323\274r\212\352\275$4\277\274\377\005\274;U\371\261=\207\373_=V\037\243;4G\274=\"C\202=\341\010\370\275\335\263\337:\017)\006=h\371.\274W<\210=\200\272\036\275v\014\365<\036\261&\275\311\025\345\274I\341\000\275\3206\305\274\232\2736<\272\262\345\274\320\267f\274%\337\311\274\220r\027\275\031\272/<<\3763\275\3528Z\275\346\266\377\275wY\005\274\216@O\272\277\306\213\273\364)\357:~ZX\2754\263\302\274l\272\036\275\351M\264<Z\352\261\273\204\254C=\346S9\273\217DA;\234\222\204:|\271\232<\367\327\337\272\260\203R<\310D\242=e\265F;\030:\237\272\276\357\327:\213\033\010\275jq\274=j\234\010\272\376\177\':\312\351\025<\344\275\375\2711\216\206\274\310V\227<\2540\242\275\236\2043\274\271\2408\272\360\350\313\274\330\321\244\267\230\317\316\274j\031#\275\214\237\261\2736\312\232:\327\036/\272P:\344\274\234b\272\275-\375\301\274\337\343\024<~\255\377<\337\221\235\275]\253,>z_\246\275\2738\244\275*\221E=!Q\332<\037WY\274\260@t\275\220j\252\274L\365\207\2733\245\331\273\024\212\342\272#\361\331\274-\t\332\273\235E\314=E\320\253\272\344\373W=06#\274\241\320\275<\013O\213\275\337N\317=v\356\252\274\010\210n\274 H_\274h\320\267\274\330\330\300\274\311\014\032\275\307\354\203\274\0143\361<m\243\227\274\004)\310\274L\343\007\275\374\277\226\274\326\322\226\2742I\374\274\365\316\255\274\255\277s\274\336H\315;\303\315b\274yW\241\274\005\\\225\274\236h\225\274y\353\313\273\374\363\227\274x4\211\274 \316\201\274j\300\210\274\026\342,\275%\311/\274w\3123\275 \374O\274\212S\224\274\2249<=\324\302\215\274u\356&\274\226\275\204\274\tK\303\274kv\355=\036\252\215\274lS\243;S\240\\\274{#\013\275J\270\232\274\312>Q\274[<u:\357\362\230=^}L\274u\324\302<[K\026\275\200\261f=\034\354\360\274\344\212\253<\324\325\000\275-\006}\274\344\341\232\274\353\005\206\274#\177\231<\250\375\226\274\344\2128\273\372\211\321\274\301;\333\274\226\3450\275:\336\030\275\323Qu\275@\235@>\007\003g\275\'!=\275\305\'\325\274A\214\361\274\357j\347\274\351\002%\275\303\363p\274r\203\034\275\340\255\227\274%\277\221\274\363r\005\275\244\352\375\274V=\354\274vv$\275m\307\364\274\022\020\254\274\n\317\036=\013`\277\274`A\n\275_]\323\274,\035\244\274Ob\322=+jH\274@\245\224\274\252E*\274\004\t4\274\303\261h\275j/?\275\013l-=\322\346\203\274i\277\030\2752\352\323=\t\265\330\274<\353\261\273\352F\263\275t\232\347\274cw\341=RM\311\274\233\037\266\275\323\255\321=f\260c=\007w\026<\251\217\311=\353\326\364=3\376\013=\313\301y=\010\350\207=f\223\311<\255\034\213=\250\3440\275\202\346\215=\\B-\2753B\355\2746g\263\274\315W\233\274\310\376\246\275\276\237\037\275\3048x=!\345\321\274\224\257\321<\016\022\211\274D\362J\275\236\252\"=\0371\233=\030,\237\273\312W\270\272\263e\232\272hn\265\273\302\322\320\273\307\325q\274\210BL\273\317\211K\274>\222\300\273x\031\333\273\206\334\027\274\366\377\262\272\214I\377\272yx\005\274;s#\273\022\254\017\273\253 \243:w\005\021\273I$d\273\202\t}\273{\323$\273\251\276\267;q\352e\2734\rt\273\340\314\210\273\225\371\337\273\017\252\002\274\222i!\273q\035\237<\020\330\327\272N%n\273\230\230\227\275A\250\300\272\333\323\327\273[@\007\273T\357\324\273\227\357\030>\314\262;\273D\377,;,6\202<uP.<B\320\243\273\361\365\266<l\0209\276\031X\252\275\251\"\002;o\336\254<\363K\255<\301\276\240=]\002\022\274\300\235g<\027Q\017\274}\220\035\273\224J\274\273\340\271\225\273\221\024\021;Z]\367\272\017\010\325=\235\262\327\273\226\\\217\273\364 \003\274\302\346!\2747\240\301<\227gj>\313\230\317\273.\035\321;\007X\341\272\024\331\356\272LSQ;\366\036\007\275\323X\201\274a\334\321\274\0045\325\272j5%\273\247\317\013\274\361\326\010;x\016{\273\274\024\215;\263d\200;\342\217\202:\230\233\373<\320\375\3526\224\005\"\272\210\252w;\014\006\004:\314.O\275\'\226l\273\361qJ;\034\"\223;\013u\';\215p\010\274H\340%<>\364\010\275T\323\222\271-\253\341;\265\3034\2763M^:\211\024E\274\265\030$\272\323\\\333\270\226\210\'\276\3667z\273\342\274\005<E#Z>\202r9\276\273\371:\2751\035\370=qf,\2764f\005\2769\251%<\303\337:\276D\200\032>x\272\305\275\271\3378\273%k\234=\234\036\350\273d\0341\272\000o\363:1\342\364:\207\306\232\273E\323c:\327\326\327<jWR:\302\226\2439\267\342\222\273\343 n<\240\3653\276\262\320\301=\370\032\251\273\335\023\303\272\360\232\220\272\216\241y\273\202\340\361\273C\353|\274\345\347X\273l\031G\273\214\025\235\273\005C\253\273\266\177\353\273\270$/\272\304\223\246\272\236M\212\273\016\200\307\272Yc\000\273\013)(:\373,\002\273\367\306\225\272\316b\215\273\376(\010\273\345\"]\274*\340O\273?[l\273\325\334x\273Rg\307\273\013\263j\2731\273\221\273m\265\260;\223:\341\272h\363[\273g\220\350<\224&\302\271ED\364\273\300dP\273\253.\304\273\376\010@=x)\247\272\366\003\\;\202\352\263<\370B\305\274\242&(\274\211\212\016=\342\031\007<!\315G=_\216\014<\367\213N=\311\371d<\260\246i>r\360\266\273\376\370\233;\374H\305\273\260\333\226\272\232/\326\273\027\270e\273*\'l;\0213\265\272\330\3015>\026\261\223\273\234\026\227\273E\273\214\273\252;\313\273\300<A<\346\231\313=.\236\330\2734\n\260\273h\273\344\273\300?\304\273M\224\211\274\265\351k\274!\313\025\273\335\240\020\274R@\272\273\360\325\275\273\310\010\035\274\243\376\310\273P\355K\273\234 \027\274\361\351N\273\025\3517\273b-\252\2746p~\273\217\367\264\273\000\246v\273Q\013\033\273\224\267\235<-\001\263\273\356\257\216\273\332\303n\273B\311\336\273\222\2064\274\226\301\250\274\320\376\276<P\005\341\272\377h\'\274\273m\314<\306\340\272\272\016\017\033\275#\374?\274\2300\006\274\247\265\337<\213,`\273C*Z\274\370\211\355<\343\377\304;[\373\264\273\210\364\010=\306\"\016=0\330\324<>\312\207<\266\213\334<\254`\253<\330\262V=`.\033\274\253\243\220<4\t:\274\354\266\t\273Ss\331\273\242\204\240\273\252\332\035\274\003{\314\2731 \016=\372>\337\273\313}p\273\201\242\361\273\244\353&\274/V\270<l\330\016=\314?%\274\017\270|\273\321\200\013\273,\2218\274\256%\013\274`#\206\274\304\355\303\273!\033\304\274g\032\027\274h;2\274\255x\216\274\252A\342\273\017\341\004\274\230\002\220\274\321\310\014\274z\025\331\273C\307,;\247\242P\2733\371\020\274\325\361\372\273\314Q\344\273x\342\277<=\001\n\274\'\341\353\273\016u\332\273\204E8\274=\365\264\274~9\257\273\275\362\323;\023\021\217\273g}\311\273\271\333\353\275Cd\375\273\224\342\t\274\270\026\025\272}L!\274\372\310\201<\276\224\004\274\330\324_;\233\274\023=\347\356\274<\303\027\225:5\257-=\020\365\027\274\177\361\006\276\213P\230;Y\306\014=\233\275\3039\373\270D=\256\235z\274\231\346\t=\351Wz\274:\215\001\274\213H \274\020+\036\274\267\346\236;m9\265\273\000\301 \275rs>\274z\253(\274Y5\332\274\311\016\237\274#:\301;\031),\275\346P\253\273E\216g;\377\327c\272E}6\272\016\351!\274\256\217\361\274r\346\257<\2344\202=\233\206\307\272\302d\016\274M\364\352\273\251\312\222;v1\336\2720\223\026<\354\235 ;\374T\276\273\177%X=\356\205\000;\215\307\234:\317\321t;QD\212<\037U\005\275|\240}\273\373\317\255\271\212\276\322\274~c\213;0\236<\274ED4<\254|\342;\226}x:\336\324{;\342\233\231\275d\303\375:Uo\214\274\001d\217\274\270\033b;\304n\031\2752\324\367\272\352#.;Z\252\224=G\223>\275\275\373\222\275<\373\001>$\036j\275\310\256\264\274\\\346J=\377\254\234\274hU\257<\262X\320=\265\372\017\274\252&?=\251>b\274\023\307\021;\023G9;\340\366\3048\356!@\274\"\032\030\271Lb\306=:\350\374\271E\302\222\275{\271\323\273\300\317\202<\215Z\355\275S\275\305\275\326\035\025\274n\016\243\273\226\223\016\273\200\251\020\274\303&\'\274\177I\217\274\237\332\334\273;#\244\274\321\345\000\274\014\005\023\274C\005y\274\245\276\201\2730\264\272\273\307\275>\274L\223\322\273\005\342\201\273\203\374\003;>g\223\2738h\210\273\317}\324\273}\363\257\273\202\376V=l\264\004\274\245\261\360\273\232:\316\273\347\371\027\274\027\035\200\274#\331\372\273\332(\275:X\252c\273\361\252\330\273W\336N=\216v\213\273\351\033\372\273\260\032\206\273\210\246\030\274\331>\226=\377\257\224\273p\303V;L\373\203=\303\020\371\274\n\243J\274\027\351c\273\253\345\230=\200\271\364=N\200\206=\2750Z\275c\364\223\274\336\244\371=\330~,\274\025\256\310:\016#5\274\242W\201\273\236~2\274\203\332\000\274\316\246\004<\354p\204\273%&\001\275\277)/\274\267\025!\274\240\010)\274m\333R\274\372\0071<t\264\230=\344\276\212\274\344=\223\274\020\341x\274y\000C\274\312\325\365\274T)\267\274{\315\272\273;\267\203\274E\202\016\274ez\037\274\317\217\203\274T6L\274\242\331&\274\033b\222\274\251\362+\274z[\377\273\257Z#<eJ\007\274\310@3\274M<\005\274=:\302\273M\2719=@o\033\274\375(\024\274\302\177\021\274\365h\003\274\327\n\317\274\302\253\032\275\306\304\000=\230F\231\273@\001\344\274\374\353N=\366\207\375\273\370\'\205\275&\255\342\274\r\231C\274\n`H=\177J\020\274nG\344\274\321\373E=\017\303\237<\314R7\273WGj=n\ns=q\017x=\253\024R=\301\360\332<7\272\307<\n\223\201=\367\373\211\274\366\303\022=\024\273\223\2744\246\341\273\311\2537\274\243\232\037\274@\016]<W\335x\274\223\261u=\204YC\274@\034\262\273\274\273\036\274\207:\252\274%\354\331<\272\241)=\016\371\326\272\306\226\356\270\264.\3229<\215\2659j*u9cO\22595\333k\271\375\030\343\272\223bV\271s\313\010:T\340\"\273LN\2627\021\304d\270\301\373\374\272\341\252\215\271\323\010\200\271\246\245\350\2714!\202\267ZZ\227\267^\022\221\272\345\2464\271P\355\272;\244dc8C\234\234\271\3502\235\272\334@^9\261\265\215\272k\206!\270&C\362\273U\003\366\271\215\370\006\273\206\\\275=\246\005\2516\3452\177:D\210\251\273J\014\3759\371\231\222:\270\330W\271+\320\303\272\214Wv;s\337b:\204S\350\271]\261\216\273\252\216H\275#\010\003\274\000#.:I\337J;\003-J\274\226\243\251;\3022\3528\257\366\203;;\031\210:T\330\203\270\345\t\232\272t\246\3127\023\371\270:`\263\2649\007\351\307\274\004\361\365\271\2027q\270\326\257v\272\314\366E\273\345@\362\274@\206\244=:Rv;\214}\021\273\n}\354:]\361\361\272\002\016:;T\314m\273t\204E<\272i\003;f\230\037<\337\312\223;\306\036\022;\366I\256;\310\3631\272`75\273\345\251\370;\273\313\240:m\367\234:\252E\277\273s\340\326:U\363\013<\260j\227;E\205->\306\266A\272\003DY\273\004\205\323;3\345[<\360\353V:)S\257\270CHQ;\316\366\3318\313\266\036:\360\233$\275\005\252\203:\263Z\265;\316\332\324\267W\023q;\324\202\202\275\331\314\207\272\323\034\351\270\215>\031\276\320\031\327\274\021-e\274\376\033\234=\036\203B\276\305\000\252\276\"e\032;I\350I\276\252\341\335=\373\236\206>w\007\337\271\214\333\315\276\337\345\340\272\262\317\226;c/\355\273{\241G\273\360\002\000\273\346\036\037;M\2746\275\026\357*9\353W\006\275<:<\273!|k\272\363\006\037<\276\326\237\274\352\215\225\272\035\273\255\271A\363)\270\304\n\2369t\247\324\272)\341\0018\244\202D\272\360H\257\272\271\277\021\270\323\237\2139\204\326\276\272\021\003\2539\256\340\270\267\014\273\262\272\354+o\271,\232\225\271v\034\365\271\310m\004\272\021.\2418D9\210\272 Y\264\270\016\233o=\364O\2577\335Vx\271\246\336\227\272\006$\2319\205\363\034\272\311z\3178,\246<\274\006\245\002\2724\275\036\273\001o\033=\022}\3067\0040s9J\334c\273P\204\025:\351\\#\274\2461\253\271\2733%\273\336iD=(F\276\273\361\3167\273\000>7\274t\252Y=\212\037\224=j\373V\271\031\343\030;\316\025F\274#\214\236;\374\327@8\2367d=\376rJ:2w58\250\020\244\271vl98\274o\347:>7*9m\233F\275S\325\n\271N|M:e\236\036\272\303\271\342\272\024>\335\274\000\034Y\2751\221\331\2724\324,\272\303\n\363\271\220\255\2549[\225Y\273U\'\346:g\207;\272\234\335g\2729X\243\270\004\305\3048\214\274\025\273\352\353\"\270\307\221\246\267\263\304\033\273\261\005\351\271\216^p\271\313\2754\274\027\226\014\272\235Y\260\267\210\014\221\272DU\3116q\301\204;t\233\247\271\373=\274\2712>u\272\014\207\326\2713\265\222\272z8i\271_\362H\273\"\304\340\271\2505 \272z\3320<vD_8\3025\251\272<\264H9Q\376-:\004\006G;\007\257#\271^\375\316\2739`l<\332B\200:\032Q!\273`C\t:\355O\254\272\265\217p<\373\317\245:b(\302;n\026\323\273\346\200N<>z\260\270WI\275;\377\271\361:\306\2321\270xZ\301\271\0043\0019\020\360\257\273\030*7\272I\377/\272G\221,\272\034@k:\241\260\356\271\306\324]\273\031\234\237\273\243\332#\273\333hS\274\267$\310\273\365\226\210\273\200A{\274n\365&\274bl\245\274\rW\373\273%\241P\275\377\014C\274\032\271\200\274\240\266\265\274\026\301>\274\r\005\034\274\022\217\267\274\200\215I\274d` \274\025w\362:\237\241\206\273\353~x\274\305i4\274\035\241 \274 \267)=\247\2069\274\0330\026\274m\'\372\273\250rt\274% \353\274\020|\351\273v\270\"\275l;\341\273\203}\014\274\267-#\276@hC\274 ]\n\274Vs\374\272\255a0\274\205\021\356<=\031C\274\272T6;\022\202L=\027\334\003=\',\210:\3100Z=`\226\240=\2160\257\275\312\004\'<q\245F=e\252\225<\266\023\274=\177\324\264\274KE(=`3\267\274oOK\274\200\276\013\274\203mc\274\2018\302;\212\221\035\274 