node {
  name: "input"
  op: "Placeholder"
  attr {
    key: "dtype"
    value {
      type: DT_FLOAT
    }
  }
}
node {
  name: "transpose/perm"
  op: "Const"
  attr {
    key: "dtype"
    value {
      type: DT_INT32
    }
  }
  attr {
    key: "value"
    value {
      tensor {
        dtype: DT_INT32
        tensor_shape {
          dim {
            size: 3
          }
        }
        tensor_content: "\001\000\000\000\000\000\000\000\002\000\000\000"
      }
    }
  }
}
node {
  name: "transpose"
  op: "Transpose"
  input: "input"
  input: "transpose/perm"
  attr {
    key: "T"
    value {
      type: DT_FLOAT
    }
  }
  attr {
    key: "Tperm"
    value {
      type: DT_INT32
    }
  }
}
node {
  name: "reshape/shape"
  op: "Const"
  attr {
    key: "dtype"
    value {
      type: DT_INT32
    }
  }
  attr {
    key: "value"
    value {
      tensor {
        dtype: DT_INT32
        tensor_shape {
          dim {
            size: 2
          }
        }
        tensor_content: "\377\377\377\377\t\000\000\000"
      }
    }
  }
}
node {
  name: "reshape"
  op: "Reshape"
  input: "transpose"
  input: "reshape/shape"
  attr {
    key: "T"
    value {
      type: DT_FLOAT
    }
  }
  attr {
    key: "Tshape"
    value {
      type: DT_INT32
    }
  }
}
node {
  name: "w_in"
  op: "Const"
  attr {
    key: "dtype"
    value {
      type: DT_FLOAT
    }
  }
  attr {
    key: "value"
    value {
      tensor {
        dtype: DT_FLOAT
        tensor_shape {
          dim {
            size: 9
          }
          dim {
            size: 64
          }
        }
        tensor_content: "\220\031\221\274\347 \366<*\321\016\250\335\322\212>a\177\302\276\344\030^\276\330\t\270;\025\232\350<\010\006L\276\263,8\276\243\310C\276\250\345\236\275\361\277\2205\216\300+\275\321\034m\276\335\325\r>\345\325\016=\376\tz\276\327\361k\2767?]\276\301\200B\276?\354\017\276\200\336\035=\335:3\276o\225\031\276\377\251W\275O\312\327\274g\207\225\275jn\264\275\023\257v<d6\n>\205\2517<\207\206v?\2314d\276\017t!>h\376\377\274\210\302\242\273f1j\2765\300\032;@\254\177\276\034\000\236>clJ?b\254/<\265\251o\276S\277\"\275\217>m\275\274+m\276\212\354\263\2755\227L=\332\264\234>\300\356p6\323Q\204=%\031!>\002}[\276\346\312I\277\342\240\305>\306\205H\2765(\324\274l\336f<\251\3034\275\351\317\355\275V\323C\276\337\0260>\2770\262\276\370D\251\275\370\351\312\275\226\373R\251\212W\264\275!\310\275<\355\364\001\276\272\230\261\272UOX>\357\371W\275y\211[=@\246\377\275O\212\207\275\264\350\365\253\305\367\000>\372u\255\274\347\022$=\364!\243\275X\360\261=\277[\016\275J6\017\276\037\313\201\275u\3124=]\013\244\275\215\300\343=\277e,>\250\246\374\275+\335\010=$\345B>\037\213\374<\242\201@\275\256\354\373\275;L\247=Y\347?\276\275@\n> \333.\276[z4\274\2674U;(\206\372\274\225\2404<`\211\254=\315\372c\275\223\363\022\275\177\377\206\2730v\n\276B\362n=\230\360\031>\216N\363>\324\206V=\346_\204\275\340\344\314\274\021\177^4\020\007:\275\354\230\'\276\332\326[=eOw\2725\274\266;\354f\232=\344\224\225\274\322\3325\276\324iY\275g\254\204<\244\037#>,)\252\275\361\311\020>|Y\373\274\245~\252\275\257\225)\2462\t{\275K\345\236=\0165\265<\033\332\207\272\003Jr=\355f\316<\311z\205=\246\256\205\275uym\275\264H\371(`\325\223=\360(\333<8oC=\3715\251;\316\327`\273\311v\235=\220\346\324\275\t\315\270\275\366\252\255=\317]q\275\022\264w=t\320\036>^\250\301\274\0325u<}\322\341=\276\200\007>m;Z>N\n\304\275\240\205N=\'\235\363\275\343\310\207\275\266\',\2760%\016<\201c\227;1\342\033=\262\374\274;\307\2272=\307\004~\275\217\245H\275\024`@<\220\034\242\275^=\344\273\313\264\341=\005\260\245<\256\234\301=\300\303\235\275\212\005\206\273:ZH\261#\243v\275\032k!\276\374\201\257;X\212\r\275d\313\362\2754\225\244=\310\"|\272\034\354\021\276\002bD=\365k\306\275\005\034\246=h\333E=\013[\257=x\304+\276\262h\343>A\226v(4\213<\275z\217\032=\024)\005\276\344f\244\273K\311\336>\013\346\250\276$\214\204=\233+\007?P\025\324\274\016\265~*\221\341:>\241h\252\276<P]\274\273uU\276Zew>\256\373\227\275<\2569?\305\212\376\275\312:\'\275\255\275\225\274\323@\200\275\336TD>\352\014\305\276\201\020@\277W{\332<\t\023\021\276\031n\240=]]\036\275\265\177\001\275v\340&\276B\001K\274\355;\217=\003X\027>\226!B<\002\235$\274\'\320\024=\332\237\240\275\363\357\354=\340&\256\275R*6\275\375p\201\276\232g\322\275\256\'\014=c\315\375<\010\013\031\276\323\343\370>\273k[\275<mq\266X}\221>/\316\220<v\362\037<\003z\">\237\270\354>-x\315\275\270\376\275>\356c\322\275\232\272\007\276%w\017=\'y\000?l\232%>^\267\242\276\257\027\306\274\316\244\353=L\n\233\247\374P\200>s\364\360>R\267\215=-\005a\275\256\2352\274\025\300W=\366K =(\237\206>\"2x\275t\213\244\252\340\203M=\255\036\267\275\235\022\260=k$\025\276\327&\256\276\206\031\205>U\344*?P\260\305<\370\254\357\275\217@\005<\200v\014\277\202\261\274=\000\347\254\276\370\312\243<\320\210\014\274\205b\301\275\350cT\275@\313\037>?[Q\275^n\000=\0227\026\275\337W\233>A\327\210\276&y\177<\350B\205=\252\302\332<\025\333\230\276\226d#>\336\262\227;\337c\322<\276\311\266<OM_=k\364I=\342\345\332\276(;d\276\206\237\026?\331(\267\275\022d\2205D9~>\021\227-?\021p\037>\207\212n=\221\034\021=\212%\230\275*\n\214=f\220V?N\250\006\276K\2577\276\205\3001=\2022\304\276\230F\327\276v(\364=\302\350\223=\0076d&\300\306\216\275yJQ\275\264\323\240\275n\323/<\366\3413\276(9\324;\232eA\276fz\365\275;\270+>O\225\223*\216\232\005\276\342N\335=2\2452\274\325b\235>\001^\353=Z\210f>N\257=\276\226\324\311\276C\032\030>\356\353\275=\374:5>{\320\233\275\017\321\315>F<\001\276:\322S\276\211\370\320=Y\206n=\243\247\235\272\212\244\320\275\350\037\221=Y\034\002\277nu*=w\352\222>g\013\024\274\333\301}\2744x\247\273rgR\2752PQ\275\360\364\246\2753\3508\274\034>[\276\311\324\250=\360\241\241\275\217\347\255>\006\017%>\024\204b\276#\343\262=\303(\013\271o[\214\274\337FE\276\244F\323\275\337\310^=I\315\206\275\n\252\370\274\313\013#\275\206J&\275\257\245G>>\036M\277\274\257\'\276\212q\022>g\205\017>\022>\275<\301(,?\252g\223\260X\236\244=<.X\277j[j\277M\211\314\275\227\334\323\274\356\342\267\277B4\250\277\222\374\210\277.i\305\276\035\030\\\266\206\202#?\205\272\347\276\322\272#?S\002&?\205\356\316\276\2601\251\276*\241H\277\035\200O\277\240P\232=\thY?{Ms\275]K{\277E|\237>z\234\350>\225G\225>\035\205:\277&\026\327\275\233[\316\275%$\033\276\253ri\275\2079\237>\260\026\346?s\250\241\276\2138\334\275x\032\221\276MB\314\275~\033\246\276@\231\275\276o J?\037\033\025\275\267\305\311\277\217\244\261>m\2709?\037\315\246\276M\005#\277\365\340\204\275V\034Q?\np\237\273\020b\315\276\314g\004\274\311\r\350=\233^\365>\362U\321?\250\007\243\274)\372\341\274\237\310\222\276\227\237\337>\341Vy\2766\305I>\316\366\350\275\346\326d?\336\030\347<\344\356\205\277)\332`)\307\202\334;UP*?kSO\277\324\340\266\274\375\3254?(6e>\022[0?)p\372\275?\275\272>\314\3225-@\t<\276\2529\353>\247#\010>\373\220;\277\010\375\014> \330Z\2761\323\026\277\255(@\276Y%\221>\314E\227\276\177\201\246>\352\372\240>\030\306\307\276\302\037\272\275%\272b> \032\347=\r\307\031\277\030gU>\265\335)>g\213\341\276IC\300=p=\247\2737\230a>\204\250\177\2748\373\014\276\346\311/<\231\343\327>n\3612\276p\206\334>| \217=\236qG\277*J\215>\3129Y>.-5>\\\374;>\3601\020>\344\264\205\273c\363\214\265\031Z\020?J\265)\274al\364\275\210[\004\277\316\214\202\272\177\366|>\217\332a\275%p`\276\036\302C\277F\204\000\276\025\331\254=YL\304\276\310\266\202>J$\027=\312\337\024\277t\206\270\247\320/\267\275q~=>T\255\252:;\013s<\271=\236>\336P\252\274O\n>>\3715\325\275&\3542\277\376No-\326\000\371>@DD\276\034P\241>\nh\211>1z\n>\256\254^>i\031\357=\'\177+\276N\325\226>\372\232\234\276@\244\356<1;\003?\226\221\000>\317\272d\276I\236\263>\324\257\363> 1\215?\300\027x\276\234$;\276\303\013\324\276\205\243\026=\t\227\357\276\226i\312\276\'A\032;\t\230\216=]z\031=&\020B\274\327\331\031\276\237\373\276>\360k\250=m~S\277\361\275\307\275\001\032\030>\240:\307>\025dT>\033\323\227\276\364\370\364=\367\214\267\266P[i\276\220\252\373\276\304b\026>\204z\016\277\314\326\277\276Y\350\227>\225\274\010={\247\307\276\020A\300=nZl<F\334b>wEr>w\267\233>"
      }
    }
  }
}
node {
  name: "b_in"
  op: "Const"
  attr {
    key: "dtype"
    value {
      type: DT_FLOAT
    }
  }
  attr {
    key: "value"
    value {
      tensor {
        dtype: DT_FLOAT
        tensor_shape {
          dim {
            size: 64
          }
        }
        tensor_content: "=ZI>\007G\231=\034\270\336+\333a\232?4e\343?I\203}?\234\222N=\032\214\203?c\342\330?\376\253\021@@\357\213?vE\025?\304\303\032.\217\177O?\272\337\003@0\'\324?\022Q\252>\213\361\325>;\034\254>+\263@?D\265N?m\036:?\322\326.?p@t?\342\323\002@\270_I>\213}9?}\005\376>\226\200\376?\246\r->\001\267\371>o\014/@\262\235\222<l\262+\276\276\335\231?g\304s>\206 \240=\223\246\366>X]\242=\205\307\220?\234\021\307?\3313\327\276\330z\032=\347\306\327?\262\n\317?\237\267\006@2\365\305>\265\242\326?\303\206\210=7\217\246?e=\311\266\366}`?\207c\013=\001\030\222?\320\305z?5K\227>\320z\314>\n\351\333\275/\340\250?\261\250\263?\000w\\>_\304_?\370\263\325\275\317\314M?"
      }
    }
  }
}
node {
  name: "MatMul"
  op: "MatMul"
  input: "reshape"
  input: "w_in"
  attr {
    key: "T"
    value {
      type: DT_FLOAT
    }
  }
  attr {
    key: "transpose_a"
    value {
      b: false
    }
  }
  attr {
    key: "transpose_b"
    value {
      b: false
    }
  }
}
node {
  name: "add"
  op: "Add"
  input: "MatMul"
  input: "b_in"
  attr {
    key: "T"
    value {
      type: DT_FLOAT
    }
  }
}
node {
  name: "relu"
  op: "Relu"
  input: "add"
  attr {
    key: "T"
    value {
      type: DT_FLOAT
    }
  }
}
node {
  name: "split/split_dim"
  op: "Const"
  attr {
    key: "dtype"
    value {
      type: DT_INT32
    }
  }
  attr {
    key: "value"
    value {
      tensor {
        dtype: DT_INT32
        tensor_shape {
        }
        int_val: 0
      }
    }
  }
}
node {
  name: "split"
  op: "Split"
  input: "split/split_dim"
  input: "relu"
  attr {
    key: "T"
    value {
      type: DT_FLOAT
    }
  }
  attr {
    key: "num_split"
    value {
      i: 128
    }
  }
}
node {
  name: "rnn/Shape"
  op: "Shape"
  input: "split"
  attr {
    key: "T"
    value {
      type: DT_FLOAT
    }
  }
  attr {
    key: "out_type"
    value {
      type: DT_INT32
    }
  }
}
node {
  name: "rnn/strided_slice/stack"
  op: "Const"
  attr {
    key: "dtype"
    value {
      type: DT_INT32
    }
  }
  attr {
    key: "value"
    value {
      tensor {
        dtype: DT_INT32
        tensor_shape {
          dim {
            size: 1
          }
        }
        int_val: 0
      }
    }
  }
}
node {
  name: "rnn/strided_slice/stack_1"
  op: "Const"
  attr {
    key: "dtype"
    value {
      type: DT_INT32
    }
  }
  attr {
    key: "value"
    value {
      tensor {
        dtype: DT_INT32
        tensor_shape {
          dim {
            size: 1
          }
        }
        int_val: 1
      }
    }
  }
}
node {
  name: "rnn/strided_slice/stack_2"
  op: "Const"
  attr {
    key: "dtype"
    value {
      type: DT_INT32
    }
  }
  attr {
    key: "value"
    value {
      tensor {
        dtype: DT_INT32
        tensor_shape {
          dim {
            size: 1
          }
        }
        int_val: 1
      }
    }
  }
}
node {
  name: "rnn/strided_slice"
  op: "StridedSlice"
  input: "rnn/Shape"
  input: "rnn/strided_slice/stack"
  input: "rnn/strided_slice/stack_1"
  input: "rnn/strided_slice/stack_2"
  attr {
    key: "Index"
    value {
      type: DT_INT32
    }
  }
  attr {
    key: "T"
    value {
      type: DT_INT32
    }
  }
  attr {
    key: "begin_mask"
    value {
      i: 0
    }
  }
  attr {
    key: "ellipsis_mask"
    value {
      i: 0
    }
  }
  attr {
    key: "end_mask"
    value {
      i: 0
    }
  }
  attr {
    key: "new_axis_mask"
    value {
      i: 0
    }
  }
  attr {
    key: "shrink_axis_mask"
    value {
      i: 1
    }
  }
}
node {
  name: "rnn/MultiRNNCellZeroState/BasicLSTMCellZeroState/stack/1"
  op: "Const"
  attr {
    key: "dtype"
    value {
      type: DT_INT32
    }
  }
  attr {
    key: "value"
    value {
      tensor {
        dtype: DT_INT32
        tensor_shape {
        }
        int_val: 64
      }
    }
  }
}
node {
  name: "rnn/MultiRNNCellZeroState/BasicLSTMCellZeroState/stack"
  op: "Pack"
  input: "rnn/strided_slice"
  input: "rnn/MultiRNNCellZeroState/BasicLSTMCellZeroState/stack/1"
  attr {
    key: "N"
    value {
      i: 2
    }
  }
  attr {
    key: "T"
    value {
      type: DT_INT32
    }
  }
  attr {
    key: "axis"
    value {
      i: 0
    }
  }
}
node {
  name: "rnn/MultiRNNCellZeroState/BasicLSTMCellZeroState/zeros/Const"
  op: "Const"
  attr {
    key: "dtype"
    value {
      type: DT_FLOAT
    }
  }
  attr {
    key: "value"
    value {
      tensor {
        dtype: DT_FLOAT
        tensor_shape {
        }
        float_val: 0.0
      }
    }
  }
}
node {
  name: "rnn/MultiRNNCellZeroState/BasicLSTMCellZeroState/zeros"
  op: "Fill"
  input: "rnn/MultiRNNCellZeroState/BasicLSTMCellZeroState/stack"
  input: "rnn/MultiRNNCellZeroState/BasicLSTMCellZeroState/zeros/Const"
  attr {
    key: "T"
    value {
      type: DT_FLOAT
    }
  }
}
node {
  name: "rnn/MultiRNNCellZeroState/BasicLSTMCellZeroState/stack_1/1"
  op: "Const"
  attr {
    key: "dtype"
    value {
      type: DT_INT32
    }
  }
  attr {
    key: "value"
    value {
      tensor {
        dtype: DT_INT32
        tensor_shape {
        }
        int_val: 64
      }
    }
  }
}
node {
  name: "rnn/MultiRNNCellZeroState/BasicLSTMCellZeroState/stack_1"
  op: "Pack"
  input: "rnn/strided_slice"
  input: "rnn/MultiRNNCellZeroState/BasicLSTMCellZeroState/stack_1/1"
  attr {
    key: "N"
    value {
      i: 2
    }
  }
  attr {
    key: "T"
    value {
      type: DT_INT32
    }
  }
  attr {
    key: "axis"
    value {
      i: 0
    }
  }
}
node {
  name: "rnn/MultiRNNCellZeroState/BasicLSTMCellZeroState/zeros_1/Const"
  op: "Const"
  attr {
    key: "dtype"
    value {
      type: DT_FLOAT
    }
  }
  attr {
    key: "value"
    value {
      tensor {
        dtype: DT_FLOAT
        tensor_shape {
        }
        float_val: 0.0
      }
    }
  }
}
node {
  name: "rnn/MultiRNNCellZeroState/BasicLSTMCellZeroState/zeros_1"
  op: "Fill"
  input: "rnn/MultiRNNCellZeroState/BasicLSTMCellZeroState/stack_1"
  input: "rnn/MultiRNNCellZeroState/BasicLSTMCellZeroState/zeros_1/Const"
  attr {
    key: "T"
    value {
      type: DT_FLOAT
    }
  }
}
node {
  name: "rnn/MultiRNNCellZeroState/BasicLSTMCellZeroState_1/stack/1"
  op: "Const"
  attr {
    key: "dtype"
    value {
      type: DT_INT32
    }
  }
  attr {
    key: "value"
    value {
      tensor {
        dtype: DT_INT32
        tensor_shape {
        }
        int_val: 64
      }
    }
  }
}
node {
  name: "rnn/MultiRNNCellZeroState/BasicLSTMCellZeroState_1/stack"
  op: "Pack"
  input: "rnn/strided_slice"
  input: "rnn/MultiRNNCellZeroState/BasicLSTMCellZeroState_1/stack/1"
  attr {
    key: "N"
    value {
      i: 2
    }
  }
  attr {
    key: "T"
    value {
      type: DT_INT32
    }
  }
  attr {
    key: "axis"
    value {
      i: 0
    }
  }
}
node {
  name: "rnn/MultiRNNCellZeroState/BasicLSTMCellZeroState_1/zeros/Const"
  op: "Const"
  attr {
    key: "dtype"
    value {
      type: DT_FLOAT
    }
  }
  attr {
    key: "value"
    value {
      tensor {
        dtype: DT_FLOAT
        tensor_shape {
        }
        float_val: 0.0
      }
    }
  }
}
node {
  name: "rnn/MultiRNNCellZeroState/BasicLSTMCellZeroState_1/zeros"
  op: "Fill"
  input: "rnn/MultiRNNCellZeroState/BasicLSTMCellZeroState_1/stack"
  input: "rnn/MultiRNNCellZeroState/BasicLSTMCellZeroState_1/zeros/Const"
  attr {
    key: "T"
    value {
      type: DT_FLOAT
    }
  }
}
node {
  name: "rnn/MultiRNNCellZeroState/BasicLSTMCellZeroState_1/stack_1/1"
  op: "Const"
  attr {
    key: "dtype"
    value {
      type: DT_INT32
    }
  }
  attr {
    key: "value"
    value {
      tensor {
        dtype: DT_INT32
        tensor_shape {
        }
        int_val: 64
      }
    }
  }
}
node {
  name: "rnn/MultiRNNCellZeroState/BasicLSTMCellZeroState_1/stack_1"
  op: "Pack"
  input: "rnn/strided_slice"
  input: "rnn/MultiRNNCellZeroState/BasicLSTMCellZeroState_1/stack_1/1"
  attr {
    key: "N"
    value {
      i: 2
    }
  }
  attr {
    key: "T"
    value {
      type: DT_INT32
    }
  }
  attr {
    key: "axis"
    value {
      i: 0
    }
  }
}
node {
  name: "rnn/MultiRNNCellZeroState/BasicLSTMCellZeroState_1/zeros_1/Const"
  op: "Const"
  attr {
    key: "dtype"
    value {
      type: DT_FLOAT
    }
  }
  attr {
    key: "value"
    value {
      tensor {
        dtype: DT_FLOAT
        tensor_shape {
        }
        float_val: 0.0
      }
    }
  }
}
node {
  name: "rnn/MultiRNNCellZeroState/BasicLSTMCellZeroState_1/zeros_1"
  op: "Fill"
  input: "rnn/MultiRNNCellZeroState/BasicLSTMCellZeroState_1/stack_1"
  input: "rnn/MultiRNNCellZeroState/BasicLSTMCellZeroState_1/zeros_1/Const"
  attr {
    key: "T"
    value {
      type: DT_FLOAT
    }
  }
}
node {
  name: "rnn/multi_rnn_cell/cell_0/basic_lstm_cell/weights"
  op: "Const"
  attr {
    key: "dtype"
    value {
      type: DT_FLOAT
    }
  }
  attr {
    key: "value"
    value {
      tensor {
        dtype: DT_FLOAT
        tensor_shape {
          dim {
            size: 128
          }
          dim {
            size: 256
          }
        }
        tensor_content: "-\364\363\273\204\310\273\272\344OL\273\204\201\336;\316R\216\273(b\020\273\350V\243\271\2303\207\273H\307)\273\031\333\302\2731Xp\275\357ZQ=\332\033%\273h\362\020\273P\034S\273\335\'\264\274\335\314k\273\217\267\275\272ZZ\222:\267\254\341\273\262k\267\273x\3212\273\341\265\350\272j\254\250\272\247\374\325\275\316\212\322;\204Qf<\224\305\341\272X\312>:\'\225\253\274\355\006\020\273%\231\321\272G\3723\274\314\215\2349\211K*\273\037\'+\272\205h\372\272\351\037g\272\343\032\001\273\241\255\237\271L\301\005\274\300n0\273\207\014\230:\212\275\031:\337c\363\272\rJ\224<\346\003&\273X\3763\2735U\354;!\306\217\273\274D\336\271/\271\304\274\341\215\263\274\300\243\0139\326\243\377\271e\"D\273\227\353\325:\340\326g\272\317tc\274\343Od;\362\322\020\271\354X\346\272\030\\\302\272\003`\222\273\250\035\250;b,M\271Vz\243;\265\233#\275\365\t\224:P\205g:\341y\364:,\024\313\272\343+?\275g\024\032\273N\206\223=\026\005,<v\345r\273\316Q\003\273\350\243x\270\026=\033=\353\341\317:\352\222\200\272)\333\303<\270\325\225\275\316\377<\273\365\354\205\271`\271\221\274%\224\214:\007/\322<\327D\242<\266\223R\273\351U ;M\242\214\2723\024\252=\024\224M\273\3758\341\274\373\016\333\271j\352\314\275\375\277+=XT6\272\351\001\340\272\230B\n\272\272h\205;\004L\250\273!\003\007\274\342\027\356;\363\327\250<\230\217\031<\301\013x:\027\002o\275X\007\023\274\377\253\235\270\302\230\201<4\245\271<\r\236\003:26)\274\372\210z\275BGx\271\t\025:\272\036\313\037\273\253\266\037;,\260t=\333\260R\275\3504\371:L\244\311\272\222\303I\272\351B:;\017r,;\346i\206\2739\347\003\273\235\206\233\272\'B\030\274\231\027\235\273~1\261\272\360Q%;\317~\201\273\203[\037\273\332-\251\273\263\371\300<\300\320~=}<\334\272EM\001\273\276\321b\273\273\326q\274\324\242&\273u\202\316\272#\016\344\273(\237\022=\272\316\271\273\254\210E\273r\220#\273\r\321\234\272+\364\300<\304\000\264;\210x\177\274\233)\316\272\377\007\216:\005Or\274\361\2509\273\036n&\272\032VN\273\002\t{\271Q\304g\273\037\247\261\272\226\213\244\272\025\216I\272\347\0064\272\373\353,\272n1\000\274\365d\010\273\002\317\203\274\266y\321:\343\215A\273\312q\023\274\2548\275\273t-\013\273\3438\276<<\367k\273\316\222\227\271\352\272\334;^\002F=\337w\200\272-\345\016\273:Y*\273\025)\372;f\037&\273J\244\n<\271:,<\020\261e9\2160\002\2736\003\213\272\271\252\235\273\014J\245\273\034\370X\273\006\010\215\273&\005\357;\257\371\222\273\306\212\027\273\217\313\r;x`\322\273\267\2266\2732<\211\273]dP<%<\221<\314\333B\273\350\233\n\273\365\236p\273G\276s\274\273\204\230\273\355\355\302\272\314\035M:\204\355\216<\262z]\274\260\256Z\273R\003\340\273P\231l\273\223\353\203<\253\203\027\275\371[\366<\236d\353\272r_=\274P\026%\273\205-3\271\032s:\271\302+\357\2735D\221\274\272!Y\274?}U\2740\"*\274u\334\000\273\2520\357\272oN\242\273\252k\317\273#\303G\273\245\224\243<C\003[\274\202\335 \274N.\235<\215Fn\273\276\3534\273ewt<C)\206\273,\334u\273Sj\217<8\005\267<\332\254:\274of\307\273\230\3212\274\245\325\347;\333\207\201\273\035D\214<tEM\274!~v\274?\264\345\273X\356A\273I\033\244\273\332\312\253\274\354,/\274\321+z\274;\236\032=)\257[\274l\345/\274\0342\211\2736cL\274hj.\274c\242\230\274\377x4\275`\025\241\275\323\244i\274p\245\006\274\"Ix\274\303X&\273\224\374\230\274L\253\346\273\334\004\221<\017\211\213<\255\344\342\274\003\317Z\274Q\236\003\274\251\241o\274]\245\336<\271\310\014:\224\230\265\275Z\322\343\273/@\210;2\217x<:\244\275\274\262\313\004\274\273D\t\2756\335\037:\205G\021\274bv\316\273\221\264Y\274\304\363\272\273E\352\235\274\263\245\205\274J\203\243\274\340\t]\2744@\026=\371B\350:\r\310M\274Z\273%=I@\350;\343cs\274#X\350\274\245u\230\274t\266\t\274\255\273\215\275\303\032\002>Mz\210\273\020\315>\274\251\026L\274\360\242\001=H\354\261\272\032\'T=\304\325\220;\321\324\361;?\004h\274[\341N\274\310\314\225\274\230\350l=\317\006\006\274\331\342\256;\216\356^=\227Z*\274\240\241F<\344\036<\275\256\026%\274\3574\337\275\216zF\274\3136)=\211*3\276H\022\003\273\027\036\023<\214\025\0359\337!)\276\332N_<\245I\037;\034\3111=C\326\031>26\242\273\235QJ<\\o\205<\305p\000\274\310\r\342\275\300\"\313\275\322\2258\274\252BV<\200\333;\274WA\372<\261\2734\275\332P<=\017j\023<\212\312*\276c\352>\275\354QG=\021|\261\274\262\242\226\274G\363\020<\322\371y9\372+\026\274\227V\177<\235\323$\275P\213\262:\222\000\013<Z\010\034\276\306\353/\275\364\216\214:\276\021_\275m\216\375<\265\027u\274\367\034\244\274/U\314<\027&\032<\246]j<\377m5\274f\237\223=\366\274%\275\222\237I>\007\362\026=a\037\235\274\337\021\024<\352\010\276;\017\025\360<\021{h\274\343:*\274\370}\207\274\377w\272<\034\217p\274\345\200\343\273{\267\311;\345GK\274\2629\341\273\313\271\223\274J\035\346\2752\031\342<\336\n1\274\3152\365\273\315\'x\274\363\220\260\274C\343q\274?e\321\273\213\n,\274\025\227?=\354\302\245\274*\000i\274\244\326\t\274\n\033R\274A\314t<\312]\222\274O\006\t\276\030;\344\273\233\357\276;\0244I=N&2;\253u\006\274\252\346\036\275H\025F\273\031c\"\274\306\265\"\274\235\366\034\274\353F\276\273\311dI\274\301\246|\274T\304\276\274\352b%\274\256>Z=<.\307;\207F\211\274v\310\n\276+\"6\274q\256N\274\353+B\273]\202\224\274\250X\346\273\370E\036\275\274\343\244\275\272\215\021\274\245#\212\274o\037_\274G\357\262<\312\032S\274Q^l=}\200\006=A.^<\0072T\274x[=\274\203\247\312\274*Xu\274\016\212A\274\311\326\214\274\226\006A=n\357j\274\026|3\274H\215\017\276e\314\237\274\334\220\014\274\014>\216\274J$\371<\330\334C=u\326\206\274{\247\014\274\352\260\202\274\271\225\307\274Za\222\274\212)\361\273\266Lc<\034\223B=\254\034\007\275\201\007\203\274\001\332V\274\'\022\203\274\344\377\244=-\260\202\275\032:\246=cl\376\273\256\230\201\270\205jG<)\246><\261\267\002\274\2623P\274\002\203&\275\261\200P\275\32354\275\005n\262\274>:*\274\243S\256\274\242\277\214\274\224\363\214\274\321!|\274A\031\236=\324\336\222\275qk\303\274\326dA=\323\002\360\272\360\000}\274\355\025O=>\377&\275,Wu\274\000u}=\t\346(=Q\341\200\274\030\317c\275\231\314\332\274V@@:\334U\342\274Yw\333<\207\330\247\274\320I\213\274\027p\031\275\no\203\2746\327\263\274\235_\r*\322\337\263\246\243\005\275(\270\3209&V\200\267(\006\242\363\246~\255\035#x\367]\2450\304\013&\330s&(B|\317)q\010\230\250W\027\226\'O\300\206(\210D9)\245\031\237\245id\030\247N\276,\250\2617z)\272T\035)\026n\373(\262\2102)q\324\340\247\232\277\343%\252x*\251\0005\210%\321\016\212*0\372\240&\001\364\201\'\362/=(P\313v($\277\210)\262\271\003)G\225Y%\001\005@(\"\347A(\371\r[\'b\374\251(\005\001m\246v\255\247(\333\037\204\247F\344T&r\357\364(X\262}(:\205\356\245\305\366\177*+\220:)I\301\312&c4P(h\374\r)E#e(\270\253\001&\354\205\222)\n\357\214\'\276\255\252(f,T%\263|W(\366\007v(\307-Q)w\315\321\245\316\371\004\245\333\226D\'0\240\337\246t\'\216)\253\255\346\'\r\027\320\2505S\205)F\261\324\246\036\307\021*!\016\237\250\n\352\214\243\361\3719\251\212\024\256\250\343s\214\2510\220\350&%\274`&\340\265\210\250\3275\213\250/\343\313)\223\337b\250zr\213\251\376>7)p\035\246\251\226\266\256\250Z\370?\250M\025\375\251\202h\"\250\245\212\206)\014\026\263\251\367\336\r(\210M\304\247r\374\037\251\214l\"\250\030t\242\'~n\311(\346\201\217\2519\0033\251;\212\001\251\214\335\210\'6\207<\2511a\371\250\2001\212))Ku\250s\311\206\251\207\n?\252\324W\310\'@\326i\245\223\222\351(\327#d\'e\010\324(K\260\005(&z\033\251\216\236\037\252\301\r\252\251\224\247p)\006:\324\250*\336O)\373\303q(K\021l)\320\246\370\246~\211^\251\370\223\333(\017\326p\251PS\214#\272\235\003\246\361\364\277(!k\034\250\rz\n\251\345S\004*\3206\261\246\332\236\223(I\214\204\'\266\341\302(;]\325\246>N\234$T\177%\247\304Q\340%m\013T(\361\357\302\'\333\016R(\n<\t\'\204\370w(\357nG)\217\3555\247i\200\007\247\201\301V\250\235\024{)?\007\')\324\335\034)p\013*)wti\247\005\036\276&\233\326\234\247\222e\273\247\370\256\202*\260\375\324%(]\370\'\241\326\265\'\007\336F(\277I\304)5\356\303(\362\343\357\245\326\026$(p\312\217(\362R\356&-\275\355(\024\2036\246\217\022\214(N\242r(\216\314\244&\177\037\347)i\"\277( \323\017\243s\265\245*E\306n)*\263F\'q\323\273)w\3152)\026@}(\226\377\215$\252\307A)\335\266\256\'\361\024\333(P\226 \246_\362\023)N\212\313(_\214\206)\225`I&+\224\377&Z\223\320&#\364\013\247n\277f)!\356H*\236\234C\246X\345\325(o\210\234)b-:) \305\265\246\363Z\203)z?\356\246\200\\\313&\212\016\263\'\351\356\242(\304\027\000)\310\312v\'Qg\232(\216\353y)\310\276\022\'\322\0175\247\356p\203\250\221\210\317)\216\017-(\272\376A)\332\3056)\013\300\265\246\341v?\'e\211L\250\236Ia*\r\216\000)|75&\033i\347(T\370\304\'*g\202(\000\0210*\010W\r)\023L/\250\031\t\372(\337g\272(\006\332H\',\272\037)D-O\246\210\371\203(6)\212\'\373\264\r\'\022\001\305()Y=*Z\331\362\246\353\002\360)f6\356)uN\237&\302\251!*\351_K)\337\361\305(\2065]\250\236n<(\274\277\007(\211\335<)\2128\353\245o1\n*\240\027h)\376\024\254)u_\301*eSx)\234\327\"\'\217\236\253\246\0278\275)x-\022\275:v\206\274\343\232\221\274Vo\217\272U\272u\274\313\265\205\274\324\236\355;\014~\231\274\315\037\375\273\201\372\226\274l|@=\361\350)\276\230\224\237\274$\2669\274Q\315l\274D\344\354\272\222\271\275\274\350])\274\261/z<\332\021\252<\364\260\320\274\225\277i\274/`P\274\233\346\224\274\221\352\343\275\364\007\002=\300J\322;\274/\037\274\241\232\202;it\300\275\202\023Z;\274\247\364\272\236B\253\274\233%\364:yq,\274B\236x\273c\353\225\274\020\336\377\273\345?\312\274\250\255\254\274\004\365\233\274W\364\221\274\260\364\226\274\337\232\231;\204\331Y\274\267\303\213=\222\244\201;%\233\215\274\321 ^<xO\323\274n\336X\274\342\204\013\275\006\367\234\275\330\017\364\273G\250\330\273to\203\274\303\242`\274F\362L\272m\036\365<\205\374\n<1)\026<\003\003\213\274j\017\207\274\363n\206\274\303\260\302=\376,\222<\202\311\035<;7\314<x\266\006\274\345\257\347:VH6=\021\025\274\273=\3143=_\222\'\274\235\312\004\276o\350A\2755<\334\273;4\251\274\032b\371;\274\230\264\275\272\203x<\006`\n<\305\245\300\275\277\232\013\276\273\n\357<\037\221P\272\301\222;\275\203\267\266\272d\322\364=v{\366\274\237[\006=\303\305\005;\267(\211\274eS=\275\204\374J<\253\\V=\343\327\010\274\200I%\275\337\033\303=\3127\205=\323\375\301\273\244X\203\273\261\362L<\\\226\016\274\271\242\014\275\364`8<\231\357\200=76j=\307\025I\272im\302\275\215^\252<\301\333\253\272\264!9<R\247\330\274\320\245\221\272Y\215\236\275\211p\213\271\237\'\023<\r2\202\274?\370\345\273\375UY={\251\231<\303E\227<\355GR\275\263\332\274\274\324\031p;\020d\275\272\213\307\242\274b\240n\274\234\206t\274\231\347\256\274O\237U\275\250\307\200\274\252AD\2746\347\004=4R\202\274\200\020\273\273\253\242\236\274\324\007\320\274L\332\316=\314\\\200\274=\023 \274\366\330u\274l\376%=\225*\236\274G~\034\274\317CI\274\201\303\032=J\016\226\274\270\016g\274#x3\274\271\200\207\274\245\2431=\336\360\327;\211J\210\275\376\210 \274F\002\265;P]\367\273|\253\231\274a\365\365\273\006\251\014\275|\030\277\270\210&F\274\256\370\232\273\273\353c\274\206\027\373\273v\221\204\274\315\250\253\274\260\003\313\274\2417X\274\002X\014\273m7\032<\356o\220\274\361\322\272;\307\214\234\274\033\232o\274\225\212|\274\344\217\206;Z\204G\274\360\3233=\030\330\356=\226\247P\274\311R\034\274\215tq\274L{\361\274\375\324^\274 \246\265=\270#\344<\200\302\206<p&\177\274\204\275r\274\203\244\244\274<\264^\274\364TG\274hW\265\274\353\303\020=\017\210\207\274\264}\213\274\210:_\275\376b\277\274\265y\372\273\031\213\240\274iZB=\"\"\225=/ \254\274\016\315>\274\021\224\254\274\332A\200\2745\312\261\2741\200/\274Z\316U<\026\r\214=\233\375\212\275\2729\201\274\312X#\275v\271\236\274\023\217\177=\315\304S\275\236v\020=\366\2607\274b{\236\275]\257M\274\243()\275\273\026\211;Q\246\023:l<\013\275\212p*\275W\335\217\275\320\200\200\2730\225c\274v\250\336\274DF\306\274m\016\240\274!{\246\274\324\316\242=\331\312f\275\210S\374\274E\223\242=A\312\266\273\255\036\221\274\265ez=J!\303\274&b\305\274X\374\227=\036\264\215=+\262v\275\353\366q\275\037\354\230\275j\225\021\275\\\2507\275*\300R=d;~;8(\307\275\014p\274\274l-\254\274x\273\213\274\373\034~;\032\t\023\274\230\0305\274r\377\341<X2\010\274\356\300\035\274\352@g<\362\r>\274N(j\273\377OC\274\334\3465\276\002\321\030\274*!B\274K>\355\273bl\312\273Y\021\201\275\"i\200\274v\037\344\273-\355_\273k[}\275\336\230\321\272\031n\373\273\222\234\023\274\363))\274>\313\211=\265\',=\000\264G\276b}\320\273\220\233\322:\252\307\310\274\301\350\205\274U\"z<\325k\025\274sK\3709:rZ\273]\031\005\273\017\007N\274W\220R\273\3610Z\274)\r\016\274MTn\274\272\200\035\274\312h\n=1\274\276;@`\005\274\264\301\202<\204m\n:\'\0303\274fb\036<\331\342\361\272X\220 \273H\036@>k\323R\276\242\252Z\273\220\277\013;5\2630\274-&p\273\214\003\206;\357\211\265\275w\005\014<\216Bx;\302\332=\274\216o\n\274\223\331v\272\301\003\362=\252L#\273\261\320_;\265|\301\275\r\327\243;YN\230\273\374E\271=\341z\256;\262\023\204=\327\202\027\273;\341\027>>W\272=\026\255\247\273\376\203\263\274\215\300\020<q!\221=\304\372\323\272\300\330\327\273{\213^:\237\203\t\276\2162\017<x\227\032\274`\375\227\274\276\256v\273\350\362\231=\233\355\312=E\207/\276\207\'T\274\352Jx\273\213\235\235\275g\241\346\273r\007\036\275\204oW\274\034W\231\273\034\014\244=O\310\014\275J\302.;\214\246\203<j\r&<\367\333\245\273\330\344\260\272T\252v<A\243\002\276\335 \036={\347\221\272\014\311\033>\236&\205=\336\264Y;\202^\333\275\033S\345\274+\371L<}\343\024>J\245\350=\251\355\201;\340Q\225=\244I\366\273\027\254c\275\325\247\244=<)\327\275P\274\371\275\304\225l\274\341\251\372;\224\334L<E_\036\275\3065s<\332\356\023\274\213\365=\274\210:\305\274a\211\020\274\035{\324\273{!5=\233\333/\274\002X\203\273\026\205D\274\342\005\212=\273\330)>\355\001\033\274y\331\273\273\005l\344\273w\247\334<\363\352I\274o\226\313\273b\261q\2741\276\177\275q\332\233;\350\361\334\273\241\372\010\274\016\314\027\274\203\315\347=8\037\026=\'4\211\274\367y\322\273RN\320:1\361\305\274\\(C\274\341Nu<$RQ\274%\301\002\273\004\351\266\273!x\004\273\356M\031\274\237\272\"\273C\034\374\273-\341\035\274\302T\213\274\334\323\357\273\224\353\016=\0029J<\356\366*\274B\026\241;e\026\267\273\264\243\025\2741\235\t\275&\034r;(\277Z\273\000\347\177=Z\231\320\275u\254\365\273\370\242\341:\260I)\274\001\231\206=\356\\\256\271\277\345\026>\245p\242<|>\030<\345\0164\274-\223\353\273\300\014\265:\355F5<\321ZH\274\032\337M\274\205\200,=\200`\026\274\277\225)\274\202\350\356=G\277\205\274\376\325\225\273\305@R\274\243\311F<\256\345\226=i\360P\274\317\247\337\273\017,!\274&\357o\274\023Q\212\274\324\270\350\273\204\344\350;Y=,\274\003\'\001=\225S\365\273\352\036\260\274\016\263M\274\303\241\302<\227\225\215=\344z\000\273\'Z\353\273q\275A\275\245\364\021\274\376\314\037\273HK\247<&Q\330\274]\366\204<\336w8\274=\262\337\274\01432\274[r\277\273\246Sk\274\271[\203\274\313Ub\274Y\2632\274g\324\215=\241CF=\256\265\322\274rq\375<y\320\234;9\313<\2740\035\254<[.\232\273jaR\274T\203\"=Y\365g;\013\302\276\274s\255\270;\203\220\335\274\326\020u<W\361\204\274\242Td=\247w\326<\255Yx\274z\247\223\274\372BG\274\344N\224;\223\315\237\273\254\341\277\272\330\326\014\273P\210|<\203n\212\271#\320\n\273\316\025\245\272\205\366\"\273\355\215\233\273\024K\007\274@C\314\275\351f\213=XL[\273\231E\244:\302G\031\273\372\214\033\275\362^/\273\376\274\267\2729\376\200\273\357\354\3049\252^e\273#W\263\272\202\177\222\272\234\005!\271\365&L\276e0\342\272\363\313\370<\014\237\255\272jNh:!R\351\272\356\213\215\273C\323\272:\r\330>\273\264\265\270\272;\021\370\272\361\210\024\273uw?9\315K=:\326\300\n\272C\257\2369r\240\350\273\344\343\r\273\225\206]<\037\320]:\205[\200\272\222\362\221\274\\\341\225\273\234\212\276\272e\207&\274\214\224\233\2721\031f\272\316~\037>\177\320\243\275\237\367\260:\242\362^91V,\273\324\333\014<xnw\272\"\'\030\275\233g\301:\000\205\027\271\'\257q\272\013;\222\271.x\177\273\341\257\215;\362\232\274\273N\337\002;\275A\331\274\313u\344:\177\230,;\346\016T=q\017\214\273\366\226\202\274\0067\001\272\371\361\232=N\317\006=\364:o\2718\267\030;2E\357\272\257\230\027\276[\274\035<\023\333{;{U\220=\227\322\234\275:b\222\274X\342\330:&}9<\222\022\365\273\371\217\207\276\271|\312<\323\224\273\275S\361\374;<]\225\272o\021\317=\201\024Q\273\214\236s\274\327X\'\273\351\n\276\274\364\206\226;|\001;<\306\033\036\272h7B\273\354\352\336;\257<\212:A,\3519\013\023/<.\322\001\276$\204\222;eY\020;y\275\214\275\267\302{<DU*;9\370\315\275p\222\203<Z\3352\273\304\3270>\352\032\224\275\354\014\031\273\203!\253< \006\276\273\365%\243<\260\351\204=\371\365\350=\035\216\361\272\310\265%\273\222\000\016;\342\302(<\210\370\245\274\252#\000\273\222\257\201\272h}\236\267\347\035\374;{8\034\272bJ\305\272E#\273:\345\3104\273&\n\211\273))\333\273i?\224\2756E\216=\310\033\377\272\270u\235:g\301(\273u\205\037\275\220\237\276\272q\206\374\272\254\211f\274\276{\016=\300\033\232\273\273\242\016\272v\305\207\272d\227\3248G\243N<\241\371\236\274\345D\321\275!\005\220\272\000\312\302:\342\240\307\272\2160U\273fo\311;\226\r\330\272\334\240@\273\20125\273\035\325\205\273\202\032\r9\020\202k:\235o=9\227\177\2439\301\370\321\273\233\225\335\272\263\334I\274!\300C;\345\006\331\272!G\343\275e\232}\273Zf9\272\302\302\263<\3563\3709\254\376\021\272\367|1\274\017Bz=\2671\3568\300\273V\273G=\253\272\222\037M=z\346\2639\026\334]=\272\251!<\004\264\2478\332\330\242\272\373\313\342\270\264\264)\273\250\206\003\273Y/8\273_\350\221\273\344\337\002=\255\030\':#u\025\273\243A\226<\265\302\321\273\000u\241\273b\337\237\273e\275\241\273\300\313\325<N\216\346\272\200\223\271:=\220\352\272mn!\275\311@\242\273/A\301\272\261_\254\273[g\276<<\256\322\273\245^\362\271\r\026&\273\3714\027\273E\023\010=\035\227\356<\225\016\240<\277\346\256\272\347\226\302;\277\364M\272\034I\217\273<\331\256;h\035T\273\345\277\222\274d/&\274\343c\331\274p\247\221\273\273|\342\271o\211\333\271\214\203\220\273\300(\265\273e\024$\273\r\373\343<\242\202\'<\025|\014\274\251\213p;\365\243=\273n;\005\273\341W\025<@e\221\272N\r[\273\324~\221<\301\211\020=\363\227^\274k\267\325\273\032#\230\274\253G\253<2\367\275:\320\204\253<\334!\202<\312\347\350\274\214\031\256\273\345\263\260\272\0045Y\273%\327\2519\204\260\006\267\n\317\'8\202\234\3218\222b\2418\267kN\267\272\n`7\347\361\3667\260\243\0028s\372<8\020\213^\273#\302\244\272b\014V6j1\0038\202^\3758\247\010?7}#$\267\245t\036\267\372\243G9\321]\323\270)4[8a\217\3448Wo\317\267\315X/7\002\210D\272\2108Y\267&\262.\2744b\030\267<b\2167`\232v7{,\2377fD29\335\342\2247\315i@8\312\036P7\325[;8\350\240b7\314\r\0248\237\315\257\266f\206\335\266\033V\3457x\237\2058\272i\006:\374\254\2548\200\341n\267\262p\372\270\235Z\\8mc\2007b\337\002\271S\352G8)#O8\233\204;9\013\235\0058\030\25778Y\311\0017\356\210\2607[\246T:t\375*8\340\215\205:\252@\256\267\353\201\364\266\301\374\2767\204\226+\267sM&9\327g\306<z\347\220\267\210=\3228z\006\200\274\035\222\3149\2342\014\2706\323\376<h\013G\271\020\267\210\271w^/\271\250\345\\:\025,\220\274\353\376\002\271\246\265\315\270\272V\2019L\301\2619Oy\253\270\327\037\r9\332\252Z\272\325\035\271\271\341}\302\272\\K\254\271\255\242\266\270\006RF9\364<!\274d\326\226;#\312\021<\240\264\013\271\272\257:\267\"\230\216\271\010\305\0048K\224\277\271,\234b\2671\351\217:b\233\0247\311J\026\271m\336\035\270C\\;9J\204\347\265Z.\017\271\272\036\371\271\340\302\2657\267a\033\274\212\235\0039_\\]8s=\2539n1\2037`\017\224\270\254\025\246\274\r\365 \272\213\240\3168\252\362\216;\024*\331\274ZQ/78c\037:-\207n\271\357\003\004\273At::\305\214\300\274\235\017\177\271\007;\0108oU\013\267X\021|\267sS\021\272\274\255\2519\320`!\266\324A\2467\314$\021:qaN8,\3372\267\344P\2736\251<\3157\340\327\3237\004\204\2727O\360u\272\270\230/\273V\016\2316\361%+8\210\201\3668FO5\267_.\3636~\000O\267\277v 9\236\272>:K\302\0048h\334\3668d\331s\266\265}o7\343\316\361\267\272@\2118\027U\\\273p\267\201\265\264e\2547^\257j7\356\330\22171uk9\252~\2407\034\24598*\313\0147\374Aa8\250\307\'7pV^8\005\360\215\266\355\001b7U\226i7\276\303\2028\312\3605\267\266\017\0139$\262k\265\355\016C9>\356\3708\212\346\0067?\'\227\272x\364}8\"\212\3337%R\342\2673A\002\273\200\326\2336)\247\320\266\330\216\2407?\315>:g\273`8\262\351 9\222\224\206\2672\261\276\267\311[E6L\356\2126=4\0319\027\211\2559\230\271\371\266\000ST8\243-\2279K\022\3578\010x\230\266\351\275\004:\005\240\0148z>\0018>\354\2408\003*V\270)\003M6\220\275\24347\212\3437\013\250F9\357\254\207\266\034y\204\266Hn\263\2661.\2039\222\255\0039\177,\0359\256\356\3428 \022h\270\347\'\004\267\212\231\247\267\036\024\027:zz\355\271\000\025\016\267\324\342\224\2679\007\22078\024\0138 \326\2309b\222\2207B\030C8\245\362D8\363\n\r9p\002\0337\027\330I8\261D\003\267\314%;8$\361\2258\255\001\2118\242c\2549\034\335\000:$<\312\266\372J>9&\322~9\206\237g7\214J\2169\304\327\3518Y\245\0028c\354\357\266\253\255-9\037\240\0247\336i\270\267\255\r@7\005\'\2439\\y\3468\267d\0169u5!:0\327\3378\263V\234\266 \252;\266\207\353Q9\321i\003\274g\331.\274]mD\274\305\336\"=E%C\274\303u\020\274\205\263G<m\300\177\274\301\230\303\273\002_P\274\201:\214=\304\203\321\273\016\202T\2742\255P\274\205-\r\274L\201\025=Z\330u\274\370\336\003\274\373\300\335\272\256\375\031\276\301r\212\273:\000\"\274\033I\023\274\214,(\274\365\373{>g\225&=\335]Q\275\317\330\344\273\232`\323:f`\333\274+\277\201\274\226\242*\273\255\007\205\274\311\262\376:\313\353\232\273j\277\023\273\272\373B\274wO\256\273\324\\g\274\027\001&\274V>\233\274\260G)\274\330\371\322<\251\371\304;\223\205\"\274R\305\221;z\336\212;w\235;\274\214%\357=\322i\251\2738\207\224\273\265\241\360\275\264B\204\2759\223\344\272\0021\033\273\353\3448\274}W\004\274\356\267\267:o\017{=\272\360C<\276\371\262;\306HX\274\202L#\274\336\222\000\274V\274\321=\255\310\365;`m\027<O0=;c\364/;\037\364\034;K\356\223=P\021\341;\360\247\032\275\307\366\325\273\026\363t=09\327=\244e\":\007\'\223\274\251M\205<\000C\201<e\337\231\273\261\246d\274\210\261\215<\0078\304=\312\244,\275_R8\274\343@\264<\315X\301;\031f\004>\302\342\350=@f\203=\3010 \274\337~\205\273\351\275\004\275\224\217\035<\371\363\301\275\202(\307\273\345\250\272\275\214\217c\275\203\265\203<\321\026%\273\350\301\276<\257p3<\335\030\002\274I\313\240\272\355\347h<y\325\023\275C\0264=\363\311\\;\360\341)=\275\322\201=7\345\341\272\375\305\221\275\373u\231<\345\333u<\301/\340\275o\215>>W\210\"<\025\372\327<\210\261\252\272}\251\233<\272\377\374<\226\037\306\275\2154p<\023\323\213\274^\2362<\252\263\221;\335oS\274.O>\273VB$\274\024\006U\274\263\366\253<\004\016Q\274s\246\300\273\311\233\025=\250\311q\274\202\215u\273l\313T\274Nm\032>\346\005\200=s\")\274\200\030I\274\373\352\027\274\3654+;{\235;\274\256\230\361\273\241\301\224\274\307`\215\275\223\227\251\272\367D!\274=\213\035\274\306\216\033\274\030\254\210=\2664\300<\037\024\356=$\245\344\273\\\336\264:z\013\363;\321\225\374\273\026\216\342\272\207\221\261\274\n\232\245\271\234!\337\273]\033I\273\302\201\016\274\2633\245\273\343\265\n\274,\3753\274\n\024\272\274.\203\377\273\023\233\331\275-f><i\315Z\274#\351\"=5\021\362\273\3728\036\274 \301\210\275SD\367\273&\222\237\273\337%\333=\276\207w<\006\300\245\273\t\217n\273\314\337&\274l14\275/\316\321\273\003y\265\275;\033\273<c\355A<\321qG\274\310y\020\274\303\374\014\274\241\305\t<C\217\201\274\362\002b\274\252F5=>\226L\274\356=\022\274\017\035\251=\342<\252\274\357i\222\273\277i^\274XeO<\246wv=\022\260b\274\376KF\274\252:H\274*\003\376<JN\206\274\225\017\010\274\034\037\030\270\006\311\254\274\203\247\224;?\0143\274T\350\347\274\221\021N\274\206\336\302<\351V\276<\324\201\377<3\225\000\274\225i\207\275E\226p\274\'_H\2747\215\277;\3706\265\273B\262\266\273\217\253\271\274\370\035&\274\271E\334\273\005\344\030\274\022||\274\014\214\177\274\272\325\215\274\222\315?\274\201\216^=\261\3431\274?\211\333\274\232\256p=\036\320\327:\271\230E\274\232 \013=u\tT\274\331\273n\274\311\350,=J\261I\274\221f\031\275\\:\250\272c3\r\275\375\314\226<g\022\273<\321k\277;\036\261Q<X\360\246\2747\002\211\274j[g\274\361[\372\273\335TW;\351\352\316\272\216-\034\273\035\340\363<_e\014\272D#!\273\322\276\212;\214\205<\273\373\351+\2736\027\355\273\001\231\320\275`\027\354=\266\223j\273\020n\024\267\3738>\271\003\373C\275\326%H\273\351!\000\273o8\221\273\031\344B\275\005\375\360\272\264\307\2209\324wa\273\017\266a\272\300\337\035\276\225s\330<<\3605\275\366\345\037\273\270\207\030:a]S\273C\366\230\273K\237 <\'(U;\377N\271\271\rF5\273\267\331\021;h\"&\273\025-#:\312\376\273\272$*X:\023\235\267\273\20315\273\224\235\317<\342r\372:D\241\r\273\362\302\n\275\223)f\272x\357\203\273\030*\343<\330\031\";4\023\333\266\206~G>\0038+\276\316\273g:a\024\037;\277\254D\273\nD\221<v\035\n;@\r\247\275V\352\375:\265\240l\271\022t\033\273u\322\214\272B&b;\235\375\253=\3239\267;Hz<:\224\2575\276\300\215\005<G\227@\272Ls\003=\323iO:\255f\322<\332\210?;N@v=\303lI>\205\t)\2732\375;\274\343\330a;:[^=\252\245\326\271m\324\211\273qd \275&G\014\276\226\245.\275\205\322\002\274j\265 ;\314\037~\273P\336!\275\372x\353=\232U\003\276\201\225\013;\003\231\320\271\006\363T<\371\321\311;\346\2420\2744i6\274\016\022a\275W\257\264;n\223t\273\266\363c;RR\342;\257\305\361;!\312\021\273\022\342\367;\334\352%<\302\346\030\276\251\223\321;\337\026\003\270\\w\001>\256\'2=}/0;\272O\t\276\2678\027\274\353ve;\347\326}=R\372\276\275\262\337-\273pX#=\315,\317\273\t\303D\275\357\3657=\361\227M\276f\247=\274\265\314\222\273\353\3147\273\310\351\'<\241\200\031\275\031\202I<\233\001\332\272\023]5\272\215\204\"=5\331\203\272\234\001\350\272\017\377\372<xS2\273\254\306H\273\200v\272\273\267\344\007=Dk\234\273\335\026J\273JB\3349\352\033|\271I\243\306\274\232\264\336\272\002\325\027\273L9<\274\017\017\330<\342lf;\314\313\3079$\2467\273\271.\001\272\211\357c=\266\330\345<\342\r\253\275\361:\021\273|\271\3369\242\354\246\273Y\275\205\273\036q|<J\3258;K\235x\273O=\205\273^ );\370\301\327\272{\036\235:6A\233\271\363\346\021:g\304\326\273\361\235\016\273\365\350\004\274\'u\237;]\370S\273\026\001\274\274\354\035\202:nvB\273UF\366<\273\036\301;\247\237\3549X\n\342\273\242\366\t\274\342\337O\272;\305\350:a.=\273\256\355\213=\004B\';\222\326\336=\342\343\032<\2554\210:\025=\035\273\374>)\272:\350\304;\334\203=<\3245\213\273\032\263\213\273J\017M=Y;\231:\257\334,\273\343\010\360=\344\260\237\273\0064)\273$L\231\273yq\256;\r\224+=q\001~\273\260\004(9\212\334\0147b\371D\274\014$\272\273\302\256\367\272\205\323C\273\337\032\256<\315vv<xK\271:\236\211\264\273[\335\261\273\013\332\307;j\306n=\007\304F<z\337*\273m\316\312\274\246\373\202\272\241V\246\273\234\025\220<?\376>:\372\377/\274\324tX\274\021W\022;T\341\347\273\337V\3159o\031\322\272z\364\246\273\313\370\246\273cwG\273j\365P=\240\233\322<\357\267\276\273\302\307n<Z\276%<\035\324 \273\327\177Q;\301\310Q<\277\361n\273\344\242{<\341\375\223<5\344\222\274?\366\003;\2223M\274-\231L=0\351\315;\261\356\000=\304\336\325;\207T\206\274x\032\311\273r\351z\273(\006\340;\2436b<\356R!\274\002\230<\274\302\331m=.\010\t\274\357\330\024\274\013\272\217<O\013R\274\232\261\242\273\n\276E\274\000<\000\276h\237\356=\342\'H\274\251O\023\274\342o\276\273R\255\034\2740\214\201\274\361b\366\2731\370\005\274/~1\276\'\026\315:\020$\003\274K\206/\274\227\017\'\274\347^->\'\352,=\364#\031\276\323J\326\273\373-\305:\340\010\227<p\310~\274\251\262\250;;a\003\274z\3714\272\210\264\254\273go\375\2700\022S\274\273\353l\273\003`_\274\250]\025\274\371\014\202\274\t\354 \274p\376D=,-\336;y\327\017\274\316F\212\275\017\377\274:\255\2048\274\313\005\311=\266\363k:0\217]\273\200^\275=\223s\r\276\023\204\201\273j\202\221:\"O*\274\365p\312\274\232A\272;\370:5\274IN\016<jZ\235;\341\034R\274~\315\024\274:\035\357:R\020\024>t:\320;\315\027\372:\003\375\004\2763!\237;\362E<9TR\r=\254y/<_)F\275\352\200\345:\32775>\267\017q=\356\264\276<.\rt\274Vr\032<\317\014\017>\204\245\270\273?\006\031\274\201~\363\274\325\303\302=\354\317\261\275\263@R\274h6%=\200\304x\273D\263\224=\204\203&=\353\323\034\2769\2555\274\270\240=\273Gw\246\274\204\0057=JXz\275o:\211\274*\036\323=\024\366\321=\331\317\317\274\333N8;\206.\307<0\211L<%.-\273I\325\243< &m<\241La\276\306\300T=\030\010\2209\204\367&>\352\271\357=\323\033c;\234\214\207\274\301\314Z\275\235\001d<\230\010\227=\035\264\266=\334\026\230;\366\252\220=\2309\314\273o\255r\275\031\234\254=\200\332g\276\r\236\021\276\267!\212\274\223\351\306;\257[b<_\002\217\275\317q\007=v\n\022\274\004.N\274\0274\223=G3\022\274\372\003\272\273\364.A=\346\212;\274\345\321\261\273\323\252H\274\376\001\304= &N=\026\004\032\274\276\206\362\273\2663\333\273\266\257F\274\326\362B\274^X\334\273]\035\336\274/$\304\275i\265\r;[+\341\273B\305\"\274\366z\027\274G4\311=6\034\023=kC\227=\332h\335\273\230G\210:\362\227\026\275z|/\274\224\002W<\246\235\200;;\010\216\270*\032\317\273\177\004\3529\315\274\035\274\225\313,\273\316\"\002\274\031\337$\274r\220\234\274G\215\365\273\\C\262\274\234Je<p\0005\274z\270\223<\235\336\223\273D\026\030\274\370 @\275\215\332\235:\027\314\222\273\337\236\307=\032\240\r\276\350\354\005\274\270\310\204\267v5\031\274\260\006J;0\370S:\220\n\225=\344h\235<Y\0047<\002\256A\274:\265\373\273(\266\206;Y1\237<\317\020W\274\236kW\274C\036\227=\034\307\014\274\\\001\024\274\032&@>\204n\201\274z!\242\273#\227U\274zth\272\001\320\237=t\002T\274G\331\007\274@\220\032\274\372?\337\271)Y\223\274a\343\372\2733\310\214\274\236\310\336\274H\201)=\263J\363\273K\266)\274?\205L\274f\322\177<\3779\210=w4\317\272\337\241\365\273O{\212\275\22298\274N\204\335\273\210\031\241<a\354~\271|\033;=\233\022\243\274\025\001\204\273\020\314\324\2736\344\361\273\235\303o\274\237l\200\274~\231k\274\321\2444\274\\\220\206=<\341\216<\205\232\332\274O\\\006=\000\265\205;\225mD\274\320\210\371<!\276-=\344eZ\274?\3233=\025\361\316<\332b\033\275\3721\213\274\252\357\300\274\013\306,=\177\003\027<k.[=\322\341\003=6\202\263;\334O\245\274\214\364$\274C\256\002<H\310\n<\376\rb\272\240|\222\272\303H\237<f\223\323:\257\200\321\272+k\363\271Jz\200\272\212\340Y:i[\214\273*\217\230\274\334\032\013\276V/\377\2725i\320:%\216\005:\260 @7\304\367\2767qc\250\272\213\314\017:\225\253\341\273\306T[;\321\341\316:)*3\271\377\305\347\271\230\212\214=\372I5<\336!:\276\314\344\214\272\346\276\031:6?\376\270\31137\273\333E\357;\306\244<;KZ\211:\334\302C:~V\004\272q3H:\355\346\351:\336\223\312\271\346K/\272\264\266\n\273\276\225\016\272\340v9=\220\207\275:B\363\024\272\177\350\221\274\247\346\022;\217\362_\273\337\310\305;\010\213\007;\327\336+\272k$\013>\352\210\t\275\237\032\217:\300\212_:\300,\r\272_Xt<~4\t;\017\205\255<\232\000\356\270\376oC\271j8\305\271+\007u\271\302F\032;\351(\337=\'\314P\273j\343\006\273A)\022\276\2574\302:\354x\371:\342\rI=M\004\360:\027\351\271\274M\006#\273\027 \t=\243< \275:\032\005<\025\241j\273\t\3262;3\242$\276R\373r;\303B\334\270<\366\353\274\200\335\031\275^\225x\274^5\257\272\361\362\207<0\321\354\273\223\320\355\275F;\244<\205=\336\275\003\001\3039\304\350K\271\035\217y\275xJ\354;YX\362\274\007\357\266\273\3726+\275\244Hy;b\001\304:{\241\241\273\300\220\002<\273o\265;\243\265\271;;\302\204;\020\001\372;\326l \276\030\010\366;x\376e;\203\3540\275\000\323)=P\006l;\346;\250\275\325\205;\2733\361\332:\017-\232>\354e\000>q\352\352:\267\324\320<,+,\273\366\0275;?\212\031=\347\347\237<Wa?\275(\010\034\273l\265 <\370\373\027<]\326$\275\257\321$<\274\034\366\271p\004\017\272\277\304\014=u\304\313:Lo\230\272\016\216l<G\227\211\2729\035\372:\n\031K\273{\311\235\275\251q\002\273J\005\373\272\033A\244:Z\270;:wp\2778\005C\0219\037\367\267\272\334\327\030\273\024s\330;\274j\351;Lo\215:@\370\3209[e\203\271\243\230-;9S\217\272\026\\E\276\262cV\272\370\266\2579\372\361\236\272d\017\n\273pP\023<t\212 ;\303\024\213:\366\331.:b\025!\273\334\032\033:K\261\316:nV\220\270Z\330z\271\035\322\005\273\037^\335\271\376B\003\275\177Q\210;=\326\221\272\035\"\263\275/4\217;Q\252)\273\322\"\005\275\350Fu;\"G\274\271\tW\344;b\217\013\276\252\377\214:h\013\3749\302\304\352\271Q\246+=\375\224\003;\006\336\223<@<\252;\302\376\2258\212\247b\272\250/\252\270\r_@;@\326L<\222\234\n\273\361V(\273\277\020#=\210E ;\017\027\352\272EL==~\376\357\2721\274J:\"\357[\273%\207\365\273[b\222<\254Z\r\273e\313\257:\364T\3219\321\227\315;\300+?\272n\030\243\272`pf;\342\252p<\370\354T<D\224\345:\3765\032\273w\037C\273\322\301(<\273\232m=oV\004;\240o\217\272\"e\\\274w\220Z\272j\274?\273C\n\'<U\010\003;NlG;\270\021\242:\226Ev\274\002Iy\273n\317\3438\361J\252\267H::\273\035\'\021\2733o>\272\212@\022=L\301\341<;\313\260\273_\007\312:H\301J<\016\026\001\273\331\200\240:\275\"\243;\222R\036\273y\222\214<Hr\206\273;g\341\273h%|\271\261\204\224\273q\'\246<\274\354\300;\312:\254;\316\243\357;\352\275\213\272\274C\306\273b1\001\273\272\242l;{D\361\273\204\355\035\273a\030\225\273\324\374$<\352\366\266\273\2254\027\273Dm-\272\307\326U\273\355\243\n\272\221\330Y\274\003\223E\275\350u\273=@\370>\2736\204r\271j\316\302\2731\"\t\275\370\030\005\273)L\354\272\376\363\201:~\215^\275k\304\025\274\023\244\236\273\325\262)\273#\310Y\272K\320\313\274\273\224\355:g\035\205\275H\024\272\272\266\007\2749\361X\373;~~\200\273v\024\3419\020\030r\274\024\303\334\271\255E\255\273i\352B;@\321\3338\240n\243\271\257q\327\272\235,\030\273\224OX\274\210\275\002\273\334\004:<vN\031:b\301\030\273@\205\237:\337R%\273\203\351\215\273\320\360\235\273#Lh\272\253\226\357\272\260\300\220\273\3326\217<\347\342\247: \246\2379\257W\037\273z\223\354;\302J\332\272\356]$\274O\362Q;z\327i\270KKF\273?\2516\272\314%\237\273\021Et=\3051E<%\224\303\273\024\017\001\276\016\260`\274\335\031\263;\340\303d=\356\232\243;\310\340M=;\346!<\326`\335<Tc\223=\374\357!:7\333\002\273\030}\"\274\200\233\246\275[\361\200<W\316\005\274A\221\006<\336O\024=\232#\201\274\237z$<h;y\274&\302\217\274\033^Z>+\026\337\2749\330j;\225\215\256;\200~\272\271\005B\270\275\350La;\276\350\033=\2132#<=\352\027\276\252\201\253:K\270[\274\317\305\220\273\231R\373\273\374\t\313;\244\314 <\302\304\242<\014\332F<A!n;y\321W\272\235\352\211;\324p\010\275\251\276\"=\312l\353;\245\340U\275`\202\205\270\312xC\274h\263\002>*\330V\275\025\017\020\273f\313\205\272.\233\255\273y\365\020=\344\264\265\274\222\262\022\276p5\031<\251\"\307\272\327\260\343\273l\315D<V\022g\274\370\037e\273\215X\366\272\225f\370\272\207o:<n1\310\273e\216\341\272f@\317;\224}\200\273\0341\005\272!\2678\274;\314\007<j\250%\274xQ\006\273\330N\241\267\306\254\271\273;U\255\274./c\272y\251\013\273qX-\273\007\036\377<\315;\002\274\3644\257\273\225`M\273\314\314\036\272\206\246\221<2\370\031\274\243z\353\275i|\260\272\342\243\2119\200\336N;\240\322Q\273,\364\326:Uw\000\274qR\202\272g\"\321\2734\332\027;D\30579\251H\315\271\211\024\036\272#/\203\272r3H\274&\203\320\272\337A-\274=M\226:\227EU\273\016\252\270\274\207\356e\273\020/G\273\312.\353\274\205\350\204\271m\214\230\272\323\002\250;*\313\037\275R\277\2328\325\032Z\272\031\334\351\272\267\316><\244\235b\273\031.n=-;e<FO\2357\001\000,\273\260O\010\272\200\341v\273\261A\224\2730\324Q\273\036\022\265\273\346X\002=\242\025\307\273\2056\027\273\354+\237;\237\021\366\273\227s/\272N\020\036\274Jt\257<\371r\340<\223\252W\273:\260\302\271\273)\260\273\340\024\014\275\300\264\202\273\317\213\376\272\177\002\272;IGG;\211\203\255\273 \261\301\273\250\244c\273)e4\273\024`\237\272\204*\364\274\313\037{\271\303\017\320\272\030\300\254\274\207u\206;p\\\262\2734\355\310:-\003f\274\321 \255\274\374c\265\274\270\212\222<\371\006\177\273\365x\202\272\372\210\010\273\367\226\242\273\005S*\274G\364\036\273\274?4=\236\t\222\274\317tI\274\2114X<\226?\214:\221\302\214\273\234^w<\345\352\274\272V\205\200\273Qy\255<A\262\177<\362\261d\274`\373,\2738D\016\274\032\325\000\273|I\222\273v\314\262<N\301%\275FD\276;}jY\273\356\2112\2734\357g\273\244\221\305/\211\375\245\254RB\214.!b\034,Q\321\225.\366\200T\254\242i\242)\010JG\25454>,\336\354G.\302\035\331/\021K\317\251\336[+-V%B.\203y\006/z\215T+v\314\350\254d\205\226\255\004d5/\353o\n/\224\211\355.\r\302\371..S\t\255xg\330*\337\003\227\255d\275\231\247S\"{0Y\213\002,i2G-qc\321-L\202\033.\313\316=/\274+\270.)\340R\253+y\006.n\321\322-\223\370\306,\375I\230.\217L\021\254\316\262\203.#M\216-\332\276\330,\271\243\222.P\334\031.@M^\250;\365\0060\325\035\030/\t\216\344,\3767\000.\373\253\340.\014\016D.H;\333\252\351B4/\370\010\220-o\314s.\000\237\300+\302\221|.\375bd.\351(!/\005\334\352\252\3502\307+by\004-\246\245\006\255\004\354R/9\356\235-\002\013\201\256\000\356G/\262\302\306\254,\236\306/\000\213\237\255\310H\345)\033k\313\256\020\020\335,\245\021X\257\246\367\216,\217H\246\247\204js\256\3655\220\256\375\212\227/\036\347\301\254\304$P\257\2644\372.46s\257\005\372]\256\347\247\002\257\351\036\272\257\2175u\255I\345@/x-E/\000e(\246c|\272\254\376\221\322\256\375\373\335\255\243]\263,X\332\227.\353\263=\257\007\336\017\2572\355\023\257H?Z-\"\253\020\257!\235\223\256\275\007M/o\031.\256\357\252-\257#\357|\257F\273\374,\032\312\000\253\272\344\243.\r\"g-\327D\202.\013_\276-\263\013\356\256\232\315\235\257\307\220\\\257\211\3570/\245\343}\255\241^\004/\360B-.\023\213\022/\320\007\323\255-M3\256\023\301\264.\354F]\2579H\361(\261\300\336*\004\370{.d\352\313\255+\016\323\256-\306\314/n\374\016\254\014\307H.\211\256#-\230\261\320.\312\025|\254:\277\336)\222/&\255v\352\032,h\326\r.\247Q\016.\261\266\017\250\317d\006-\227`H.\002=\005/\305\271T+\306p\260\254K^;\256\302/%/F$\324.\2246\311.\376#\000/\225M\343\254\334\245e\253\305\nA\253\214\300f\250K\352W0.\305\224,\022\022\262-<u\235-g\367\002.8I\210/\246j\210.\333\340\326\253<A\010.:J1.j\320\316,\262\361\264.\034\313\000\254fA<.\324\226\257-\374P>,\305\323\236/x\243\221.xM\257\252\262mU0\343M0/\220|\301,\333hU/E\251\355.\000rT.\315g\022\252\361L\364.*nh-\261~\240.\360\225H,h&\320.\233`\230.\204R\004/K5\335*n\014\371+\216\005\246,\270\302\261\254\324QB/`9\0260|\377\240\254F\347\217.\347\234U/\364\374\212.\255\353\224\254\000>m/j\226?\255\272\237T,\251;;.\244g>.\336\327\331.\204\3570-\261hp.{\203./Z\324&+\275\214\006\255\212\177t\255/\357\205/\032\020\020.\300\224\376.\010\346\364.\212\'1\255\003\256\270,\215\031!\256\203=$0\370\362\234.w\022\r,\007,\244.\272\210\240-\r\226>.\376\371\375/\234!\277.\203\017\366\252\344;\254.W\356\200.\376+7-M\003\273.\371\004\001\254\353\263\215.$\031),\376a\006-\214\'\251.\235\313\0300t\341[\254\253[\260/\371\037\254/i`\350,\315a\314//\342\006/iyO.~\275\360\255\325C\276-\032\374\277-?\332\001/S\037\017,\342\376\305/?Q\023/IB\217/\031\352\2000\314[\'/\263s\373,lU\342\254\376\305\213/\345+y\274\213\274\230\274c6\232\274\317Ew<\3420{\274\r\014\216\274\335\354\t<D\'\221\274\274>\306\274\376\215\213\2749\364l\275\303\356\030\275\341\327\253\274\024\222u\274\364zw\2740|\356\274j\225\302\274bH8\274\327\215!<\016)\020\275\323F\301\274p>\206\274\220\177]\274\217J\242\274*J\262=+g\017=H!E\273d\312;\274\253\035\223;\315fW\273\350\3156\273\033\005>\274{b\262\274B\273H;Y>\006\274E\236|\273D\230\241\274x\264!\274\3113\326\274W\271\276\274\221G\252\274\216\016\236\274\353|\014=\250\301\335;\303nb\274\351\377\016\274\006\371\304:\366\001\225\274\003(\235<\032A\000\275\217\324x\274\344\337\354\274a\234\263\274\340\351\311\273\253H\377\273\242^\213\274X\271\025\275\374d\005\2737\231\370<9GH<C\327<<\331k\234\274c\344\225\274\246\243\241\274\021\311\207=\r~\204\274\377\032S<\333Q\231=3\214c;\337\301K;\r\321\241\275\021`N\273\001\244(\275\\\226\t\274\347o\210\275\017\007\025\275{\323\024\274\331\n\022\275\025\025\206<h\224\002\276\376\365\001<\005\013\326;a\263\271\275\304\364\326\275U\343\254;\321+\026\274\300\247\031;\000\374\264;\217~\031=1\006p=\024@\220\275\235\271l\274I\246\262\274\006\035\206=\346{j<7}\300\274\227_\207\274f\355\020\275F\337y=\217@m=\275\345z\273Q\307\377;\231k,<\244\242H\274pZ\035<\211\235\366;\257pe\275\016q\030\274\021\327\372\272\200_\252=h\357\325<\232\334\240\273R\2469=\254[\242=\341\010\016<\200J\233\275=(F=\024aL<\211Z\206\275h3s\273\210\330\213=1\t\372=\212\242r=\005\321b\275c\204\336\274\313\214(<\3144\210<zN2<\327$\305\274\374\366\210\274Y\353\273\274\265\225\206\275\330\344\204\274k\247Q\274A\232\002=\267\031\233\274T\277\220\274\242\236\232\274\204\302\211=\355_8=Dm\212\274\374\210]\274\251,\201\274K\006\034=\200\222\237\274\306\246.\274\255\250C\275\366\001\201=J\260\224\274\354\003q\274\371\264h\274\267B\224\274U\370\233=\246?{;\303\364\352<3y4\274:J\326;\256\237\273\274\277\001X<\313+3\274\264\266\'\275\215\002\364;\327.5\274\036\377=\274-\340t\274\307\253\031\274\362\371\214\274\232\033\275\274_\243\334\274.\014h\274\236<1\275\302\026R<sI\224\274\3566\017\275f\010\310\274\304>|\274\362\354\236=I\262\346:>\272e\274l4\370<\363\371U\275\t\3167\274>\032^\274\274\226t\274D/\333<*r\210\274\354\025\233\275!\326%=\005E\241<\020M\225\274\261\267\206\274.5\313\274n\323\335\274\272\2541\274\370;\272\274\363\016\263\274A\023\221\274\275Q\224\274v\366J=[\335\323\274\350\023\000\274\304\333\243\274\246\n\222=\252y\244=\323\377\267\274q\364u\2741\263\274\274\315\210\263\274\023\307\267\2742\365<\274\320E\357;\037d\013=\2528\215\275[f\207\2744\360\001:+\363\256\274\303\234\262=\263K\332<\270\244\t>$\005X\274+dX\275\037\366\307\273\230\0046\275\201&\361\272\247\203[<MMO<\326\277\200\275\216\262Z\275\233\266L\275\352\302/\274\242c\355\2744\312\312\274N\242\245\274\3673\265\2749\373\231=\277Im\275\347\337\205\275\322\270\273=9\336|;y\026\226\274\006\204w=\271\212\\\275U\321\341\274?6\245=%\203\225=nc/\274\342\210\272\274\373\217@\275\251I\023=k>\241\275Cv\210=i\2572\273\3534\033;\200\013\222\275$\037\305\2749ZZ\274N\022\374\274\210\266\244\274v\270\252\274!\034T=\306|\204\274TY\237\274\336\276\210<S\277\274\274N\350\241\274\277\\\257\274\223\241\325\275\337\372N>\267N\272\274\336\276V\274\216(\201\274\206K\337\275\200N\334\274?VJ\274\315\251\207<\344\177\325\275\262t\243\274\324\230v\274\267\001\226\274l\227\245\274J\271\271\275\33392=\274r\330\275\316\256?\274\277\r\212;\216\234\266\2757\336\004<~\3131\274A\341\013\275\210\310\321:\241\357\026\274\340\360\210\271\3672\266\274\320u&\274\247&\354\274\031l\317\274\216\336\253\274\034X\255\274\270\t\030=\016c\346; \006=\274\013 \357<r\203\370\272\266\335\256\274\034\272\315;Y\367\006\275J\262\217\274\244\236\236=\2124\234\275/\316*\274\017h\254\273\206r\206\274\345\202\254;\000\344\320\271\320\247\240\275\026\225K<\rP0<\024%\230\274$\250\235\274\330\245|\274H`\025\275\255J\260\274$\251\025<d\0165<\332$#<~}9;\273\004\355<\257\243L:\312\204+=.\236\222;\372\311\356=\257\234\366\274\347N\267\273Fa-\273As\203;\366,\320=\344\367\377\273\246\263\033\274\307\271\304\275|7\245=\231{i\275\237\324\002\274\275\013L<\037\315\226\274\246\357+=N\316\237\275 \314\365\275\001\016G<\346\233\243\274Y\317\245\275r\\\026=@\002\202<2=1\274\225\223\313\274k2W=\247\347\216:\241g\270\272\257\225\330\272\237s\036<\003\254\004\274+\301[=`\275l;\337[\203\275-\276\247=W#\315\273\"8p=\260Q\313=\003\277\317:\205\331b\275i\030\330\274\031\000\\;\236\221K=\316\315\321\275]\316\017<\205\271\036=S3\210\2738}\034<\377\244\261\275B\216\244\2759e =l\"\337\274bB\253\273Sj\341<d\277\355;\000F|;\003d\214\274\312\335\303\274>\305\237\274\223Y\207\274\363\271v\274\257\3261=%\t\224\274\375a\314;Jg\266\274\254M\002>\344\270\344\274\262\355\226\274\272\3401\274\257\225\202\274\275\352\360:\244g\272\274_\226@\274 D>\274\214wD<|\372a\274_\373~\274\013OW\274\"\230\230\274\005\315\227=[JO=<\333\221<\203\205C\274Z\365\271;qh\327\274\347\3341\275\302G\205<\202\036\345\274\021P\237\274\212\235\343\273\270W\023\273!!\215\274}5\037\274\323\334\235\274\306\201\315\274Y\022\310\274\217\002\200\274\\\021\253\274e\322A<\002#y\274\002SU=\030\337\243\274\350#\204\274H\0038=\344\021_\274U\234\207\274Y#\334<;2\211<\223\212\204\27410\202\273\022\240U\274#Un=\200\366\352\273\255\325K=)\027#=\274\005\240<62x\274\211\261\214\274\346JT\274\236\355\273\273\245^\035\275\240\236\257\274\366\034\347<(\014\222\274i\247\244\274\033\357\023=\301\311\270\274Y\273(\274\301\341\274\274:O\261=\020\213\262=\021#\310\274\2679e\274~\266\237\274\250\322\341\274\215\371\314\274A\240[\274\244\023\237<x\305j=YE\246<\"#\216\274\340R\377\273w;\263\274\252\225\276<\350\247\270=&\033\336<\275;a\274\330\207\373\273\343\034\307\274\016o\277;\3165\005<Q\034\270\273\277\301k\275P@q\274B\206U\275\024\371\322\273B\016\361\274.\024\002\275\363t\363\274\3665\226\274[U\306\274\316\217\246=\247\214n\275\032\323\006\275\016\312\277=\371\373\372\274\355\321\247\274\327S\307<4\022\224<\2150\300\274\256\317\332=*\360q=\234\301\275\275\004z>\275\ns\200\275\273\233O=@\'\036\275\225`\004>\370\337\t<[\356B<\361\371\242<\t\033\317\274\037,\325\274\377@\235\275\035\263\351\274\257\224\320\274vs\211\273\352\264\266\274I\024\330\274\010h\247<a\372\362\274L\350\016\275\351\250\322\274\225Pe\274\212#\213\275\306a\003\275\232\362\244\274\025L\271\274\034\346\263\275\375\206\014\275jey\274\232s\3569\246O\244;\375\021\362\274\267\037\361\274\242\307\264\274I\026\345\274G!\243\274\363\023\033=\333E\022=\006\362\240\2745\255\337;\036\026\374\275\"\315\247\274;\237:;\245\356\255\275\361\357\020;2D\330\273\2274%:\342\370\371\274\034f{\274\231\376\'\275W\267\022\275\3408\320\274\260\036\001\275d3C;\214\277\033<{\360\201\274\031\353\260=\033N\247;\312\232\315\274\304\204\324<U\357\303\274\234\225\342\2745;\234\275\311:\221<\342Q\037\274\216x\025\274\004\377\247\274\375\037*\274_\330\212\273.\267\362<%\216\256<\352{\214<z\330\317\274\304\267\345\274n\027\275\274\305\317:<#\037!\272\266Q%<*\224\325=\3038R\273\301X\207\274\262\366\007;|5\023\274\205:\275=\306-c\274N\371\221\275\240\316i\274\341\240\215\273[\021\t\273:{\177<\365mb\275\031%L<\310\276\321\274\203\013\023\275b\317\314\275\032\227z=\327t\347\273\316\252N\271\211i\272\273\351\326\206\275\241,7=\375\014\326\274\342D\355<6d\375\274\273\264\324=\\\'t<~^\322<.\204\351\2745\204\223=\255f\210<j\374\227\275\177e\250\273\204\344\033\274/c\303\274\326\254&\274g\264D\274R\303Y<\243\215\362\274\314\236\266<\267\323&\274\354A_< c}\274\3744\205\273$w\274<\261)a\275\203o\337;e \006\276\314\226P\274\330N\230<hs\363;<\250+:\'\021]=|\343\206=\003\327\260=7\0176\275J\221\035\275k\315\340\271\177T\371\273\272\030\201\274\002\210\300\274T\267\313\274&n\004\275h\263\310\2751\034\270\274\345\232\256\274\263\355e=\364#\251\274\351\301\010\2741\304\345\274\320\314\357=i\203\r\273\376<\313\274\335\266\223\274a\013\271\274\323b\245=\357\007\354\274x\277\213\274\257\276\031<\352o\255=;\'\245\2748D\260\274\037\253\345\274*\212\324\274:.p=\346;#;e}\002\275\363O\214\274E\2362<\037\037.=x\024\254\274\316\n\254\274\317\333\223\275\234c\001<\311sF\274A\361\250;\253\303\300\274\360\010|\274\305\251\346\274\030\365\r\275k\243\010\275\010\301\275\274\027/\236\273u+\213<j\252\250\274\326\3073=\3412\001\275\337\366\255\274u|\314=,\332\021\275vT\322\274iY\262=\301\317N<~\276\205\274\363\304\036\274\227\037q\274\220C\023\275\373\205j\274\360*^<l\326^=\010\223\352<\242}\311\274I\t\317\274\223\253\322\274]\235\023;\224/\347\273\201l\313\2741\253\030\275\253\343\307\274\222\310\341\274\342vs=ha\006\275\024\216\341\273\307<\004\275\024\026e=\333\014\270=\262\217\007\275Q\201\231\274\225Y\376\274qr\322<\332x\377\274\221W|\274p6\313\273\363\023\332\274\354\274\205<T\365\302\274\307tg\275D\234\003\275\212\010\357=\201\253b\274\267_\221=\264\206\260\274\234r\263\275\360\310%=\232\006\215<>g\232\273\205\007#\275\215\324\263<\306\341)\275\366\204\237\274\033\365\300\273\240n\231\274\213;:\275%\005\037\275\275\237\002\275q\272\025\275\260$\217<\274%\331\274\2422\235\275\241\326\022>Se?<u\254\345\274^\347\322=/\216/=\257\3419\275\205\353\217=\2425\332=\345\375\335\2753\247\210<\025;\203\275HQ\353<T\322\016=\360\347\253=\237\331$<\207\261\246\275\264\037t\275\236\032-\275\267\271\332\274\032\347\003\275q|P\274t\327u\274\271\345W<\200bW\274\257\327M\274W@\320\272\367\345z\274\322]7\274\2531m\274\326\003\033\276\\\304\361=nbm\274\253$*\274--Y\274\357\022\260\274\241\356\231\274 .\365\273\251K!<\322\324\200;\225\272\365\274eGB\2740\325\"\274T8\203\274X\220=\276\304+9<\020,\026\274\ty\001\274\245\377\217;\241&\004<\323\257{\274hy\'\274\261\316\r<\220\374\344:\336\326!\274\307\322\274\273M\320k\274j\231\332\273=\261\234\2744\335\213\274 \300\232\274\203%g\274\343\247\333<\316\275G;\377)<\274A*t=\341Z\345\272\212\270a\274q\3454;\002\207\310\274\245M\020\274\020\021/\275\306,\376< \262\320\273t\027\'\274\'\205g\274\310\355\243<D[\274\273\246\364\362\274\036?\351;#\254\354;\017ST\274\366Bf\274eQ\245\274\377X>\274y5q\274\214\256w<R\310\327=\\\302\275:\3300\317\271\326\236\206\275O$\037\274\n\035\260\275\226\273B\274\276\\\260<\037\2301\275\321\373\330\273\242u8;\241\266\026<\224\370\277<\301\265n;Vb\"<%c\005>E\216\220=\276E\317;4\201>\273\020\373+=<1\';\036\234T\275\347\341\243\275\337\321\322=\203L\203\274\236\\\200\274A\351\221=\327\273]\275\026\026\220\275\237u.:\271]\235\275\210\362o\275]v\315\273{\r\372\273\024\207\342\273e\t\337;4\305q\274\271\256\224<\327\276Y<\223\\(=:!\331<\314\306\2739F\236\261\275\013\r\274\274\307\204\312\273\321qJ\275\030\330\301;\306|\004\272\215\303\r\274\200\273\313\275\3001\257;\177\352}\274)\241&\274\267v\225=E\273\234=\014\036\024>\370\036\232<\000\306\237\274\206\322\275;\322=M<2\013\216<\360\344\224\274\206SC\274\337\242\217\274\335Ea\275\326\022k\274\257\373\023\274;\r\315;\337\346h\274J\023(\274\253]{\274\013\210<\275\367\361\t=\271\332:\274|6\023\274\212\270c\274\224Y#\274$\361o\274\346\302\333\273\006\231\010\275i\301\336=T\233\313\274\201\314H\274 \322\036\274(\004l\274g\275\243=\033\371s;|\341\263=[\\\004\274\266\247\311;V\337}\274\304\033\241;\227K\014\274}\036\325\272\362\010\n9\330\245D\274\341\213\377\273\276\373.\274c\177\321\273\324\033G\274U\321\215\274\327|\303\274\310\336+\274~\211\023\274d\241\334;\006\205}\274\'\034\262\272E\262\241\274\313$>\274\204*v<N6\034\274\250\364\000\274~I\350=[\216\245=b\2062\274U\001q\274}qu\274\024\321\021\275\035\326z\274&g\323\274\002^\001=\2542[<-\256P\274\2578M\274Za\326\274\312\021\217\274\375\005\363\273#(\216\274A\2344;Z]q\274\205\336Y\274\374\337t\275:\210\255\274\203d;\274\213\374w\274\244\247\317<\034]v=\212v\207\274v\372)\2746\016\200\2749G\016\275A\267\217\274\260\030\001\274\1770\242\274\2509\222=\267\201k\275\330\033[\274nI\313\274\201]\212\274\271l\257=\225\200\255\274\301\362\362=\275\365\021\274\272\t\016\273\334\242\n<s\206\n<\375\213\367\273\337\257\014\274\362J,\275\354 B\275S\340\211\275]\255\026\275\336\306\354\273\375i\255\274\363+\242\274&\023\231\274{\377\202\274\277*\177<\310\245Z\275\343\235\202\274r\241\212=\2659\001\274\016\232b\274\266!;=\370\'!\273\002\215v\274\274\331X=\376O==L\370\252\274\225O)\275`\371\352\274\330\316\232<\227V@\275\n\210;=C\244\312\273_\271G\275\344W\207\274(E\217\274R\337\246\274\336\\C;\0018\256\2712\255\314\267\210\205\034<\"\220\315:\226\017\2179_\214:9F\030\215\272\205[S:\360\033t\272\342h4\274e\242\230=\212\242\303\270\203\346\334\272\317=\302:\004\267\017<,\314\2579\"<\221\272\025\215\227;7\371C<SH\253:\022n\036;!\035\3648\210r\032\271\353\353\027>80\000<8\210\014\275\323U\025\271~P\211\271\355\247=;\026\217p8\345\t\030;O\375\034;=\033c:\265\232%:e\273\006;~\256&9\301;\3409\354Z;\271\250\231\313\271bW\361\272\354\301Z\271\000\355\260<\303\"\252:\253\325\236\271m<\224\274\314\022\275;a\017\000\272{\214\361:T\203\2359\242\376\273\271\340\366\250<g\313\240<\261X\261\271\374\263\2519\310\253\224\270\265\223\234;\367\014]:\032\302\355;\200%\2258\"\027M9\220?\337\271j\257L\271\332\332):\315!T=\224\036<\273^BN:\'*Z\276^K\207;\302\243\2059\342\037_=M\004\343\271\352\307\r\274m\363)\273\026\225\236<7\025\264>\214\200\004\273\303\224\215\273V\034\235;\003\277\222\275]\252t\273\255\374\010\273\006\227\363\274\346\356\315\275R\202\205\273\306\221\211\273yt\251;\374\023I;PWS=\333F-=:\252J=\233=\305\273\365OU9Xv\024\275$\350\205;\247>\005\274S\214U\273CL\226\273\013\204\313\271\240V,\272\240\361w\273\210\244\266;\223;\017:\220\233\342\271\016\217\320\273fxu:\336?\200\276\326\335\220;N\327\2669:\230\364\274)\264\213<\004\004\362\272\320\260\367<H|\260\273\336\367\234:\242v\016>\230\361\213\274\251\035\274\270\311F^:\341\031F\272\304\275@;\376\243\340;\336e\272<\202(\232\274To\3309\340\317\252:\211*M\272\345*\323\274\353Z\211;U\223\241\271\360\310\033\270\005\366\225<+\325\271:\204Q\2129Td\241;b\223\203\272\264ez:b\2664\272s\240\356\273z\0232\274\317\020\244\271\217q\304\272\2536\261:\337\323\001<\315N\3469\n\007\247\272_\377\327:\025mB=1\020:;/\356\311:\001\247\3608M*1\2707\016\005\273\367\344\232\272\033\317r<9\271\016\271x \251\271\315\027\235:a0\320855#;E\315c9\241uJ:\260\003\33096M\301:vz\2438l\373\3159vC2\271\342HY\271\353\007\306\272\222(W\271\275S?\275k\022\310:\323m\3707y\221\352\274\360\317\302;6+V\271O\237\022\275\032zA:\020\206\354\267\034\377\007=\022?\033\275\236\320o\271\004m(8\270\370\\\271\250\276\344;\023\016\265\272\314\327\341\274\255 \252:\020[^8\273\352\002\271\324\333<\271\212A\n:\341\264\220;Gg\253\271\202.n9>\367\205<\013P\030;\327\216\2479\250\320:=\034\212\301\272\006Dh:-z79&\254\006\271{\244\307;(8\\6\276\241\215\272\006\306\022;~\000\237<EZ\2379]\272\204\272\274\031^9\2223\344<\366-\022<Ez%;V\227\005\273>\3514\272\361\264d;\020\2775=\305@g\273\233\302\020\271\037\025*\274\236P\337:\313\326F\271\000VF;?$\035;y.\267\273\314\214\306\271\371n\214\273t\276\200\272\232\213\0269\324\202\232\271\027\314\344\271\364\033\227\272$R\"\271\246O\324;\321\355\377;\300\001\036\273:5\000\274E\223\034<\345&\3579\300\364j\273\326\177\320:\244\336\0029q\363:<\252a\241\272^\235\035\272\356\026\274\272*\375\274:AP\323;\242\006\223\272I\275\320\272\325A\014<\320\225\261;\227N\375\272xi\241\272\306\021\r9\312\360\261\272\233Z\010\271\265W\r:\036\346\365:.\313\2069\270\"\277\272*\211\221\271\231\346\231\272\2337.\272P_%\272\222%\371\275@\006H;\210\326\312\2670\326\225:\307\023,\271\313\332\353\272\264/j\272\017\263\242\272\361\027n\273f+\272<N\327\243\271\321\2579:\\\312W\271\220\355\003\272\241\205=\274P\347\2069\265\223v\274\262\241\022\272\341\347\r:\224\306\276\272)\307\373\271\246~w:K6\000;\214\265\332\272D\211\2439\314\243\032\273%;\205\271>\024T:\312\204#\271Zi\n:\2749\2439\t\217~\272}\221T;\262*\337\271\365\03439Sg\300\273D\324\234\273r\375\026:\327\200<;\014\312x\272\032\323#\272\352/\333=\203\037\353\274\341+$:\336\002M\270\326\005\024\271%\010\030<\215\214\277\270\257KA\275\351\304\236\272Fk\262\267\301Y\003\271\366\242\030\271 \273f\267n\256\n< c~\273\361\020@:\352D\373\275J\234\232:\376wo\273o\350v=J\000\227\272\217\331\351:\373|s\272\375;A=\333\236\027>\262\000a\272\330\264\326:\244\201\2009u\3230\275?\237/\2734m\220\270\2656\001=\277*:\276^O \273\243\3231\272\272\206\2349\237\022=;\234\242\033\276\275&\010=\276\'\021\2767.\004\272\340\364\305\271\331\277a<\324\335\317\273\255Z\342:\242\332\223\273K-n;\014\333\3677\375\324\353:M\235;9\2215U9A\017\200\272\352~\321\272\331\027\200\274Tn\216:pf\325\275\245\362\006:I\240\311\272x\275\306\275\"\030\016\273\256\3315\272\332-\017\276V\212\232;\304\300\235:E\3602>5\345k=\242\312\213:\376\234N<f\241S:F\2009=\2713\251<K\006\257=\321PI\274\362\"\364\270\344\216\216\271p\"0\272\330.\317\273\016+d8\341=\006\271\372\351\3559h_B<)\32529\367\226\206\272@\204\'9\303\'\221\272@\311/\272n\310.\272\377#M\274[\230\374<xG\355\270\247B\245:Q\037\235\270\3451\211:\350\224\264\271\2140\300\272\036\327\024\272C\335\266<\270\203\345\271\3527\206:\256\t\3239\032\343\235\270y0\312<\210\300V;`\033Y\275<\357\253\271R\027,:\223\253J\272\213\334A\271\316\035J;,\330J:i3\034\273!\023\3079\255\322\377\272\rx^\2715?\235:4\037w8O\303\31090\304\001:z\004?\272m*I<\322CF\272\260;\0338j\255\272\274\212\242Q\273\375u\2069WK\254<\002\356\217\271\033\250>\271\350\t\356:\242n%\275\257\037\2649\360\310\2779\232\255\356\271\242[%=\314\375\3419\356\362\251=\220\331\022;!\324\3448\330\034d\271UG\020\270=\320,:\362\032\3329\010Z\221\270\272We:\227\205\364;\036e\\\271X\273\273\272\226\010\347<6\031\310\272g;\224\272\376\017\033\271w\245\202;\222\350\035;\313\356i\271Z@\321:\353\342\2379\305\275>;\363\336\254\272\245G\221\2720T\374\267H\262\235<7\335\347\271\326\3707:\214E\203\267Bp\035\272\017\303k;<O9=<\351K;b\261\"\272q\207\000;\317Qj\271\343\240\016\272qm<;)\367\341:\177\350\232\273m\r\361\271gS\010\274\273\254\242\272\206\351\235:`\275\307\270\342Vv9!8\036;Ic\235\272\347\330\342;\256\270\017<\343\3127\272]\210\335\272\033q\213\273\336\327080\320\031;\315B\210\2720\233\2379\001}*<|\004};b\001\310\272\330\307\0029\316\377C\273\"\242\212<\365\003U:\213b\273;\002Z\265<\035\245,\274\014/\322\271UE\036\271\376\254\345\270\307,\252;\002j\207\272\2529 \270\302\250d<p\323 \270\241p\006\273\340\2209\272vT\022\273\266V\3769\276\215\210\273\007-\261\274|\205N\276(\n\304\272\256:\005;\333Y\352\271\207\371\211<\251\261\"\271\355\t\334\272l\350\303;\t2G=\022\251\3069\222\346::q\350I:6\240\035\272\206\013\320=7\271\325\272\303\203y\276\312\355}\272m\355\032:\270\222\030\274\227$8\2736\361\010<\347\261\032;\234\271\2649$0\377:\355V\224\272T$\221:ux\031;i\243)\271B\236\016\272\224 \r9(\032u\272\314\251S=\370z/:\003q=\272\353E\234;\252\037w9\324\357\321\271\330\000\306:r\237\361\271*\334,\272\215Q=>\262-\370\274\352\246\315:\362@\002\271\t\254\241\272\274\216\251<\234\304\016;\246\256%=\366\257\004\270\353\352\000\271OE=\270\243\304\231\271\226\202@\272)d\245<i\214W\274\002b\301:|6k\276\343\325\3669\000\264\253\272\2108\256=T{\005\273XT\302\274\325\210\016\274,\353\326\274p\243W\276\337\260\037\272.\027\313;\310e\212:v3\357\275\326n\002;\326\365\203;2\0305<r\234\031\276\005\035\363;)\240\270:9\203\214<\261\266O\273\204J\203\276$\302\202:qV\224:\363\233\375:\310\023\r\272yT7\274\220\026\345\272\000:\013\275J\226\261\2735uT\274\"\353\2739\370\217\206;I\207\220\273@\263\305;\020\234\272;\372\205m;\270\235{\274~z\007<\242\223b\276\276 \301;\224\014-;\013\220\035\276\360\361\002<\305\3610;\362\311}\276I\3719<\265\276R;J\207\262>&\030<>\021\364<;\020.\037=\000\317\365\272\221;\224=r.g=\360\213\204=p\007\030\274.\001\017\273:\243n<\325Q\035<^:\013\275}\027\233;\374\333\n\272^\240h\272\223x\327<2(\366\271\017\010\236\272\265*\027;\233\251\"\273\3270\006;\274Ne\273\344\255\251\275%jw=XR\246\272\315\215\254:\332\262B\272\014Pm<\022>a\2715\341\026\273+\246\272;\266\002\001\273P\301\375:@\021\033\267\244\342\252:[/$\272S\263\017<\345\315\210\274\332/q\2763\271d\272\246\r\034:\216\262\300\273,\010\327\272\025\225\030<\213\005\342:\314\277c:\332\347\261:`;\027\273N(N:/m\t;b\364A\271\316W\222\271\255\216+:pG3\272\214\232\271;\233\265U;0\205\007\271Yj\303\275\271\2310;\021\224\005\2713\210\004\275\263(p:J\230\001\272p\\\\\274\273\357&\276\032m\250:\223\225\3419\027\376\364\271Kj:=\207\272&;\300\033z<K\335\345;\371\2420\271|\024H\271/\347\245\270r\321^\270\337w\343;\200\\\010\273\275\022F\272df\010=A?~\270FY\027\27384\357:\271\002\206\273L$v\270\214m=\273\271x\016\274\226$p<|\344\261\272x8\373:8\327V\271\014\243h<\267n\372\270>\225\331\272\201KX<\021Z\243<\025i`;\3312\236\271\251\377\3709\305 [\272\252\321\251<n(K=\205\327\001<\233\350\205\272\024\377\031\274(&\277\273G\367/\273\336\227!<PqA:\243\225F<\206\253\202;\010\252\001\2753\256\224\273\007\361\254:\246r\024\267q\325\005\273]\324\2629T\207\252\272>_\005=2\220\007=\323\314\367\273\"\243\215;I&\030<\314\001\367\271\177\333\303;\242\350\0328\3457\032\273\261\374\357<\343g\201\274\321\316|\273\231\207\023\272Q\366\031\274\367_?<,\017\315;\000\035[\272\246\235\265<\020\3177\274+F\312\273\365\300B\272{Y@\272%\\d\272\275d\207\272\225\305\r\272\301\034\344;\244\316\346:Ng\241\272Xk\000\272\002\3548\272\244\033:\272\000\365\252\273\306\260\265=\304\014!\275\210\022\324\272\240\235\027;\016h\337\271E\333\305\274\363\023)\272\226DP\272]\240\265\273\362\320\r;T\307\314\272\260\306\222:g\235#\272\221k\225\271\371N\002\276H\342\3709hS\237\274\323;k\272\244\246\3018H\277\365\272\232\272*\273P\350\217;\333K\270\272\246(89@\263\224\272\353\226\251:\034\374\022:\325\216k:\200\271\3677\327\027\204\271?F!\273\356\030\202\272\203\240\270<V\341~9\343\320\360\271\021\261\307\274g?\017\273\237h4\272+\0056\274K\345\251:Re\251\271\222\025\216=A\277\022\276\317\221m\270r\2300:_ar\272\026\257\"<\332\005\313:vv\217<5~\202\272\232\275\21794\304@\272D\014\323\271A\016\315\272z\273\322=\250\310\316\271p\3037\271\314\034\355\275)t\006;\335\366\027:B\322\204=\262\177.:?\330\224:{yG;Am\007>}\327\217<g\240(:*j\243\273GX\010\271\2475\265\275S\245\226;\032[\207\272g\244\000=\230\362H\276\014\2613\274i\202\235\272\"J\207;o\014[\273\201\032\010\276\031\035\261<\372\304Q\276\247\214m;\267\035e\267\363\310\300<F\345\332;\312\253\216\274\035\331\236:h\036\t<\334\256\231\273\031 \246\273H\r\021\272d\374\324:m\016,;\243\010n:\254\000\375;\023\256\227;>\364\272\275\364*f;\266F&;Z?\233=\2579\004=\257\242Q;\260*\317\275-^\030;\305\357O\272\314\023>>\333\212\304\273C\267\307\272\202\214\326<\264\351\223\272\022\210x<\3758\035=Y\340\177=\203\315\272\274\257\032W9f\203\017\273\240#\234;\261*\303\274\2208\270:\362w\337\271\376\362W\272\006\302D<\003\210\376:\231\"\211\272\211sx;\003\221n\2724z\372\271e\232\212\273\020\0068\273\366\347h\275\231\2736\272\016U\007;\246\212\234\271@\270\251\274)\266\274\271\306\275l\272\013\303\016\2744n\350<\023\362\341\272\321NV:\230d\241\271\342Ga\271\265\344\243<\241\206\224\274O\321\004\274\177,>\272ks\007\270\366\222#\273\331\"\002\273`i\313;I\217\217\271\3236S\272L\243\322\272\014$3:\200\270\27495*\205:\315Y\030\271\024,\350\270\213\363\374\272\244\251H\272\307)\032\275\252\207\221:\032\014\231\271\021_\210\275$\206\3768\356\322\363\271\220I\020\274\020!\026;\316`\026\270\036\205#\275\367\221\226<\231n\3039\345\313\3129\2560\017\272\024\026\007=\377\3505;\346-q<\276I/;Cl\035\271\336\211\000\272\370\216\240\271\027\007\271\271\203e\242:>\314\274\272\233\213\310\272(\257\220<*\3612;X\301\257\272\205FL=\251d\300\2729 \025\272(\221F\273$H\240\273\307Z%<*\363\234\272\356w\016;\023\"\241:\267\335\214\274\377\323\253\272\3520E\272\t\014\266\273\351\224s<\326\036=;\334\311\352:\240\324\276\272i\366\201\271\215E(<S\206\345<\230\356\277;K\233`\272\263\340\360\273Gxq\272\334\2761\273\036\\\322;\254\333\016\273\374r\035\273s\312\310\273\373\215\372\273\3476\r\273\001\"\2039\346\2645\270g\337\312\272P\023\274\272R2\207\272\260\005\231<\231\302\200<\222wd\273\036\265L;B\3624;\322l\'\272rD\255\273\2075.;\023\226\227\272\254X\016<e\327m<\261\000\022\274\031H}:/\334\020\274\tzq<V\\\304;\215$\214<I\261\376\272\354.G\274\035a \273\005\204;\272c\334\205\272\373L\217\274\032\004\005\274\334\010)\274\342%\312<}L*\274\304\177\370\273\274\215\272;\275\022P\274\221\021\344\273()4\274\305\240\317\275\230\004\314\2748\336,\274?&\033\274\360\307\002\274\346\204s\2741\362O\274\253y\303\273\264P>\272\327\031\013\276z\233+\274\200=\005\274\035Z\005\274\305\331\022\274\006w\272<\335\010\376<}\315\025\274\010\"\277\273lG\n;\343\347\213\273\212\022\272\273\014\003a\273j\220l\274u\204\240:\213<\273\273+\332\005\273S\363 \274\\\267\206\273\265G9\274\234\271\001\2740\226\211\274\357G\020\274H\213\322<\340\247v;\322}\376\273\2605\310;\364\324\233\272y\322\032\274\301\312I=g\n-\274ni\"\273&D\226\275P\301-\274\260\253;\273\343AX\273\233\003 \274rK\306\2744\224\r\2732r\201\272\323\\\016<\2166\\;D/\032\274\222\324\r\274\341\350!\274z\207\225=\002P3;\304\0003<\000D\253\274\352\036\244;N\340\355:\222w\270=l\2006:\302F\205;C\013\273\2732K\357=\314k\205=%\236\364\273e\205M\274\337\364;<\033\177`\275I\263\003\273\3056\030\274\353u\235=\006\360\347<\353V\207<!\345\030\274>M\323;\005\033\305;K\263\207\275\370\342\"=/\007U=5\265\010\274\257\262\227\273\023\347\305<iN\017<:\377F\275AB\017\274\302,\257\275\323\362E\274|\315w<\027\362]\272\344\222<<Jz\221;\362\312G\2747\235\'\274J\265c<\'=\t\276\325\2653\274JYm:\026\252\264=5^<=\272\027N\273\262\240\026\275F\t\234<-z(<#\022\226=\205\335\000\275\345 \233;\030S\304\274\t\246\223\273\323\210\240\275(\226a\275\377M\365\275\351I\204\275\020\016X\274O\346\260;y\324\301;\023\245\243\274\307\233\312\273\301e\004\274\026\362*\274h\367\250\274\325\2329\274\221\356\243\273d\374\314<\246\177C\274\374\346\225\273(P5\274\332\224\351=\356\033\267=\365q\013\274\200\231\016\274\257\030\014\274\313\004\n\275\035m\034\274p\264\257\273\272e\262\274W\201\004=im\361\273\001\315\010\274E\277\006\274+\321\005\274Fc\204=\255\264\237<\177\005p=)\333\276\273M6\034;q{\177\274\252G\311\273\212Z\316\272\034K<\274!\273\330\271s*\345\273\302\023K\273\304\270\345\273\275St\273Tz\326\273\304\244\022\274\244\271\241\274s\355\332\273\306\262\337\274\026\345\373;\361\0301\274-N\263=\217\2034\274\247\020\001\274\nVH\274\367\245\3278\365N/\273\253,\022>`R\266\274\315\211\306\273\017R\264\273\031\035 \2740\3008\275xY\002\274\201-\204\275a\206\244< \341\t<\024 \027\274\237\017\362\273\\\336;\274\243\320\332\273\356`(\274\030\362E\274\010\363\014=m\2114\274\303\235\000\274\357\356\242=\217\365\215\274\004B\254\273H{:\274\216\\\227<\372LC=\216\245:\274\215\375\023\274\322+%\274\374G\024\274\277$d\274\022n\311\273\375\362R\274\004\202\242;\322\364\270\274\361\374\026\274s\324\227\274\345\201;\274\017=\356<\207\006\214=\330\024\000=\370\200\323\273\021\016>\275L\307\000\274\304\324S\274\023#-;-\263\200;\303\007<\274\252`\352\274I\300a\274\244\272\006\275\003\265\346\273\215\212J\274\002Uh\274\2674\177\274Q\227\"\274j\341\352<\366\226\252\274S\234\327\274&\030;=?\343\346\273\"9\035\274\240\245\004=#,\227\274\3510B\274\204\2754=\353\336\265<\216e\306\274E\367\333\273\334C-\274\200\367\224<\263O\200\273\325\311\033=\320G\220;\207-R\273\317&\216\274\311i;\274F\370!\274{\247\031\275\020u\250\274|)\257\274.%X<\234\322\230\274\353\366\236\274Aqg;\204\"\221\274\2525:\273\311\207\273\274\357\272\214\275\271\r[\275P%\307\274\212\321h\274\252w\234\274a,Z\275\275\207\332\274#\037T\274\013[\235<\210\305\250;\3521!\275\254G\234\274\313^}\274\256\022\263\274k\345\022\274\325\330\265<\022Q\206<-FN\274\032\216\255;\310\314\010\275k\3277\275WU:\274\352|\244:\325A\204;\315\026[\274\266\027\251\273!\216\256\274t\357-\274\023\361\366\274\375\014\337\274\224\255\276\274\234\177\270\274\202\307\334<R\304\211;\277\020\200\2742\361r\274\274\216J;B\321\252\274pO\003=\276$\300\274\316\317\233\274\210=X\275\252\223r=\231|\r\274$\0369\274\253\001\227\274\243\356S<\372\211\227\273\004E\020=\037\320\030<\315\030G<pK\237\274G\314\251\274.m\313\274{\367/\275\242\027[<\252$R<<\276\205\275R\241E\274x\302\241;=\263 \276$\304d\274\007\337><\347\332\\\274\264H\327=\021_\366\275\257\244W\274\017c\317<\\\331\321;c\265\335\275z\250\316<j+\036\273y\030\227=\035\225<\274\263y\345<\277\227\023;\277\201\210\274H\204\351;\374\007\335\274\2535\034<\357.\027\275\244\324\021\2749\374\273\274\275q\207=-\334C\275\251r9\275\211\024\220\274\325\371\003\276K\020\241=\270IH\275\370\3734\274p(\335\273\364\276e;.\246\037\274Vmh\275\256[A<\351L\251=\260\344\317\272\002g\\\272\0045\223\2751;\206<\364\t\305\273\037\236\325=q2\227\2745\350\371\273}}B\275-/\206\275\234\0353<\240\321\"\275\300Z\265\273}\263\r\275\206\264\000\274\340\371\375<\374\202\"\274\242\007\346\274T\016\361:g\222\\<;\027G<\362\201\350\2745`\221\274\307a\322\274\277\203\203\274\014\305\237\274P\274o\274\236o\267<i)\244\274\034\256I\27404\302\274(\0338\274c\027\203=\326\034\235\274H\231Q\274:\210\240\274=\312\255\273\304\273\263\274.9;\274\333F@\275\362\200b<\274\242\377\274)\215\223\274\232\343z\274\t\'\243\274 Qh=\241\306\330;\306\270\013\275\177wE\274=X\002<\337\244\345\274\210\377\013;+<\251\274*\254}9\333s@\274\324q\212\274\260\347F\274\205F\205\274^\360(\274\023\343\245\274\003\227\325\274\300\361\362\274\317K\210\274\232^r\275J2\354;\275\277\250\274\271\310\034=#e\332\2746\013\213\274\346\226q\275jO\006\275\000\031\215\274f\250i=\213\ru=6\236i\274Z\2009\274N\277\203\2740\343\'=\253\377\341\274\326\t]<\273\214,=y\255\250<\242\236\225\274\216\226\231\274W.\005\275\256\177\020\275\257\274\003\275\262\023\257\274\016s/=\005\000\246\274\235\250\245\274\203\020\023\275\006E\342\274q{\342\273\312\017\306\274\310\322\332=E\265\210=l\237\324\274\030qt\274\313\267\312\274\014\267\260\274-\360\324\274pt]\274e\310\342\273\024)\245=0\231\275\275a\216\243\274I J\275\034\263\301\274}*\324=\032?U\275\252v\277=H\337j\274\215\346\214<x\260\005=Q\227\257<\254[\007\274u\324\261\275\227G\237\274\311w\242\275\321SV\273\240\020\030\274\307\207\\\274\333\370\010\275f\265\316\274\353\245\305\274\357;\324\274:\207\263<\212\225\363\274\316\272\246\275\366Z+=w\021f\274_5\247\274\363\342@=F\212\235\274\350o\336\274\343\345\255=\315\267\301=\304\345\202\275\225\373*<\235\211~\275\316\330 \275\343g\"<\264\321\233=\232\341\270\274\326%\310\275\275aj\274X0\333\274\210\232\316\274Rb\205\274P\312.\274\035\236P\274-\246S=\"bE\274\242\350\025\274\225\004\313;\204\314_\274v\027_\273\353\342o\274\034W\317\275`\317\177>\312^Q\274\364u1\274\3164,\274\340\322\275\273\335\316w\274\310\227\342\273\023\311\363\271.t\"\276\004!f\274o~*\274\006Y8\274I\2270\274\000$\215\273\364.\355<\3478\001=\360\321\323\273W\267\';gTz=\340y\n;\211\326 \274\262J\337\273uG\262:\236\261\374\273\321\252\317\271\213\2643\274\025\311\257\273\223\231d\274M}<\274NJ\247\274\331\222*\274\2606\003=\277\333\210;h\273\031\274\213L0\275\303\021$\273-\027>\274*\331[=\0036\372\272\227\266\244\273\223\333\304\275~X\216\272\362E\243\273N\275\257\273\306,/\274\025\323\356\272i\2369\273\221\014[;\233\316\001<\241\362\241;\372??\274\220\031/\2741\344>\2741\025\216=\034\240G<\275\347\035<\242r\363\274Q.\2259\010.\324;o\374\273=\304E\340:q\321\242<&\237\334\272\355\220)>\374#1>\017u\303\273\323\2668\274\"\306\010<\231~\373\274?\014\3239^xU\274`k\212\2758l\224=\334>z;dX\367\2732\327\304<w\205\027;l\252\303=L\303\312\274\030\304\017\275\363\266:\274\212\205\316\273\036\334\333\275\377\213\243\273\374\330\013=<\033z\273\257\331(\275\335\211\327\273\341\205K\275\350\330k\2731y\023<\375\022\005<@]\026\274?cm\2726;`<\'\371\224\275\025\363\322;\232\372\303:\364\204\260=E\257\230=~\373Y\273\344\033u\275\341\034\006\275\177\222\307;\355\226?\275\3608\366\275%h\224;t\332}\275\024\216\233\273_oz\275\262\025\306;\365\270\262=\276j\302<\t\243\204\274\343\343\325:.f\006<E\312 ;\320\010_\273\360(\"\274\375\002^\274\017\033\315<\3158X\274_\212\315\273\376k\335<\004\tV\274\203\243\261\273\210\235k\274\211p\003>\305\217\271\275\306\216&\274M\007&\274\33023\274\324\377\307\274X9B\274yj\314\273\326\364\020\275f`\177=%o\037\274b,3\274bW-\274wp%\274~x\217=\002\t\216<\213\342\201<\030\035\330\2731\351,;M\310*;\245\346T\274\230\374\231\273|\t\324\273&E\310;\344 \037\274\330\243\013\272\262\220\001\274\230\020\246\273`\251\014\274\025\321F\274\340\251\270\274\250\026\001\274\202\256g\275\266E\t<\333^M\274W@\312\274a\312d\274\356\340\035\274~\250\206:\355{T\274\312C\236\273\354G\024>\272H/\275\363\377\021\2747u\007\274\311\005,\274\377H\035\275\344\3733\274a\360$=\331\004\307<\014u2<g8-\274\356\314\030\2743\203e\274Y\241\002\274c\006X\274f\234k\274\333\230E=WdM\274\262\207\031\274Ac==\343\302\234\274\311\243\261\273R<i\274\025~-=P\257f=\002\251_\274\316\240)\274\240SW\274\366\013D\274t\235\203\274C\024\350\273\331\270\210;\233c\205\274{\020\t\271\'PA\274\253Y\361\274\022\237S\274tU\334<\214\023\272\274\256I\007=\331%\365\273\371Z\210\275G\342\004\272V\002\271\274\016vC\271\365\314\005\275\342VM\275\014\227\010\275w\t5\274\252\244\n\275\021u-\274m\356|\274K\355|\274Y\351\220\274\025\341?\274\373E|=\241E_\275\014\227\325\274\021\342\346<\246d\317\273\271\371?\274\212\026@=\023Wi\274\016\341d\2743\263y=\277\237\264<<\354\004\275.\005\235\274\371\013\250\274\3728\241\273\222\322;\275\354\320\327<\245\376\014\274YY\241\274\026\265S\274,\345a\274mmP\27405Q<\0175A\274\320\300S\274\001\351\r=\004\251\020\274\323?5\274#\262\201<\212\203d\274\207\007\006\274\036\264>\274\274\206]\276\330o\273;\013\365e\274\320>,\2746p\357\273\312\375\022\275\245\270\224\274\2172\013\274\3741\315\273\311\333\027\276U\271\331\272X\003\032\274S\2273\274D\251T\274I}\360=2\257*=\250\330A\275y\333\372\273DK\032;\2126\010=\304\352\247\274\267\035\n<\214\014v\274\026\\x\271\240^\204\273\252)\"\273W\021w\274\225/\247\273\207E\206\274]\335L\274\302\'\211\274s%@\274\276\232\222=\232$\001<\271\000\027\274\n\013(;\032\007\2339\361\267T\274\344W\247=\005\303\014\273\320\005\263\273_\026\215=)@\242\275\244d\224\273Dj\244\272\004NG\274\367n\375\274\250\260\216;\210\016\375\274\370\246\'<\003\346\326;b\365p\274837\274y\363 \273(\373\\\275_\356\274\272\017u\315;6\262`=\235\235\031<\230m\260:\324\233\370\274\262\301 <\210\003\327<\tm}\273<\250\303=-\304\255=\221\027<\274\025W\222\274\007(i<\222\035\357=\365\356\365\273l\200$\274\214\346\257\275c\"\302=@\\\315<1;s\274\255\367\203<`\360\016;(V\311<\314\214\236<\211\335\337\275\r\242\301\273\3228\000\274\251\210\230=f\030\250<\335\237\010=\322\333\317\274\332\344\004\273\023\332(\275r\\{<\204\351\010;\310\204\314<\330 \t<\022\\\314\273\231\370Y<\256]3<\270\257<\276\020Y8=\004\016\210\272a9\030>\027\267\350=W\014Y:!S\204<B\264\n\275F\233\215<\3455\312\275\204d\024>\336/\345;\nd\336\274s\257\313\273o(\r\2733\221\3279\216\340\250\275\227=A\275r\203\242\274\266E*<7\260A<\262:\271\275\255\205\007==\2326\274\347\242n\274\n\355T=\2557\030\274\241`\367\273R#D==@M\274\014\265\214\273~\336N\274S\225\303=\031\337%>\247\0168\274\370\241\017\274{\223\006\274:\034\017\274\270\010q\274\200W\366\273\357\243\036\275\230\341\177\274\234H\3159/\376\004\274\003\303*\274\0076B\274\251\272l=\264X7=o\250\006>l\264\375\273b4\036;\261\n\014<\014\331\374\273E\035,<o\345\266:M\020\266;\033\345\205\273\327\352?\273\"\0279\274\247\205\216\273\356\366#\274\005\336a\274(\324\237\274\005\014\020\274\212\213\000\275\310:z<S\243=\274\236\0315=\001\375\010\274\317\2021\274\210`Q\272\327W!\273m\377\306\273\020\t\310=\201\226\230\274\364\366\021\274.\227,\273\20716\274\246\346{=2j\372\272\241;6<\324Q\317<f_]<e\272_\274\277\250\037\274\232!\217\272\301\203\331;\003Qx\274\025\312r\274\224o}=M\270\034\274M\036>\274S\300\007>\210\232\223\2742G\262\273!\276d\274K\335=\274\205l\241=\t/u\274\rb!\274\0213R\274S\304>\273\017\320\232\274\2332\r\274\255\226\304\2748\363)=\344\"\237\274$:\023\274\206]\230\274\316\202s\274\216\267I=\353\277\365=x\204e=,-\r\274\377\303\250\275\217\261\026<\377g\021\274\207!\214<\346O\330\273\207S%<\346\222\260\274\344\372Y\275\302\322\211\273S\375\003\274\367I\222\274\000\336\221\274\236&|\274\026FX\274\240l\321=\3209\264<z\330\211\274p\244\274<E=\313\273\360\r[\274\031\273\230<$\312\224\274\'\201y\274d<A=\033\355\021\272]\2340\275\231B\311\274T\'4\274\025\245M=\366\341\371\274{\217O=\010\303\340<\236u\333\273\303\247\r\275\343\322t\2748\262\256;\332\267\230\274\"\220\246\273\307\332\013\274\276,J<\372\303\032\274\340\022\262\273.\332\347\272\206F\032\274\273r\335\273/\200-\274\305m\030\276\304y:>\"\357\325\273\324z\303\273G\273\013\274\300B\026\275\007\330\027\274\214\313_\273wn\335;\311m{\275\324$\225\274\000\214\346\273\247f\271\273\033%\320\273ZK1\276\256\204\217;\352 \255=G9\213\273\312\3243;\3552\227<t\354`:\035f\353\273\004\264b\273\246 \3639\013\033\341\273\270\276\000\273\343\220\324\273\034c?\273\252\301\007\2740\t\247\273\255#\202\274\370P\343\273\356\347.;\235\243\234:\333?\265\273\236\216H<\323A\230\273\256\311\351\273\343\2044=\367\326$\274\371\245\220\272\207\251m\275\002\004\231=\316\221T\273\303\001\275\273j\377\336\273\217\243\245;p\363\264\273\346\337+\275\327\245\266;.\241\256:<\325\255\273\301V\330\273\245\221N\274\376x6\274BN\321\272\263\232O<\002\"\310\274T\244\027;\223\270\275;\345\3054\275\232/\352\273\215[\300\274\275\030\347\273\377\215\324<O\304\327=F\222\350\273\200T*\272x\374\201;\316\260\016\274W\306\230;t\230\357\270V\177\321=\301g\316=sr&\274\240\365\307\272=W\223<\212{s;\3604\377\275\3065\264\275\017\342\363=\027\226\255;\212\272\265\273\260\373\271\273\251S\247\274\031.\373\273\226\005\370\273{\231\201\275\034%\220<\010\272\315\274\332\234\252\273\023\216\261\273\251\236\324;x$\\\274\254\033\016\274\315Ef<\023\361!=\330\024\023\274\266\230g:,\310\003\275d\211\234\274\177\264\222\273\004Q`:\270\351\330<\007|W\2724\243\354=\353\215J\276\354K\264\270y\002\023\274\315_\377\273b\001\177=\207S\017\2753]I\275tT\344<\217\326\017\274Z\276\231\272`\200\351;\373\315\017\274ruI\274\3760\300\273\327q\341\273\223\210\252;\020y2\274\370]d\2733)\316:\000&\025\274\016\220\274\273\007l\"\274H\201\250:\007\301\277\275\201\262\234\273\212\301\254\273\355\342\021\274\026i\322\274BZ\337\273c\237V\273\235K\227\274\030\231\245=\302\365\205\274\201%\002\274|\005\317\273\016|\277\273\365X,<\022\321\303\272\376\244W=Y\307\210\273r\034u;\351\325\'\274\0313I\273E\314\305\273\330\240[\274\246,~\272e\016\t\274`\310r\273n\027\222\273k\3257\273O\310\226\273\240\324\312\273\270\360\214\274\206\354\254\273\250A_\275\310\364A;\300\262\007\274j`\252;\360\372k\274\344n\275\273)J\201<TZ\003\274\316\347v\272\307M\020=.sD\274P\221\322\273\010>\031\274\374\215\002\274>\310\345\273\374%\033\274\324\253w<dq\272<r\t\237;k?\265\273w\342\263\273\335e\203\274\270\321}\2747G\375\273u\214\'\274\210\321!<.\335\'\274\257\233\301\273T\340\221\274i^g\274\272 \350\273*\016\031\274\271\205\021=\240\301\n=\262\223\003\274]\362\277\273\354s\030\274\235\253\004\275\226\376)\274`_e\273_\311\227:}:\013=\037\177\370\274\022\372\014\274\2161\003\274\2127\035\274\264\211+=\031#\265\274\266\363!=\327\315\224\273\354\256B\274\335\232\232\272\330\'T;\222\010\300\273\305\2745\274_|\016\275\365m\346\274\316\261\252\274\375\332\222\274X{\242\273\345c\027\274\006\273E\274\022\032m\274\345\347\376\273g\316\327<\340\255 \275h\245\237\274\2571\350<>$K\274\016R\346\273\002\t6=\035o[\2746H\010\274\263P+=\021d\n=\352N\311\274^\003\255\274\271O\370\2748\000\347;<]\"\275\311n\312<\332\250\\\274\372DE\275\274+|\274\346\361\023\274\206\036h\274\320$\000\275\301-y\274\004\016\212\274E\272\274<\231\352l\274\273\273y\274\306j\024;Q\036\203\274\351Pt\274\303y\220\274d<?;\344Z\324\274\267_\217\274\214D\033\274u\264e\274\001&\353\275YT\260\274\026N\024\274\025\"\210<\215,K=\n(\021\275=\022T\274\352\226Q\274\n{\215\274v)\251\276\235\010\251<\354\003O>\342\205\013\2742\036\213;\2712\232\275\033/\343\274\014,)\273\232x\266\274\0347\206:r\211[\274\035m$\273\362\266\200\274\373\325\357\273\322\320\267\274\317L\244\274>\247\220\274XY\206\274\374/\270<\\x\375:]dA\274ji\242=e4\004\273\375O\177\274\247e\271;!\007I\274\353\317H\274\030\002\036\275v+\343\275K\301\036\274OD\327\273O\262\200\274N.\206<\021z\213\273\303\2475\275R`\247;\312L\344;\233\316Y\274&{~\274\313\221\253\274\321;\032\275\026\t\301\273\273\262<<\366Q\306=\355\236;\273\346Rq\272r\204\301\275%\207C\274#\251~\274\347\003\333\273\277\200\271\275\247\\\"<\021\323\025\274\230\202\001<\255o\220:7\373\310=\274\315\310;\376\373\216:\004\3760\273\274\321\351<_\303\234;i\254\2679\221\220\313\274\212\007\014;\241\t\333=O\200\020\275\311\220\315\275\223\327\242\274\336\036\220\274|\366\314=\002)\017\275\343\216\231\273\253K\201\274o\010\277\2745Te\275\367[\236\275v\223\036\273,\356A\274\230\336\025\274<\234i\274\304\340\371;\2475F<}g\376=C_\374<O\025p\273o\322\231=\314\355\017\275\347\230\205\273\313T\235\275\236\023\214=Za\305\273\231\203\020>\252(p\275\264>i;\037\3354=\323\003\024\274\326a\255\275T\014\234=-\370\253<eJ\234\275J\254\231\274@\017\215\273\242]\337\273\213\307\214<\010\000\021\275\230^Y\274\037\\\245\274\277|Z\275\353\325{\274%R;\274\261\313\237<d\375s\274\374\242Y\274a\027\226\274\014\324A=\332\330X\275T\036d\274\n\232\373\273O o\274U\257\325\274M%\216\274Bj\004\274\223i\202\273\005\356*=v\251\353\274r\350\\\274\226\211Q\274\335\036\200\274=U->}\"Y;\023\362\312=\250\316\022\274\223\217\306;\025\266\256\275N\205\240\274m\355\220;\220\005\201<\233\211_\274\021gE\274\322\023\210\273`\356D\274\241\033\343\273QWp\274\207\236\244\274\n\365\267\274)\216G\274\301\234C\275\322\203\224;Kh\202\274\247\317\260:#N\300\274?\327R\274k\301\334=\351H,\273\024N8\274\343\307T\275\032$k>j\323m\274u\213\373\273-\260|\274li\025=S\264p\274\3305\277=\354\232\317<LjS<i\026L\274\347\216b\274\240L\313\274\372\310\242\274\247*\252\274\346\352\256\274\250\214\r=x\313\206\274\217\033\201\274\374;\316<\001\261\257\274\271\375\037\274\2049\222\274/\365\263=\230Iz=\255\217\235\274]\253$\274rN\252\274+{*\275\245\307\247\274\235\016\031\274b\350o<\241\340\275=\026\330\202\275\256?q\274\030\334A\274\271j\224\274\214\332\214=\276\210\265\275.\025\254=f\232)\274\2217{\274=M\023\275H\351\202\274\030;\337:\'\365\213;n\006\210\275\261\022\200\275i}^:*\350L;\331f\211\274\227\234\311\274\342\251\276\274\254\016\217\274\217#\230\274\035\261g<m\000%\275\360<\326\274FY>=\"\333\356\271\370\200\177\274B\347\021=\250/\230\275a\323\230\274\234iq=\347}\222=\027\340\345\274\375\001\031=+x[\275\247Ql<\022<\350\273\316\247\230=\353\217\305\2746\211\210\2752\305\234\274?2\237\274\263\035\216\274\275eT\274\235\376\001\2748A%\274\324\366\270<\204\274(\274l\275\353\273\025#\210;\367\214X\274\006R\277\273\253\002(\274\2077\331<Wc[\275\002\214#\274\271G \274\327\006\371\273Gz\254;\245\354K\274H\370\311\273\207\230::\030\031\246\2758\3163\274\036\374\003\274\374\366\334\2732\323\022\274\267\373\323=FH\354<\321\021m<\260\304\300\273u.\000;Yx#\275\005\232\374\272p\3458\273\344\376O\274\334M\334:\375\363\252\273\303\220F\273\247\177\027\274\261C\220\273$\353:\274C)\372\273[J\203\2746H\016\274Gy\005=\025\337x;l\333\001\274\2411\214;\020\245\320:\3424\027\274-\247\225=\372\242\035\274_\372%\273O\310\240\275M\002\317\275\312n\023\273\304\2212\273\\\371!\274\"\233\276\274\n\320\206\272\207mj<\367\376\021<\350\311S;\t\022\026\274xs\010\274\020\3467\274\037\210\242\274\274\335I\273\236\251J<\251 \360;v\225\201;\356m\266:\215\336/=\304\277\0349M0\333;k\313\025\274\206\234\035\275H\314C<N\023\026\274S\005a\274t\363]<;t\243<@\367\'\273\n\250\357\273c\035::\2278\242\275\316\237V;\207C\024\274N\361\235<\335\007\371;E\2223=\014\227M=\266O\010\276[\344,\273<8\261\273\232\033\036=\326\302K<\377\211\240\275$\234,\274*\214J\274\253\021+=\'e\311\274#W\373\272\375GM<u\203\357;\225\245S\274M\'\r\274\034/`<A_\016\275S\001\326;\261\317\330:\305c\315=}\243\215<\tcv\273\263\302\303=f,$\274\266\3172<\362p\256<\304k\017=d-\273;u7\261:\033Ml\273\367\270\310\275\365i\007=\037\301.\273\010/Z\275{\347P\274l\362\005<\3267(;\262\344\024\275\3453\353\273\337K\005\274\251\350$\274\003V\223\274[=4\2749\335\236\273j\223\262<3\037L\274(kr\273\360L+\274\233\'\305=\005\242u<OX\006\274-\177\025\274\006\t\007\274\351\314\264<N\212\033\274\373 \271\273\277_\227\274\276\003?\275\017;\007\274\276q\006\274n\257\360\273\252\324\005\274\177\372\240=\301\373{<\331r$>\033!\277\273\035]\023;\237\241\341\274\020\274\305\273^\307\020\273\240\315\n\274G{\366\271+\372\343\273\205\013\226\273\004:\332\273\310\333\203\273\333\245\327\273?\201\017\274I\341\237\274\'\273\327\273#\376\323\275\334[\377;\234}6\274x\200^=\277\317\023\274oo\374\273\320\r,=\352\334\375\273\031\340*\273\214i\317=\013zy=[N\252\273\n\234\240\273S\305$\274\220n\305\274\245\324\301\273\232\216i\275\000x\246<\204V\005<\222\"\026\274\321$\353\273^\211W\274\321\251\021\274\315t7\274\\7E\274^\237W;\317\2005\274\220\250\374\273\200\326\001=k\214\223\274+\337\243\273h\300-\274\324t>=\377\3007=C\2025\274\005\203\030\274r\376&\274\216\334\020<3rX\274\232\364\321\273\347!\357\273\331\272\222\274\275q\213\274v5\025\274C\316L\273\032y8\274\312\305\"=\362\004\030=\300\352\242=*\254\322\273\331\217\325\274\036\223\213\274\030\366\321\273\317|\017;\276\210c;\250\265\310<\321\252\351\2748hB\275\204\205O\274W`\376\273\205\333J\274PVd\274qLu\274@\004 