node {
  name: "input"
  op: "Placeholder"
  attr {
    key: "dtype"
    value {
      type: DT_FLOAT
    }
  }
  attr {
    key: "shape"
    value {
      shape {
      }
    }
  }
}
node {
  name: "label"
  op: "Placeholder"
  attr {
    key: "dtype"
    value {
      type: DT_FLOAT
    }
  }
  attr {
    key: "shape"
    value {
      shape {
      }
    }
  }
}
node {
  name: "transpose/perm"
  op: "Const"
  attr {
    key: "dtype"
    value {
      type: DT_INT32
    }
  }
  attr {
    key: "value"
    value {
      tensor {
        dtype: DT_INT32
        tensor_shape {
          dim {
            size: 3
          }
        }
        tensor_content: "\001\000\000\000\000\000\000\000\002\000\000\000"
      }
    }
  }
}
node {
  name: "transpose"
  op: "Transpose"
  input: "input"
  input: "transpose/perm"
  attr {
    key: "T"
    value {
      type: DT_FLOAT
    }
  }
  attr {
    key: "Tperm"
    value {
      type: DT_INT32
    }
  }
}
node {
  name: "reshape/shape"
  op: "Const"
  attr {
    key: "dtype"
    value {
      type: DT_INT32
    }
  }
  attr {
    key: "value"
    value {
      tensor {
        dtype: DT_INT32
        tensor_shape {
          dim {
            size: 2
          }
        }
        tensor_content: "\377\377\377\377\t\000\000\000"
      }
    }
  }
}
node {
  name: "reshape"
  op: "Reshape"
  input: "transpose"
  input: "reshape/shape"
  attr {
    key: "T"
    value {
      type: DT_FLOAT
    }
  }
  attr {
    key: "Tshape"
    value {
      type: DT_INT32
    }
  }
}
node {
  name: "w_in"
  op: "Const"
  attr {
    key: "dtype"
    value {
      type: DT_FLOAT
    }
  }
  attr {
    key: "value"
    value {
      tensor {
        dtype: DT_FLOAT
        tensor_shape {
          dim {
            size: 9
          }
          dim {
            size: 32
          }
        }
        tensor_content: "\246\217\331\276c\203\335\270z\263I\277\262\0246\276\003@\016\277;p8\277J\364\336<J\\??>\345M\276\251\025\t\276\'\351\000@$V\274=\207?L\277\252$\032>\305v\375=\002\353\220\276\341\252S\276C\260k<\302C\232<B\310\t=\003\327L>\270j\240?A\375\327\275\205*r\277\027i\320\276j\356\266\275\376\027\312;K\3173\276\036\260\013\277\236+\306\276\333\334\330>=J\305?\177\366\233\275\250\177\326\265\312@/\276\321x\240\274\317\300 \276,\301\220\276\0352\'>\213%9\276\311\212\241\274\243U\217>\026h\010\276b,\005\276\005V\305\276\253\001\331=\275\335m=MF*=\302\272M\272\366U\224\276\333\214\005\276eW\346\275\237\0137\276\031\243\344>:w\317\275\252\345%?S}\201\275\231\367\"=n*\201\272\271=\311\275cJ\247=\370\n\374;\027\010\027\276\332\3330\277\031\320\005\276\364p\2157\372\343\007;\004\304\353=Q\217.\276\257\213\345\276k\202\255=;\276\262=\325\004\247>\200\005r>\331 _\276\227\204\211\274n4\360\273\316)\353=\220\"]\275\202\366e\274\315Mq\276\374\237\327\276\204K\275\275@\341\324=\353\223n\276\347$\341\272\265Zv\275>#\372<\234\314\005>p\356\226<BZ\321\273N|\221\274\354z\207=;\000\002<L\347\251\276\275\346\246\276\3621\326\276q\304\2149\351\264\312>\337\266\270?\330\202`\276>\253\361\276;\216\206<\265\330V>*W\217\275\262\235\250?\343c\215\275\237\262\273;\005\333\006?\236\331\361\276B\366\002?vF\306>o#\347>\352x\332=Z(\324\276\236\2654\277f\225\362=\372>\373=/\006N?\203\247\272>\027\202\177\277\"&^\276\352A\010=xSG>\301\246\022\276:~\233>\274\013~?\332\'\341\274\032;\006\277\240\206\016\271\263\002\215=\0106\027\276\342}]?\025kP\276\031\034o>\003\274??\034\003\230\2779U=?\272\3654?7\"!>\034\211&?\213\240\363=S\017\207\276L\037\331>\321m;\277\2429\270? =\256<k\245\360\276\223\n\005\276a\273\300\277M(\356<\274\342/?Y\022\315\276\207\376\327\2767\277\014<\265\337W>N\247e\275\332\265\"?;B\033?\263\270\002?\205n\274\277\213\231\313\271\345\'\027\277\361\376\343\276C\254\251\276{V\212\276\206\353\355>\226\265T\2745\n3?(\242\345>7\346\221\276\207\347\025\275\35776?\024Wa\276\231\274\200>\256s\212>C\356\265\277\"\306\246>\nJ\r=};7?w\316N\276\241\242;\2763\3551\277O\031\214=df\023\276[&\251=!2\250\273Q\327;=\034e!\276\250m\323>SQ\277\274\311\344\242=\220\343A>\302\210!\276\304M\315>+\304\255\276\212\230\270>\036&C?\3432?\276 \211??S\273\361\275\261\363B=4\354\213\2778\306\307\275K\266\201>NY:?\321\330\276\277\330\030\244\274\340@w\276\215\331d\277+9\"\276\376\340\370\276\371\205\t>\246\307\360?\332`\252=\336k\322?M\014s\277\353[1\277\354\007\r\277\364\230[\275i\265\300>\3366t\277f\332\253?@\257\001\277@pa?\336g\222\274\234\034\335\276Z;W\277\355\312\263=\224k\205\277\253\315C?\337\324\031?\200Q\235\276@\377X?\340%\002\277\325\023g?$/=\277\300\306\021?\211.m>2\036\201\277F\3645?\246/\344\276h\230\331\275S\335\023?V\004\"\277R&\376\274\274N\337\276\255\217x\277\315\353\262\276P\215\266?t\226Z>\226\227\326?\370\302W>\342`\r\277dv\201\274c\372\241\276y\306o>D$\374=\017\226\367>\252\033{?)\374\035\277+\255\016\277\216\320\020?\325\220\237?\007Q>>\241\321G\275\212\367\n>\025\303\206?/Js?\246J\030=sB\266>\334\305W?\315j\357:\201\230r\276\221\210F\277#\374\260\275\270\010\317\276t\226Y?\347\2526=\371h\207>\222\3055?\222\303\023=Z\326\014>\221r\263\277XO4?\202\357M\277(\2112?\347\264\023\277"
      }
    }
  }
}
node {
  name: "w_in/read"
  op: "Identity"
  input: "w_in"
  attr {
    key: "T"
    value {
      type: DT_FLOAT
    }
  }
  attr {
    key: "_class"
    value {
      list {
        s: "loc:@w_in"
      }
    }
  }
}
node {
  name: "b_in"
  op: "Const"
  attr {
    key: "dtype"
    value {
      type: DT_FLOAT
    }
  }
  attr {
    key: "value"
    value {
      tensor {
        dtype: DT_FLOAT
        tensor_shape {
          dim {
            size: 32
          }
        }
        tensor_content: "\352\3367?\260\344v\272\332\250\332=\0028P=\303\211\017>\364\270(>\372d.?\017\330@>\r\373\243=)\202\256?\200\240d?\201\324\302=1\273\316>v\004_>\334\233\322?\243\271\210>\030\010P?\274\001X?\267,\200?\331Ow?\320\330\356>b\347\177<\371\"\332\275\210;z?\270\233\356?i\017\210?\247\262Q>\273\0366?3\335\304?}\'\314?XT\217\276f\301\004?"
      }
    }
  }
}
node {
  name: "b_in/read"
  op: "Identity"
  input: "b_in"
  attr {
    key: "T"
    value {
      type: DT_FLOAT
    }
  }
  attr {
    key: "_class"
    value {
      list {
        s: "loc:@b_in"
      }
    }
  }
}
node {
  name: "MatMul"
  op: "MatMul"
  input: "reshape"
  input: "w_in/read"
  attr {
    key: "T"
    value {
      type: DT_FLOAT
    }
  }
  attr {
    key: "transpose_a"
    value {
      b: false
    }
  }
  attr {
    key: "transpose_b"
    value {
      b: false
    }
  }
}
node {
  name: "add"
  op: "Add"
  input: "MatMul"
  input: "b_in/read"
  attr {
    key: "T"
    value {
      type: DT_FLOAT
    }
  }
}
node {
  name: "relu"
  op: "Relu"
  input: "add"
  attr {
    key: "T"
    value {
      type: DT_FLOAT
    }
  }
}
node {
  name: "split/split_dim"
  op: "Const"
  attr {
    key: "dtype"
    value {
      type: DT_INT32
    }
  }
  attr {
    key: "value"
    value {
      tensor {
        dtype: DT_INT32
        tensor_shape {
        }
        int_val: 0
      }
    }
  }
}
node {
  name: "split"
  op: "Split"
  input: "split/split_dim"
  input: "relu"
  attr {
    key: "T"
    value {
      type: DT_FLOAT
    }
  }
  attr {
    key: "num_split"
    value {
      i: 128
    }
  }
}
node {
  name: "rnn/Shape"
  op: "Shape"
  input: "split"
  attr {
    key: "T"
    value {
      type: DT_FLOAT
    }
  }
  attr {
    key: "out_type"
    value {
      type: DT_INT32
    }
  }
}
node {
  name: "rnn/strided_slice/stack"
  op: "Const"
  attr {
    key: "dtype"
    value {
      type: DT_INT32
    }
  }
  attr {
    key: "value"
    value {
      tensor {
        dtype: DT_INT32
        tensor_shape {
          dim {
            size: 1
          }
        }
        int_val: 0
      }
    }
  }
}
node {
  name: "rnn/strided_slice/stack_1"
  op: "Const"
  attr {
    key: "dtype"
    value {
      type: DT_INT32
    }
  }
  attr {
    key: "value"
    value {
      tensor {
        dtype: DT_INT32
        tensor_shape {
          dim {
            size: 1
          }
        }
        int_val: 1
      }
    }
  }
}
node {
  name: "rnn/strided_slice/stack_2"
  op: "Const"
  attr {
    key: "dtype"
    value {
      type: DT_INT32
    }
  }
  attr {
    key: "value"
    value {
      tensor {
        dtype: DT_INT32
        tensor_shape {
          dim {
            size: 1
          }
        }
        int_val: 1
      }
    }
  }
}
node {
  name: "rnn/strided_slice"
  op: "StridedSlice"
  input: "rnn/Shape"
  input: "rnn/strided_slice/stack"
  input: "rnn/strided_slice/stack_1"
  input: "rnn/strided_slice/stack_2"
  attr {
    key: "Index"
    value {
      type: DT_INT32
    }
  }
  attr {
    key: "T"
    value {
      type: DT_INT32
    }
  }
  attr {
    key: "begin_mask"
    value {
      i: 0
    }
  }
  attr {
    key: "ellipsis_mask"
    value {
      i: 0
    }
  }
  attr {
    key: "end_mask"
    value {
      i: 0
    }
  }
  attr {
    key: "new_axis_mask"
    value {
      i: 0
    }
  }
  attr {
    key: "shrink_axis_mask"
    value {
      i: 1
    }
  }
}
node {
  name: "rnn/MultiRNNCellZeroState/BasicLSTMCellZeroState/stack/1"
  op: "Const"
  attr {
    key: "dtype"
    value {
      type: DT_INT32
    }
  }
  attr {
    key: "value"
    value {
      tensor {
        dtype: DT_INT32
        tensor_shape {
        }
        int_val: 32
      }
    }
  }
}
node {
  name: "rnn/MultiRNNCellZeroState/BasicLSTMCellZeroState/stack"
  op: "Pack"
  input: "rnn/strided_slice"
  input: "rnn/MultiRNNCellZeroState/BasicLSTMCellZeroState/stack/1"
  attr {
    key: "N"
    value {
      i: 2
    }
  }
  attr {
    key: "T"
    value {
      type: DT_INT32
    }
  }
  attr {
    key: "axis"
    value {
      i: 0
    }
  }
}
node {
  name: "rnn/MultiRNNCellZeroState/BasicLSTMCellZeroState/zeros/Const"
  op: "Const"
  attr {
    key: "dtype"
    value {
      type: DT_FLOAT
    }
  }
  attr {
    key: "value"
    value {
      tensor {
        dtype: DT_FLOAT
        tensor_shape {
        }
        float_val: 0.0
      }
    }
  }
}
node {
  name: "rnn/MultiRNNCellZeroState/BasicLSTMCellZeroState/zeros"
  op: "Fill"
  input: "rnn/MultiRNNCellZeroState/BasicLSTMCellZeroState/stack"
  input: "rnn/MultiRNNCellZeroState/BasicLSTMCellZeroState/zeros/Const"
  attr {
    key: "T"
    value {
      type: DT_FLOAT
    }
  }
}
node {
  name: "rnn/MultiRNNCellZeroState/BasicLSTMCellZeroState/stack_1/1"
  op: "Const"
  attr {
    key: "dtype"
    value {
      type: DT_INT32
    }
  }
  attr {
    key: "value"
    value {
      tensor {
        dtype: DT_INT32
        tensor_shape {
        }
        int_val: 32
      }
    }
  }
}
node {
  name: "rnn/MultiRNNCellZeroState/BasicLSTMCellZeroState/stack_1"
  op: "Pack"
  input: "rnn/strided_slice"
  input: "rnn/MultiRNNCellZeroState/BasicLSTMCellZeroState/stack_1/1"
  attr {
    key: "N"
    value {
      i: 2
    }
  }
  attr {
    key: "T"
    value {
      type: DT_INT32
    }
  }
  attr {
    key: "axis"
    value {
      i: 0
    }
  }
}
node {
  name: "rnn/MultiRNNCellZeroState/BasicLSTMCellZeroState/zeros_1/Const"
  op: "Const"
  attr {
    key: "dtype"
    value {
      type: DT_FLOAT
    }
  }
  attr {
    key: "value"
    value {
      tensor {
        dtype: DT_FLOAT
        tensor_shape {
        }
        float_val: 0.0
      }
    }
  }
}
node {
  name: "rnn/MultiRNNCellZeroState/BasicLSTMCellZeroState/zeros_1"
  op: "Fill"
  input: "rnn/MultiRNNCellZeroState/BasicLSTMCellZeroState/stack_1"
  input: "rnn/MultiRNNCellZeroState/BasicLSTMCellZeroState/zeros_1/Const"
  attr {
    key: "T"
    value {
      type: DT_FLOAT
    }
  }
}
node {
  name: "rnn/MultiRNNCellZeroState/BasicLSTMCellZeroState_1/stack/1"
  op: "Const"
  attr {
    key: "dtype"
    value {
      type: DT_INT32
    }
  }
  attr {
    key: "value"
    value {
      tensor {
        dtype: DT_INT32
        tensor_shape {
        }
        int_val: 32
      }
    }
  }
}
node {
  name: "rnn/MultiRNNCellZeroState/BasicLSTMCellZeroState_1/stack"
  op: "Pack"
  input: "rnn/strided_slice"
  input: "rnn/MultiRNNCellZeroState/BasicLSTMCellZeroState_1/stack/1"
  attr {
    key: "N"
    value {
      i: 2
    }
  }
  attr {
    key: "T"
    value {
      type: DT_INT32
    }
  }
  attr {
    key: "axis"
    value {
      i: 0
    }
  }
}
node {
  name: "rnn/MultiRNNCellZeroState/BasicLSTMCellZeroState_1/zeros/Const"
  op: "Const"
  attr {
    key: "dtype"
    value {
      type: DT_FLOAT
    }
  }
  attr {
    key: "value"
    value {
      tensor {
        dtype: DT_FLOAT
        tensor_shape {
        }
        float_val: 0.0
      }
    }
  }
}
node {
  name: "rnn/MultiRNNCellZeroState/BasicLSTMCellZeroState_1/zeros"
  op: "Fill"
  input: "rnn/MultiRNNCellZeroState/BasicLSTMCellZeroState_1/stack"
  input: "rnn/MultiRNNCellZeroState/BasicLSTMCellZeroState_1/zeros/Const"
  attr {
    key: "T"
    value {
      type: DT_FLOAT
    }
  }
}
node {
  name: "rnn/MultiRNNCellZeroState/BasicLSTMCellZeroState_1/stack_1/1"
  op: "Const"
  attr {
    key: "dtype"
    value {
      type: DT_INT32
    }
  }
  attr {
    key: "value"
    value {
      tensor {
        dtype: DT_INT32
        tensor_shape {
        }
        int_val: 32
      }
    }
  }
}
node {
  name: "rnn/MultiRNNCellZeroState/BasicLSTMCellZeroState_1/stack_1"
  op: "Pack"
  input: "rnn/strided_slice"
  input: "rnn/MultiRNNCellZeroState/BasicLSTMCellZeroState_1/stack_1/1"
  attr {
    key: "N"
    value {
      i: 2
    }
  }
  attr {
    key: "T"
    value {
      type: DT_INT32
    }
  }
  attr {
    key: "axis"
    value {
      i: 0
    }
  }
}
node {
  name: "rnn/MultiRNNCellZeroState/BasicLSTMCellZeroState_1/zeros_1/Const"
  op: "Const"
  attr {
    key: "dtype"
    value {
      type: DT_FLOAT
    }
  }
  attr {
    key: "value"
    value {
      tensor {
        dtype: DT_FLOAT
        tensor_shape {
        }
        float_val: 0.0
      }
    }
  }
}
node {
  name: "rnn/MultiRNNCellZeroState/BasicLSTMCellZeroState_1/zeros_1"
  op: "Fill"
  input: "rnn/MultiRNNCellZeroState/BasicLSTMCellZeroState_1/stack_1"
  input: "rnn/MultiRNNCellZeroState/BasicLSTMCellZeroState_1/zeros_1/Const"
  attr {
    key: "T"
    value {
      type: DT_FLOAT
    }
  }
}
node {
  name: "rnn/multi_rnn_cell/cell_0/basic_lstm_cell/weights"
  op: "Const"
  attr {
    key: "dtype"
    value {
      type: DT_FLOAT
    }
  }
  attr {
    key: "value"
    value {
      tensor {
        dtype: DT_FLOAT
        tensor_shape {
          dim {
            size: 64
          }
          dim {
            size: 128
          }
        }
        tensor_content: "T\260(\276\351\313\315\274\0316R<SoX\275\226\320\021\274\266*\007\275nE\203\275\262\250\373=\236\233\377\273\216\340\203=\241n\316\275g\223\266=\352\251\255:\rpC=\230\271\237=\200\032\331\274\373\017\340=\342\210\300;\367[\211\274]\t\205<T\306\265\275\317Z\270;\362#\017\275\376\207\347\274\316d\212\276C\212\231>\352\241\236<:u\225\274I}\246=<\003\344\275\343u\361\274y\227\264=\002\006\036>\224\367->\036vQ\274\362\030\032\276\340\255\000\276\\\177\'<\0302\367\274\332\266\376\275f\260\361\275\316+\341<)8_=\302\211\236=\016Z\300=\315\266\276=\031I\260\275\301\010\026\276?\205\367=?\377\230\275L(\213<U\322\257=\352\370/>\rt1\274xh,=\214\010\210=E\375\240=k(\342\275lm\277\275\224\354\335=\201I\251=\346\010?\276\275\263\035\276\035\327\326\2742\004\360=6\373p:\226&)>\211\266\213=\330/+\275\214\r,\275`\315\253\274\226\023x=\3034&\274Q\010a=\030\240\014\276\237\203r\275\222\'\322<\036\312o\275\277\367\212=m\364\251\275V\310\225\275\316\341O=\032\241\321=\226\271s\274\337\320\302<?f\214\274\001\330\357\274>\014q\274\242\260\016>\023E\027>=\236w=\3421\246\274Y\321\334=\262(\000>@_L\275n\235\231=\330-\305<\001\247\372<u\377\006>\260\364\325=\270\371\206\275\272\326\313<\362\020\252\275:rE=\362\310\345=#L\311=\2242\036\276\275\2058=\200U\020=4\236\252<\215\026q\275\211A\342\274B\222\307\275k\004k=ru\343\274\223\231~\275\341u\014\276KI0\275\263j\350\274\022K!\274-;e>\215=\257=q\330(>\344\251[\275K\236\032>/[W>td\006\275\217\214\263=\354\261,\273\036\335\0029\236\0166\273\375\205\2608Y\240\235\267\242O3:\327`\2159\254w\020\272\221\206&:\t\034\3257\364D\007;\362\020\0229<\371j\270/j\3478\037\252\3166qt\3268\226:k\271\202\304)7g\350r;K5z7[\025Y\271\201`(\270e\016y\270_\375\32092Z\224;\225G\"\270\316\242A\274\355\337`\267\265\374\357\2700\t\027\271\307:\327\273\366\035%\274\355\335\234\274\205\021\2217u\342\216:;\254I\273\365\341\320;\257<\036\274\374\342\\<\321\227\203\2757S\007;$\020\001;\242\rh\273\243U\350\267F]\216;-C\2459U\355\244\266\302\245\250\273\227\356G\273f\360F=\310\347\226\275\234\240\3408\251g\360\274\\\222\266\273e\216\032<G\3100\274\255\257\210\273<^F<\231)Z\272V\3171\273\226X)\274\007\255\020<A\336\'=5\212\007=\312\212\r\274\335)\00596\003`\274t,R9dh\214\270n\256\257:R\032S:e\305\254\273]\'\031:\317\250\3778\317\262\023;\\\021\2009R\330\201\270o-\'93\304\2566\243>\2029\216\n\001\272\020\210\2129O^\030<Yq\0068\"\261\220\273\207\353\366\267\t\253\305\270T\203+:\346\023\256;\366[\250\271E\"%<\224\254\007\267\210^\273\270\247]\236\271J\000\342\274jZ\277:\354v\270\272\347\375y\273Y\274\366\2714R\205;\267\307e\270\233\t\034<\2638\177:\217\242C\274\236\214\3279\235\336\304:\210\211?;\016\247L;\0202o\266\234\253\373\272\254\372Z\273\002\035#:S\336\217\272\311\327t8b\326\013;\346\236\327;\306^)\274\363\241\215\270\033\225:\270\211e\304:\222\320Y<k}\371\272\"fO;\304\n\334\267\326\320\037\274$\033\307:\277\353\035\274\331\310F;0\240\271\275\342\"\254\274`\326\314<\"\273\223\275\021\217\224\273\"\264`\274\216z\022\274\177>\217=II\262\274j\220\376<\207Oa<R\217\0149\026\241\240=\225\377\005\276\314>\225\274\211\205\345\274\037B\024=7\252~<\004\274\222\275@\204\321<\245\014\217\275\177\225#\274\227\257\303\274CC\260\274\007\257\232\275\337\235\277=\364\312\353<\3179\007\275\340\243\233\275\315\254\261\275\203\276\265=,\306\202<\207\324\001>x\001\275=\377S\027\276\303Y\322\275+L\240\274\264q\007<\246\314\"=\006*\300<z\202Q\274a\214!\273\033\272\331=\260\321W\276\016\036\350=\026B\217<\016M\002>\213\300\372=p\337\005\276\032c\017\274|\230\366\274c\262\231=\341\331\252\275\005\321\333=\323\304\376\274\347\356\254<\276\r\372=\004\223e\276\372|^\275\032\336b\275\227\243\030\276&\213\274\274\214\267\023\275\251y[=S\224\035\275\030~\222<f%\005=\025\353%\276\212\370\243\274\241\332O\2756\3520\275\232\336i>\231\226l=\261r\214;19\337<\342\313\275;\242\020\227=G\224\233=\354|\363=\277\212\024\275\023K;\275&A\005=2\246\352=\3561q=Y\010l\275\374\302\210\274\236\322\241\274\373P\277\274\362B\223=\371\200\352=~\330\225<\337;\027\275\335\321&\275`\324\'=\303\374S=\214\316\301=\017\307\t\2747f\247\275Ge\"=\367\r\217\275\242K\247\274\027\337\204\275\230\241\004\275\000\031\264=@J\253=\360\223\201\274\321\017\003<H\204\301\274\337\3515=\306\330_=p?\322=\375\253^\274b\022\220\275\265xJ=\303t\310=\200C\017=\007i\234=\325\352\013\275\031~\333\274\226\255/\274\210 t\274&\023\234=\351l\264\272=\300Y\275\315\322\320\274\362\010<<\004\312\254=f6n<\2524\255\275\361\027`\274\"\362S\275\330q\360;\244\253V\272\212\223Y<3\370O\273d\177\376\274\334\242\016\275\365\206%<Y\005P=\356v\303\274\0031\314<w`\374\273\302\202\230\273\364\027\270;AN><\370)$=V\"\214;}2\265<\342]\254\274oI2\275\036\255\242\274\0236L;\220<\021\275\303\203\302<\332\316\016<\231\337X\274\305*\242=\276\343\211\275\341\'\340\273\262\244\340;\021\253\323<\212P\305\275\237`f\276\354\357g<\001\341V=cZ\002\275\312R\300;ab\375\275@\253u\275\266D\327\275WwS\275\017o\004\276\227\235\204=\254\313\016=\240\242.\276\371\370*=\366J\234\275)\337E\275\317\251\036=\323\346\301\275\327\331q\276\031U\246<\223\341\205=\305\213\213\274C\r\272<\334\322\214\276\033\204O\273?\034\351\274\247\210\241<yGP\2763\250\030>\236\326\373<B\373\205\275\252\374\324\274\323Ap<\024c\350\275\0255g\273.L\212<7&S\273<\260\347\275o^\211\274\016\320y<fT\210<\306\301\250<<\373\336<\320\243\003\274\252\227_=<Q\262;\216\250 \275S\322\017=\n\3503>\037\327\205<\222\312\272\275\256\206c\275\340\025w\274C\"\335;0\202;\275j\036\007>\201S\210<\240$Q\274yd\275=\032\232U\275\2713D\275a\374\276<\276\273.\274\217\3736\275\355UW<6\377\241\275JW\275\273Z\345\223<U\252W<8\365(\276\345\300h\274\237}\"\275~\234\221<\0278\201=\210\327\304<\351\t\202=q\276\2219\034\263a;~\317\237\275\321!\001=r\2423>8zH=\003M\247\275\345\276\250\275e\\\233\274\274\311#<rp\323=\226\002\262=_~\233\273$\320\265\274/\357~;\022\262U<O\335\352;\033=\271<G\357I\275\0222\356\274\323\271I=\231M\010>\250\374\210\2757\373}\275\016%d\275*\377\'>\020I\222=\247\202\314<\312\315\262\275\r:\371\274h\037?=\356[\332\275\243\217:\274M\3653\275\251y)\275\177=\211=\007\357\313=P;\224;8R\220\275\254\230\311\272#0\001\274^\255\240\2747\352\t<T\217\363\275\263\001o=bK\247\274\263\322\204\276\0136y=\345\nT=\2413\211\275\372\027\035>W\365\006>\234\334\000\275\310<\343\275ic:\275J\031\203<j\020\267\275LA\232=\321\3532\276\"\3011=(\302\323=A)\270<\035\326q=\212 \325<\017\352\004\276\010\013\366\275\003|L>-D\010\276@\017\035\276\337\337p<\\]\357\275\266$\004\276A2\337\275T\2442=e\352?=1\177V\27654\211\275\263\252\227<\214U\177<\"K/\275L\323l=h\"*\276L\362U<xh\013\273XO\254\274\035\241\004\275\2176\223\275\260:!\275\274hl\275\257\255\306\275\241\2258\275\362\210N\275\206m$>SB\217=4\310&=\201\250\206=\333\367\005>\357\002\244\274,$6>oz\243\272\031T\264<\036i\025\275\332\310\030\275\256\013\227\274`p\372\273\264\270\257\274\037\374\236\274\"S\312=\376C\036=\244\222\362\274S0\323=\024\2215>[\177K=(\3205=X\233\361\275\247z\307=\213\035\026>\016}\022\276D-\214\275v\2107<w;\252\275\331\006\025<\232\231\035=\017v\311\275%*\206=>0\357=\006\262\023>\221\337\377<{\311\353=\223g\021\2755\"$>\330\006\267=\030\336I\275\357\270\037\2754\340U=8\241t\274b\233\323\272w\247\205\274\023Q\372==\367\271\274\313\254\240=\255+\252\274\260\304U<\275\223\337<s\275x\275\243\263\306\275\243K\031\276\276_\016\275\350\2435\276\264/I=j\022M\275\\Z\005\276e\226\230\275\212\021\301=rSB\275\336\306\334\274\235f\371\275\'P|<1\334*=\220}\215=\202\262%\274C#?\275\342{\232<\237\213]\2748\325D=\337\025\326\274\314\303\227;5\200\220\274\342\266)\275\nF\312\274\335K}\274\027\3402\276\231\226~= \317\017\275\257\2505\276\301\331\230\275U_}=a:\032\275\021O\323=\347S\370=\365\236\036=\340\242\357=\002\375:=^h\341<\224\342\017\275X\315X\275\214`\246<uy\231=\363\265\021\276{Rn=\317\325w=\005\224\252=\240=\027>\366;g=Ks\023>\343\005\016=\275\205M\276)\014\312=$M\240=\376u\036\276q;\323;\373*m\275\220\3643>\017\272&=\347_\255\275`\322+;\301b\331\275\005\'\314\275\204a%\275\025;-\276\205\351\230<\272\235\233=\262o\034>r\221V\2761\272\215\275i\035\023\276\010Q\234\275\024\327\211<0\243\200=\"Qr\275\326\337\353;k@\014\275I\256\300=\222\363\377\275\236\".>-\327\005\274\201\220.>\365\214A\275\247P\352=QY\312\275\226\360\020\276\273y\032\275\0277h\275\3014\221\274\206\352L>\335\216\\\2740:\375<\270\237Y\275\235\320P\273\336_\233;\014\315\264\275\026\225.\274\305\262\201\275\2270\234<\223\250\324=\237\005y:]]\260\275\331\315\234\275\245+\250\275\337\330>=\307\271\261\275\317\371d\276A\001\275=\367\3619\275t\344\007>\320S\232=\t\320\202=\275\376\334<]\372(\275\224\257\'=\021\013\227=\246\004D\275\306\025\364\2756s7\275\320\014\365\274\217%N\274\262\'\203=\362^S=\002z\036=evn\275\261\355\361=\017\232\227<W\027\n\274\261\330\010\276\010\277\024=Z\340J\274c\314\315<\356\215\'\275S\021\313\274>\227,<\230\353H\275<\360\203=N,\332\274\254\302\321<\232\266\371\274\316\345\334\274v{\253\274\236i\347;\213v#=\256\370\322\274qH\306<\"\234H=\367k\336<S\347\346<\330J@\275\356\240\316;^o\365\274$\227/<$r\225=\210Y-\275\371\300(\274]*a\273\253\2603\275\n\237\255=\234\241\327<\304\2707\275\377\337\203\275\246\343\025<]Z\270=\373Z\302=s\351X=\2220\236\275@_\232\275\275\002\247\275\271\017\267=\244L\326\275\231\367\303=6gS\276\237\002`\275F\300@=\257\226\014\276gh\037=\301>\244<\004\3159>H\250\025<RU\271=\000t\332\275\3575\360<\330\224\244\275\213p\254\275\355\210I\276\033@\256=\\g|\275\210\262\325<\\\244\031\275\\^\033=\3463\014\276T\210V=6\3328\276| \3659>\224\034=\037\216Q>p\3751\275L}#=T\246V\275\243\303c\275\\\325$\275\314\031$=i\024\020\275\272\304X=\377\323\321<\001\361\245;d\354O=\241\200>\275\341\003\212<|\366\201=\335e\003>L\261l=\007\351\033\2748\320C\274\020\036\344\274Ra\240;[~\233\275\335I\344;\375\352\200<z\022c\273\303\374X\272\334\261\201=ty\005>c\217\215=\373\211\025\276\027\016M\274\202\030\246=\361,\210;\376\264\020\275\364\202\024\275\301\350\211\275L\2117\275H%\020\275\254\233\023>\353(\203\274\005\314\023\274\336u\030\275\316\337\001\276\317\242\365<((\007\2756\261\035=u\213\235=\345\3577>E\035\247=\372\002\276\274\t\005\274\274\355y\367\274\277\037\270<`\254\251;\353\335\\\274-\343\212=U\354\372\274\2159\235\274\326$\365<<\253S=\030\330\226=\361\235&>\342\256\010\274l\003\341<|.\013>\222F\027\275\244r\247\274\377W\203\275\235\344\224=9A^=WQ_<\243\305\307\275\303m\201\275@B\365;\2722\273=\312\266\020\275\321\034\211\273|2\234;\277\004\215=\247\265\364=]\270\224\274pl\350<\241\0221<a\317\210\275\264:\241:\222\003\220=\222\346\327\275\353\3740=d\320\261\274\361\262\345\275\335e\366\275\371\362!=\032\237>\275\312\225\363\274\333nC>oR\245=\310/O>\201\023o\275+&\265\273J\372\224<\367\275\340=\266gR=\215\037\232\274]\337\342<\340\316\244\275\376\366\001>b&\257=\270fh\275\377K\026\275\373\200;<5\271\262\275\2404\360=\340\007[=\032\310\034>\274n\333=9^\315=\316\323\270=IZ\'\276\370fA\276]\226\240\275\001\224O\275\300\224\013\276+]\273=v\231\032\276b\353\351=\304\004\357;OvD=\242\250\226<\312\030\'\275\013-I\275\225\006A=\325\227\224\275\007G\001\276\351\275\365<\322A\245=YM\275\275\230\231\223\273\360G\330<\3233\177\275,!\001\276\240T\003=;I\225\275\321K\241=\025\025\027\275o\226\326\274\270\371\373=\312\337\360;\0243d\275\207\337\216\274i\277\337\275e1\260=\n\223I=\226\250\262\274\262\253\345=\236\014\365\275\351\275f\274\343\261,\274{\270\316=\036\272\236\275\025\244\257=4\315\317=\214\360\321\270\306dz=\247\013\215\274K6\025>\321\353\217=7\357\304\273\271,\035=\370\212\225\274\305\202\314\273\342\376\037=\021\300:=\nz\254\274Xs\270\273~\277\365=\304\325\373=\n\315\005;\016A\360<_\325[\274\235\232:\275%\242\023=\361\323.\275@t*>a\266\337\275Z\311q\275\353n8>\361\244\250<\253\227\354=[I\377=\363Z\013=\250\351\316\274\027\024\223<K\250\201\275zql\273\251\261\036\274\340#\327:\232\254\356:r\254R\275Rf\207\272V3U\274K\r\207=\024\326\304;\373\242\250<\030=\350<jm\n=\372-V=\204\2079\275f\0160\275|-\372;\366\325\013\272\357\236\310\274$9A\274By\026<w\313b=\317\377\355\273\034\n\003\273>\263\001\275\315J\017>\273y\001\276\232\023\244\274^B\207<\254\352*\275-\257\034=)I\010\276C\307o=\323\202\017\275@\305\302;\003W\231\275Lk\327\274\2255,<\240T\367<\301\016\264=\267\254\010\276\223Q\323=\033IV=\337\271\213;\330\014\024\274\273\0223\275v\000\034\275\303\346\010>\366\2335>\034|\200\276\200\246\005>\273\255n=\340\221\270\271vpy\275[=\353\275\023\371g:2Sx\275\323\315\210>\202\007t>Z\206M>s3\364\274\243\237\017>\256\244E\274\\\322`\275\300\366\036=\300\tP;\177\030\001\274\034J\320\273\277\257\205\274\021he\275\323\235\234;o&\237\275\223l!\274\224\210\243\273\250\257\213=\354\313\213\275|\005\347<\233vY\274\366\356;=\267\200M>\363\372\027<\023SK\275\202\266#\2758\016!\274z\3218<\307d\022=A\237\235\274\006\356<;G]\373\274\222!2\273Xln\276\226\230\r\275\3617\265<\241h\025>\371\2112\274\217\277\203;;O\364=\010\034\002;\320j\216\274\234HU\273p\317\342:.\372\305;\314Z\334<\215&\305\274\341B\21687D\277\273\021\223\366=\353\320h;.z\353<Y3G\275\240*\266<\3165\277=8p\352;J\331\364\274r\373G\2756\260H\274Km\367:\257\245\251=\242\033\257<j\312\007=\342\210\036\275\177\216\t\274\331\302\372\273\332\025\357\274w\303i=$CD\276XP>\275\205|+>\254\222\326\274\240)\273\275\302\262.\275n\247\226\275@\250\n>J5\326\275@\007g<\277m\357=\313#\345\275\214\025\020=g\372\223\275\3441\246<\300\005\343\275)\363s<\010\355\252=1\336\330\273\361S\305=\316\261\227=\031\223y\274^*\201\275\203\310\260\274P1\327=\023\370\246=\214\323\216\271\312\262T\275\370\201x\276\033P4>\331/\014>Y\034d\275\005\322x\274\355D\322\275\355g\034>d\224\230\275\316`\344<\212d?\274\034\220\206\274x\237\001\276\361S\t>\010\252}\275\300%I=)Q\277=\240VT\275\377\314\340=\276\337\225\275\235T\021=\027\273!>\357\254T>K\305\020>\327/\272\275\000\0269\276\346\347m=\314\317\211\274\365\034\275\275F\014\326\275\240\231\270=\306M\345\275\332\007-\275\002\223\315\2753\374\367=x3\364=\223\353\026\276\341\342\221=\2701\220\274\212a\210\275zee>\004w\365\275\305$\020=\3345\350\273=\245\271=\274\336%\2754\252\003\274*\217\317<e\251\017>\207.\212\274\354\226F\2733\031\002>w\222\010\276b\215\340=4L\220=\244\346\251\274a=t=\0059*>\030$\026\275{fb\274\311\260\226<\223t\326\275!+\001>:J\251<\352\340I\275\307\3513>\2260\346\274V\225\007>P?\215=\235\374\334\275t\321\006\276o)7>\354<\227=\376G\213\275\374\002\354\275x\215\210\274\003\267\307<,#\205=\232S\240=\216lo=#\013\361=\243\277\216;\326^7\276;\2057=XGz\275\033\031\242=3\234\255=tR\017>\360,\352=\323\374\300<n\314\217\275\334T\237\275\200\230a\275%=\245=Z\003B>\237\334\014=\244\033\234\275i\014}=\372\352\252\275\037\tO>J\235\300=\227\343[>)\265\320\273\020\366\032=\327\374\222=S\334\257\273\253\344N<]\354\030;\346\227\335<o\311i<v\325\371\273[E\232\274<\225\223\275\203 \243<S\216\032=\314 1\275A\314\350\273\264\364{\275\255\332\255=]E\223=\26676;\020\230\204\275\2427=\2740\275\360\273\275r\303<\230\"\336=ZN\256\275h\271\257;\241\017\276\273\210<\232\274{\365\3239\3628\320\275\277\r\235<\206\325\217>\330:\221;\332Ns\275\224(\350=1\310\215;\266\325|\274\200\035d<\'S\027\275\021#\242=I9F\275v\305\202\275\300K\310\275\336\371\033>\025\316\316<\177\271\231\275\177.:<\004)\330\274\301i\007\276\274?\203\276=&6=WC2\276\213\223\002\275O\013\023=\275vB\274-T\200\276VK\005\275f\177\205\273\321\216&\275\261\3019>\274\200\246>mW\033>\336\326\267=z,\203=\345\247\n\274;\352\031\275\331\247\037\276\nRo\274\010k\263<\371\232w;\315rb\274BZ\223<\265\234P\274\341\037\333=\020\270\014=\017\236\320;\360B\003=\006\370\201:\265\243^<\271\001\364<\020|\222=\032\373Q\275D\316[\275.\267\220\275\033\224\315\274\365\007X\273\232\016\341<QN\025=LV1=\337\257\347;c\003\310\273 BI\274\361HT\274\260Y\035\276\250\252\010=\261B\327=\025\347\253:\322\232\216<\276\022\304=d\362&\274\034\203\004=\233%\353;\037\347\255\274|E0<R\243r\275\354*\271=:1J=k\224\006=\026\231\347<\262Q\227\274\330\232^;\337{\254=W)\223=<i1=\246\314\237<5\247\241\275\032*\035\275O&\215\273:\2534=>\257e=\266\177g=\314c\343\275\021i\247\274uM\235\275\003DV\274j\271\003\276i\022\226=\020\361\313\275\037\010L<l%\031\273\307\324\363\273{\236\253\273\2433\331<\354vE\273D\021\246\274\360\305o<O\r\364<KVT\275w\305Y<\261\016\221\274~zc=\017_\357<\244\214\344\2745\231\340\274\2218?=cm\215=\037\332q<\032Z*\275\247\314\002\274\324%]\274\335\237\231<\301\266\256\275g\377\303\274$\230\266\274\014\026D<\214\213\263\274\010\225=\274\033\2429<\004\214\263<_\004\300\275\357\204Z>\'I\361<\315\353\305=\006\004C\274\343\212\215\275\361\225\240=Z^\215\276M\267\002=\232\370}\275\254F\007=@Y<\276\242_\276\275\303\372\376<\241\353\360\276\371o\214\276\307\362\005\275\022\376\327\275\220\'\201\275\346N\244>\310S\203=zfu=\332\277\014=\226{\216\275\276\2466\276\331\241,\276Q\241W\274ktJ\272\247\355J\276\\E\314=*\272\364\275n?\312=\301\001\307\275u=?<8\016\374<\343<J\2753\377\254\271\365S\032=\025\267Y;\2570,\275\361\310v<\320\316)=\256\323k\2755!\215<}C\233\274R\337\344<\335\270\203=\274\213\265\274q\304\215\275\177Lp=S\357\276=#\002\r=!-\257\274\273n\270\274\341\001E\274\266\352O<H(\247\2759\226\275\274\000K\310\274+q\217<\027\002\374<\303`\206\273=\236\250<\340O]<\223\323\266\275\363\234\240\275J\376y<d\321\235=\\\371\014\274\232vs=\334d\210;\241K\272\273\373h{<\210\207\374=L\366j\275\2055\324\274\271\001\272\274\320Ct\273\376a\354;#yq\275\t\367\206\275\314\377P=\302U\003>N\351]<\303\212\241\274\035\263\013\275\300uF\274|q\037=/\343\342<\331o\033\275\232\342\364<\"\002\034;[cX\274U\266\034\275\261W\004<\214\"\335;\371;\005\276C\310\247\274_\345!>\276t\214\2743\023\226\2745\327\312\275\266\336\336\274\346\305\002>i\363\321\275\025b\343<\260\220\201<\245v\016\276\033e\211<(R*\276!#l=\276`\235\274\\\275\343<\271\305\210=\322\323\347=\245\213\222=N\247\001\276\355\235\233\273\246\205\035\275\034\242h;\006\370I>\313\346\233\275t\343F=\336:#\275K\270~\276\032\350\200=D\025\004>\340\254@=\005G\027\275\236\247\227=&\335\007\276MO$\275P\311\202=X\202\251\274\315\010\036=d\020W>\014\275\230=\315\227\020>\n\020\330=ES[\276&\202\261<9\372#\275\345\256\233=\204\2713\275\223\206b=2\0222\275\251\021\256\274D>-\276Q\244\365<\246Ov\275UP\026\276pB\325<3\217\026\275\001>\261\275\267\335x\275I\270\217\275\261\0031\276\350v`>\237\207\246=O\201\366=L\357\013\276S0#\272\273\214\360;q\254\207<\362\252\025\274Z4g\273\013\211\250\274\354/M=v\037\236\275\315\t$\274\"\203\227=\215\314\210=+\340\312=\230\272\031\276 \031\311<\372\315z=\'\251\225\275#*\004=`~R=#Y\371<\323\304\331\275\r\364P\274\"=\016\275\201\275-<\233\024\3259b\204\325\272\214\275\213<Dj.\275\022\243\300\274\273\244_\275\217NM=t\347\320=P\234\262\275L\307\252\275\372\360$>\307\343\274=U(\244\274d\234\214\275\277\tg\275\370\334\006>\376\213h\274S\334\256\275\317\260\364<\300\273e<\016@\005\275\364\246T=\225\007\313\275\316I\027<\214\203\341<\026x\374=\2533\030>\344^I=\255\233\210<p\006\333\274\263[\021\275\263\255j\272\250{\021>82\263=\376\310<\275\312O\210\275\273\335H\275\346\346\034\2769\003\t>\262\365\332=\340\205D>\313\372\326\274\022\027\233\275(> >H/\037\275\346\235\t\276\340T\267\275\313z\001>\3513\336=\360\2772\275A\374\035\276\25015\275\2427\307\273\372b\203<\342(\200<s\356\250\2750\"7=\352\r\351<\201\317\222=\240L\326\273\364]\220\2759\232d<\267\315\003\275\306!u\273q\220\377\275\037\205?\276\026\355\207=|\356\353\274\217\365\367\274\335!)\275\247\262\211=;\363\013\274nNE\275\037J\017>-\267\t\276?F\215\274\310\370\207=7\2472\275\275\307\213\274\"F-\276\313k/\276\235\227C\275G\356\364\274\n\350\265\275\272\315\330\275\212!\320=t\365\313<j\270\204<\372\014\330\273\241\334\311</D\211<\345\350q=\322X\350\273\350\351\215=a\177_\275\263\003%\275\344}q\273\325\316(>\"]\254\275N=\326\274R7\317\275.\205\264\275G[*</\017\242\275\317N\256<\323\341\033\274\2014\310\274\216\344\212=\210\\9\275Y/\231\275\271\033\263\275\212\310\332=\2235\273<DZ\216\275\003\374\004<\322\361\214=\333\033\316;\222\356:\275\231\003\272=\032m\013\274\3724y\275\221\n\376:\202\315\353\275\306\037)\275\205_x=\260q*\274\344\314\032\274>;%\274\005\034@\275\375\245\236=\r\017d=,\010\006\275?^\206=\352q&\273\246\320\314\274\343\227\374<\300J\326<\3305\t\276bSK=\260F\221>h\322\352\274\233\264\354\275\202\360\307\275Z\245\306\274nw\300\274\321] \276tF\351\274\214\252!\275\020\202\215=\372\331*=\272n\001>\247\003\301\274j/\333\272d\311\201=\236ro=}\017\230\275u\037\031=-\027v\274\340]\316\274\233\214\303\274q\377K>\240\222~\274|+\'\275c\332y\275+\204\336=Q\024\274\274g\272\271\274\351\365\246:\227\n7\276x\365Y\274$\245\327<\214\332\016\275\202b\025\275Q\230\"=\013`\207\274\'\017\211<?\266\013\275\336\225\034=\330z\215=7\226\271\273x\265\341\274\2062===\342a\274\013\024\376\274w\253!=\3677f=\351\005\342\274\304\2145=\335XL\274J\331\r\275\315|\006\275\276\241\366<\371\303\204\275\347\3459>\310\355A\275)\264\224\273\022yT<a\227\000\275\217\312\211\274,F\271;\235\2511<\267Z\034>\\\317\003\275\026s\252=\212\217\241=\235\006<\275\374\021\001\275Q\262\330<\300\335\'>\007\034J\276\215\245Y>$e\202\276}\242\"\273\270#\225<\230C]\276\350\207\032\276\313\027i=+5\254=\200\027\366\275\251\245\021>\342\002@\275\177\363\245\2741\005\037\275\233?\214\274\007\337\217=\305\357E;H\276;\274\210\310\177\275c\227\324=\343\213\256<\334\304\016>s1I>\252\r \274\204)\201\274P\3077\276_\224\250\275[\2409\274\304yj=\343\210\323;\241\032:=;1\267:\354%`=\325\247\020=:-/=K\201\025\275U\200\230<\310p\010<\320\t6\275\345\244z\275\240X\253=\305\372U>$Q\243=\375Au\275idh\275l\254\323\274\372f\350<\305\034\'=\270\250m<`x\306\274\365k\027\273\001\'\020<d\277\344\274\257\224\234\275km\326;\027xT\275;g\017\276d,\222<`u\036>AT\022\275\314\310e=\3170\205\274\250\310b\275A[a<z\256\246=\027\3426==\242O=\026m^\275\236\371\300\275\327\306\236\273\364\336\034\274\224#s<E\211\206=u5D>\301\237\237=\232\"\303\275E\355\217\275\375\320\376\274\016\273R=\241\257O>F f\273H\203\276=pH\360\274]t\321\2752P\227:\306\332\372<\307\213\321=\312s\000\276N)\270\273X\222\252=xy\000=W\302X<l\262q\275\270\327\333\274S\275L=Z;c\275i\321x;\372\314\274\273\362\340\371\275\313I\034=t\034)\275\"\021\356<\242`=;\022\307\203\274!\347Y={5\211<g\232\361<\363c\213\275J\344S\274\356\223\317\274\231H\021<\017\307\254=\2369\205\275\222\354\277;\2343!\275\350T\201\275N\217*;f\232\202<n\n\331<R\311B=mg\032>\027C\364\275a;\003\276\000>/=\272\341\307;\347\312\001\275\263\241J>\237\237\203=\364x\316<r\3003>\206X/=)HV=\357T\006\275\307\252\252=o\371.<\261\1777\274\221\355b\275F\n\001=\267\001\t=u\023G=\376\016\037=\246\346\235\275\372t\207=\360\035\302\275w\301T\276\313l\352\273\375\204\211\275gj\257\2754\374\t>>\0231\275\032>\230=\313sX\275\223)\365\273\346\"\374<\2561\276=\310\300\262\272\026\343\017\275\346\030\036\274\222a\231\275l\336\222<\016\350\256<\037n\236=fb\277\274`\244U=\245\254\251<\310\207T=\303\017T=\032\251\035\275x\032*=B\224\276\275M\226\306<25\177\273\301\222\222\274\250\335\316\274\350\274Y< \007Z\275\355}\201=hq\032<\323\251(\275\244|\274=\276\216z\275\026`\216\274\2513\224=V\216\010;\221\237\233\275\360=\341=8\025\373;\334a\307;5\034\207\275G\236\'\274Lo\315;\226\'\350\274Y\027Q\273M\031\266=^L\"\275^\365y<\257&-\276kl\006=\350D\275<\035\231\245\275sK\244=\217II=\334\231\200<g\177\342\275\317\220\366\274\252&\341\274\372\313\316;\376\023\365\273W\346\371=\237!L\276\033\300z\275r~)\275\231\272\200\275\036`\203<\261\233\373={\341+\276\200\307\032\275n\330\037\276\n1\235=umC\275\313\002\177<\001\350\034\273\342H\353<\004K\203=\315\224\215<\353\302\021=D\310\354=(\361 =\365>I=>*\344\274\354\355\017\275\245<\312<\335\351\376\272\365V\360\274\206|\206<9vu\273yN\007\275jq\320\274Z\314e\274\037g\217\276eI\215>\203\216n\274%\330\245\274c\3377=H{\003\276x}\217=\3502\212<0\246\202<@\021\245=\306\347\313\275\037\316G\276\231\372\013\276`C\255\275z@\350=.\363\r\276*\237\352\275\005\227\276=\200\321\034\276>\320\317\275\265\025\024>\320\001\221=\376\345\023=3(:\275\005\t9\275\352\204\306<\014\275\350<%\322\267\275M\3171\274\027M\320\275+~\327\272A%\212\275H\216\363\274\000\225\366=|\266\240\275\227\2657=\243Y\000>W\367\226\276\375\352\275\275\2556\325=\207\232\377=0\220\n\275=\205\321\275\316h\222=\215+\240\274\251\351\001\275w\007\361\274\347\350\033>\325\307\215\273\253\323Q=X<\275\275\261\301\322\272\321\252);O\364\t=\372\241\003=\206\"\226\275\r\237(\275\2563`=\316&g>q\031\342\273s\274\251\275`zc\275;\266\302\274XEk\274\007TC>\3518\371=g\026(<,T\257\274\346\014%>\006\\\210>\305\037\322\275\312\261\224=\036\007\342\274u\273\321\275q\364\262=\0311\234<\n\372!\275#\032\252\274t\243\240<\214\316\004>\325\310g<\330WT\273\240\215\354\275,\376V;\237E\307\274]HS=\204\235\t=\020\034\372\274E\375\"\276{.E=\222\313H>\033d\237<\241\322\340\274\005\005\237\275[j\322\274\373: ;,\240R\273\032\030\010>M\214I>\332Hb\275\366\307)=\0306\033>\322\337\250<\355,)\275\260.\225\275\2018\243\274\220pR=g\245\304:\211\311U\274\204\230N\274\023<\020\273\347|\335=5N\304\273\344\304\006\273\023\324y\275-j\200\2750&;=|\010R\274\260\r\213<\371\334z\274\340\267\006\276\177O\262=\no\220=\303\\\341<\203\004Z\275\342\212\367\274Z\223\030\274$1o\271\221[W>6\355\312\275\213PV\271\2351\254\274\237Z\037\276\222$\361=\2668\277\274\350\202d\274y\345\036=\334X\021\274\275\213\201=u)\003\276\223\266\006=\277\200w<<\216\201\274\014M<=\342\355\"<-\347!\275\256\330\177<\235\3412=x!\360=\016\313\025\274\241\270\367\274d\273\351\2756|\006\276 6\203\276\360\236\037\276.\302\263\275(\353\317\275n\235\242=VGt:K\334W= \022\333\276\336\010\263\276N\246\375\270\010\002\254\275\362\346r=\335\372E>A\353w>\317\276 =u\001\233<\362\031\316\274\332P\n>\346\307\366\275\002\022\245\274\255F\26784\001?\273UJ ;\340ys:6l\027;\2623?>P;\334=y E=\026\345\005<\356q\300=+\347\005\272J*}=O+ =l9\242\275\371$\212\275\240g/\275Ap:\275_W\027\274\261%\003<\370g\371\273R\346\030=\213\263\'\271\027\201\256\274}\204\303\274\342\213h=\323\367%\275\235\345\256=\030G\031\275\200p\252<\320<\205=e\220\267\2755\304\201\2745!\277\273$\324\025\273\252\271\315=~g\374\2746\230?\275\334\371\030>Y\373\353=\016g\214=zy\000=\251\276\303=[O\267\273\351\243\020>\364J\277=%Y\222<\260\\\2559$\026\310\274Ef`\275\326\020J\274\2618\355;\317\350\313\272\377\260\323=\367.\026\276\024\000\002\275\364U\224\275Z`\212\274q\027`\275D|U=y\330\251\275\275\316*\275\212ux\275M\226->I\301x\275S\'\271\275\335\277\205\275\3353\222=\032\264\214\275\247\360\373\273\3515\200\274\262&\253\274\244\025\030<m;\310<\302\036p\275FI\224\275\310\221\301\274JE8<\311\350[\273B\003#\271\357\360\245\275\342\335\217\274\034\262\352\274.x\202\273\256\342\225\274\314\347\t\276\227\026\222=|$\022\2755\377\211\274\244\334<\275\244\364\323\272\365\3012\275\367\265K=\222\314\300\275\005b\033\275\370\231\013\274\323\374\312=\307\315\361\274R\002\244=\266\3148=\\:(\275\001\242i=\256\340\334\274\307\303\331=0%\273\275k\220\233\275*\222\303\275\210\313\027>\t\377\001;\225\303\333=qf \276=\024\n>\264k\010=\362#\353\275M;\010=B\037\303=\351\304%\275{\030\330<c\005\264\275\025\317\224=!,\'=\003e\'\276\256\017\225<\327t\r=\316\247w<\352y\014=\314\2622>\271P\274<VL\305\275\240\020\354\272\225\323\031\274XNO=\233\n\n\275\267!?=:\021\362=\251\035\014>\300,\371<X\362g\273\322\027}\275\246o\007;2\3672>@\244\005\274G\320~=A\223\220\275^\013h\275\016N\034\275\253x\327\272Q/\372\274P>\353=\211\201\334=U$\212=N5\031\275\355D=\274n\222\004=\006\332n\275A6Q;\022\240\376\275\366\255\240<\330\276I=\203\0033=8\231[\275\243\322X\274\264\373\264\275\255\212$>\250\331\274\275\355\216&\276hxx=)\346H=W\217\311<\261h%\276\034\235)>\005w4\275<\223\272=\030\271H=\320\215\234\275\211\343\343\274M\016`\275?\317\370\274\377S\267\274\232\205T\275pF\261=\004V\223=S\251\350\275\202\335\343\274\257\241b\274\231\217\326=\246T\263\275g+\252=\352\350\253\274\312\021\003\275\223T\001<Y\373\001<j\307\207\275\010r\024:\274\321-\275\023\202\331<\221>\324<Kb\370<Du\225\2750\312\017>\263\266\346\274e\262\207=.$\331=\352\004\n=Y\236\r=QnF\273\253\000\261=Vt\2439#k\023\275\014\346L\271S\232\215\274p\263\r<\330\032\352\274\2207\275\275`\367\005<k\270k\2733\302\270=\371\327\265:\224\260\206=\315}%=8\2170\275\201\206m<4\214$\2761\264&>\233\017\212<x\0146=E?\257\275\221\216\377<\034)\017\275\035\\\233=7\373\002=W \210\275\336.\366\275!Wh=\222T\\\275A\024w=\365\255B>\254\241]>^\035\001\276\316\212\214>\272\224|\275\274>\237=\371/\347\274.\225\r\275\300\007\231\275\300\367C\274\212\n\237\275.H<=\343ZC>\371\273\234\274q\320\231;\002g\233\275~\026\244\274]+\271;\344\252\267=\366.S>\335\246\355\274{\377%=$\230\010\275\032\310\331\275\031|l\275G>\210;b\322\273\275\211\230\307=\375\351\205\274q\030\033\275\013\327\236\275\014x\327<\323\264\275\272b?\315<;\021\033>pr\250<\205\273\261<\240|\335\274\245\355t\274\021H4<\240\024\316<\310\204\250\275\372?\277<8\260F\274\262\256\375:\210G\240=\273\201\260=\3263\315=\237\242&=\257\225\216\275\034\215\305;\"\350u>\271\227G\275T\276c\275\264\250I\275\216\265,>\226W6\273\005\352\214\275\371P\202\2747\262\236=>]\344\273sa\037=\245B\010\272\326\264?\275\224\3370\275Q\305[=\007\031\373=Z\016\310<1\206\236\275\3207\322\274\300Jt\274*\n\257;_\227\221=\001\341\301\275f\220\311=\n\256\360\274Z\264\325<%:\254=t\360\222<\017\360\237=\035\263y=\204\2526\275\303&\244\275\247\353\006>\201\3475\275n\225\r\275<\303 \275Ug\225=\375c\342=\'\361\276\274\257s~\273\241=\310;a\251\033=\247\264\253<\341v\351<\343\224R<\353\367\313=a\034\200\2747\300?\275\310&\240<Et\213;\026\211\236\274S\231t\274\360\303.\274\373\327T\275\231{\225\275\227Hx=?\314,\275\261\364\365\275\366\300\374\275\007\0021<\264d\220\274\2640\272=\0166\305\274\227\271\026=\001\363)=\333\237\000=F[g<6C\316<\017a\273=\226\2333\275\277p\300=\'}0\276V\251\274<\023\331;>\327Q.=\010SH>4<\346\275\2415\"\275h\354\307=\241\273\246\275\035m\"\275\243\232\341<c\337\022\276u\363<\275N\366\251=\273.\315=\337\275T;\344\010\215\275\245\273\323<V\340\004\275s\227\372\275\267\233\217;\254\330\202\275\332\020\231=\206\r\320<[\036\327=\347\222\224\275b\n+\275\260\202\351\273\373\350\363\274cl\236=\257P4\275\351S\255\2743\263D=\226<\373=+\365\006=\317I\017\275q\302_=b\026\';\376Z\271=\331\366i\274\312\274\355<\277G\005\275\005#\242;\271<\377\274\234\360\202\274\336w=\274C\254\001>\367<#>\301N&=bEV\275*\356\275=U\027:\275G\235\262\274G\020\250=\346\020\305=}:\235<\005\365\016>\344&D<lxC\275\005r\335\275\225>\022\275\016X5=\2357D<g\037%\276:\007\246=\026\263\203\274\302\326\212\275\321\225\002\276\234\027\237=\322\221?\273\365\305\026>\271\304\341<\256c\211;k\205\337\272\326S\235\275/\3134\275_f*\274\t\372\336\274\206\3077=\2066\007=\224w\213\275\026TI\275\207\357e=\177I\215=\316\004\021=ur\217=\030\274\300\273\0058\333\274\216\263\240\275?rT>\331\202\206\275\221A\360\275u\331O<Oi\r>\216\321\247\275\375\231\223<\371V\001\276\271K\222:\271\201a=\324\346\330\275xq\335\275\227n%=\2213/=\202\020J\275;~g<\354\032m\273\374\200\001>\274@\374\271!\\o\275\2155\260:\211D\210\276h\363\020=\004D6=\223K\244\275p\361z>\245~\201\276W\025\216\275&j\253=\003\337.=B\016k=\214\247\">!\361->Pw\004\276\246rN<ZAa=\3151W=\335\316\315=\002\001k=\356\255B\276X\022\002\276\321\370U<\237\267\312=\312\317]=\206\251\356=I\363\n\276\302\365\026>[F\025>U\'\342<iY\006\276h\222\3049\245C\337\275\322\304]<\223\301$>g\333\323=\017-\354\275\205\345r\275YkJ>z@\236=\372!\'\276cu3\276\262\237G>J\024Y\275\203B\243\275\345\273\215=</\013\275Jz(\276\361\031\213<(\224\204\275y\236u\274&\325Z<\2308\375\275l1\316\275\306\t\033=n\231\006\276\301\243\366\275\230\204\205\275\200+k\274-\335\314\272\006\256\007=\031\177\203;\034\177\013>kh.\275\314\236\202\274\002k\272<(\270\014\276S\332c=\364d\210=\275\242\270\275Vos>\270\344R\276+\315\255\275\210\026+>B\367J>\275\360$\276g\2248>E\322\230>Ldf\275\376\376\275\274m\t\232<Yw\240\275\236\361K\275F\324u\276\361n\233\275\234N\014\276\216\203\200\275\375V\263\274\310\261\231\275o\310\333=\003C\204=\224]g=\246\336\324\275\251\214\025\276h\324\230=\027M>;1\345 \275i5\240\2755n;=[\242\340=\010Kp<hv\000\276(\306q>j\233\276<\3537n<\023\007\212\275U^\354<Qhc\274\254\316\237\275\334\343\t=R\342\2009t\276h\274\247V\"\274NP\002;\330\213\030=E\223 \272\361\324g<\266]u\275\022\227\014=\274sq\275w=\020\275\271\222\007\274\237\226y\272\027\316\017=W\3243\275rqt<I\351\302\274\313.\031\275D\347A\274@\204\007\273RB\000\275\326\361\324\274\t\n2;\025\200\240\274\314\343\327\2747}\303\275\265\221\003\275\031\226\321;\334\327\267=\033\224{\275\261\002\016\276\007\363\225=\332\273;=x\3303\272S\245?\274\222\216\310=\322\330\270\275\223\006t;v\216;\275Ve\036\276\357\312\315=B^^;\240\321!=\273\365\270\275\004B\024\276\330^\t\276\336\211\266\275\3420B\276j\222\214\275\301\231.\275\277\r\263=\231\247\231\273\362\344\240\275\253\242D\275\273\221\214\272\203\333\001\275>\363\231>\362\026\337<\203\202\201>r\252\021=\361\026Y=y\\\307\2740c\207\274\317\221\036\275\t\313\325\273\221o\000\274\0010F\274\005\326\210\273\340HI\273\037\346\2237]\235\373;\nRP\273\3059\002=\2226\203\275\253\305\262<\010\227\177\273\301-\321<\246\003r<\246\272\347=*\326(\274v\000p\275\227r;\275\003v\024\274&\245\335\271\013\\\004>\243\005\363=\2548D;\336\272\206\274\014\226S= \367\307<,v\224\2753N\316<\n)\222=\373\332V\275\266.\013=j@\236<\264\205\244\273]od\274h\345.\274\323\227\023\275{w\016<\257w\320\275\002\241m\273\"\337\3149\250\3735=:\362\000\2755t6\274\200\253\"\274>\000U\275%G\264<0\237\025=\222\356v\274\206\236D\275D\"\214\275\34543\274\216JM\272z\214\243<\262\274;=\264-\207\275\034\023\326\274\345\373q<\244\364B=\022\373\222\274H\240\260=\006V#\275f\313\237\273\037\246\260=>\r\367=7<\227\275\"&\004\275_\030\034\276k\342\370=\227\254l=\021\215\263\2753\341D\275qW\"\276\256\0144\2759\217\033\276\013\276\277=\377N\216=\240+}=\307\264\243=\023\025\273\274\353/i\274\332\377\240\275%Y\031\275\364\242\037\275_4\271\275\372\356(>W\2541\275SZ\351=\332\205\377\275\207\372\002\276\317\305\n=u%\316<Q\263\333\275w^\236\275\232\221\201=\306h\340=\267\016\016\276\365\\o:c@\214\275-\025\035=\230<\315\275\227\360\007>8\340E>J\003\371\274z\361\364=-\\l\2750\364\352=v\266\363<\305<\203=\233\263\026\276\320\277\030\276P\013\263\274\231\204\034\276](\204=\010\363\211=\337,\022>hv\301<*\314\030\275\375\346\274=PX\010\276\032\322\235=t\326\006>\250*\265\275\205\247\214=%\307/\275)\r\030>)\201\205=@77>\2729\027>\375Q\002\276\233\325\022\275\241m?\275\311\363~\275\324O\250\275\221\001\240\275$x\246=\211\270\350=\n\372\270\274A\327\236\275\355\252\354=n\337\220=M\362\325\274\346\014?=\254\'t\275\360\177\252=\370]+\274\004\210\026\274\330t\257<U=\262\275\347J\300=\362s`>\303X\257=\346\226\325\275d\0040=\336\016 <@P\237;\005\212\352=\"\257G\275\364I\034\276\303;@>\206D\341\273\356\365\237\271\3700\326\275\323\321\005\276\035(\366=@LV\275T\022\221=:h$>\232\331\351=+\245\274\275\212^$=\334-\341=\235r\301<\245om=\302\200\022=es&=1a\347\275\r[\022>\030!\220\275\221\026p;\"\017\032\276#>\302=`\361\362\273iq\341<2b\337\275Sf\240=\032\367\326\275\376\354+=I\022\\=i\330\002\276\344\013\254\274\000I\277\271\350\005\324=\252U5\275\257E,<\316\351\321\273\355@\360<\302\357\313=}V\021=PM\334\275\256\005\r>+,\235;\345\017\374\275\247\375/>\311Z\332\274\324\3217=\237 \343;\344\310\236=\336\021\361<dA\017\276\244L1\274\265^S\274\217\0251<\262\027\244<\037~#=o\364\202=\201#\345\274\265\375\222\275d\027C\276\3771\261=\212\0064\275\r9\010>-\374(>\035Y<\276\010\tC\276l\204\236\275G\243U=\366\275\250<\340\215\301=\342vE=\276\360\021\274\236\332\313<\355\344\316\275DE\021\275\351\rj;\346\276\023\275\271\307\301\275\212:\375\275pXf=\244/\237=P\010\330=V\304Z>v\317\271\274\022K\245:{\367\215\275\021~\203\275\337H8=\250\027\226\275R/\300<\317\251b\275\315\220\354=T\021\324\274z\010\250=\355\262\267=.>\374;\237l>>\225,\365=]t}\275\376\374\263\275\266\353f\274\031\274a\275\343:\315;z\037\347<4\342\222\275g\207I\275\371k9\275_h\361\275\367\345\255=\274\2379<E\000\350\275\233\254\255;\214\200p=_\271\335<yA7\276\207\301\225\274\317=M\274\334Jc<#k8>\362\020{=\352\357?=\332\227\362\274\211\206\033=s\202\273<\001\232\203;\305Y\364=\335\241\023=\254\373\273=\336\326\371<zi\n>!\247H\275\232h\025\274e\252\327<cXo>\370\237\261<\205]\377<\035\376\205=X{$=\322x\262;\360\000\001\276\271\306\342=V%\356\274\211,%\276\224\014\222=\253h6>e\225G\275D\304k<\300d>\275}\254\n\275\235\216(\275\341\236\230>\365\2148=F\"\274\275\342o3\275\036\022\227\275\306S^=[\036*\274s\032\212=\223</\272c2\233\274\322@\203\2753\000\010\275\242a\234\273\375i9<V\r\337\274\363-\204=\346k\"<O\337!= \236\211\275\227\"\001>_\376\034\275\206\210\252=\"\217q\274\337\016\266\274\036\\\017=8\313;=\213\321#=Vv\013=\367\272\226\275\272\332%\274\250w\237\274\362\177\231<I\022\307\275W\242\335=(\215\334=\336\035\202<Yo\326=\035;\207<\341}\221=x\366\030\275\355\334\017\276\231\010\311<\034Q\320\275\351\245\004\276=p\017\276\236\360.\275\222\220j9*\2052\276\320E\217\275\006_\361\275J].>\201\252\237\275\013\345?\276{%t=m\310P\276$b\205\275\305\320\275=\261\374\344\275\177\207\374=\177\341x>\306y\203=\223\301\330\274_Z\302\274/>\014\276]X\000\276@\036\256=\214\020\204\275\350\025\213\275\377\275\266\275d\023%\275\251\306\t>\306\340\013>\347g\240<\340\234\342\273\300\016\014\275\'\210\026=\020\245\032\275}\212P=u\\L\274\320IP=\303\364\372\274;I\342<\302\016>\275\237\340\235=}U\312\274\221\270\262=VX\023= \032L\275\013\236(\275\265\352\251=\034\266\303=G\210\020=\351\026==\302\246\016\275\347\322\207\274\233!\236<\024\354\241=s\026\375\274[a\323=\373\315\201<T\325\203=\231\306@>#K|=E&\036=\"\006D\274l\274\001\276\271.\223\273j\276\254<\254R9\275Ml\237=\206\356\274\273\252\034\016>i\207\240<\201%b=F\360g8(\326\347<\177\203\024\275\326y]=\222Dv\275\326\334\354\272\241\345\016<a\264\232=\251\370\037>\306\237\236=*\374\201\275\334\036\035\275\366\312\225\274\217\276\037=\213\247\010>w\252\207\2750F\030>d\0021\274Hr\323\274I\303\307<\207\252\035=\204\233U\275|\254%\275\034\354q:\010\334\000\275\2440\020:GL\300\273e\373\205<\273\312\\:\242\231\004\273r\352\035;\320f\203:\202\356\031<\212\247\316\271\036\273\333\273z;U:\205\202?:\274\366\343\273\014\376\216:\3613s<OUH=\377\001\223\267\343\322\331\274\376\021\370\272\231\234\177\271\037\205\002<oxR=\226\212\360\270\232\001%<\350\th7er\241\274hX\213\273\025\300\347\274\231j\220<\262\230\334\275\022\212\3479\305r\346\275\352$\335;\217\241\212<3\273\340:F\350\370<\241\340\200\275\031\330\255<\272\306\367\275;\242m\274\363\230]\274\324\021\243<bW/\273K\005\0049X\234\235\272\344\374x\274\355\036\203=\023\002T\276\204\237\234\271\031\233\202\275\206\305\200\275\237/\204\270\325[\205\275\365>\271=A\232p<\177\272\216\273\233\020\313\272R\236%\275\240\220\t=\324M\235=\375F\241=\244\tO\275t\2178:+y\023\275s\024\005;\327\201\317\273\201\256\261<%yl;8\000\202\274\355\304\265:\0034\226;9\013\033<\206\022\026\272\345I\352\273\362T\264\272i4\243:/\321\026\274\351\303l\2726@\375<\333\274\r=\007\241\2338Mg\022\275\333\324\000\2746\032\224\271y;C<\357\364:=\353%F:&\212\204\273\023\375(8?\277\006\275,@\235\273\262\304\250\275\326\216\215\273\222w\035\275u\272+\275\312P?\274\253{\303<E\337\346\273\0232\r=\336#\224;\2471w\275\346\234\202:CY\031=\367\311\214<qgI;^\240J\274/m?\275\360\373\023\275\016B\203\274\177\013\335;\003\317\354<\2572e=\364\233\212<M\261\212\275D\035~\274z\'f\271\213\310\320<U\362X=\033\337P\274i&\246<{N\016\274\330\027\203\275\304w\335\273\340\026R\275\223\031\325<\351\206^\275t\030l\275\236V%\275/\251Z=\350\305\321\275\310cB<\'\223\200\275\264M\244=\325`\227\274\301K\r=\222\'\013>\2432F>\253\274o\273\305%\301<~[\315\274\350\366<\275\370\023\001>6\244F=e\377#=o\003\014=x(\250=0\366\242:\037u\035\274\344YZ\274;\264\365\274\034\300\014>\253\336\302<&\256\016\274\r\245\356\275jN\030>wa\303\274^n\221\275\224\253\354=`\324N\276\236\236\020=\314\226\261\275\301N\276\275\203\232!\274m\331%\275\037\270F\276\206\223v<\\I\210\275\377\377\212\275\373>5>\006\333I\276\203\252\021=\031\360\031=\022}\024\276\022\033*>\3003\274=\t\223\240=\352\003\302=\231\201b=\363i$\276=\240\250\275\306~+\276\275\337\305<\r\224\244=\007\232\320\275\336[>\275\246*\024\2769\316\244;\347\237$>x\225><\315\335\001\276\210K\223\273H{V<\016\203\260\275\231\266P\275Z\330\003=;=V\275\201\252\335=,0H\275\277\224\310<#U\347=t\027\243>\240T\322\274\215\370\001\275s\221\252=\266%\321\275\023\014k>!\\y=\273\255\027=\301C\255=\300\364\263=%\234\337\274\370\245\000\274\226q\205\274\254\351t\275+T\221=\016\014\310=\253\024\235\274\016\253H=\201\216 >\200\244t\275sm\023\275\374f;\275n\305\307\275\250;x=\"Zc=\347\t\316\275\361\315\027\275\030\370?\275h?\322=\000\310\227;\031\004\230\275\023G&>\325\304\021>Le\376\274{\205\262<\207+\213\275)\007\235\275\030*?>\340\266\307=\210\204\245<4\255m=*\272\377\274~q\374\274#9\240\273\001a\004\274cX\004>\266\312\250\275\206\201\341=`\002*\275\340\300\330\273c\323X>\022o1\272\2334\337\275-\374\213\275\025\242\010\274\"j\310=\374\321\032>N\302\311\275\356\361\"\276\005y\033\275-\315\235=\314\300\222\275LN\320=UK\006\274\"\321\211\275\255Q\207\275\256\354\256=2(\310=\033\225\236\275\361\032A=\335\366\221=\203\243]=\013\326\020=\357\037\366\275\213B\371\274\006Au\275\026\325g;k\302\233\275\321\030\250\273mK\327\273\270\361\367\273\261$\003\276\310\304\251;\307^\263=\223\327\200\275\037\377\033\2769\377\302=\006\252B<kwZ\275\2719\013\276\020\337\350\275P%\317<.\247\331<&\377*\2766\001\n>\206\337\227\274\336\337\277\274\034\214\241=\263T\212\275S\013\031\276D\033\274\273\307\361\306\275\333\226\211\275+\377%=\2406$>\014\314\372=\036l\232=S\340\021>\022\376\266\274\376\315\214=.\224\373\275C\257\007\276\252\221\240\2750\301\203\275\362\r\206\275os\362=\240\323-\276\267\343\373\275\014\"\267=X\010\342\274\353\022\231\275(\203\277\274\013\301}=j\304\304\275\001\t\353=\371&Q\275\352\216\376=9\224\';\375\2677>2\340\203=3k\204=K\336\257=\025\032z\275\366\201\236\275\034dn<\034\313\256=\306\243g\275+G\224=\317\344T\275M\354\356\275?\305\344\274.\006*>\375\262\021\274\2367p=$\245\223\275\224f\200=\367\3557;\332\325\'\275\310\010D>\377\350\354\275r\362\\\273K\253\037>\212U<\275\213\242\327\275\017B\221\2751\231\032\274\234\333\315;_\271\370=\321\244\362\275\354O\362\275\2455A\274=<\273\275\200\275$\276\222\020o\275\357\025\262\275?\244\273\275\306\271\026=\302\344\237<.\025\341\275\325y!\276\241\377\220\275\276\277%\2751>e\273o\240\372=6\034G\275\001\327\003>\266.\263\275<n\375\273\341H\200\274\360\3762>\305\014Q=P\227j\276\263GU\275\374\370\312=N\312\223\274\323|\253\275P\007\010\274\327\334z\275V\332\037>\335\321\243\275C{\003\273l\236\021>!\2445=\031\333\222=<G\036\276\326&\372<\270;\251\275}\245\r=\366\210\207=D8\347\274+\210R=\235a\272\275@\357\320\274\035\305\321\274\014-\214\273y<\024>V\265N\273ym\252=L\3034\275\236A[\276x\0230>k\201\336<Vm1\275\257V\314\275K-\000=\311\177\026\276M\342,\275M\327g<\230\030\'\275\375\270C=\236\213\033>\315 b<\323\326#=7\017\000> \314\266\274\036C\350=\276\250\343\275\202\036->\345\376N<4OV>I<:>&\240\224\274P\336\256\275\225\030\354<\337\221\301;5\240\004\276\326\230\326<\005\335\347\275\206j\354\275\n\240\261\275\332d\306:\244\254 <\036\315\243\275t\241\247=\267\234\001>\324<\025=\366\325\305\274G\206\375=#\005[=%j\215\275\317\315\n=R\374\"\275\213L\273\274\312v\245=6\305\253=R\3015>Kjx>E\226\251=tE,\276\301\357(=\023\231\227;M\204\036>t\235.=\226\355\257\275|+A;K!\210=\223\337C\275f\267\035\275v\341\211\274\320\265w=z\375\351=caW=\026\3408\275\364\264F=\253-y>\337\244\210\274\341\341\327=\245\334\251\275\314\345\365;o\035\375=\013\351\376\275\314\271\224\275\007\337\222<\326\014\256\275\351\374\014>Tn\206=\350f\312\275\360\347\374=-\037\021>\021\"\020\275\336\373\002\276\210\0201\275\321\310d\273A\353U>\204U\356=\003\267\021=\243\267\333<6\266\316\274\236\221]\275tzN\2749\215\222<\232U\322<\3368\320<f\356\351\275g\204p\275\323\314\327\275\370\270\023\274\2042\327=;\307\324=`\322\210=i\364\005\275q\221\013>\267DD>;\324\314\274\321h\022\276\215\246A\274\'!\036=\321\206\002\2758.\017\275\360\001\243<\024\223?\275\264\202\271=\357fn\275\2514\336\275\231\014&=\202\330\264<\320\361\263=\233\276\232\275\364\003\026=\210\334\316=r\322\356:\201\361\246\275\002\262v\275\350<\023>*MA\275w\213\330<\3376I\275\002I\240\275\350(5=\224e\307\273,\231\036\275\240\261\322=\307\301\263;\251O]>\351B\240=\016\331\207\275f\341O<\003\331Q=2x?\275\337\324(>\277$\037>\211\017\230\275d\232\313=\255\327\277=E\225\233\274\031\002\"\275\373*5\275\314l\346\274\026\314\026\275\223\247N\275\2369\367=\302\020\031\276\'\375\203=@\234\005\276\267\361\202=o\'\247\275\241\356k=\034)\237\275\024\266\321\275\271\305\272\274\341b\204;r(z\275\340\331\266\2756\213&>\007#R=\\\004\224<B3W\276\264\207\2659)\013\212<rxY\274\022\0019=3\036\026>\275\017\016\275\247<\207\275\202\013\341=n\232t=C\355\225;\365\361\024=\364\037*<\222\006\251=E\\\272<\270Y\231\275B\235\267=\270]\230=\276\364\343\274\211z3\274\243\306d\275\357\230\276\275j2U>\243\317\200=\322\263\\\275\363\322C\273\324\177\207\274\002X\235=VQa=\210&R>\377o[=\252\223\302=\302\301\362=O\335\263\273i\333\225\275\343/\241\275c\016\326=\2522\375<}^\374\275\344\372\227\275c|\304\275\225\224\221\275\252.&\275\"_\300;\260\203\022\274\315\230\225=\001\237\r>\207J\032\275\362\345\213\274\367\227\330=\212j3\2753\215z\275\302\357\367\274\337E\264<\250\303\024>Mh\366\275\006\245\220\275Y\260+>\341h\030\276\321\031A=\300y\000>\342O\203>\366\223\021\275F\037\240\274\267s\006>?K\005\275\247N\004\275@m\r\274\300<g<&\3644<|\377\251\274\324\0256\275jd\300\273\257\3439=\376a\245=\304>1=q\330\001\27334\232\275(\272\225=\312\377\307=*4\025\274|\367\234\274\275\010\235\274\"\376d\273\245\254H<<,7>h\032\205\276\030g\370<|\235n\274\313\355\274\275\215y\031<\002\334\261\275\366\003\247\274u\317\357<\332\033P\275\366\0304>\332\037{>Q\202\206\274\277#\036=kZB=?\031\230\275\220\331\264=X\002\347\274\346\264&\276\277\302J>\260z\250=h\334\267\272m\273_>\367\233\323\272\226\363\270=\215\373\217\276%\365\"=,62>qO\000\276\t\355\030\271PAs\272\357\273\031=\227\253I\276,xr\275\233g\034\275\342\016\"\275\031\252B><U\270\275\371S\334\274\326\322\021<\355\222\007>l\264\355\274\321\272!=\212m\243\276\337\n1\275ew\260\274\"\241\266\273\326\232\204\276\337RD=yy\000\275k\251\336=\205v\271=\254~\037=_\256(\275\326?\204=pcT=\346U%>\272\212\'<\324)o\275\364\250\270\275\376u\200\275\364v\321\274\317Yf\273\201\3771<\373E\014\275\022\374\335;=\201a<q5\245\274RY\362<\310d \276\006\034\351\275\363\202M=\037\230\003>\003F:\275W\214$=\352B*>\350P\'\275\345\330\033\275\353\016\372\272\036\254\305<\214%\"\275\200R)\276\321\262\306=\325p\252=\254\214\'=\362\336\304=\210<\304=\364\375\267<\307\264\316=\244\022\215=\224\320\331:Y\n\202\275\3708N\275\270n\023\275M\r]\273\2069d<\035\254\332<R\351[<$\306\355\275\262\236\237\274\350\3673<\303\270\366\273\005_\013\276&\342z\275\231\275j=b\r\035\273\374\347\242;\343\325@\272\337;\244\274\255\234_\274\033j\240\272F\237\352<\275|A\274\\*\200\274\266\251\005\275#\"\026>e\344\005=\343\260c;l\316\323\274\3261\222\272\373\3735<\232\373\225\274\014q\215\275\276\177m<\037+3=\3618\275;\233:4<\303\352\361\273a\307\330<b\362\365=\364\035/;{c\000<\247\313\301\275\357s <\355@\017\275\365m\277;@\260\016>\3647\336\275\323\010\014\275\033\355\233>\273\320F\275\272U\336<\2413U\274\233\346\246\275\253\320\352<\372\022\026\2754\250[\275\275\035\r\276\033\005\320\274\263M\024\274\030\"\211\275\330%\346<\363Y\273<\216\215\032\275\302\355\254<v6\036\276\030)\223\275\326\372\274\275^&\213\272`E\r=\314\377\355\275\231\256\205\276\236G\217\273\007\235\307\274bju;E\340\201=\\\"\322=*EO=\222\207H>8=8\274d\225\261<\302\023\237=re\221\274\270nQ\274D\215\001;@!\021>3\033;;\266X\300\274\370\346\006\275\352\357\307=m\203==$\252\335<>\277i=]#!<|\023\371<v\345\357\274I\343\373\275{\342\304<\326\227\262\272\310\3116<\031QB<\310F\007\274U.\260=\342\271\010>\200\340\3029\025#\242;\205\021\372\274\27160>&\220\222\275?\314\243<kT\317=\346\270\3478m\004\345\274\202*\335=\215;\252\274t\342g\274\033\344Z:G\245\367=\032\004#\272f\256\r\2755\275\303\2740\271\367=(\303z=\350N\026=\206\202\243=\324\334X;\206\324P=\276\014\321\274fZ\244\275\202\313}=\231\356\345<\222\304\205<\"H\013<\302\001%\274\323uP<D\343\254<\272\022z\274\346\256\212<\r\330V\275\235\177j=\202\324k\275#\340\234\274\376{w\275\340\347\247\273\217\355\261\274\354\207\020=\017G\343\274\222b\245\274\246\276\253\274\245\213W=S\254\237\274\201\005\226\273\332gp\2751\322\247\273\241BD<\005\232\204\274)\376\\<\375\345\030\274\t\277\331\271\375\261\010\274\325\371\215<\205B\215:\364D\346\274\347\004o;\257\226\276\273\362\303\342\272\361\274\230<\224\3102<\211<\202<\341\244`\274\323\256\267\274\356UW\274+\000\370\274\3722@<t\311\020>@<\251<\236\321\362\275D\033\242=S4\036\275\265\370D<\221B\000\275+\344\230<\275\217\270\275\247\223\003<\362&@\275%\260\244\275\262H\265=\342\204\323<\360\023\025\275\250\311\342\274bE\202\274p\222\327\2757\350\'\276\035rs\275V\013\262=\315\332\002\275P\002 =\224q\264\275\224*\347\275STC=kb\256\2742\377d;*5\320\275\242\361\221\275JD\236\275|}V=\326\343\332;q\225\354\273\272\n\216=\323\346\310=\323:\332\274V<\033\274\310\371\222\274y\024\006>9\304\033\275\023\256#\274\321\202\316\274*B&=\355\260\250<\366Ud\275>&\365=\303#}\274=[\374\274\251!\331;`\010z=\260\207Q\274\253\251\032\275\030%2\2706\235\321\27341\233\272\225\227s<\266\312w=\201#}<\n\331\204\274v`\210=\314C?=\201\340\303\275a\026\242<\001Op\275\233\327\030\275\236%p=\303\342\010\275\210.\365\274\310i\260\274$\343\277\2747}#>\274\313\337\274\242\364j\275F\034\026\275\265a~<\021\260\273\272\370F\014\2742\231\001>G\366\032\274LIA\275\013\037\264<\352\326\001=?\272\033\275\334\356\224\275S\356\240\2735mk\273f74\271\030`\250=\363\266\336=\227&O;\274\t\324\274\177\t\365<^h\213<\301\255\271\274\002G\357<\212\246\240\276\223\233\275<\030|\253\275QW$>#7\223\273\006\300o\274\364Ad\275u\024t=\013\375\215:\244\361(\273yji\275\273C\303\274\203\211\364<\236\260\313\275\200\261\244=O\252&\275\235*\226<\333v\353<\211,T>Q\211\n=\340\245A\275\222,\213=7\233\222\274\305\340\311;\312\335\022\275\3335\335\275\357\177%=\206\021$<\337\261\367\275\213<\342=\225\010\251=\004e\272\274\302[\013\275\260w\365\275\253)\030=\260\323J>\031\005A\274 \244\210;f\245\361\275j\235\020>\321\345\324\275\207\305}=\345y\264\274\006:L>^M\271\274J\355!\275\t\342\205\275\356q\356\275\310\002\321\275P]\273=X\300D=\\\033\306\275\021\231 \276\352\231\272=\222\317\277<\022+[\274\304L\005\273\232\310\331=\303\256X\275\315D\030\275\366\035T\276\366mj=\360\030\234<\0018\201\275Z\2724=\200\243C=\210i\305\275P\253f>3\320\230\274\326\316k\274veG\275/=\250\275\254y\232<\375&\255\274\251\330\256\275\263\365H\275\030\\\251;\314g\300\275%\267,= \024P\275Hk\316\271;l\351=\335\275:\275\362\343\200\275\343\016\014>\345:\214=DG\230\274\235L&;\216\272\202>R\027h>\210\343\022=\204\265\016<5\333*>\245\366F=(\246\235\272\252\253\237\274\313b\020\276\3014Y\274\214\254\243\274\241e\001>G\352\232\274\205\312[<\010x2\275K\313\236\2750y\315=j-\301\275\341F\351\275\032\366\314\274\013B\002=\226\243g\275\006\215\222\275&\264i\275\217@g=\'\222X=\257\367.>\223\'h\274\177\231\332=s3\213=\276\350\\\274\347-G\274\014\343\315=\375\372\251={\334\200\275\037\362\362<\325\274\245=\036\200\025\276@\321\267=AF\230\275$Y-\274\271\270\000<q\273\246\272uv#\275\252\313n=\033N<<:B\177<\000j&\274\273\370\324\273\314\242\205<S\251\215\275\255@k=\0204\001;\205\257\203=\260\366\245=\367}`<\243\256\004\276\342\223\253\274\370\226l==\220`\274\343\3554<\t\302\307\274\302Y\225<\016\345\014<M\231\024>0\227z=\340~*\275\305\317\350;\3568\005\275c\363n=\214\211\021\274p/\200\273-\\\213>\003\232\025\275\342\037\354\275\317x\210>?\234\206\275\225\n\232\274\274\244S\275\014\214L\275\253E\350=o\302\022;\341\232p=\3320!\274ogu=\375\340n=\177\303\221={c\242\275\316n$>Oo\266;\342x5>\276\324:\275\256\363\206<Vx5==\2022=\357\266\035\275\002k\234\275.O\261\275WJY=\240#\263\273\302\007\303\275\320\343(>\326Ns>{\375\035\275\220\227d>\345\327\244\274 \025;\276n9a=\356\266m=\031\262&=\240\0314<\377\3102\275X\037\224=\310Qo\274\314\305\202\275D],\275\356X\235;vk3<\340A\205\275}\316\030=\013\212\377\275 \220\331\273\214\361\270\273\303\312\340\275\224*\031\275\205\273@\274(\223\214<GQ^<\017T\013>\006\377R\276=\241\037\275\325\362B<_[\365\275\0364`\274\314vY<\366k\032\274\216\371\033>r\006;==\212\217\275G\234\236:u\373q=\"\343e\275\341\035\272;rPX=\311\225\261<\\\216t=X\235\022\273\252\n+<\024\273,\275\330\214M>\035\373\227=\017\273\016=?\017r\275\323\352I\275\001\372B\275\216V\241<\373\037\215\274\326\246,\274\005\307[<\031C\006<\230\272{\274\014&\277\275y\214\2669\3370\025=h*\227\275\244F\303<\251\321\223\275\371Z\023\275G\222\251\274\264&C\273\226\316]\274\307L\352<^\2608\274\214\362*:\331r\200\273\247\314h<W\032\326;\260\211\227\273\356_\303<\\\017\025=+\255\033<[\312\231\274\016\224\241\274\336\231\333:\352\276\002=\221a\227\274\341\361\232<\305\266\335:3\262\230\274\226\024\362:\0004M;\\\222\346\273\324G\233=)\201\236;\312\202\330;\345n09$\013\205\275#\360\002=ip\330\272\364\005\212\274\\\177\360=\'\031\326\274\321rE=\251\206\276\275\215\000.\275\330\014B:S\353\326<7\016\260\274s.\013\275\316\257\362\273\361\021\246<\031\204\304=\t\210\207\275\256\304\262\274\334m\247\273/\315\303=\330\310\204<&\217t=\361\243\350\275\234\303\203<\360T5\275Z\006\340\274C2\214=\306\274N\275\313\272\376\272b#\313\274\317\377\210\273\304\322\246\274y\322\177\275|\034\007\275=c\r<\242\257\256<\033k\027\275\016I=\273s\\\340;t\351\363\274\014\225%\274\005!\225\272\337\010\347\272\022]:=P\254\310;Er\031\274)\2558=olH=\226tJ<\"\323G\274\304d\225\273xe\253;W+\242=\027\355=\275\204\302w\274Na(;\221\2555\274\324\016\033<bN\335:\326O\313\273\227\002\205=}O_\274\222F\257;1\337,\271\302M9\275\021\376\244<\2172y<EvO\274\3378D\275N)%<M/\207\274D\375\257\273\227\324;\274\331\361r\273\007uB\273bU\376<\002\007\324:\347\224d\275\302\003#=\324\246\224=wg\204<\354G\2258\374\334\246;\300f%;\201\275\247=\251\3238\274\235|\240;F7\215<\256\243\343\272:*\202<I\322\032;!.\307\273\326\033\347<\365\224Y;\317\201\017=\304\266M90\013\200\273C\r\231\274F\202w<\306-Y\275h\301#=\223a\2009\014\275\014<\264=\277:F\362\333;Mi\034\272\346\234\340;\256n\032\274m\335n\273y\337\270\273\025i\275\274X\227\217\273kN=;\264Dl<\233\277\223\271\010\252\033<\206\363t\274\320\033\241\273\350\010\023\275\321\266\002\273\273\036\220<\334\355\017\271g\217+;\031A\210\273\340\\\220<h\300\224\273\374\032\260\273\320\300\2309V\262q<\014\322I<R<0;a\'\016\274D\210\304<\3339\275<\231*\271<,\r\200=P\256\200<{i\372;f\236\t;\020\350\253=_\324\265\274\257\216\334<[\367\203\275&#\207<\246\025\013\275F\332\010:\367qj<\362\320\272\274\220\341\345;\215\'\373\275\177\202\\=\005\263=\273\006\006E\273\314L\023=c79\275\034\273\374<\220\207\375\275\240\361\330;\006I\370:\307\357&\274\345\232\027>\266\3030\274\252\220\255\274\016V\026\275\016\3740=s\000B;\034\2737=\25385<u\275\331;!\017\321\273\363\336\306;v \240\275\214\200\211\2718\n\027\274b\014\307\274\365Tj\274\272\0003;=\307\035<a\3441\273\327\204_<\"\364\023\274r\026\232\274\363\361=\275\236\372/\274d\300m<V\262\306;\212\234V;\327\354\231\273~\353:\274\225qR\274\371\244\307\273\273{\3249D\254\212\274\205\030\010\275 \311\353<\216\325\252\274\022\010/=\221\013==\312\257G\274\"\022\267\275\253\261\365;\264\376\217\273\004\234\366;\\\010\346;\257\272\333\272\270\210\371\274\270\306\363\274if-;\362e\356;\266\021\023=#\020\361\272\200\315\216<\001\350\236\274\345s\366\274\34173\275\232\330\216;\262\031?=R\355\024<{@\345:\r1J\274]\320\036\275/<\250\273\244\331]\272/.E<\226Z\002=\247\"\211<\320\305w<\002\004\202\274\363\372%\274\247~\2509]\231\324\274g\255\264;e\210\236;S\263\3408\364\207\243\273\304\201\377\267Ft\025<\317\216\300;bV\203\274\256\355\356\274\211\370\352\272\357L_<Fg\301\273\340T<\274_\000\370\273-:-<\274s+<p\303\033\273\320g.\272{\236\226\273*9\253\273J\264\037<\306\342\262\274\347\321\n<\2176\327:\020H\014\273?\266\374;\023\357\371\273\233#\020\275\304\020U<?\364\320=a\227\210<\244\2254=\367\256\223=\017N\375;\311<\267\273\025z\320\274\006x==\342\006#=1|F<\010`)\275\"I7={\031\273<A\3454<Z\376\244\275\362\315e\275\021]\350\275\320\370#<gY]=\306Z$<\370c\014\274\017\277\364\2748\260\273\273\340l\013\275\263$\245<\022\314\232=:\265R:\357\207\270;M\217\320;J\312P\275\025\213\302\275\023\214\365;\253\004\356\274\0028\214\272r,\006\275X\312\263\275GW\204;h\3157; \261\325\273I\210\016\274\210Lu\273U\340E<\345\314!\274\254-\301\274U\277\2339\255z\231\274\030\370\365;7Xf\274e\364\025\274hkP<\324\242%=\226}\005\274\273\006\270\274\322\270\200\274\357o\212\273LVQ<\310\363\341\274[\205\024<\345\303\315:N\266T\272\016\314\266<\353\315\027\275\335\351\267\275\230]\207<\\\000C\274\002\3055\275rR#<V\237\320<p\336\217;\316\016\002;e\026\314\273s\225\025\275\000\270\350\273\233,\000<\203;&\274\212\376\'\275\0040\225\273G\210\344\274\023\231:9T\312\222\274\357\340\025\275\247\354\352;\034\342o<\240\255\005\275,\205\"\275]#\303\274g\027\216\273\215\360\207<D<K=\363\262\242<\001\231+\275\315\343\371\272\301\016\224\274f\376S<\013\2329\275W\322`<1j\330\275\366\261\370<\'f\304\275\037@+>\312\244\200=_[\010=\267\232\021=\256\216\233\273\'\233^\275\310\362\257\274\317\352\225\274\334\355\035\276\014\225\030\275\016\322\307\275\2039\265;\326\034\275<]\013M\275@J\263\2757\'\255;>E\320<\210F2\274/\261\237:\362\325:\274\"\355\253;\236\344b=Xw\001<\356\005\033\275\314K@\275v_e<L\327\236=\\\257\300\274\237\206>\274%\357Y\276\314i\022>\327\333\312\275\250\220\313<C\245\354=\371\375>\275\2461\220<\327\326U>#2\226\274O\263 =MD\340;\302{\330\275\303d\357=V\345f\275\342\345\355=\027\233\006;\376N\233<r->>3\272X\275\301b\004\276,+c=\202\275\032\276\2525\335=\365; \275dAk=R\253)>\204oH=t\305\215\275jA\251=\240\260.>\2365\026>0\221\201\275\342^/\276\361\246`<Qn\323<\343\373\243\275\314P\203=\352j\227<\353`\010=4`\003=\272\320&\275\312t\354\274\200\326M\275\\\250-\276Kg\002\275\255\232\315\274\336\322\365<B\241\341<1~\216\275\367\311\t\276\321Y\360\274m\213\037\274\210{\200\275-\232%<;\245Y\2744\017\016<\365\013\350\272N\340,\276\014q\017\275w\004#\275\222 R\275\250?\207\276`J =\214_\311\274\27362\275^\273\257=J;\022\275O\366\005=\265\317\202=\t\343\227\273L\001\017=\003\013\003=1\024\033\275\311\002\236\275$\030\357\274\177\344\270\275\354Z\236\274US\205\275\0012\247<\362\243C=1v+\275ec\255\275Po#\275CH^<\035\314\033=/^2<}1E\274\3076\330\273\034\331;\274\246\203\315=\322\000X\275\325\357\223\274{t\273=\376}\027\276\214\"\003\274\rs<\274\253\032+=\254\n\022\274\20707<i\240\021=G\215\255<\246\356\001\273`\257\033\274\370\332\277;zM\202<L\204\243<m\r\273<\000.\026\2751\r\234\274\\\3529=\307\000J\274}\341+\2743a\204\273\203\216\351:\336\360_=\013\205\323<\310\360\201<c\366C<E\316\337\273\211S\3079\275bJ<\\\315\000<J\367\2347q\273\262<\372S:\274Z\250G=\345\302r;L\324L<\341B\275\275\203\351\341\274\263\314\023\275L\320\027>\373\312\267< \032\206:\177\225\016\275/\335a=r1+=\277\215\226;\206ye\275m\377!=\334V\352\275F $<\212{\250<\346\224\244=\007\006O=S\207\034>\276\206\237=\222\252\341<d\302\354\275\302\324\352\274\036D\300\274\371W!=]3\277=v\242\360\274D/\0259\257\035x=$k\203\275E\366\352=hN\r=^\270\362\274\034J\242\274S\303\220\273\235E\246<\034\261\240=\254\"}<O|)\273\356\025%\274\323:\000>\027\373\222\274\246?\360<\027\307\273<\376\2520;r@\000\275\030#\007\274O\374e\275\377(A\274W7.=\326]\010\274\365\0165=\314\3030=%R\023=\224\361\361;S\006\370\273\261a\351:\255\210\205\275\363\372\314<\001\005G:7\347\240<\330\016(\275\364K_=\377{+\275\354P\256<\304\255&\273\243\202\"\275\345\241\026<\300\305\035=\340W\253<y\256y<\251m\027\274\213/\252\273\252\361\363\273\036\n\231<<e5=#O\276\274\002\373#\275f\333\001=\3450\037\275\355p\323\274l\330\270\274\226G\013\273\352\224E=\214\236y<\243\361\277<\354\221u;\215s\275\273\r\027O<\351\367\021=\220\237\206<(\247Y\274\363Q\325<z\273\031\275\354,\036<\354Nm<B\357!\275/\370\364;\301@^\274\216\322\246=\344Y\206\274fv\331\274\350\365`\275\261l#\275\241.C=\330qd\272C\3048\273\2017I=6\275\"=\305M!=\032\202\227\274lD\201<-\200\020<y\263\200=\\)Y\275\340*\212\275\236\203\222:\313)\224;\376O\352;VS\340:.V?\275O\327\270\275p\026\361<\356\034\222<\235\360|\274o\256Y\275\216\265\000\275\245s\304=#7\362\273\224~\274\275\004 )\275X\313\334\275#\t!\276\023td\275\032Ic=\365\204b\274\213RI;\374\033\245\274<\343\022=\357k\023\275\232\206\024\274\366\345\330\275X\223\236\274\0054#\274\275`&=x+\014>\n\267\221\275![\025>\034m\224\275\003T\355\274G\210\246=I[J\275\037\014\006\272\367\262\n>\230~K\275\007\366\276\274~\345\376<u\000\316<\007\216\035=\262K\227\274@\270T<\225\253\321<\341\\ \274\272/\220=\211=\353\274\264l\311\274n5l\275I\261\027\275V\2638=|w\203\274|=-\274\"Ls<hq\246=\034<\327<WP\020<\332Z\221;\325\354\214\273{T\275;\340z$\275\210^\267\274T\323\037<\222\206D=\275\373_<\241\352\2019\260}u\275\242H\261\274P\302\366<\344\320:<B\376\221\274\226)h\274\374;m<\301\325A>X\362\276<\3406=<\300\356\344<Du\222=d\300\261=Qv\323\274(R\267\275\3114,\275\260|\241=\256\237\240\272\302\007\005\2769~<<\350\253\362<&\364*=k\223\205\275^N\210=V \212<\226%\"=\264\364A\273c\332\376\274\320\252\202\275\022u\245=\277\177\212<i\374\014;WE\215\275]}\377\274\020J1=\347\246C\275\257:\372\274\316\010\262=x\253_\275\234)\363=x\352\177<\021\213D<@V\303\273%\341m=\367s}\275A\377\201<\021\215\332<\314\003z;\3525\016=\203\206\000=\345n\231<\334}\266=\370\322\036\276\361\365*\275fg\213\273\220\255\365\274q\332U<\273\220\t=1\236\r\275\030\240)=JG\372\272\375\020z\275\356\"w\273\230\242\271\272nB\317\273PC6\275R\222\300\275\226\200=\273\326hf\273\021\007[\273\254N\342\274\335\330\207\272\230\355\246:\340\352\263=\344\207\230=PYT\276\275\266\\\276\007\345><\375}\340\274l\205\205\274\265y\212\275\350\"\002=}\244C\275\375\025\330=(\246P\275\036\243\367\273|\2377<]w\226\275k\303\222<\002,->V\251\340=\017\024C>\006_]<k\272\036=\273\321\201<B\035\254<\274\367[\275>\356\247\275E`\t\275\220\373k;\203\375G<\2568\323=4\0354>\335\324\030\275-\223\230=\233\312\350\275\210{\251\273\200\030(>0-\224\275\321\002T<2\220\343<\020\270v;\357\223L>\177R\t=\273p\n=\347\205\003>\276u\312:\346\245\035\275q\254\345;\367J#=\200\376\332:\352\2075=\326\206\215\275\200\251G\2754\310\265=x`\353\274\224\232\360\273\234\360\023\272|;\000\2727\212E\276$\371\002\276\336ON\273\345th\272S\253\273\275\217\207t\275-\250\351\272\363\360\244:\022\366\265\274\356\304Q\275M1\005=\204E\n\276\027\330\214<f\035\017=\'7\217;Z\366\274=\226\264\323<\351\303$>\255\371\361=\226\255\212<\273\262J\275N\177\230\27415\373\273Dv\313\271\344\302\313<`\340\026<\203\340@;\343\2240=\034@e\275\374e\221\273\310<\331\272\000z|\271\234\\\254\274\311C\004\275Q;\002=\274\265(\274\234\355\t\276Y(\204\275?_%=e\321z=\007\244s\275M\272\355;\2155q\275\303\376[=\026\272\225\274Xh\243\274\2739f;\237\270\':\203\256\304;\025D\276\274~iN\274\036Pc=y\2151=\327f*\275:U4\275\274\216\226<\2312s=\227a\016\2756\350P=\251\376\360<\023\227r\274\027\026\242\274\203\305\210;E\302\373\274S\336\033=\212 \263\275$>\245;\331\275V\273b\\\204\275\357\236>;\017\312\010<666\275\177\000\360\275\343\336e\275\320\367\004\276D\272\335=\353(\333\274\016\014.=\353\303><fe\021>\217\366\240\275H\037\253=_\335|\275\001\303\215=\3029\370\275\361*J\275(\366V=P\023\237=\177\361O>i*\300\274\222+\004>J\364\221=\216\322G\273l_:=P\321\304\274`\224\207<\002\226\255=\216\231\007>\221\331\307\273\367\200\201\275b\275h\273\005B\n\276\006\266\323\275\251\277\213<\357\000\'\275\3255\014<\305J\322\274_n\262=Q\t\222\274\241E\305\274\335\206\220;3\370\306\275\317R\004<E=\031\275\231gC\274\254<D<\n\213{=%M\347\274o\270]\275\365\321\273<pR\303=g\007\343<\320l%\275]d\342\273\\\201G<\004\232h\274\376T\';\217\226\247\274\0006\312\272\3272\021\275\332\037e;\206\211\310\272\221\331\201<\335\266O=P9R=T\\0\275\272\353c\275\221\023\216=\251Pv\275\023\317\325\274#\345\217\274AV\013\275\023i\315:a\324<\275\367f\250;\344\253\362\275\301\254\222\273\'z\207=J\375T=\336Rt\273\026\370\345\274R\006\030=J\267\303=\365I\304\274\250fo\274G>y=\271\227\372<\346s@\274\360\265\022;|\3261\275\013k\321\274\371\225\316\275\367#\273<l\305C<\020\356\343<J\r\313\270^\316\314<\n\237\211\275K|Q<\276<&<H;\177\275GT0=b<d:\035\326F;\340\014\277\270~\251\001:V\365\344;\274q.\273N\344\247\275\026\252R<@s\367<\211\230\200\273\017\242\35393\311J\274c\013\326\274=\252\340\274\264|\374\274\302\355\023<z4\325<\230\367H8\246\372\026\273\357\303\016\274\314mh=\027\366\372<\326X\261\270\250L\326:Z\200\303\274\222\3451\275\214\222\002\275:\271\355\271H\002\276=\354q\023<\212\301w\275\251b\264<\216\260!=P\256\337\274\022p\213\273%H\204\274v2\333\273\211\362\307<\373\307\221\275\010\3427\275#D\335\273$\327\223\273\013\364L>.\224b\275\220!:\276b\220\310;^\325\305\275\353\207\364\274,\375\200<\316?\r\275!\370\260;H\351\314\270\'X(=\230\324\031\276\022\232\201\271\213c\200\274Ip\207=\235\321\">\212\005\305<\365Pd:\212]P=\030\313\222\272\274<2=F\322\035=\007_\326:m\267\3759\177\230H\272\332\265\262<\350m\247<!\360\236\273\274R/\275\351l\030=[:==\'\333\r\274\n\221\013=/d\225\273\'\224|<\276\026\254\274:p#=\2155\355;\\\343I\273\354\267\010;\217B\017\273\314\202)\274\201#\231=\342\032h=q\314\036\272\344[\372:|\373\267\273\264\362r\275 \346\366\274:k\243;\016-9=\320\361\"<Za\213;%4\253=\311{\221:*\035\333\272yE\324\271\250\327h;J\037=<\022^\023\275\246q\002\275]=\202<N\227\007=2\333\215;t\253\363<_\304\r\274!R\n=\370aH\274\350\241u\273\\\r\001\2759\355\313<l\237\004\274\301\355\321\272\002\227:\274\304qD\274h\365\317=\n\037\023<\351_\366:\325\377\373<\3009=\274\322&\304\274\002qN\273\327\021U<\3133(\274\036\237\211\274;\r\220<\022_\256\2749l\203\274\006r\225\274\"s\374<\350\372#\274\232\246O;\r\026\320:+\377$=\377A\244<\327\315\025=6q\204<<\353Y\274\374.\n=\345U6\273\261Wz<\257}?\273\3604\331\274F\205\024:\270;\221\273\210l5\273\324\005\010\275\317\265\013\275~\037\213<\317N\017\274\315\2473\274\251\334k\275\304\377\275\273\024t\373;\351\024S=\261\245>=+B\354\275`\364\024>PG\367\274\261P<<\210\177\t<f\253\277\275\206\312(\275\'\261A=g\031\200=nA\367;<\317\263\275\374\253j\274\244\347\370<2\024\017\27611?=\342\336\3159\262\2329\275O\014\265=\023\253\320<\375\356g=Ym\242\272t\200J\275\314\364\362\275s\374\340\275\360>\246\274\3409\213\274\n\367$>l\232\177\274/\361\366\274\030r\267;\322\340\034<\305\267\363\273}\376;\275\242\240D\275\nd\265\274\303\311=\2749\321\225\274\026\214\212=v$\'\274U\"\206;\302\370y;\224\274\034=\216=I<\027O\221\275\245,\014\275\336_\252\273W@\001=\2740~<\272\322\305<cm\224\273\340*\034\275\004\267\000\274\205\255\225\273\nlc\273\265\344\336;\027\241\214;\210\"y<?\2253\274\264\202\237=c\202\316<M\305<<\376\373\005=]H\312;\215{\t\275\342\376 =\336OH=\325\255\275\274\265\220\257\273\r$~\274\002\255\301=#\370m\274\023W\376\274}b\002;\374;\326<!\243\200<\223r\257<\035\324\270\274v\201\206\274Y\211\257<.I\342<9\374\233<\324\243\312\274Sb\220\274\002\233V\274Ra1\273\3026z\2727\357\337<T\366\310\273\321<\353<\354%\303\274D\031\254:U[\261;\264\241*\274Oe\341<\263YT\275\267\205s\273\'Y\204\275\035\322\313=\330cc\274\357\023\003\2732}p<;\257\303\273dm-\275H\246 \275\026c\362\274\332Cv=z\002.=\272\177\334<\314\214\214;ar\210\273x\031\370;\206D\204\275P\003\336\275\334\263\007:\277=\225=/2\353\273\014\211\324\270\227m\243\274\0243\017>\211~|=h\215*\273\354y=\275|\177\213\273\267c\211=\374\r\006\276\253\370x\274<L\032>)\376\245=j\311d\274\211\003\036=t\347\215<\251\312\r\275\"\375\215=\325\013\330=u3\341<+@\022=\201D3\274f\254\321\274\225?\243=\255,\370\274\230]\274=\257\354Q=<vb\276\354\007\335<s}#\276\265\036\344<\327\013\260=\233\217\220\275\334M\231\274\312\204\210\275\247\3363=\360\234\013=\361P\t;]\205\264\275\t=\333\274y\204s\275IT\024\276\177\351\370\273\231\024\333<\270\357\221\274\211\004/\275\342\350\270=\252\213\350\273!\2059\273\200\264\212<\036\202\316\271\374\236.\275}:\206\275\353!\037\275\337\334\244<*=\200=\027\271\361\274E-b=O\363j<\274[9<\350\032\251\274T\263\261\275\221\371\030\275!\212#=+\222\257\271\320R\221:S\214`\274R\330x=\rRG=e9\251\273\251\251;\275_\220\375\273\375\035\010\276\316\002O\276\006R\230\274O\2260=\266\231x=\235|\306\273\377\013\214\274B\365Y\274Vm\261\274\010&\223<[\303.=\202\005%\275\313\267\024\276\301\204\275\274DM\016=l\346O=\315|}:\273<\023;=F\213<\252\021\206:\256\032G\275\206\t\036\276\206&\365<\377\312\201=\320Ec:\363\252\035\273H\274\315\274\023p\016\2730\364\221=\316Dy=\324S#\275\0053$=)\264\225=\361\356\276\275\351Z\244\274\234Pt=\263\305\024\274\326s\206<<\353?=\257\330\301:T\030}\272@+\253;\321N\333\273f\273Y\274\262\323\026\274V\226\247<\310\002x;\010\213\200;>Q\215\274L\337\270;R\323\301<8\004+<\260Y\306\274\316\375.\275\321\235V\273_$\231<E;\216;\237\335\3679\200\350\340\273:q\245=\000\212K\275\332\003\304\272\013Z,\272\331\247T<\344\376\246\274\307\230|;z\344\276\273\204\316@\275\323\265\n=\202\024\344\274W\303\240=\215\031\336\274\021\335\305:\245\004\270<\231\226I=\016\014B<\276\025\013=\266\302u\274f?\227\274`\271.\275\363\335\010\274\014p\023\275\316M\272\275\351\215\r\275\245\006\213\275\211\303\216=Q\277G:\362ah:j\344=<\257\3150\275Z\2471\273B+\023>\221\334\336=\205h\245:\347\254W\274\223\206\241=\003\335\236=?\014e=o\251\254\274\252}\252=\356\206\271\273\2671\212=\250\n\303=\004\352\325:\252\"\213\273a\017\236;\337O\264;q\335\215\274_a\220\274\304\324\320<\335\210\023<\334p\311\273\r\265\260\273\233\373\234\274\017\210\315<K\024{<\016\242s\275\314_\003\275\214\231\322\271E\204\272<\331\250t<D\274\322\270\257D-\274\261\023\303\274\332\301V\274\372\372$\274\227\365\036\271\257\350\010\275\314\002\017\275\"\001\006\2741a\304\274\255\322\222=\313G\006=(\331~<\033W%=\006\257\362:\364Q\003\274\304\200\237;R\276\211<\247$G\274\265\315y\275\277#\315<\236\032\303<\036u\025\272\202\350\260<\352\245\356<\325\267\023=\272\361\324;\352\253\352\274\246\276\203\275\022\332\215<\355+\323<\004\342\255<)\300\235\271\014\214\224\274\245U\355\274\030\014\017=\346R\355\273\243\333O\272T&\003=$jw<`~\273<\373\361\313\273k\276(=\304t\361\274\252z\213\274\316\257i\275\227*\340\274\322\243\177<\376!\205;\236\026\025=B\017\377<\312t\235;\310W\275=h\023\306\2741p\233;\016;\270\274\223\2049\274\245f\216<\366\021\362<\220\013\202\275\n\365\233=PH\254\274\333\001\203\275T5\205\274\376\273\200<D\335\003\275\254F\217\274\322\334\257\275\273\207\024<\371\2201<\254 \205=k\000\303\274\374\217\233<\3218\252\274/K\223;\355\361\351\275F&W\275k\305\310\273\370\236\315\275\350`\177;\3427I=HCu\2746?\227;\333^\315\275\013_\201<\206\216C>\364L-\275\022\341\357\274\347n\032\276-\207n\275U=\222=\"\222\344=A\347?>?\361\363=\240\351-=_b\325=r\014\263\274\224\251(\275<\347\357=Df\324=\202\0350\274\322@E\274\001Q\372=\nw|\276\316~\265=\177M\025\275\3665\357\275d\273\314\274Y\220\023=\221\330P\274_D\354\274\267\351\220<\227\255\325;\256\314\023>6\234\317<\036\030\316;\242\016\t>\321\'2=\023\300!<\233[\245\274R\235\215=\316@\036<\303v\254=u\377\232\275\351kF<4\355\215<\210$\017\275\353\260\325\274\252\233`<\0133\222\274\246\026\370\275~1Q\276\206\333\373;\360#!<\014\213\224\273eG\021=\314h\331<DX%\273\027\030\200\272\'h\307\275\336$\325\274:\353\261\274&\305\347\274aq\267<WO\357;\024U\253=\013\246\306<x\343M=\210\023\320=\307\216\233=\010\250\020<\031r0\273\272\r\014\274\264\333-<\364\213\315=\246\343\023\275z67=.*1=#\220\237\275GKe\274\004\301K<\243L\334\274\326\300\016<\007\213a\276\301\300j=FI\034<\277\026\366\275\033\206\003\275\272\007C=%\200\037\275\310M\347\274\375\234\324\274\237&\202>\3528\220\275\031\222\031\274\366\271\366<\274E\204\274\356I\241\275T\020\204\271:\376\027=M\002\213>\016\230i\275C\375\000\275 \270\356;:\222\331\274\030\251\310<\242\232b=\276\210\204<\277\307\211\275`)\247\274P\230->7\303\004\275P6&\273\000L@\274n5F\276j&t=^\320\230\273\354\377H<!\336\365=\2751\022\276\267\343\343=!\335\274<y-\344\275\302\252\326\274qW\371\275\371\303,\274\217\"8=\251\246E\275\017\354\323\275?G\346\274\262\366{\274\263\262P\274\210\0176>vXq=\214\202k=\'\001\031=\362\241V:W\346\257=\242(!=\353\225$\275\310\334\264>\260\023.\275\251\034\316\274\373\nJ\275\014a\004=\206!3=\020\255:>o\367\231>\274t\360:\232\002\261=\010^\002\275u\r\227=\347\333\371<\322\0075\275dt~:\3744\200\274 \346\217\274\t/:\275k\352\3519\222\256\002=.)\250\274$\375\357\274;\327\017\275\001\262~=\260\017\034>\202\333\205<\013\357\201\2752p{;\301W\276\275 \206\376;\330%:= \013\333\275\201N\033>\023\024w=\210\\)>I\0220\275\264_\277\273\217\367\207\274i\377\210\276A\212\256\273\302\005%\274\243u\237<L\256\205\275.\2269\276\371\371\020>Q\265\240<\224\231\340;\274P\227\275bR\233=\323\007\325\275Z\362\371\273\\X&=#\340\244\274)\361\327\275?\207\330\274\351[F>\246\0337>!w\030\275:\302\267\275b\373\206\274\004UR=\203\265)<\244\341\337<\334\351\276\274\361\236\242=P\005q\275\324?\362=\254NF\275\204\177\324\2730\033P\273\276ky\275%G\373\275\356%><I_\356\273d\241\260\275\255t6\276\' \033>\231\273\350=\334\271\014\276\327\364\216<t\2537>\262C\350\275;\306y\274]j\302\274\335E\345\274\354\017\035\274\353|\2739?\272\245\272\243 \346<S\202\031\275\030]$=\355\377G\275Ds\201=J|1=\257\352\211=\363E\333\274\334\177\321<\231\217\306\274B\207\325<d\200\003=\210,\355;H\206\336\274\246i\016=:cG\276\3057\210<\350\031;<\230%B=\211B\024\274\2609\347=}\236\235\274U\200\303=(\200\024>p\224\256<\266\246\340\275Z4\303\274\273%\353<\220\r\331\274\372%5\274e\276\303\275\2572A\275\256O\212=&5\001\276\316\'\314\275\364n\342\273\260\235\344=#\352\301\275\202\350\251=t!\222\276U^a=\010K\316=q\226\246\275\350\213&>\236b\340\275\327\177\372=\361\371\272=\321\267\'\276\262\315\266\274JR\256=\216.\204=\261+#\276kW\003\276\326\214\032\276A\001\235;\352\246`<\302\320\224=\367\032\377=w\032\212\274\262l\242\274\265*\353\274a9\033\275\201w\234\274\010\'\"\2742Yp\275\032\374\r\275\246\024\305;c>\225<\374D5\275\265\231\333<\251\242\030\274\202!d\2757\030\330\275\261(\334:\347\266\273=\032\331T=\347&$;\311\342/\275\000\345\370\275tCv< J%<K`\252<=\006\256=\350\2443\276\"\300\335=\201A\325\274I\364e\275F\'\031\275/{\203=\"\245\000=P\321y\274\014\364&\275m\221\t\275\272\300d=0\233\243<\364N\333\274uv\022\275\224$\344<\301i =ACt=\311\245\215=]DE=[\335\3069`\362\253\2750\222P=\216\004\324<\202\322\261=.\267|=!\204\017<\006\367>\275\340\251t\275\' 4\275\0214T\275\26544=\233+\220=\273\271\336\275\341\001\375=\367n\206\275R\337\225;\004V\030<\314\020\021\274 \333\261\273\032\271\223\273\036<\247\274\266\320\312\274\333\036\024=\376\374\221\274VGO<\030k#\275qd\320\273<\226\224;sf\356;d\024\244<;\025\271\274\004}Y\275\020\350\354<\274\203\273<\206o\025\275\234p\251\274\240A\013\275\310\257l\273\352\263\266<OWN=\364\304u\275\203=\353;m[\300\274Q\204\013=\313\317\345\274\305\242g\274\'.3=\321\323\000\275\263\007\004=\020p\231\275z>\325=(\r^;\277\360\031<\035\027\366\274Jt\374=\321\347%\274\004^\035\275\\\"\304\275\206\326\300\275g\233\304=\027\326\031:\305\277\016\276\201\234\215\275c\301%\275\255W\300\275A\375\004\276\215\024\370\273@?\n=\275\201z=~\235\376\274\207\002\037=\324t\205\275uwq=C\376\237\273\315\357\n9,\231S\274\271\032\217\275\246\226)\276\376\274\t= (\020=8\237\306;\216\261\207\274\037\254\260=\341e\303\273\272I\276\273i\331\327\274&r\203\275\275\267\360\274\177S\250<\035\270\027\275\212\353V\274x\"h9\252\345\005\274\305&\324\274\002`\341\274\214hn\275\366\325\205=\240\370b=+\226\244\275\225\346\024\275\373J\203\275\316\212\226\272u\205\261<\0133\335=\344\256\343\275\317x\336;\215!\310\274\222H\361=\342\256S;\266\022\207\275\030_\205=\317y\337<[(\204\274\212w\223=\202A\356<\301y\305\273\256A\240;y\345\321\274\033m\235=,.\245\274f5O\273\206\242\t\275\321\037A\275E\362\327;^\251\367\274\363lZ\275\254u\034\275\352\232\355\274\271\307Y=Y\344\001=s\343\354\275\305\347M\275\352\203\231\275\335%\337\272A\355\024=\"Y\333=M^P\275{k\303\275\017 ?\275\2310\010=\261L@\274\210\2773\275\212!H=\nf\311=\r2\367;\017\316$:6\257\010\27553\262\274#*\000\274\344A\217\274\215\332\t=\302\326\r\275>\333B\272-\234R\274\362\251\252=\230_\2069\272\312\272\274o\001\344<\233\037\020\275\325^\t=G\357\013<\3322C=\326\312\027=[\375.\275\357\016\200=I\001\311\273\257\256\224\273\346R\200=\001\021\230=M\241\231<\274T\326<\"\224\205<f\3506=Q\347\243\274y\244\177;\010\243\004>k\340\001<<\177g=\033q/\276g.\263<\345\024\017<\227\004@=\277cg\2751\324u\275\212\027\262=\1776\024\276m\234\312\275\010\3602=n\274\371<\005\365\006>\253i5\276j\302\313\275B\252\300\272\021!\373\274\307\311\365\274\257\211\230\275I\021\331\275>\033\311\275\270\370\"<\376z.>\273\027\206\273|/\315\274^\374\353=!/\017\276\305b\364\274\213G\236\275\2576\314\273w)4\275%\033\251<20\214<4\016D\275\305\372\262\274\021`+\274\217\201i\274\350zB>\027d\377\273\251\316b\274\337\210O\274Z\207\210<\030{G<\270\334\246<u5\020<\323\216@\275\366\nl;\2621 \275\302\016\276\274\356rw=}?\t\2768v\215=\3204\233\273\261\025a\274\361\334\200=M\324\233<;,\216<*\243\261<\022h\371=.\010\202=\206\026\277\275o\256\213\273b`\003\276\36356=\243\r\216<%\t\'\272\343\365\335\274$s(\274{3\261\274nz3>\271P\317\274[\034\276<\0009W\275\212d\372<\3700\000\272\177.e<\2146\330=\'\033B\275\031TY\275z;#<\355t;=\307\247:\274\372\204\337\275\221\037\242=\300\305U9J[\036\274\275\344\265=<\310\205=H\253\035=L\207g<0\230.=r~E\273\005\000\024\274\367x\355<*\367\n\275$\332\035:\206\343\207\274I\314\304\274\373\025\375<\333\272\335;A{\027<[z}<\317\002g<\276\251\224<\321\317\361\273\356\352\304\275n\214\345\274\3356%<\217O\307<\373\013 \274\024\365~\2750\204\202<\362d;=\016\225\"<\002L\326\273^\201\037\273z\2653\273G=W<\313\347L\275\252)\356\275\245n\031\274W\351\274;D_\266\273\010\230\210\274:D\201\274g\335\254<8\216\226\275^\216\200=\364\302T\275\201\204\035\275\"\303\245<\3054\267\273\263m\251\274\257\311\302=\326\271S=\367J\205=@\t\362<U\206\t\275\241\250\260;\234f\322;\225T\315\275\336\241\003=\227/\226\274u\304w=\215\002/=\371!6=\000\222\031\274\360<\013\275\255\255\177\275\007\254\022\274\271\314)\274\226!\343\274eg<<\305\247c=\330q3\2743\226\321=&\307\007\275\321\340\327\274|\324\242\274\3024\367:\273<\3229\325{Q=pO\322<\376\234\316;\363J\276;\340\006\215<X\331\214<\330p\020=\311f\212\274\334\317\232\275g\2413\275zV\377;\342\372\032\273\350\013\212\274;\226\211\275\334\365\024=:\301\305<\301\354\231<H/\306;y\257^\274\005\343\375\272\364?\202<l\211<\275\255\355\\\274>\235\330\273N\005\300;\354\261\370\274\256\272\272;\320\226E\275\010\365o<\301_\336\273\261\302B\275N\332\367\270\324\004\301:\004\371\002=\265\234-<e\254\025<\306\322\277\274\346\022@<\236\310\233=t#\207\2739X\362\275{\3121\2752\331\205\274\321\2604\275\'\r\257\274g\033\217\275\201\370y<y\330\372<\300\254\250\274\'\235\311\274\274M\250\274\034C\233\272\372 \313<\212\345.\275\3527V:\372\\\007\274\000\234\214<3\366\263\274\331\231\240<\274a\273\274\222\364\217=\340{\317<\n\261\324\272\270R\240\273\206?L\272\316\333\2179P\214\301:\322\311\231:\351\226\014\274l\312\255;\304\210\225\267\027\273\243\273\243\277\321\272\356#\225\273\016\3471;A\377\354;x\226\255\271\374\340\242\273&+\334\273\\\267\275\274\222\351\273:\222\335\266\273\016_\016\273\222\304\344\271w.\343\272\324\212\275\274y4\232<3\005\306\272/\007\023:\177\332\027<\275\332\363\274\341\230\313\273)\r\257:kY\240\275\035X\035\275\312\031{\275t\025\010\274[S\247<\313\230C\273\220\350\304;\203\026\005\276m\r\234\274\276\323\243;\243@\177\274Wb\210;\342i\333\274\232\n\004\273\356\324\035>\024\250N\275\376\234\261\275\263W\210;\332\276\345;\036\277\255<\005)\277\274\317\370\363\273\034\206\213\275! \\\274\004\305^\275\301s\030\275\372j\264\270U\3522<\257FN=\315`r=\260&\344\273G*\315\272\316,\324<QV\312\271O\231\257<\0247\224=fCU9M\270\':\212TY:\016\235\013\274S\363<<>\217\2729\233\016\275::\216\004\274\0201\352\273))\002;\002Pw<f\025\332\2712c\2739\263\310=\274\264\370\252;\346\344><\225\276.\274\257q \273\026g\276\271\252k&\273\212y\006<\245\t\253\273@c\237\272\250`89\333\252\345:\376\034\206\274\346S\371\273\216\003\314\272\340\025\226<\320\221\220;Qa\220\273|\351\203<R\245\0209\024\302j9\325\022\033;\3669\341\274\217\272\022<\025\260O<Z\203\177\273T\265;\273\013(@\274C\005I;\"\237\\<d\217\"8b]\003\274\022V_\273N\306\223\274\317\"\013\274xG\033\273\276(\206\273\252\021\363\271\3330\203\273\232B\255\274)\356\310<\222{\275<|\351V:\260\024*<\304\036;<d\035\367\273\365mk<3N\036\275<\272u;\227\026\210;\304s\257<w*\322\272\202\341I\274\210n \272rn\245:n\010\\\272\207:,\273\000\220\345\2742@\373<^eb<\330v>\274\347eB<\022W2:\354\366$<0\266\004\273\356\000\306\274@\203`\273S>\266\274:\242\3329t\231\243:\225Er\273\t\245\252=\254hm\275\302\253\254:\313\206\223\272\257\362G;\'H,<2\0276\274\264DS\274\305!\360=\323\005K=`\340\202<\177\343\240<ve\242\2749\373\303<\244\210\005=\304\221n=\224\\/\275\334\350y=<c\232\275\270\211\023\275>.\242\274T\324L\274<(\262<\013_\316\274\336\023*\275\237\266\013\276f\277\221\271\264[)=\177\234!\275]$\324<G\320\377:h\022f\275\332\247\004\276\017\274\253\275\356\207\210\266\374\356\371\274$dA\275\3328l\275\200 <\275\275T\265\274\350Bs<\323\'~:\221\234\030=\204\360\270<I\306\337\2724\016a\274\367M\031:\013\236\306\274+\2125;p\303\030\274\325\246`\274O\215\222<\343m\203<=\265\031\274\307\335\036<\203\224%<qk\342;\260s\305\273U*o\275\311=\272\274R\261\355\274\367\rz;L*%:\tj\002\274\242G\232=\024\260d<\332\305\3069\354\2475\272\262\220\036=}\205\301\273l:\016<\277w\224\274l\036\230\274kA\214<\326\237\0379\237 H<\2105\000\273\267V\276\274\3602\252:T\325\206<\272=\211;\022g\200\275\306v\336\274\237\352\312;\370p\327<;\265%<\230\247+<~\202\025<.^\371:KY\360;;\205)\2755\260~\274\244c\241\273\220\236\227;\1776\333:9\005`\274\305\304?;\374\274\356<T\337\200\274SJ\206\273\241.\203=\024\016\310;\212\020\333\273\002\257\177\275\230\216\324\274\253\311:=\327\237\t>Z\237\221\275\223\201P\273\276\177\016\275\177\343a\272\360O%9\251R\326\274uyI\275\314 \227\275\362\334\014<x\034n<U\364\237\275:&\231=\271\244>\271=\002\273<\210)\n8\356M\367\275*\260\326\274.E\212=\2650h=\262\216\335;c\237\001<\306+\004>6\374\257<\232\343\205:\356[\326\273D\314\214=^\'\375=\327`\025\275\254\350\033\275|\305\277=\003\353\212;\236P\267=\332lm\275vV\363\274\303\007\001=\000\367\205=\230\264Q\274\234\246\242\275\346\373\023<\217\352G\275R\017R:A\r\003\276\036\007\317<\376\t\313=K^\010\276\376s\215\274\240\313:\276\200\345\000>\220q\362=\321\271\213=G\247\266\275\r\341\241\275\247?\327=H\211\021=\331\017\034\276\204$\207\273w\270\016=\330\0055\276\005\235\210\276+FZ<]\307N\275\034\036\022= \023\033=E\300\310< \274R\276\26097\273\374\335\210\274\035\367\017<\316\222\265\275m>O\274\353g\210\275:/\257\275\204OU\275U\363\240<\211G*\275\027\377\244=\321U\034<3\343-=\316\t\000\276\301[\006\276u\307\353\274\257\201I\274\330\311\242=\212\324E;\333\267$\274\017w\235<\016\254U=\037V\033\2743\305\320\273\363\344\256<\312\232\014\276\210\326\014\275\2369w\275\256\306\024\2767\370\000>\273k#=\332E\252\275 \252\364\273\340\350(\2742\253\275\2703Lb:\236\274e\275\340\312\"\276x\302!\276\303\0209\275j\232&\272\014\260l=F\237\234<2\310\365<\002B\274\272\240\267\367\275=\253\305\275\353%\356\274\336x\375\274\335v\253=\217\016N<\035T\217\274\231\213\357\274\361\306\034=%\267[\275\212\316\250<^\252\363=\271\007S=\372\262D;\232;\001\276\247\220\002\276\356.E<&6\001>\n\253f\274\327!c\275\244#\362\274\025\332\222\2757\322\263\274\305\313/<\335g]<i\021\373<\021\036\303=K\267\202=\356\276\227\274\361\306\236\275d\263P\274\351:\232=\322\371\306<\322\204)\274\303\345\204\274X\311\210=o\334e\273\337\332\005=\233vf\275\014\234\330\274\317\036?\272#Z\201<\303\265*=\275Eq=n9`\275\2654\207=\000r\022\274\345\330\231=\021\014\360\274\010\326*=\256\207\034\276\336\354$=Y\332\021=v\021\221\275O\034\002\276\"y%\276\014\254\302=\220+\332<\272\314D<\224\035\367=\347\"X<;\336\030>\004\000\\\275\227\303\274<u\314\203\275\033\021\t> \035\317\275Pb\274=L\237\373\275\245\0215>\356\372\260<P\247\240;\225\"\347=\177\310\255\274T8\241=\014\033\007>\211:\337\275\245\027-\2749\312\026\276y\326}\275\233\034\240<\354\214\357<\343\366\003>E\202\\\275M\342\362\274*\354\227\275!\263#\274e\232\302<Qt\232<B\240\344<\016\016\246=q\027==DU\026\275\303=o\276h\212\253\274\355$#>^\300\344\273\370\367}=G\267\244;s\327\366=n\203g\273\330-\343<\331\324\207\275\027A\271=\035\270S\275\327\276\200<G\004\031=\257\340[=\254T$\2769\261\005>\261\033\242\274\027\331\004\2763\275\304=y~\237<f\253\305=\024Lp\275/\324^\275Ve\236\275t\201\024=\"\221\311<O\326\205=\3114\216;\257+\006=q\260\033=h\347\235=)\310\200\275\351\246\246\274\337b\031>T\353\316<`\366\034\2721&\236\275\341\034\000>2m2<\355\232\357<\266ai\275j\315\301\274\024\365\262\275)\277\205=\232\3079<n\375R=v=C\276\023 R=\271\317A<\027\0374\275[\000\232<\200\354\223<\002\365\\\274\232\3262=\314i\222=\360\325\274<1l\023\275\371\032\212\274\333m\033<\302\262\026\275o\200\216\275Sc\273\274\231\305\341\273\000;\340\274dg\0019\360\001\254\275l\025/\274\302S)=\201H&\274>\000B=%v\363;\354\006\260<\243nM;{/s=\036V\006\274j\005\022\275\rJ\311<\211\256\275=\202\237\224=\206\177\031\275\271D\022\275Jm\177=f$\364\275\036\340\027>\260\276\264=\035\365\236=!\250x\274\010\032z<2\313\243= \303\224=\264\246\274\275l\243u=\253\227\373=\206\017\023\276#kb\275\224\025\303=\220\265\022>\"S\326\275\207\245\'\276S\216\251<\324\341\250=CC\252<\377\247\354\274r\263\306\275\303R\257\275WH\247\275z\333\031\276\326\377>=p~9\275\016o\227=\376\033\304=V\314\213\275\301\014\305\273\253\253\317<\333\274T\274\241_\221\275\243\016\316\275WJ\004=*i\313\272\210\205\036=X\251\"\275\217s\014\274\355\347\371\274s\336\220<u2\000\276\347\233u\274\217:$=\345;{\275;2\023<\265\262\206<\n9\333\274t\242\313\275]\307\243\274n\035\236=\331\242\333</\260I<-BV;\366j\023\276\013f\1779\376\037\030\275\000Q\361<I\272\311\275\237|\246:\214\033c=6\221\005\275:7N=4\361\373=j\274\317\275\374\200\315\275\327\263\030=u\233;\274 \256\007<\004l\014\276h\301\':\020\220\264\274\376Y1\274\nI\246\275G\200\360<7\246\032>O\243S\274\366y\322<D\245\330\274\307V\177\275h\004,\275\330\020;==b);\314.\022=\\\236\221<\362~\216\273[\rE\2745n$<a\337\000\274&\247a=w;\277\2755T\031\275\217R\276<\261b\270\275e\306\026<\215Iy:\321\271L=\266\002\205\270\001N\321\273\215\0320\274\262\236\203\273\030!4<\350\252\250\273l\210a\272\271\'\031=*\3015=\331\377\316;\032\310\242\274W?\333\272]u\266\271\336W\023=\224\021\272\273fX8\275\276j^\273\324\227f\274\321\342\275:+\235b9\030\332\202\272\2015\357<\243w\207\274\334+\342\271\242_\351\273Z\214\377<\256{\206\274\276k\017=\343,