node {
  name: "input"
  op: "Placeholder"
  attr {
    key: "dtype"
    value {
      type: DT_FLOAT
    }
  }
}
node {
  name: "transpose/perm"
  op: "Const"
  attr {
    key: "dtype"
    value {
      type: DT_INT32
    }
  }
  attr {
    key: "value"
    value {
      tensor {
        dtype: DT_INT32
        tensor_shape {
          dim {
            size: 3
          }
        }
        tensor_content: "\001\000\000\000\000\000\000\000\002\000\000\000"
      }
    }
  }
}
node {
  name: "transpose"
  op: "Transpose"
  input: "input"
  input: "transpose/perm"
  attr {
    key: "T"
    value {
      type: DT_FLOAT
    }
  }
  attr {
    key: "Tperm"
    value {
      type: DT_INT32
    }
  }
}
node {
  name: "reshape/shape"
  op: "Const"
  attr {
    key: "dtype"
    value {
      type: DT_INT32
    }
  }
  attr {
    key: "value"
    value {
      tensor {
        dtype: DT_INT32
        tensor_shape {
          dim {
            size: 2
          }
        }
        tensor_content: "\377\377\377\377\t\000\000\000"
      }
    }
  }
}
node {
  name: "reshape"
  op: "Reshape"
  input: "transpose"
  input: "reshape/shape"
  attr {
    key: "T"
    value {
      type: DT_FLOAT
    }
  }
  attr {
    key: "Tshape"
    value {
      type: DT_INT32
    }
  }
}
node {
  name: "w_in"
  op: "Const"
  attr {
    key: "dtype"
    value {
      type: DT_FLOAT
    }
  }
  attr {
    key: "value"
    value {
      tensor {
        dtype: DT_FLOAT
        tensor_shape {
          dim {
            size: 9
          }
          dim {
            size: 32
          }
        }
        tensor_content: "\300\0077\275\321\021\221\276:\363\356\275\230M\262\275\253;o\276=r\010\277\371\352\262>\"Ai\277\276\301\226=\243\306~\277\300\t]\276\032R\211\275\234 ;>\036\376\023?\334\273\220\275\366\315T\275\253\324\305=x@%>\3605s<m\200V\276\303x\"\276\177/\351\276\373QH>z\277\210\276j\256y\274\2267\245\276\343\020M>\022\267\375=t\251]>\002N\202?1;\017\274\372\224\345>\201\376e<\356\226\324<R\265\354\275\352\202]=\373\372&>\202\202J>\215\006{\276NeC>\315\361\320\275\376;A>\233Wj=;.c\2751a3\275\216J\022\276\364:\221=\302\207>=\373\200\214\274\035\347\322\273\314\035\276=\375G\023\274\342\035R\274\020Pm>X\020M<V\216~\273\242\'\347;\315\361\037\275\341\274\351\275)t\313\274,\014w\274\rIL<i\316j<i{\371<\034\245\273\274A\201/=\"\3426\275\353)\023>\372\357\202>\241\355\037\276\026\214\317\275E`\336\274\332\213\202=~\214\204=\307\362Y=#c\010\276\366G\371\275\354R\205\275Zq\n>#J\245=iS\335=\010\333\032\274\316\364q=\240\254\021\276\020nn\276\225\004\023<\316x\251\274\311\022b<_\354c\274<\275\r<k7\013\276\034)\276<\357\023\327<L\262\215\275\344I\025>\007\005%\276\361\204\010\277\214\203/\277z!X?yS\005\277\225A.\276\331q:>\315V!\276\033\366\321\276\367\270#>O\010=?S3\254=H0\336>e\246\366\276\373R\334>\314\355(\276co\023\276\242\376^>\004/\246>\265w\017?+\t\310>H\360\274\276%\205\311=\266l\027\277-\263\216\277Jr\004\274\221\276\304\276%\366\351\275y{*\276\"\352}\275\277N:>\251\207\344==w7?\316\322\220>\'\312*\277M\272\t\275E\342\374=\217\314\337>\r\033\177>\367\341\024=U.\212\277kI\303=\326$v<IC??\373\253\260>\306\376:\277\240\345\005>\315h?\276\225\335\322\275-`R\276k\004\211\274\256\206\207=\314h\346>I\010\\\276\n\321\312>8\211E\276p\332\203>\313\212\306\274G\220w?R\314\371\274\"\271\304=\177HN\276\365\035m\277\237\007R\277\337\014Y=\210\212\026\276m9\215>\227fK\276\271\243c>\031\321A?\257)\201\276\004\302\244\276:\310\332\275\036n?>\020[\323\276\3112\242>\002\205c>\277F\376\2753\274\021\276\322@\225>\337w\277>\341Q\221>\203\316\310\275\207\242\032>\033\275\370:\251\003\327\276K\372\334=l\007\252\274\177<R>m\332U\274\332V\363=\212V4\276\263\371\220\2754{\234\274\256\323\036?\303m\340>\251\213\370\276\335\177\214?\272\243\035\277\357\361\341=\215\304^=\245\357\350\275\2471\336\276^Q\037?\335\276~\277\372u\270?\232\t%\277\342uC\275\016\024U9\036\231\314\276 \031N?EQ\250\276\216\005\315=\311\020\214?K\362\334?\r\326&\275\2139N\276\016\240Y\277\230\032\244?2\376\007\276\266\251\265\276\325\247\302\276\213\222[=\301\032\270?\234\030\246\276E\273\t?y\005\260>\306\317m\277L\347\002@\361\2266?+\322!\275\247\301\177\2755]\210\276\n9=\276\316z\344\276\335\263\235\276\'\302\237>\234\343\312\276)g\256>8\226\343<s\322\215\276\244>F>\314\367\266\277\314\362\202\276Y\177\377>\025\305\217>\322\254\306>\342dh>\364\033\027\277\033\007}\276\376\034&>g\350\366\277_\345\273\275>\311V>z\022\031>\250\'\r?\006X\327\277~\233\034\276\367\3453>\324\312\216\277\0131G\277(\224\217?n\215\302\275=\370\233<\342\315\272\276\n\264\237?\270\021\207\277f\027i\276/\344\263\2769\205\014?\2274Z?\357y\220>\3301\372\275(\357\220\276\026Z\020?\013\016M?\275\336N?\254\035l>\225\241\'?\325)\355>\262\342:\277P\022\251\276+\246\221>`a\364>\231\373\262\275\373-\343>\311o\210?>\014\032\276\370v\033>\374\377\232=]W\321>\347\373\246\276\3720\246?"
      }
    }
  }
}
node {
  name: "b_in"
  op: "Const"
  attr {
    key: "dtype"
    value {
      type: DT_FLOAT
    }
  }
  attr {
    key: "value"
    value {
      tensor {
        dtype: DT_FLOAT
        tensor_shape {
          dim {
            size: 32
          }
        }
        tensor_content: "\260\225K\277\014\003\n?&\010\351\276p\216\321?.<\221?\237n\327?;k$\277\204\356\214?Q%n\272\237\344\207?\022\256\324?\337\244s\275\010\002\n@4G\003?\\\215\217?\001(4>4\343\261>l\014\224?\373\262\002?\251\347\344>-d\023@\265e8>\375!T>\324\017\322\276\264D\215>_7\014@Pe\322?\033\2346@\256\351\275?W\301\241\276 \372\365?\201Q\245\277"
      }
    }
  }
}
node {
  name: "MatMul"
  op: "MatMul"
  input: "reshape"
  input: "w_in"
  attr {
    key: "T"
    value {
      type: DT_FLOAT
    }
  }
  attr {
    key: "transpose_a"
    value {
      b: false
    }
  }
  attr {
    key: "transpose_b"
    value {
      b: false
    }
  }
}
node {
  name: "add"
  op: "Add"
  input: "MatMul"
  input: "b_in"
  attr {
    key: "T"
    value {
      type: DT_FLOAT
    }
  }
}
node {
  name: "relu"
  op: "Relu"
  input: "add"
  attr {
    key: "T"
    value {
      type: DT_FLOAT
    }
  }
}
node {
  name: "split/split_dim"
  op: "Const"
  attr {
    key: "dtype"
    value {
      type: DT_INT32
    }
  }
  attr {
    key: "value"
    value {
      tensor {
        dtype: DT_INT32
        tensor_shape {
        }
        int_val: 0
      }
    }
  }
}
node {
  name: "split"
  op: "Split"
  input: "split/split_dim"
  input: "relu"
  attr {
    key: "T"
    value {
      type: DT_FLOAT
    }
  }
  attr {
    key: "num_split"
    value {
      i: 128
    }
  }
}
node {
  name: "rnn/Shape"
  op: "Shape"
  input: "split"
  attr {
    key: "T"
    value {
      type: DT_FLOAT
    }
  }
  attr {
    key: "out_type"
    value {
      type: DT_INT32
    }
  }
}
node {
  name: "rnn/strided_slice/stack"
  op: "Const"
  attr {
    key: "dtype"
    value {
      type: DT_INT32
    }
  }
  attr {
    key: "value"
    value {
      tensor {
        dtype: DT_INT32
        tensor_shape {
          dim {
            size: 1
          }
        }
        int_val: 0
      }
    }
  }
}
node {
  name: "rnn/strided_slice/stack_1"
  op: "Const"
  attr {
    key: "dtype"
    value {
      type: DT_INT32
    }
  }
  attr {
    key: "value"
    value {
      tensor {
        dtype: DT_INT32
        tensor_shape {
          dim {
            size: 1
          }
        }
        int_val: 1
      }
    }
  }
}
node {
  name: "rnn/strided_slice/stack_2"
  op: "Const"
  attr {
    key: "dtype"
    value {
      type: DT_INT32
    }
  }
  attr {
    key: "value"
    value {
      tensor {
        dtype: DT_INT32
        tensor_shape {
          dim {
            size: 1
          }
        }
        int_val: 1
      }
    }
  }
}
node {
  name: "rnn/strided_slice"
  op: "StridedSlice"
  input: "rnn/Shape"
  input: "rnn/strided_slice/stack"
  input: "rnn/strided_slice/stack_1"
  input: "rnn/strided_slice/stack_2"
  attr {
    key: "Index"
    value {
      type: DT_INT32
    }
  }
  attr {
    key: "T"
    value {
      type: DT_INT32
    }
  }
  attr {
    key: "begin_mask"
    value {
      i: 0
    }
  }
  attr {
    key: "ellipsis_mask"
    value {
      i: 0
    }
  }
  attr {
    key: "end_mask"
    value {
      i: 0
    }
  }
  attr {
    key: "new_axis_mask"
    value {
      i: 0
    }
  }
  attr {
    key: "shrink_axis_mask"
    value {
      i: 1
    }
  }
}
node {
  name: "rnn/MultiRNNCellZeroState/BasicLSTMCellZeroState/stack/1"
  op: "Const"
  attr {
    key: "dtype"
    value {
      type: DT_INT32
    }
  }
  attr {
    key: "value"
    value {
      tensor {
        dtype: DT_INT32
        tensor_shape {
        }
        int_val: 32
      }
    }
  }
}
node {
  name: "rnn/MultiRNNCellZeroState/BasicLSTMCellZeroState/stack"
  op: "Pack"
  input: "rnn/strided_slice"
  input: "rnn/MultiRNNCellZeroState/BasicLSTMCellZeroState/stack/1"
  attr {
    key: "N"
    value {
      i: 2
    }
  }
  attr {
    key: "T"
    value {
      type: DT_INT32
    }
  }
  attr {
    key: "axis"
    value {
      i: 0
    }
  }
}
node {
  name: "rnn/MultiRNNCellZeroState/BasicLSTMCellZeroState/zeros/Const"
  op: "Const"
  attr {
    key: "dtype"
    value {
      type: DT_FLOAT
    }
  }
  attr {
    key: "value"
    value {
      tensor {
        dtype: DT_FLOAT
        tensor_shape {
        }
        float_val: 0.0
      }
    }
  }
}
node {
  name: "rnn/MultiRNNCellZeroState/BasicLSTMCellZeroState/zeros"
  op: "Fill"
  input: "rnn/MultiRNNCellZeroState/BasicLSTMCellZeroState/stack"
  input: "rnn/MultiRNNCellZeroState/BasicLSTMCellZeroState/zeros/Const"
  attr {
    key: "T"
    value {
      type: DT_FLOAT
    }
  }
}
node {
  name: "rnn/MultiRNNCellZeroState/BasicLSTMCellZeroState/stack_1/1"
  op: "Const"
  attr {
    key: "dtype"
    value {
      type: DT_INT32
    }
  }
  attr {
    key: "value"
    value {
      tensor {
        dtype: DT_INT32
        tensor_shape {
        }
        int_val: 32
      }
    }
  }
}
node {
  name: "rnn/MultiRNNCellZeroState/BasicLSTMCellZeroState/stack_1"
  op: "Pack"
  input: "rnn/strided_slice"
  input: "rnn/MultiRNNCellZeroState/BasicLSTMCellZeroState/stack_1/1"
  attr {
    key: "N"
    value {
      i: 2
    }
  }
  attr {
    key: "T"
    value {
      type: DT_INT32
    }
  }
  attr {
    key: "axis"
    value {
      i: 0
    }
  }
}
node {
  name: "rnn/MultiRNNCellZeroState/BasicLSTMCellZeroState/zeros_1/Const"
  op: "Const"
  attr {
    key: "dtype"
    value {
      type: DT_FLOAT
    }
  }
  attr {
    key: "value"
    value {
      tensor {
        dtype: DT_FLOAT
        tensor_shape {
        }
        float_val: 0.0
      }
    }
  }
}
node {
  name: "rnn/MultiRNNCellZeroState/BasicLSTMCellZeroState/zeros_1"
  op: "Fill"
  input: "rnn/MultiRNNCellZeroState/BasicLSTMCellZeroState/stack_1"
  input: "rnn/MultiRNNCellZeroState/BasicLSTMCellZeroState/zeros_1/Const"
  attr {
    key: "T"
    value {
      type: DT_FLOAT
    }
  }
}
node {
  name: "rnn/MultiRNNCellZeroState/BasicLSTMCellZeroState_1/stack/1"
  op: "Const"
  attr {
    key: "dtype"
    value {
      type: DT_INT32
    }
  }
  attr {
    key: "value"
    value {
      tensor {
        dtype: DT_INT32
        tensor_shape {
        }
        int_val: 32
      }
    }
  }
}
node {
  name: "rnn/MultiRNNCellZeroState/BasicLSTMCellZeroState_1/stack"
  op: "Pack"
  input: "rnn/strided_slice"
  input: "rnn/MultiRNNCellZeroState/BasicLSTMCellZeroState_1/stack/1"
  attr {
    key: "N"
    value {
      i: 2
    }
  }
  attr {
    key: "T"
    value {
      type: DT_INT32
    }
  }
  attr {
    key: "axis"
    value {
      i: 0
    }
  }
}
node {
  name: "rnn/MultiRNNCellZeroState/BasicLSTMCellZeroState_1/zeros/Const"
  op: "Const"
  attr {
    key: "dtype"
    value {
      type: DT_FLOAT
    }
  }
  attr {
    key: "value"
    value {
      tensor {
        dtype: DT_FLOAT
        tensor_shape {
        }
        float_val: 0.0
      }
    }
  }
}
node {
  name: "rnn/MultiRNNCellZeroState/BasicLSTMCellZeroState_1/zeros"
  op: "Fill"
  input: "rnn/MultiRNNCellZeroState/BasicLSTMCellZeroState_1/stack"
  input: "rnn/MultiRNNCellZeroState/BasicLSTMCellZeroState_1/zeros/Const"
  attr {
    key: "T"
    value {
      type: DT_FLOAT
    }
  }
}
node {
  name: "rnn/MultiRNNCellZeroState/BasicLSTMCellZeroState_1/stack_1/1"
  op: "Const"
  attr {
    key: "dtype"
    value {
      type: DT_INT32
    }
  }
  attr {
    key: "value"
    value {
      tensor {
        dtype: DT_INT32
        tensor_shape {
        }
        int_val: 32
      }
    }
  }
}
node {
  name: "rnn/MultiRNNCellZeroState/BasicLSTMCellZeroState_1/stack_1"
  op: "Pack"
  input: "rnn/strided_slice"
  input: "rnn/MultiRNNCellZeroState/BasicLSTMCellZeroState_1/stack_1/1"
  attr {
    key: "N"
    value {
      i: 2
    }
  }
  attr {
    key: "T"
    value {
      type: DT_INT32
    }
  }
  attr {
    key: "axis"
    value {
      i: 0
    }
  }
}
node {
  name: "rnn/MultiRNNCellZeroState/BasicLSTMCellZeroState_1/zeros_1/Const"
  op: "Const"
  attr {
    key: "dtype"
    value {
      type: DT_FLOAT
    }
  }
  attr {
    key: "value"
    value {
      tensor {
        dtype: DT_FLOAT
        tensor_shape {
        }
        float_val: 0.0
      }
    }
  }
}
node {
  name: "rnn/MultiRNNCellZeroState/BasicLSTMCellZeroState_1/zeros_1"
  op: "Fill"
  input: "rnn/MultiRNNCellZeroState/BasicLSTMCellZeroState_1/stack_1"
  input: "rnn/MultiRNNCellZeroState/BasicLSTMCellZeroState_1/zeros_1/Const"
  attr {
    key: "T"
    value {
      type: DT_FLOAT
    }
  }
}
node {
  name: "rnn/multi_rnn_cell/cell_0/basic_lstm_cell/weights"
  op: "Const"
  attr {
    key: "dtype"
    value {
      type: DT_FLOAT
    }
  }
  attr {
    key: "value"
    value {
      tensor {
        dtype: DT_FLOAT
        tensor_shape {
          dim {
            size: 64
          }
          dim {
            size: 128
          }
        }
        tensor_content: "*\276f;\330V\3349^E\342\272\\_\"\275L\321\256\274\327M\311<\264^U\2740T\314<s\332\214\271\014\023\264\272~l7\274\235A\327\275\213D\226;;`\021\274\030\371\023:1\313;=;S\227=*\210\247;H\330\207;|\266\273=_\214\302\273O\366\312\273#\376\315<\020\321%\274=\020\374\274l5\004\274\010\261\362\272\271\014\234\274\310/\311;\343s\232\273\335\247\217;\314\354\020\276\266-\341;}\350=\275\307\207T9\275\235%<\210?\235\275\226\317-\275J\262q\273\234\2439\276\234A!\274\001\006\234\276\315Q\034;\027*\300\275\317\272\377\273\364%\355\275a\323\006\275q@r=\346\337&\274\010\224\204=\277\217z\273\246\343\205\273\010\247+=t9\350<\034\264\344\275mY\225\275-P\212<\247\333\236\276\326\351\345\274\212\343/\276f\254\006>&\206b\274\270T\033>*.T\276\n6\254;\240\222\205=\337\200\303\271\306\203\352<j)m\275\334\302\274<]:\326\274\033\236\377\275\272\235\236\271\244\361\233=\003%\206\274\"ce;\333\370\343;\244\316\226\274\305\361J;\017\210\035>\201*\351=\204\230\n=\376t\305:4\214\254=\031\223\347\275\024\261m\275\014X3=\333\334\345\273\252\017\273\274C\253\305\274G\344\210\273\366\374-\275\367y{<|\035\253\273\251\035\215<\327\3152\275\226\252><\270*\355<e^\240\274\344\010\'<\343\030?\275\201\033L;/-\331\274\265\021\264<\317d\270\272j`r=\262~\243\275I}\215=\235\272\016>\210\224\273\274\340\216\032\274\177\237%=$\263?=\371\007\234<\225\213$<\230\307\022=hd\253\275r\251\341\274\354\317(>\"N\027\272\326\232g\274\2360\300\274\352\242\315;M\331\276\274\000\201B=\205y\246\273<\312\225\275\310\036V;\323\035\2279[[\305;X\271\037;\025\204\031\274\314\244_\274\2708$=!\t\354<YI\017<\nY\010:1=\337\273p\253l;\206\374@<\356u\017:f\304S<R\254\220\273<%\222;\330\223\032\275\252n\036=\211(T\273\347\241\"\275\224]\246<U]y\274l\300\371:\277\316\264;\307v\214\273@\263\222\274\325\013\277;[\324o<\023\264\234;\312D\354:\315D\3209C\377\274=\003\375\262:\016\3175=\303\311_;\362\271\342<\230Nw=\003\233.\276\\eJ<2\270\332<\376Fj<\312\204\262<\177\276\262\273N\033\323=30T\273\311\275[\275\270S\231\274@\255 \276\034\tE\275\346o\324\276\020\306\207;\025\000p\274_\254s>\271\371\205\275*\337\214\272s\236/=\271\210\234\275\024\364\237=\356\215\357\273\256\2220=\327\255*;\257N\321;\217\250v\274\373\257\253\276\263r0:\346>\264;z:l;`z\025\274\223p\n=\353[)\274U\353\301<{\200\030<U\344\014\272\005T\315\275l \272;\201\340\262;\r7\314:\271u\t=8f\226\274\311\375\314\274\276\335B\27544<<\251\025+\273?\003\227=9ZC\2751\376\014;z\353\225;\326\346\n<\220\002\321\273\235f\312\274I\352t;\265\230*=\231n\252<\367\243\354:\005J\324;\317h\316<$*[;\302\277o=\3168\313<\307P\313<\032$\235<\346\t\202<\234\324M=\262%\262<\224,\002:\221\201\341\274\321\300l;\217\\\250<\241\317(\274\347]E=\36206\274w\242l;\277\017\344\274AU\232\273\202a[\273\250\023\362<\300\273\347<a\215\225\274&\2202\272L\206\001<\230\217\001\27419\256\274k\206\272<\241a\303<\026\366{\274@\347\317:X\256p\274\210\027\255<\326G\221\2721\346v;\335\216\000;\312@\230\2748A\376:\220\236\217:R\331\367;\243\035^\275\010\211\223\271\364Q\345;,\025w:\355\211\223\273\031\222\250\272\006\200\035\271\226\364\214\272\026\220\274;q\366\356\273\213G\207;\372\204\255\271\230JE=\036\177R;\263f*;\305rT\272l/P\273\346)\214;N\256k;d\213k;x\303\313;\222\336\3507H\373\3669u\331\'\271H\247o;>\"\237\272\310:f<\346\205\024;-\357\\\275s@s\275 %\\>\3011\346:\323\023\373=\253!H\273\303\361\346<\245\002\257\272\316\335B\276\350sm:\207\216\001=\327\303\345;\030\006v\275J\242e\273\324n\314=L\311\014\273\274<Z>\\\257\200=\336\007\276\275H,\020\273y\226\201;!\205\234<\204\254\331<\310\320^;R\352\323<\025\332A;\033\016\022;\310|-\272#\376\021\276\234\035\306\272\234\241\026\274\362\206n;\367\320\337<\335\033\035\273\030\273&=\007q\341;\331!j=\323\026\372\271/:B\273\202\206\311:\201\371\277\274\n\342\355\270f\004\001\273\230 .\273L.\201\274\004R\303\273\004\225\035<8\013l\271\301\353\232\274q7L<\324\257y<\"%\342\270\236A*\273$\221q;s\216\177;\331(\207;Z\344L<>b\'\270^\253Y:\236Pk\270\206\250\206\271\352\233\277\272\277+O\273\236\235\223<\017\355\013<!YO\273\373\307\207;\267~\261;\265k\207<\275P\031\272P\244\027<\302@\350:\000\307\202:_#\037<\346\345\310\2721\267\000\273\330[\251;<\345\211\273\366]!\273\232\202\016\272K\214\252\272\242\216e<W\352\006\274\365mI\273\016z\010\273\025!\227;\322 \323:\334\032\357\272\223\373V<-}\001<0w\3368?\317=<fY\312;z\200\003<^\324V<\2116\326<\245\2726\276yW\314<\362\212\313=\\\330u\274\351)\022\276\346@\205\274\007\243\301=z\231\211=\314\t\366=\203\371\224<\363D\010=\373\230)\274a\303\277=G\300\371\275Mj?\273\354\341,9\220\315-=s\376\234=J\214\234\274U\301\274<w/m\275p\315\n\275\023\263r\274\245\261\014<f\360\006=\354\242C=\2558\355\274\343\227\371<\rH\201\275EdY=uA\n>@\327o=\034kZ\275\226\372\252=\364\265\017\276.\202\221<\227\223\033\276\033\235\207\275Kw\004\276\310\230[\275\n5.>\204\350\340\274\335T\007;,[\264\275-yF<\037J\302=\243uc\275w\263\214\273l|\370\275\021\351\004>\315\363\362\27537\032\276$\223\000=\351\220\375<\261\327\263\274\365\355\254=\r\tY=\036Q\340\275\200\201m\275\2133s=\211\223\016>\233\2231<!t\243\272\336\327\025=\271{\\>\244S\347=bf4\275\230p\032\275h\342o=;=\365\273`q5\273~\3262=\336<\'>\001\335\327<FU3\274\026\230+=\370s\255\2759\271H=\324\273\231\274\037B\203\275\261\230\013\273\310\354\025>\000\207H<\336jY=hj/\275:G{\275s{\312\275nZ\017=)~\324\274\351n\262=\264n\200\274*\337V=\246?\372=hE=\275\235\227\215\275\372\221H=\213\275\264=9\257\234=\2226\326=\0102\227=G\245w=D\177\375\274\017\010\314=HE\201=\021\343\373=;\214[\275\335\346\355\274W\344\301\274\014b\353=\371\212\262\275\177\202<<l\301\327\274\337\320\323=\036\3308>\252\252\220<\227\222\356\275@i\274:K}N\274\317.\345<\206\217\242\2740\211\350=]\336\273=\227M\200\274\313hw\275h \326=\301\254\217;q\037z=\246\305G<l\270\002\276/_\300=#5\344\275\254\374\021=\343\260 =\2572\306\2734(\252<\214\024n<\tn\232=\256\354+<\013\"\017=\206G\023=&\204\322\2756\216\353\274\362X#<\264\2164;\262\343\032>\263\0200=+Y4\274S\247*=\352CM\274\362\t\237\275\014\237\307<u8A<@\213\214;#c\353<\270\203\023\274EX}<\256-{\276\027\344><L\363\031\274|\023\327<\225\304P>JZ\006>~\261\243<\001\361\254<\233(\306=\323/\232<.\212\340\275\037!\276\273\347\372\027\276%\252\265\274:V9\276\266\302\360<\016\253\017>W\205\177\275M=\003\276\025RO<\330\217U\2768\"\213>\022R\021\276\326\002\367\275\246\027\302=\324_\"=@\037\342\275\366\315\203\275\334f\025\276\017\333\317\275 \267\353\274\036\021y\275C%\371=\213\262\262;)\266\251;\251\037\202<h\216\204=%\310\241=\315\366\244\274\005\002\002<\006\263N=-<\017\274a\254w\273u\236o\275\360\217\340=\277^\223<\272\n#=Yg\300\2752\205*\275\322|\305\274&\030j<\022\022\351\273\312\017\023>)\277\243=\223\261o\276\316e\215=\307E\217<\247\031\345\274\332\377\304<~\274C<\032i\262<\tm\227=\202\036\370\273z\3201=*\360\263=\3776y\275\354\203\366=\000\351;\275\335&:=\177B\024=<\252Q=b\260\004\275}D\257<D]e<d\352\014>\347\007\215\275\247&\303=+\375\317<!u4=\353\300\336\273\335c\271=\3767:\275{=1=\316;p\273\317\266z=]\'4\274\20116\274\214\216\t>a\337\241<\274\005\207\274\376r\326\275\025[%\275\r\243R;\301D\300=\226s\322\273\352\004\037\276R\2260=\235\215\315;\327\252\205\274\271\035\244<T\265\016=j\037Y=\250m\240\274[\362\341\275N\252\\\276iFo\2745\350O;\030\241\245\274Z\2725>8A\200<\306+\267<h3\r=j\366\004\275\315(\025\276v\306\306\275\267\032\216\275\251\027\207\275\001\314\301=[|;\274\010\257\354;\317\2171\275*\355\211<\037d<\275v%\331;E$\013=e\0279=\376b\031\274\203p\275<\3466\242<\252\374\027=\025\2426\275\310\211\267<au\366=;\315\274\275Z\373\n>\205\034d=\224\240\307\275Z\024u=\253\251U>K\225\001\275az\"\276\201\214\274\274\234\367\356\271\322\202\271=O\217\014\276\242\021\001<p\024\220\274k\224$<\003=\\>\031\264@=v\300t=ah\224\275\025Y\252\275^\214\005\276\275\351\016>_\017\252<x\370k\275 F\250<\221\0106=\257\007\265\274\025P\246\275c5\373;q8\212\2758\240\323<\017,)>t\253\232\275\037\256+>\206\022\355\275\370\'T;\257E*\274\016\024\231\275x\224J\274\270\204(>\364\341\257<\303%\201\272mh\323\275\257\252\302\274\301j\212=8M\245=/\275:\275\204w\t>\334\2172>\250:f=,\270\256<t\301\362\274\233\242\032\275[\t\302\275\210\031~<F3\255<\037%\275=\343\006o\274N( =\215v\001>\234]\006\276\236\300\254=V\255\221=B.\276=\023\247S=\022\177\224=\371\217\245\273U~\204\275\215\370\200<O \t\275|6\220=\001J\363=FH\341\275\004\'X\274IB;=\221\217\010>\007\253m\275\225\270g=\021\310\277\275&\354i<\336^\214>\373\230\331\275\211\314\345\275\231\256\207\274\027I\372<\234}\256<\253A\302<F\300\233=Ke\206\274\314\032U\274\222_e=\023p>=\\\350\205\272\245\017\005\274\2775\254;\366\360\252\275\001G\r\275]\250X<\327\233\357<\352\260\270\275\271_K\273t\"\236;\376\365\203:\240\010M\273F\013\355\271\276E\322;p\377\033\274\241\336\021=B\202\365\274O7\315:\312\034I\273\217\013\253\273\237e\036\274\023\200\005\273\021\365\240\267\240\367\337\273nG1\274\243\024P;\2702\027<\230\204\334<:\t\272\272\374j\220:\233sM\2713\251\244<H\n\2679\200p\347=I\207\206;\265\206U\276\360\346\201\275\236\277\224\275\270\244\375;ZJ\304\274S\2506\273\221i%>)\363\261\272#P7>\n~P\271\341\232\036=\251@\031=\226\204\233\276\003s\255\2734\\\303\276\025\265\016;\313\3625<\035\220,\276\031\326\206\275,Z\301\272\"\233\235\274F\232\240\274\003\341\243=\006\035&:w\356\001>\257\312J<L!\263;a\221\342\270\2131\211\276\325<\320\272\353\266\030\274*\370\262;N\376\304=\202Io\275P\326\006\276Q\\\277<\225\203\223=\023*\311\272\346HC\275\326!#;o\246\"\274\350\351j\272\207M\000\273:\031\206\274\322\'W\275{\006\306\274\350\367#\273\027n\336\272\255,\203\275\371\027=\275\016\237\253\273\204\216i8\371\027\256\273\236 \r\274\3579j:;\265\334;g\311\3719\360\35389/\316?:\026\t\204\267\331\352\262<&\221\213\273\265\341\242\274~\024\024=\202y\027<\r2\363\274tJY\274\353\261\374<*nS<\354\272\216\272\037R\317\274\tp]\274\017Z\251\272\336l\244\273\237\230\305;\264o\220\274\247I\332;X\350\001\274i\232-<K\347\217\273\374\353\351\272\313\302\251<eZ\002\274=\004\261;T\260\253\273\216\025\276\273\346\240\250\271\"\210\020\274\t\377\344<=\226\214\274\232\325\0009X\220W=\373=v<J\231\n;#\004N<\262\'\257;L\350\322=a\366\246\275\375G\222=`iz=\240W,\276\230\250\347\267\256\360#\274q\004\';\265\202\325\274@\330_;\264\315\215<9\365\205\274\311\211\005<\274\351\351\273\020\216\355<!\261\336\272\302\010\364\275Z\313j=Y\364\351\274\257\246)<\214]\236<ZY\202<pO\223\274\376a\004<\316}\323<\034\307\363<\316\237\261:\301^<<\341\3718>\253\210O;i\327\227=\277?\t<\312Z]>\3446\254<B\321\r\276\250\200\355<U\n\212\276JhO=\337\275,>\214\036\263\273\267\274\003> \306\004\274I\016\263=c\330V\274\341\266\224\276\317\227x\275\372-\301=\332]`\273\034\360.>\311}\020>8\036\277\273_{\367\274$\370\245=I\222o\275\335\262E=\253!\270<Z\216\274=\355\240\017\275\007\203!\273\022M\350<\214\364\271\276\244\242\200;r-;<\341*\t<J\004\245=9\034f=\325\360\353<b\275\037=.\343\n=RF\300\272!\350\034\276\315\264\221;t\205\t;\336*\341;\324\016+=\007\204L\274\227\027\336\275\315\3275\272`\223\241<\357\230S\273\315\003\002>\223\024\023\275T\364\220=s\375\213<\3546\332<\016\275.<\373\241\371\274\031\317\373;,\247\237=\301Gm=\243\332];+\211\345<\257\013\237=@\264\240<\353\2233=\301\014\221<!\033<=y\245\346<\276\n\332<\362\320\274=2\0368=\315n\371;\"\316\255\275\343d\275\274\033\202\240<\035\317>\275\023&\201=\310\334\010;\201\004\221\273\303\030\265\274F\274\021\275>\356t;\241\230*=T\004\326=8\323\334\274\006\276\037\275\242e\324<\3538;;\342\236\306\274\030\252\007=\332\013^=\211m\277\274L4D;\004iL=\317\263\276=\3644\272;|\0324=I\263\200<\261\366\374\275\364\023\013\275\217\306\212=a(\340<\342\251\262=\004u@\274\237\026\233<\317\001\r<\005\254\312\275\365,`<\nZ\367;\211\021t\274\210\245\215;\001^$\276f\003\347=\\~<\275\036\330\240\274&$$=\347\357\331=\256\272\323<6\030D\275\2754Y\275\306r\243=\034\304.\272\230\350\201<-j\223<WY\254\274XMA<\234(L\272\322R\224<_\220\024>I\331\024=\305\375\245\275\360v\343=\212J\223=\033\275X=\342\375\014>\2722G:\346\334\340=\347\346N\274\337+$\275Q\326\255\274\r$\r\276\364\017\334\275\250\275\014\274\235\214\331<\354{\363=\332\230!<\251\350\354\275\355.\366=\036\314\276=H\004*\276{\214\340\275\350Z\323<}\210\253=\223\257\254;\333\264\002\276\027B\036>\252\266>=\213F\037>\310>\324=\005\313\355;y\253Y=?\233\231<+\337\232=\247>\007\276\020\376b\274\000j\025\274N\363\270\273\337Ci\274\272|2=H\274e\275\213\207\271=\317\205\213<\350\225\211\275N\003\004\275\301\000\264=\235\317\345\275\210\376\314=\375\020A\275\233[\007\276\216l\036\276\200\022<\275*\351S=K}\203\275\3756\264\273TK\034<\237\337E;xq\313:\233\331\\=\324\334\225\274\374-\274<Y\002[\2754h\331\275%l\303\275\035I\337=x3@=\027\230{\275\376\360a=\023S,=\t\221\304=\250\367\246\274\364\215\230=\233\376\206\275\020\205R<w\375\214\275\250\325\330\275\254\341\310<\220\234\365=\023Ol\275\364\3330=7\343\220<^f\310=0j\021\275\334lq\274|\301l\275(N\342\274\235\323p<\367Rn\275\251\024\201\275\327\333\321\272\t\0348=h\235n\274\335A\224\275Mt->\335\032{;\366\245\252<\357\365\273;\270X\t>\316\030\276\273z\013\341\275\204,\233;I\255\221\275m\241\r\272\344\230\364<\373\326A;\344\345F=\030i\360;\341\357\235\273#\370\231\274\235\274\323=\303nH\275;Nr\275\327x\314\273\237\002w\275MS\200=&\006\252\274|~\r=b\247\027=\200)\207;\2425\250<&\274\177;U?\230<\004v\336<\247\251\251\271:\222\202<\220\230\232=C\320\005<U\\\016\276U\346\201<\222\n\026>\3568\212\276\036\3020\276\177\025\354<\346\002\244\274Z\207k;\256\252S\276q\241\202\272\323\302E\276\341\334s\274\030\355\264\275\215Y\255=\3736+\275\366\006\013=\374+]=n\217\202\274\027L\020>x,\243>;z\027\276\3608)>\013\r)=\327\321>=;i\233=\343\2029=XY\265=\336q\026\276O\273\024=d\"c<\367jO\276\037T\262;\353\n\016\275~\372;<\205I\211\274\346K\214=\225\221\010>\232\023M=D\311K>\3059\313\272\247\006\320\274\237\323\007\273\001\037\342=\202\275V<>\\x;\207\314\202\275r\340\215=\221X\307=;\230\266<\326\026:\273\224e\372\275\274\217\247\275\"H\\<\355\030c=\336\026P=\364\273\271\273\314v\301;\354\265\202;z\323\212=\014\0365=2j\3769\316\202\036={\177\r\275ES\342<\341\256\345<)dv<\203\n\336<\312\233\221=\3433#=\271\312\274\274/\3069=\336\332L\273\352I\276<\311\363V\2759\362\247=1\363\">\0135]\274zy\235<\276-i=\036\226\006\273s\362\251\274_\n-<y\353\327:\325\377\232=\367#\000\276hj\231=\320/\036=\363E\216;\2200\256<p\360\242\275m\226\252=\201\270\252=\250n\020:7\276\034\275\214\264\311=.k\356;\256\006-<g\336I<\317\021;\2760\365\367=b\205D=\024\264O\273j|;</\376h\274\3745\267= \214\207<y\377\"\275\n#\216< \206{<\201\371T=r\035\025\273\271Z\037\276\301G_\274Xw(=\220\300\031>\345\213\232=\304*\264=Jp\345<Wu\351:]\365#<,[_=s<P<\322\032[<\3763>=\240\253\177\273\2205\n=\343\265\324\274oC\000=\007\220\315\275\227n\036=\330\213R>\307f\365=*\361P=\346\376S=\246\201\346\275\202\227\026\272E\374\351<\006\030-\274\343,+\275p\362\266\274\023\311\330\275%\005.=\r\327\300=\316\027\n>ae\370\274=\205#\275\207U\356\275\261\255z\2750:n=\320\215]\275o\204\005>\364=\022\276\352\223\316\272\355\365;=G\016P\275\250{\265=0\300 <\227\341\232=Px\036\275\226\212X<\345\014#\275\212\036\356<\235\225\232=\242\"\347\275\256\274\022>\233~\321\275\374*\031\275.\320\271\274\343#R=_Be\274\006<\231\272\304\271\350<}T>=\375\255\230<\225\301{\275\367\301\255=M\217\245=\344\037\353\274\247\265x=\246\034\362:\323\356\261\275\367\342\036=\276d\354<\216\2557\273BQ\201\275\n\346\n=\300\226V\274D\300\331=\217\351a\274\202\315U=D%\r>Sk\004=\035\205\331<\207\260\013>\323\334\362=\024C@\2758k\303=\240R\262=\256\370\241\275(~\244\275\020\367h=\321\316B=+\372a=\004\246\317=\243I7;3\007X:\002\227\246=\010D\245=\0014\006>Sj\340<\2134O=\205\310\202=\030\241P\275\"0\277=\213X \272\267\036\256:\350C\022=%\203\034=\362(\230\275\276a\010=\3403,\274\274K\022=\225\222\246\273\352@Z\273$5&;w\022\220;\265\264\260<\217\254 <\272V\264<\'\352\354;\255\332\263\2750\010l\273M\274\014<\250b\2549\2534U<cj<\273F\000\302:LU\325\272=\266\201<\226\342\363\274N\353o;\335\214g\2724\232\303=GR\200;p\375\241;^d\225\272\241\272\254\273\354E\361:\271\261\202:\3443\325;\355\274\002<\357Wg\272or5\273\323\314\200:\204\316!\2729\231\355\272[\246*=A\312\322;\242S\372=\3446\035<C\035\205<\274\177\233;X\035\310=]\354\025<\274\027\225\273\365YN\271\327\265\037\276\001\246\225;\367\362Q\275p\340\016>y\254\332\275\307\021\027\274\374\n\023\275`\203\373\266 K6\276\026\301\177=\210\254\215\275\021\221}\272P\246\025<\326(\341;\306!\235;z,\263;@>\332\275cGC=n\255\021\273\213\222\222;j\354\244\276\221\316\201\273\371/\251\274\305\245\244;\263\014s=v4\337\274v\005\252=\267\335\322;BS\355\275\t\2632\273m\227\311\274\234\265e:PQ\203\275\016\037\223\272\0255\2539Ij/\274\262S\003\275\001\342\261\2741\026G<V\255\315\271\370U\205=\362FC=\270\274\274\274AR\004\270\225\034\247\273c\232\304:\000\023\3107 \006\315;\264O\335<3\226\210\271/\374E\273\035P\2449-\344\373;\343\212\325\273&hM\274\305\246\000=<\227\321;Z\205_\274\211,\375\273\273\317P;Z\364\271\273\344\370%\273\2219\217;x&\032\273j\237\363;\262# <\3771C\273\247_\312\273/\014\214;\312\275\007\274\323\363\203<\017>\005\273\311g\213\273\2573.=]\217\261\274=\030\251\274\272C\244\273Ow\025;\352F4\272+k&\274!\360\205<\315\300C<\377|Q\273\234\364\270\274y\2124;\224\037\024<EX\227=\256\203\267< o\001>\371(\013\276!K\025>{`\253\275z\363\215\275\031\341\022\274-\016\205=\331\014\244\273\223\354\202=\242\017\246<JD\014=\255\t-\275\324\022\004\275\223c\002\276\277\022\010;\003\257\000\275\241\214D\2767\264\323=\237\031X=o\367\307<\005\227\007\275\030\3468\275\276U\001\275\363\327K<\304\246o\272POH=\263s\306\274\304\245!=I\005\224\275\263\321\210=MM\336\275\300\233z=B\234\301\275g\312\177<\024]\023\275\001\215\221=\217S\334=Qi\271=i\356\244\275\375\313\"\275\223q\000\276\2642\274\274\013V\031>\363\234\252\274g\272\360\275\'U(\275\250\357\260<\236\335\204\274\357\224#>\302,<<0\364\304=\273\014\207\275\007\233Y\275\202*\010\276v8\037>\266]\021=\226\032\024>R\335\005>\261\030\303\274C%\233\275\3162\236=\351\023o<\'\306\231=\250\337\020=\212~\021>\r\326?=\354\352\317\275\336?\236\273\'\354$>\270\215\360\274\311N%\275\037H\203=aKm\274Oh\376<aL\210=\312D\254=\001\226\322<\311\241>\275k\311\221<\333P\307\274#\001\327=A\206\256\275ri\005>\030\255\211=\232\n\273<\0025\036=tP\375\275\033U\021;\251\241&\275\330x\202=3D\232\274\013\354\210=\337\221T>\034\341\025\276\213\373\233=W>~<\252W\344=?J\004=\026U\241=\201\230]<]\2177>\271r\021\275\332h\013\275\207\244\n\276\273\272\233\2738\3201=]\264\236=\022-\007\273\013kq=\034\312A=R\'\246=\361O\030;\375\215\037>7[=>\251V\r\275\337\375\336=\273}\265<\277\266\243\273\353\350\255=\262\375\314\275\354\266\t>\263\261\036;\352-u\2742\310U\2743\272@>(\266\246;\235\231_=\375f\215<\367\3332\276E\276\247\275Bv>\275\211\3400\275\334Pf\275F\272T\274\245\3506=W2\354<\254\226\230\275\262zM<\223\225O\275\234\244\254\275\214R\336=\\mA\276\333\356|=\324\310+<\003\373\024=k\0001=\276x\310=\315\235\271<\323_ \275\032!\221\275~\371N<\322+\324:\263\337\t=\na\204<O\003.\274.\337\352;oI\254\274X\233=<\270?\247=\324\000\236<~q\350\275\033j\n\276W\244\265=\240\023\024=pU\201>\014\227\220\275~L\227=a\322\034\274c\\\215\274\270:\240\274\236\217\232\275\3518:>\304\345y<\333M\026\275\356]e\276r\233`<Q\346\026\276-{:\276z\3238=\206\0175\274\0224\217=\205m9<\035v\326=\335=\021\275\301[\301=P\307\336=\265\2649=\014Eo=\327G \274\245\327\007<\375\332\235\275\367\311\253<\357\345A>\233M\327\275\261\302\030\276\307A\201=\2034->\227!\222\274\337\304\327=P\2352=\343a\214\2753R\213<\365\335\302\275d\377b\274U%\310=\252I\343\275\246\177\026>\226,\204\275\204\374\370\274\206\367!\276\211\310\241=\213\377H=\003\2647\275\354\372\036\273\252\235\201=h\345~;\220\0254=\245\255P=\343\004\210\274`\nR</\032->\330f\314\275\213\363\240\274/\261\210\274\300A\225=\304\225\337<q[(=A\346.\275\035|\347=8L\'\275x^\206\275A\260\334\275\014I\210=\2318\235\275\350w\267\275\306\264\224\275W\001J=\034\205\017\275\271\212\002>\302\222u\274%G\264=w\205\350=9\263\323=$\023\013=\310\215\366\274\177\311\272\274&\360-\273d\027\030\276M\324\372=\276\205\261\275\235/s\274\214&F\275ei>>\033\253\200;u\022n<\247\305\037<\210\341\223\275\363\332\365\273\327]\202;\346\t\247\275\204\356\003>\tr\225\273\265n\"=\225\307\013\274|\3022\272\351\217\023</l=<R1\347\273\362\373M=1\206K\275\r\321\237<\331[\024\274\235\"%=C\355I=\341J!\275D\305\030=s\032\302\273LS\310\274\027\014\346<\316Y\025:\366Te<3\311\306<`\023\002\274\0366w<\320\342d\274\272\346\364;\020\342\317\275\325\352\255<U\205\256\271\204w\357=\254\312\240\275}\300\314<z\331\002\275$\337\316<I\267\013>Q,j\270\201\231\246\275$\332\211\2749\235\320\2756\004\023\275\346\022.>3\331@\273T\375\006\273\212\016\005\274E\235\364=\002\220#>\276\333\177=5\316\311\275\t\320n=ld(=\2676\250\275\002\256\225=\343w \276\312&(=\032wv<\271\265\017=\023\300D\275N?\260;/\234_\275\312\331H<\254x\207\270nj{=\266D\025;\303\267\214\2744n\205=\202\321\337\273nR\273=\253\275\306\274\tL\316\271\030km<\320X\312\273\n?\265\275\355\227\210=7?q\274\323k\303<\257+\273\274C7-\274\361H\022\276\247\200\n\275E\366Q=\325:/<[\021\245\274M\333\376\274\177\000\017;Z4\003\274\r\025\226=\214\300\367\273\336\001\355<\304\204\326\273\n\250\345\274V\300\214\2743\347\277\274\004P`=\225\364\244=\251\264==\246E\337\274\017\274\335=*y\344\274{\362\270=\207\230=\275{\224\342=\350\343\"\2745$\216\273\342r\003<\222\333\233=5\010\373;\230\0315<\310\322\307<\337P\255=\034\262\245\275\026\350\244=>\344\357=\016\314\336<7\031\373\273,\322<\275\351\266*\274\347\016f==/\253<\315#\341\273y\250-\276!\036\r=\337$M;\341\\L<\321i\":\307\315\214\275\0268\026<\022e\020\2751E\307\274a2{=\236\233\300\271>\310K\273\2240\177\273\245\253\323\274\350\252\214;(\016\333\273>\234\t<\341\245\243;s\341\226=\310\222L<\274\243E:[\223\311<+:=<\342@q<Dj\334<\216\036\375;Q\211\200\274a\236\307\272C\002\211:\033\353\217\274wW\\<R\222\214\273\240e\024<V\367\257\275\0204\267; {~\275\370\224i;\343\363\022\276\213\226\014=\006<f\276y\361\200;\363\361\277\275\037\230T;O<\214\275\016\232\021\273Y\374\024\276\225\246\010\274_\250~\275\211\210b\275s\2173>(\006\371<\022\354A>\3258\322\273X\253\200\2768\341\214=\201\2749\276y\275A=zy\272=\271`l=H\027s\275 \315\233\273X\241%\276\033\363\323;\337(\226\273\214b\367\275l\354h\276\245\033\215;\247|\003=e\323P;t\221\001\275<=\231\273\nF\261\274\215\342\377\272L\322\376\274sR\314\271\tT7=\230\013\264\273\356\212\236<u\211\344;U\247\356\273\270C\206<@g\237=\022J\251=\304\312\021=\257\200\200\270\222H\277\274uG{\275\320\272\300\274\323\230-=$d\221<n\023Q\274\334\223P\274\032f(9\027h\214\274\356\304\307<V\274r\273\275x\333<@\270\007\275a\266\257\273\217\225\033=\246\277\355\273\262\'O<\006\031\033\274\334\0340<\2445p\274\207h!\2727\315R\272\215\364\023=coX\275\300 ,=F\027\202=#\331K;\241r\203<\320\035\263<5\375\366<\270\006n:\021\177\263;\214\313\326<<\277\357\275s\267\020=\\\212\335=\266\342\256<\357\024\373\273_\242\234\274Vs\":\255\216L\274\362\216\007=\312v\200\273\027\206\237\274\362\3458;Ja\333;(;<=y\031B<\246\204\n\276/$\222\275]:\260\273\334\314==\020\270\017>tG\037\274T\242\003=\267D[\275n\353\330\275\016\366j<\326\301>\274X!\024=\311/\365\272ng\247\275\362\030\215<cU\020=\315\253:\276\242\203[=\320q\267=\022B\275<\245\341\007\275\030\242d\275}\035\t\274\260U)<\310DH<Z\316\016=\300\377\305\274e>\301<\375z\340;\257\300\275;\332,{=r\036\256<.i\265\272\024\213\000\276\317\225\206\275J\277\375<\321\337\273=\205\216\326<\244_\317=c \353\274K\240\006>\344\243\276\274\202P\316<\353,\206=\\\215\">\006\310\252\274\033.\216=c\370,;u\223\335\275\337\234+=\005\370\345<\332\313\026\276\304\246x\274Ud\002\276\361\013\340\275\326\\\221=*\234\002<wz\274=\322\371\245<\'>\314\274\035\3125\275\250,=<\310\255#<\277\032x<b\276\277=\325\227\330\274\334\034\n\276\014\255\320<\014q=\276C\371\021\274s\275:\275\245\250Q\275\264\246\272\275\003\375\240<\221\003f\275\034\246\334\275\352\016\205\275{&\024<t\'\237;\236g7\275\303\256\000>\367/\022\274\330\351\264\275\016\370E= \221\243\274T\352\331;\204\276\242\275ph\025;\316#\372;\036\344\260=\312.\215\274\255{1=\206>\244\274YQ\340\2757~\n\276\214\327\341<\271Rp=~\321#=\354\214\376;\227\004\014\276\'\303\220=S\233\306\274\243\310\267<\367\037\204\275\357~\215\274\375\236p\275\253\177x;\272\366\213=\013\014\210=\242\347d=\257\300\314=o\214y=\3416\316=N *=\210\340\363=\r\321\246=\274\366\375\274\363+\010=\277j\037=\375\356\372<\024\201\233;\231<e=\"\255q\274\233@]:\237\177\027=\263\343J<\204\034\247=9%\233<\247\227\006\276hJ@\275\200\030!=\361\225\014\276tk)\276}\250\277\2748\224\305\267\221Ay\275H|\221\275\352b\316<\223h3=\214\331v=>\034\017\273CO\236<\316\201\354=il\210\275\311\233\"\274\325R\341=\343\324]=\324\270Q=\373\006\314\275\017V\303\274\331\300\233\275\306M\322;!\360\247=.\340\'=\231=&\275D\005\250<\366\014\037\276\327\036\237=S0\017=\rl>=\021\254\356\275\252(\200\274\275\275\013\276\363\254r=\217\001\026\276\"\010\255\274\336\337\245\271\340C\255\275\276\314z\275\332\'8\275\316\212\013>\363\"\357\275;\033\r>\374&\341=Y\272\221=\270\344\312\274\2750\020>9l\017\276\317pA\275\250\302\247=\031sk\275\210\327+\274\264\364\232=\344\324O=\210\256\343<\206\205\214\275~/\034;fn<=%t\312=W\222h<\331\332\225=\001:\341<i?h=\222\342\004=1\236\372=\275\332\207\275\321\265\207\275\001\224G\275\201\266U\275\234\240.\275>\215\203\274-\327$=/\025\255\274=\351\307=\266\276\037>\341\252\377=yU\340=\216\242y\274\310\007\036>\215\205\235=\345q\220=7\344\267=q\267l\275\340K\346<\257\203\327<P\003~<\345\314\220\274\0100\014>\005\326\027\275\023\306\304=k\302\242\273NE\242\273V\351\204\275\327\t`=\242\304\331=\263\r\207\275\270\221\230=w7\337\275\206x\221=\204\305\307\275\035\233\261<ZP\215;\300\312\"=\021\261\003\276\347/\341\275x\335\311\275\204{\311=Ns\365=Zn >\230\375\324<y\226\352=W\267\266\275\301\375\277=J}\025\273r2;\275\177\202\000\275\247p\322=i\200v\275\202\304\256\273\024*\252<\367\227\373\274P\334\036=c)\007=\246t0;\205?\252;\345y\232;G\222\004>\261\246\236<\377\245\316\275\275\243\242\273}P\232<\325\272\t\273\242\324\241<f\267\005\274\253\237\233\275\225h\316;\037\366\250\273\016\237I\274\365l9<A(\234=\216\262\234\274\246\252\265\273]M\256\275\276\355\021=?E\263<\252\275\267<L\355\377;f\3677<\r3\215<\247Nr;\3077\217\273}\324\235<\304\217\227\273\013\3547<\233\316\014\275Ql\356;\344\201\331<q\370G<\241\316\226=\325v\177\275\234b\266\275\'\353{<3\203\223\275\025X\220\273\022\307\357\275\334:\330\273l-[\276_\357.\274\014+|=\226h)=\333.\345\274\361G\023=\031^d=\354/\210\271\303\224!\276zM!<\242Gk\276\250\2371;^T\004=oE\264=!R\356=\242\021\256;\342\346\213;\275+\246\272\376~O<.\3449=\307\221\347=\355=_;\215l\031\274\203\243\006<\355d\240;\307\023\235\2755\t+=e\300:\274\306\325\241<`\245\022\273\357\243\253<B\213\367;\214\377{\275\236#\034</\350t\274\014\220a<\266?B=\247\375`=sg:=b?\356\272\244\206\310\275\037\3600\275\332\227\305\274\342\3071=\357\254\206<\014\246\362\273s\372\032\272\316\257\006;\217\\\021=n\021\'=\366V\223\273HO\343<u\323L;\254\351\006\273I%\214\275\365\375\202=\034\204\315<\303V\267\275\302;;<\"\035\027\275\35092<\366\271\267\273\212\3542=.\335\207\274K\t\n=\274\233\303=Y!W\274{\341^<\323 c=E{\t=\361\225\002=\327$?\274-|\331\274(J\204\275\236\372\034\275Z\232\316=\277\262><\365\364\216;\004G\240=\373\322\245\275N\211&=\274\026k=\361\t\225\273\276\377A\275 \300\000>\246\354\271:7h\361;nN\353;\223\0145\275\365\231)=\377\356J\273\302\n\232\274\002jP\276\226+\235\273\0268v<L\023u<W\210|=o\372\266;\314\312/<\rA\330\273\000%\245\2657,\032\276] \030<\300\334_\274\2472#=14\264<x\350\344<\274`\207\271zW\217\274\233\265\024;\013\342\224<x\326\306;1\246\006=\007\334\303;(~\034\273Rt\241;\371\354\247=\240\352s;!\307f;\376\273\023<\023g\013>k\024!>\345\236\204=\214\341Z<}/u<8\032\346<\233\263U>d\204\330\273\303\220A<.\247 \274y\204\255\275:?\232=.\332`\276\013\341\030\275\027\261\"<\332\240\t<\306M\265\274\007[\362\274\254\336\220=\267\224\263\274\212K\006<B\351\226\274\352dU>\223:\373;0\307\252=]\210\304<\203U\364;;\001><\211\201\310\275\220-\241:r\314X\275\303\303\374;\255\310\247\274Q\3336=\3343\343=/1\320<\376{%\276\345\'\243\273\262\252\256\275=yw;\326\230N=k\241\313;x\342i\274(\370\371\274\010\244\273\275\255\364\234;6|\001=X\003\230\274\252\016\202=\274~\237=\366E\374\273\361\026\274;\014=\200\274\032\276P<|\237\245<ipD;\315~\010=FO\365<\361\361\235\273T\305\003<4]\325=tv\355\274\234\366z\274\206s\030=e\242\332<\200@P:\245}r<gCG=\0100\033=R\337\276\273*\305V\275\240\002\341\271\273\235\223=s\225\301\275K}Z\273\311\302.\2751\273a<\251y\310\274\205\213\n=\205\237\'\275d}\035\273\177\365\017>\rP\271\275LB\234\275\t\243j\274\356\000Q<\227B\025;\336\201\314<_y\036=\303u<<\031L\205\273mw\211=l_9=|A\002<S\266\353\274<\275\202<\020B\364<\250\201\246;\232\021\025>\210\376@\275.\n\010\276\335+&\274\264(U=e\2444\2754\372\273=;\354\223<\324\267t\274\231\252\212<Z\331\331=\256\262\226\274\374u\240<\236k\242\275\036\243\216<Q\344\315=\363.\362\274\326\351\357<\330\212\204\274n\272\026\2752\307\216\275Ad*;\202\032\251=T\247O=VjO\274\341\221\t=\'\357\036=\316\244\212\274A\357\311;\2439\247<Q\230\375=\035\004\245\275P\217\033>K!\216=V%2\276a\006\212\275-\'\372\275\271 l\274\242\010\374<\240\227\360\274\330N\217\275J\034\372\275\312/\304\275\350w(=,\334\321=\206\376h\273J D>R\252\301\275en\366\275\330d\027=\020\034\332=7\035A\275\255)\373\275\224\024H\275\212\311M>H\257\356\274s@\222\275 \274-\275\334\207E\274\300\020[<\207\350\343<\027\325\224<\017O!>\370\036\000\274\265\205\027>u\351\206=\024\233n>\316\310b\273\215:\306=\026\030\005\274\214\003\014\275\373\370\341<\370\220\245<\001\377K=\227\005\254\273\240\374M\274\031l\343=o@x\275H\264\212\275f\326\202;\252\312\252\274\006\366|=\353\324\010\274\033\004?\275\367\034C<T\301\032<\340]>=dz\230=_\331\210\274h\226Y=\261\034\031>\275Q\301\275*-y<\374\336\036>\260W\336=\014\035\343\274I\317\033=$\273\254\275C\016\207=\023]\371<\005\230\034\274\031\014\206\273LR\226=w\0233\275\343~\207;.\326\376:?\006\312<\353W\032\2740\262\204=T\033\330\275\317X\363=\374\255%>\350\224\250=\210 V\274\235\240F\274\020#\217<\344\304}=\220\321\267\275\232\354\366<\"\331\315\274TVH\274o?\240\273\r\312H>\310\356\305;H^\321\274\010\315\204<\007\n\000>:c\236\274\014#\202\274\375\3252=c\243\247\273\032b8\274\306\340\357<%\032K\275\376|\363\275\223\243w< \240\340<RM@\275\200.\036=\033\235\327\275\326 U\275*\nW\275/OZ>\303j@=\004(\206=b2\276<\345\333R\275\032U\306\275\347JL=\242o;<\211\211\201\271y\355\000=[\355\272\274\216\324\243<\236\236\221\275\004\207\251<\022\214\225=\2429\320<\"\014\025>\000>[=\t\017\264\275\307&\203<\205$\231<\300U\263\273\341\277\207\273\232\016\315\274\036\245\357<Q\251\304\274\306\345\317\275\230\337>=\367\316\352\275\231\212\232\274\263{\377=(f\346;<\316\030<a\"\344=\340_\'>\025\344)\276r\261\365;GQ\250\275\263\231\236\275\370c\350<\021\205\371\275T\"H>\034`y\275\251\273<>22\020\275F\360\030<\265\273\302=\274\305\253<h.\\=\263\0261=\213\362\340=\360\231\307\273\023\000\034\276\355\332e\2745\256a=\257\207L<\346]\326=\263y\236<\033mT\274\367\237\010\276~\014\310\275G\204\350<\270xl=+\346;\275\001E#>\"\243[\275\326\347\272<u\2325=a\003H\275\r\314\272\275 \266,\275\257l:\274\317\375\262\275\211S\234=\245\246\205\274\006m\007=%\255\337=\322\n\010\276\360\373\233\273}\373-\275\204\017\265=x\341\216=\211\325\'=\200\033\263\275\357\032\255\275\246\327\307:N\342W=c\366\325\272UU\005>)\272P\275\251\313.\275d\315s=\226\374\274=\225\362\273=\2744\016=o\203\033\275\r\007\017>D\343\033\275R\254\336<\203?\255\275\240FD\275\221\371\225\274\275\347\305=\272\377\355\275\333Y\212=l\354\036\275g\322R\274\231\231\340\2756`\n>\\8)\272,<\027<\0218S;\330\207\t\276\243\0168:=\306\302=]\276\212=0\334\312=l\022\n\273\3418\313<1\234\241;K\240\355\274\001\033\244:\327\240\001\273\033\203T\273l;_=\240\267)\276\0259\032=\370`\201\274\222|\377\274\243\344\365;\004`\365:%\371\2077\" \250\274\264x\023\275J\305\220;\223\366+;\363V\203={\330\031\271lUF\273\322y\302\2729S&=\374\226t:\256~r\2750<z;l\000\277\275\323\017]\276\306\242\240>\025\314\367<\300\221\037>u\332a\274\377r\304>8q\310\273\360|\'\276\230\240\032\273\351\225(=5`\211\275\376\342\307\275\217\356;\275\350v\343\276SL\226<\335\225\023>2\240\031>\t\343\204\276\3200m\274\233\027\247\2746\252U\275\215\013\365=BM\004\275t\035+>\317k\310;T\326\024\2744\371\340\273{\3545\276\260/\206\272\017\r!=J\312\204;D\312\234=\310f\"=\210\255 \276\214\301\222=\337\240\244>L\210\024\2730\277)\275>\324\331;\330\263\220\273\275\203\026;2\023?\274\364\303\245;\332V-\275V\256-\276,\0266=\014\3501\274~\215\321\275\224.\277;P/\222;\223\002\330:\331\301\225\274\272\010\364\274\007\000\235\274\226e\204\2719\034\207=t<\210;\276E\244\273\035\003\360\270\221(F=\327\255\357\274\301\273e={=\261=\363f\033=\347.\343<\032i\351<\256PX=\357\377\014>\260\243\207\273.\256F;\232.\305;F\244I=}\317\006\275\'e\230\273\3232\021\273\005H\224<\262+]\275\350p\214\273+\"\254\274\014\277\211<\2062!=5/\344\272j\273w=4\276\216\274\203\017\314\274\245\324k\274\362\226U\274\202\315\224=\324l\032\275\261y\224\273\2614\217=\263\021==j\026\3479rV\212;\3046!:\214\320\376\275\262\235\210;\202X\027<B*\347\271\331\2463\274E\327\0029x\256\272\273\317\365\205:\201\000\033<N\345\373\270\241\037\237;Z\342\317\271\321Z{\274A\177\020\27587l;J\275Y\272X\014\330=<\242\221\271l\232\210\273\021u\376\271\252^W\273j\306\227\273\342n\372\273?\324|:I\374\206;w\343\236\271\262\350\365:~\203\326\271\215l\363<\230\365\0319\314\346\305\273\216Vz::<\254=\016\317\340=\274\344w=\274\360\251\270\322\\\017\276e\241\257:\260\n\312;\261D/\272\360$\000>\266\003\0008\317r\207\274\326\370\275\272\273\246\202\275-\277\'\274\031\305\375\274\243\354\014\272\t\033\240\273\004\t\205:\307\301E<\270g\222:\350\335\316;\005d\332;\242\326s<\204M\007\275i_0\2751\232\276<\373\371\002<9K\2539\312\335\232\275\245+\2609\226\353\200<\361\312\034:\341\034\311=eL\362\273D4\347<<\215\2207\263\215\244<?\353\341\265J\274z<\006\275\266:\020\200D=sD\252\267\256\033\007<\237F\2519k\324y\273M\334\370\274\373\267a<\307B\364\271\033c\223;>\351\344<4\304=\273BJA\270{\213\026\273vP5\273D\356\024\274g\354p\272Q\021F<\335M\2778nL\235:N\375\365\270C\320\253<\215\244\265\272\214\266\310<\374%[<\307\260\336:\027\327\036\273\262J\3739T\273\312\272\334\371\017<P\234\222\271\024-\026\2739L5<\203l\304;Y\313\362\273%\232A<\272,\2169\210\247\025\273\036JR\274Du\030;E\276\252\272\255(\030:3OQ\272HT\257\273\327>\302\274<\253\t\273\230\273\201\273\342S\024\274\235\021\202:x\341+7V\324\237\273\257\323\207:C\235\223\274\265\232\335:\027BB9\364\337\000:>\345\266:\252#\305<\375\240\373:\264\375\374\271~\350\307;=\325\027\274\266PH9\005\326\203\273\2544%;\306\231\n\273Q\325\232:r\rn:\272c\204;\370\331{\273Q(\"<I\274\254\273\246\237$9\216X\353;\315y\261:?\223\324:\235\337\202<\251\307\257<\367(\013\273H\365\312\272\351\320i:\321/6;\010\325\343;4ZB;8X\247;\344{\252\2728\000S:\362\366\332:S\221/;\016[{=\263\354\363\274\307\371\342=\216_|;BG\272\275[PE;\303\274\217=E\0227\273\024\241\310\274\3158{\273q\201\333=a\366\213\274\365\'$<\331 $\275\326\006\244<\341_\r\272\204\375\253\275\202!\020\275\177\250&\274\352\0331>\251\341\026=\255\037,\275@\260\035;\027\240\266<\235\2560=\347.\213\275\330\367\233<\316\231\\\275\266\\\345<\343\346\3329\312r\236:\244\235];8\261\372;\220EG\273\300\363D;\222{\251;lR\007:\314\372R98*\025\274/\344^;\\\322]\273;\3540;[\262\240:z\327\374;\245\023\230\274\250\262.<\020\000\t\274\003\253\2239L\314!\274\277\205\216\273\217B\244\272\373\204\324<R\203\275<\261\330\345\272\226\345\261\272s\317\264:\362\211\250;4\332\014<\334\302c;\332\n\205<D\335\"\273\212\256S\273\241\322\r=3\222\000=\340\000\205;N\024\276\273\205\331J;Zh\276;g\016e\273\017\302\020:\3033\003\274\273\354\346;\027\321v<z+\035=\306cq<n\234\025<N\331G\2728\354\306;2g|\274\247r\304:;\341\201\273q\222P<)\275\254;\'\235\355<mv\377<\242\032\333\272\233#H;\375\213\363:\352\002#;\315x1<\336\341];I\006&=s\312$<\365\006\"<\303\357\"=\3566\264<\211\315\005\275\233\000\263=z/W=\035^+\276u-\252\273\225\300\207\274\310|\377=8\276\227\2756\221\251=\256?\274<kha=q\177\226=\027\344\023>\'\222\352\275R\034\024\275Py\006\2751\306\235>\331\013\236=\373k\272<.\344%=\314\325\362< \312\002\276\303In<\002D\010<\031\207S<\353\304|=\246\231\021\275N\340\021=?D\334\275\030\224\250<A\357\014\2762\033\200<awC>\337J\037>\217\250\211=\213~\003=\316\350\374<Z6\210\274\273\242\324=G\265\202\275\325C\226<S\013\000\275\376\003\301={\260\211\275\374\376!=\201\036\027>:\036\331=\017\032\037<\360\342\376\275i\010\323=c\t\004>\005\252\r>\247\260-\275\273\306\022>\231#\001\276\224k\\\275\371\001\034\276r\"\246\275\007 \237=\232\300\001\276Q\010#\276g\230\242<C}+>&C\033=\347\202\335;\031r.\275~\361\340=G\243\304\273\256\324R\276\276=\017\275\377\005\200=\201\346%\275\220\025V>^\353!=#\201p=\202\325\226=\350\2304> \322\345=\3538\253=\216/\312<\007\266\204=\007\374\310=\353\031\315\275M\035%=\316\310\036={\220\256\275\003\244\246=j-\223\274\243Y\344\275\362\331y=n\275\210\274\013\262c=C\364\016>I)7\276\230v\252\274\311\331,>\376\221\000>\rz\223\275\032\346W=\357\003\023\276\353\312\306\275\231)\304\275\374W\362=\354\336\235\275\230+\036=\\\330\277=\357\217\353<\244Q\352\274\346\036\217=/\324\257=/\'@=(V\313\275\370V\317=\265\324\234=\207\317\263\275\337\3046\275\223I\341<\325\260M\275\275\223\014\276\202\320S=w\257\361\274\023\030\334=\244$\232\274\304\341\261\275\257)\370=\337\305d<\314\217\245<Gur<\031\247\265\275Q\321g=\346\277c=2\275Z\275\320\254\262\275N\'\216\274$\240\212=\224\010\360=8H\312\275\345]\346<\333\223\202<|\031\224=x\000\006>j\236\007>\0024\300\274*\336\005\276\244\262\312\275p\226\235=\310\372\361<\030\276\025=\342X/\275\310\272\010\2763\233\264=\270s\216\274\0147\006=|H`=`\016\205\275I\355\357<\235\025\027\276~\312<\275\237h\r\276\"\336\322<\022\264\374\275\350\"&\275\013\210\250\274y\271\274<Y-\237\275\000\350\035=\325\344\235\275\024\021\313\275\375o\276\273\311m\200\275\302\035[=\255Q\023\276=\343\305\275\233\212\356=\335u\332=\325\322\"\275\203\313\320\273\277\261\014\276\231\272\033\276\214D=\276}\266\242<\204\271\337=w5$\276\203\245K=^bm\275\372\207\006=.\013\224<\222\346\216;\314tR\275\255<q<R\260T\273\025\367\374<\0210\327\274o\225\023\276h\314+\276r\310\250\275\014z\225=\031[\223\274\357\347\255<\027j\223=\241\023c=\364\2168=\r(\252\275\375\034]\275p\t\315\275\032[\376=B\222\326=\371\004]=J\324\325\275\217\246<>\366\231;<\375\177\325=t\364\031\274\023pl=\325\036\205=\200\242\305<\366]O\275\313\374\371=\364\247\300\274\236\330\271=v\215\225=\322{\034\276\245\316\377:\267\376\256\274R\035\027>\201\013\210=\361/\350=\234\251\310=V\201B\275\357\322\333\275\025\364V=<\0333\276\277\t\312=\307\254\203\275p\210\213\275S\264\317<\006\337W>~?\002>M\346V>\004\351\350\275}\206\213=\242\267\230\272\246\304\207<\350\'\002\275}\212\207\275\023\353K\275\\!\312=\217\242\025\276\t5\275=L\353\245\275\273\026\313\274{1\030>\241\202\303=\214\303t<\367\345\224\274]\271\010=wH\216=|\364\236:o\206\t<\366Z\212=\332\342\324=\313D\325\274tT\025>\362\3015\274VFa=\217V\270<\261D6<\261U\222=8\010^=g\315\313\275\'\247\213=6\224\263\275M\321c\275c\326\007>\263\317l\274\334\025U=\203\003\273\275\303\341\233\275 Yt\274h()=.\332\330=c\016K=.\240\250\274\036\206\021=_\033b=\243\202\272=1\341\003>\034\373\274=~\357\231\275{u\213<$\364\013\274\323\036\322<\347\365/>S~(\275zYO\274S\006\226<\224:~=U\3309\275\233\326\020>\0317\005>\304\017\267<\376#A\274\220p:\276\177\200\237\274\030\031q\275X\006\363\275\001\224N=\334G*>\324\005\241\274P\233\t>\321\352\355\273OW\344=\362I\261;\326,E=\2571\217<\210U\374=\330\275\367=\214\365\017:l|\274=j\213 =\264\210\022>\330\263\n>\317u\271=1\357\254<\2231B=\331]\270\272\373\231p=C\242\244=\241*\264=o>\030=\325\025n\275\303\3004\276\373\216\322=\031\216.\276kvB=\317\002\304\275\344K\216=\336yn\274\202@\302=\352\030\335=\031\336\207\275{\246\203\275\275\007a\275 \220\017<\232a\310=[\366\242=\306\004\233\274q\217\010=B!O=\255\024><\032\022\261<}\307\271=\202\304\037>\n\216[\273(?\215=\223\262T\273\013s<>\007C\022\275\323&\001>3kf=\004</>\335\352L=\307\340`=\371\275\206<J\203\330=f9\256=\216\237\n=\303G\t\276U&\361=ry!\275\314@\374\275\n\301\347\275\252;\300<S|6=o\320\230<Z\210\320\275\311\206\336<\207V&9\327\340\234\274\311\354\271\275\215\257\313\274\022\321\373;\375jn\275\234\242\341<\376Pq<-\2240=h\355\022=>\260\321\275\325\347\224=~hK\274x^\013\275\350\331\333\273\225W\316\275\312x\242<\357,\235<\357G\313<\025%\274= i\242\274\006Q\316=\262\276\301\274\314&\316\275D/\275=a\221\202=\212\247%=\037\030n\274\220;S=\255\230\276=\224p\022\274\344i\270<G\372G=\217\377\024\275cb\303<WpK\274\317S\246\272s\332\237=\031\230B;\305\250\305\275e\242o\275\024\363\234\275\341\330f=5C\003>\206\336\030\274\007A\032\276\334\362\007\275x\344w\272jA)\275\205\357\004>\23293\275W\312\256\273B(H\275\360\255\345\275\006\277\253\274^\3303\27465\220\274\300\267\371=\000l\352=\351A\246\275\377\254\006>;V\364;\327\017\236\274\365_\315=8\356\260=\337\304\322\275\313x\235<E_\222=\313*\256<\013\260\037\274\224\026\004=\207\336\276=\267\322\314\275\375\246\r\276!\341\330\275D\313+<\334\277\005\275\240\036V\275\237\2254\275\326\232M=\021}\365<\372\237\341<\276\374\272=\340\031\250\275\036\242@:\272~L\275?\267^\275o\017\035>\340t\001\276G$\n\275\177\366N=\215.\202\275\036\252\371\2748\333\266=\210\2540<\364\341\242\275\277\021\223=\307\334\220\274\220\304w=\002\346\314;\3043\276\274\222\300\215\275\2333\362\274?\371\002>\270\215\037=s:\311=\331xK\275-\316\235<K\204\317\275\232\224\306=\00417<\274\177?=\341m\367\275\220\306v<<\330}=\303\255\216=\272N1\275\256\036\007<\337#\002\276\024\222&>\324\246\314=\336\265\013>?q\361=\376yp\275\030n<\273\227\023\275\275\257\r\203=F\201\017\275D\233\213=\225&\243\274\276D\231\273v\327}<\204\202D\272+a\254\273xC#;1\032\202\275\177\316\004=\351\237?\273\211<%=*\204\221>o\232\260\271\274\242\006\274\2615/\273\231\002\016\276\312\375\236\272\0208\177\273\361\'\307\274\246O \274\301\227\271<\325v\242<>\033\211\273\002\213K\276\207\343\3139\233\212\003=\270:\360;\031$\201\273\316B\221<\217\350\220<\0237\235;~&\347\271\215!{:\240\273\215:U\361\262:ZS&=9\206\214:\363\312\364=\035\222\313:\323\036\247\275\222~\000\276\267\316=\276\2169z<\312\220\032>V\\\354;\270\364\246\275D\261\032\272\335\225\234=\027\241\2238K\000\222\274(\0362>`\247\030\276t\005\272;\206\333\t\276\2418^;4\214\365\274\007\216:\275<&\302\276\273\274?=(\013\341\274\240\271\374\275M\305\243=o\325\212;\n\266\366=\333\366\224=\236\367\016<\3705\330=\302\322\343\276\261\000}\271]7\261\274\317\346\\;o\316\375\275 \236?\274V|\025\276Vw;=Nt\205=`\277\325\271\331\260\210\275G\355S\273[\245\355\275\370/r9\001\312\030\274\221\341\354\274\362\210\004\275\257M\322;\355H\337<\320\337#\2738\263\237\276\330C\032\276\320u\235;\366\324|<:\242P\273\016\346\232\271P?b<s3m;K\353\323<M\252\037;\306S\211:\327\356\245;6\216\024=\225\303\255\272\221\360L\275\303\'\217<\344\016w<\347\026Z<\352\320\301\273O\356\206=\'|\346<*\265\361\267\031~s;\371u\210\2755a\262\273\337\343\256<k\031Z\273\242\013\364\274\005u\273<\2573u9\207\334H<Mc*\273K\352/\273L\252C\275\267\323>=\'j\204=[\036\005\273\356\361\0049W\017\243<v\364#<\272b\031=\312/\247;\304Re:\262\335E<\362\212\316<\243\306\255;\221\3572=\026,W<\371b\332\275]\255\021\274k\333\315;J\363\030>9\230c>\233f\016\274\025\352T;)\202;=Y6C\274\231\0168<\037\000\347\274\222^\331\275L\202\214\275\304\203_\276\014\300>=QL\003\275xZ\245\276\342U\306=@`F=5\236\322<h\220\373\274\304\273\250=\346\233\246\274zg\344;\333\202\020=C\006\361<pl\037\274\331\035l<:\211\224=\222\240u\274>\260&=\222\322\207;\340Z\371=\277\215\366\275i\017|<4\2770=\177\031\304\275\354\376h=C\253m>\262 \'\274\0375T=\"\342\230\274\n\237\003\276:r\241\275f\303\351=y7\313<\214\212\260\275<\344\210;g \376\274.\376\363\273\277Y\367\275\322L\034=\247\221q;\344\n\000\276Y\265\337=\350\262\t\275\246\371S\274o9\240\275\230i\341\274k\227\336\2758^\233\275\254\0213<\330\000\007=\352\353\224<V\373\324=\370@M>\307\320\263\272=+1>\226Dh>G\354\231\274\003\037\210\275\377 \246\274a\2041;mK\207<Iwp\274\351L\010\276\343 @\276TlU\276\364\375\242=\330\253\245\274\250\276\027\276{\013\307<\345\264\370=\"\225A=\t\n\r\274\254\254\320;gOE\275q\264\246;qS\340=^\357\205=\035%\203\274%\246\323<\340+\033>\211p8\274|\020\206\275Z\257B<\371;\226=\002>\321=\320\'\212=\354\246\021>\253wF>\274\n\017\275\264\251(\275|@,\275\036\223\240=\321%2\276\205\324\356<\005\033-=\360O5\273\366\315\200\2754T\221=\225<\177\274\217\273\016=\300^\251=\004\201,=\310\300\336\275\204\214\270\274\354\231^=\215\031\274<\2227\207=\323Z\020>\261\377&<\310\346c\274\242B7\275u\207G>\263\215 ;=\363\360\274\347\225\320;&\224)\275\330\255\226\275\334\230\351\275\215\3205=\305\304\257\273A\n\266\273\222q\204=B\034\275<\370/X\276\245\013\022<Q\007\375\274M\002\266\2757&.>_\232\374\275#\022\035=\206\316\036\275/#\345<\366\313Q:\233\261\356<\207_\000<\277z.\275\254r\240\274iC#=\\\036\2278\344L\004=\252\353\010<S\361\024\274[\373\t; \372 \274\200t\254;N1!\274\231W\005<\2356\215\276\366\207,<\256z\002\276\277\352\006=\247\303\251;\316i4\275A\3279;\0011\004\274b\233&\274\305,`\2746\\\007\276\\N\234\275H\223&\276\rGd=\316\333k\2763r\235<o\313\007\276^Sp\276\037\376\263=\2614\360\275;^\261\274\315\262\234\275\000} >_\375\322<\340\250\370\2758\273\005=\033\225\224<\272fk=\313\251\017\276f\330+;\313\342/\275r|\030<\230\212U>\004hD\276v$#=\330\010\223=\014\376{\275\006\366\264\273+\036\265=\262#\017<\003\316\362\271\363\261-<\034]\254\275+H\324\275\216\200n>\212G\353\275\247j\211=\327\347!\274\372\0109\276/_O\275\241\376\200<\374s\214<\204\354\"\275oH\325\272m!\320:\263<\314\272\337c\222;\024\304 =\313\275\036\274\020\301d;\362(0<4\010\234\274U4\261\275;\253\246=\210aY=\256\206\220\274\365\374\263<M\321\320=\355\344\236=\264:\252\274r\311\\=\207\230\316\275\213j@=U\257]\275HC\306\275C\217\246\275B\024\312=\363\302f\273\033a\343<b\210\237\275$\356\020=.\320\321\275\216\337\314\274$\244\035\275`V\001\275\223\372*\274\263\213\343<_34\275\352\205\250=q\317\217=\304\344\013\274\262-\300=\305V\023\275\366\257\010\271I\331\224;\266\246\224:\270N\247;`k\244\271b\021\262\272]\237+\273\024}\222\273\306\212\255\272\355[;;\riJ:\"\341e;\230\377\2559\237\273:\273\3761 ;\0225\205;\033`\014\274\007O\017;\0303D\273\212}\034\274jV\361:2\302e;\224k\264\270\361_\275\273\206\325\362\271\312\316e;\224v#;\356-\035;\207\212\3459D\003\004\2733\262G9\351-\277:P\304\223:\203\016z\274h\017\261:Gy_\275Y\n\020;\352\026\371\275\346\315=;\354\031\326<\300\006{8N\177\211\274\255U\256\272 c\325\275z\273\330\272\266\017;<\201v\030=\361J!\275f\322\t< [\245=eOj9*\004\267=y\362%\272\027\211 =3K&;)\343\340;\001c\220\274\233\223\357\272g0H;\315o\020;\247\302\210\274\374?\307\2733\355@\274\377\343\353\275bc\2469\001\"v:\3112\020;Q\230.<\304\373\251\273g\242;\274\014\240\244\272#x\024<\260\261U\272T7\007\274\356B\204:X\346\204\273wr\303:\007p\313\273R\231~:\006\031\272\273\177f\242\273\300+\007<\264\212\006\273t\372\237\272\375ul<\376d\263;\031\026\35792\000k\273R\262\254\272\224\3652;\266\026#;X0\270;j\307\030<\357\337\031\273\300\035A:\027/>;\325\325\241\273\000\365\3049\354\257\320;\024&\343:N\266\277:\2257\002\274\260\345b\272/\270\255;\357\343<\272\262\014\014\273lG_\273\274V\331;oB\212\273]\217\020\273\221PM;<\215\261;\343\t\342\272}`\255;:\231X\273\376\211\244;\271\"\215<\226SO;7\373F\273\024\305\217\273{\314\2679\207\240S;\013\016\304\273\256\316\356;\320\261\230:\006\r0\273t\206\004<6\366\022<\222*\013\272*\n\226\273\376\276\237\271\366<\361:\362\037(=\333JM=B@m<\353\005\253\275\204\334.\272}@x\273\236\226\243:\306>u=\374L\241\272B\255\026< E\007\270\242\253:\275\371\207\0059D\021\304;F\360\263\272\t\355{=H\2358;/\311\r\274)&\024\274\007a{\274\327\030\273;T\373\037<\204\340\n:\3078E<\375\240f\274\304\244\336\272\325\tA\273m i<X\367y\272\t\010K=\025k\231\272\200\222\025\274\016#\226\275\361\220(>7\234\215:\265i\036\275<\\\302:\246\275\273=m(\2149\'\250-\274\306M\013;\305*\t\275\222\250\255<\271*\255\273vN\253;\351p\251<[1 \273\237\025u=Y^#>\266\3159\274\304\333\022=\217!S\274U`\303=\237\021\247\2752r?<\366\t.\275+\272\000>\321\017\264;\345A\250<xh\022\275\201`3\272\331\324\227\274T\310r\272\251[\020<z\376\210=_RG=\356\304\021<\303\266g=\016\006\231\272\357#\026\275\020\314\355:\220o\261<i\003(\273\020\372\253; O\237;{h\004\275\016\254\333<\372\021\013\274v;\212\270\334\003\031>\247\200\\\274\'\362\341;\027^\204\274\'\005\252\274{D\324:\354I\232<\242\240\021;I\354\264<?\025\013\275{\242A\273G\025f\274\363\227\r=V\262\\\274\222\270f\274S\030}\274R/:\274\345;\220=\005\267N<d>\237<]\223\212;\031\343\027\273\001\345\256\274\214\342G<\221\177\002<j\345^<\233\222G<\206\304\010<\226\245\344:\377\366,\273\277\\\267<`\210\036\273\005\016\004=5\010\364<\231\024\221;O\307\002\275zv\231\274\374\272S;jr\304;\303\367\270;\227\030\335;\264\317L\274)\001L\273g\247\226\275\361z&;\225\352\225;+<\335<\250\263\316;\031\243\004\276>\362\261\274\017p9=\326V\315\275\252/\342\273\2666\266\273GY:=\301yd<\224\270\r=\013\037\"<\273\326\t<\016\213\257<p\370\212<4\210\324\274\247\352o\274\315\265V\272\034\226\330\273A\013\"=0b\255;\353\363\224<\312\351\245\274\356\201.\274\250\030\241<%\376\247;\306\201\270<\203\241\363<\252`\022\274,\257!<\266\207~:\247\207A<\017\317\014\275w\030&<Y\203\025\275:\251^\275\n^\021>\306\224\222<\314\341\203=~B\014\274\207\276\010>\013GC\274\004\243\255=\307F\203\274y1\255<\277p\343=\342#\234\275l\032\035=\243\230\345\274\"p\350;\030\317\356\275\200W\333=\204\246\260=\363\0130\274\n\252(\274\006\007\200=\017\353j\275\303\377s<\352Xl\275\261C\270\275\013\240\032\274\332>\226<\233\222\014\275\346\243\313;\357\372\312\274~\3112<VAN=\323\233 =\244\371\024\275X\207\204=\013\204\256\275\252x\334\273<t\332\274~\'\030\274\230\3258\273A\366i<\342\352\221\273\224/\245\275F3\227\272\233@\253\275\336B#\275\0318\244\274\342IN\274\324!\326=A\241T\275\232Q\013=\266\216G\274\3424\332\274\021\'u:OiD:\252\353\241\273\361B\214=o\262)\274\366$\367<\260\322\020>\274\350\235\275IP\203\274a\340\001\273\245HX=\341e\375;\210{\r=\322\246\273<\376\021M=\033\303\217\27456\376<\300\321\002<M3\227=\024\"\223;\t;\250:\024\324\266;\017A\246==\361\202=>#5=\3772Q\275\341\206\253=C\'\214\274R]\374\273|L\263\274\201/\025\274\355F\273\273 q\3708\022$\226\275\364\275\016=\202\346u<\357\244\027\274\263\343\216<\356\207\325=7\352\236\272M\030t\274\214Q\311:2\271%\275\245`P\275\232U\241\275\2350)=\267\277\222=\362\271\256\272\307\027\245\275MO\032;\204\010l\275gw\204\273<\230\345<\200\313\254\272\205\361Y=+S\226=\014\021\351<\246\272E\272SH\252<\210\205\372\274)\340\226\274|J\221<h\034D=\234\003\202\273^\037\373\274\271\367\002<\204\004\310\271o\001\361<:d\261<\374\2158<\306\0032>\312\245+\273\352`F\276P\274):\233\237\003\274\353\275\223\274\313\256L\276\354#0<\013?/=\267O\t\275:\315`=\235\362\276;\022\2124\276\236\223\033;$m\366<\232\256L=/\026\025\2756tj\2741\225>=\205\007\366\274\3537\352\273_\"\027>\tN\202\275\374\240n<\260\211\300<\241G\204=!\337\020\276Y\320!\275\013p*\276+\356\355\275\322\231&=\202\370\\=\346\356x\275\351\252\307\272?7\021<z\211!;\224\331I=G\362)\275\255\331\025\275\273\212\240<\000Fb\275\024\346\t8\356C\003\276\272\371\231\274\322U#\276qv\362\273s\376\251=\304\214`\2747\327\234=\274\322\264\275[\346\010>\206A\356;\017`\200\275\002\022C=\000\003\202\275\201\003\321<\326\363?=\257\245\207\274\370\n\325\273/\235\233;\014\026\365<L\244\204=\254\301\330<|\305\014=:\005\022>\010\202\00683\210\235=l\207Q\275\374\225\363<A\374\271\275\006\311h\274\336\366\342<\030c\214\275\261\037\r\273)$\275\275\257\360<\275\360\242E7\240.\313\274\373:f=\337\277;:\242r\312;\020\300u\272*\000<\275\333~-\274r\307\364\274\264b\370\2749\354\037=\316\347:>\222vL=;j$\274\005a\241\273<\333o=f\016r\273\223\366\233=1E\337<S\370\244=R\266\266\274\004\034\205\271&\201\310\273|\207\'\273\254t\365\274\2354\221<5\222\020\275\211\014\254\274\372\242j\2747\315\034;\rI!;\244V\360;\211V\262=\267\",\272\335\234\037<\246x\025<Q\210\021\275\225\343\035=\327ND\273\30043;\363C\374\273~i\311\2747\326\3739\366\337\271\267`_\211\273\306\236\354\273\344V\035\274\276V\341\272{<\304\273\245\352\3649\212T`:\312\276\2019\352\237\273\274\330\000L\272\327nM\275k\317.\273\313\337\353\275\333\034\321=iU\356=\236?\202\274%}\214;\323\273\205;\253\375\364\275\304\035\277\273\001\317\207>\304_\211:0\307\230\275,\001\227;\347\310\031\276\227;\240:\234U\256\273\260B@;f}\000<\255\365\244=\n3w=\226[\203<\264\217\375<\364\'\004\275\224\361\020\272T\020\202\273\306\205\357\273\264\010\210<\202\\\037;\207T\307:\325\251N=i\010\005\272\232\030\250<&6\217\273\205\276\325=,<\205=\026\340K=\027\017\230\274\211\365\367\275\213\312\314:\r\243\234={*;<Q\0133>B\342\376\272\200_\340;\033\223\210<yL\202\272\332\256\314<d\276\240\274\356\030{:\316\367\265=\231\306\223\275\237\027Q\275\232\334\002:[\206U\273f\365w\273\375\271\201\2744N\377\272\260\327\251\275\324\205H\273R\267M:kV\013\272~\033\313\274\2040K;\357\3524=R(\255;\260\322x;kj]=\340\3614\274\327\250P\274wO;\275+\213\034;G\026\277<@\177Q=\002\365\255<\325Y\200<\035\355X<\317\031I<n!;\274\376\255\376;\322\371\315<\202m\214;\263\373\247\272\347\r\231\275a\005\027\275vg\321;\260\te\273BBr\273\210\367\320\273\334\341O<b\250\021\275\036\303B;\327\026\024;\345\232\366\274\017;\237\274W\001(;#\234\326\273Q\307G\273\224z/\276(\260\n>m\244S<\271\266\201<\245\251\034\275@\261\332\271c\231\372<\312\000;\274\001\260&>~\356\r\273\347d\335\273dS{:\007\253c\275 (\252=>\254v\275VWz;Ciy=\356\311q;\316Y\037\274|\223k\274\253\320V\274\372\005\013<\363\2565=Us\266\273\262\265H=\200\344\376\274\376\r\350\273\327\324\355\273\253+\036<\221\343\247;\236\2210=0\273\322\273\2003-\276_#H<?F:\275\357C\225<c!\266=&\000\\<\234Oz=\306\320H<[\344\324<\201E\370:P\'%\275tG\200\274M\030\000\276\037\274\322<A?\n=\305\354\225\274}\332\251=\014\333\034>\3631\323;al;=\217J\242\274\262\234\024\275\365/\304=\322\337\232<\261\t\221\274o\243R=7\201r\273\2658T=\300\234\241=\232U\230;\211n\210;\271\207\330\273\301\tl\274e\360L>y!9>\024\211]=zr8=>\305\337\272-\036,>\226\313-\274S\367\212>\362!\036\272\222\335\027\275\215\234\226<6g\204\275\rg\364=ul9\276[\031v;h\221\272=\366L\014=\252\274D\274/r\253\274\255\215\253\274\316\002\026<_\021b=|UE;\315\325\235=\362q\225\275\031\2054\274o\324\003\275\206RN<\213\301r;\244E\007=F\213\274<?\010\204\275\310D1>i\201m<=b\262;\311\2352=\371\202~\272m\246p=\216R0<\\\005\006=\363\357[<\343\217\317\274\256<\223\274U\267I\272`\022\n=\302\307\235<\271Q\356;\254|e<\234\260\205<\275\225\266\274~\334\210\275u\013\245\274\312[3<\245X\351<\345>\014\275\302\377\363<VEg\275\250\2428\274\306\025\267\2752B5\274\316\310\\:\227}\r<JV*;\323\377\324\275BC\334\273&\262\324<4>\373\2744\265\234<\254z\345\272)\273\366;!\026\354:e\244\210\274A\332V:\342\3457:\204\306>;\t\212\355;\221\224\311\273Z\231V<\010\330\367\273\322\036\344\274\335\206\"<\304\226<;\177\312\211\271\332-&\274\376D\206::\030\371;\256\333\330;\010\007B<\306\330\231:\360\371t\273P\302\2447\217\244\201<\362\263?;\374s\315=F\205q;\276<\204\275\210\022\354\275w\364\235\275\345v\361;\237-\037=\365\037\244\272\360,\236=M\007;\273\232\265\336=\2545\222\273\254&\035<\203\376\252=\370\352\020>F\277\31687J\321\275G{U:@\t\324<\033\204\251=cU\350<\030\240\262:\366\222\371\272\026}\251:\322D\251\274;\313\253;\265<\250=J}\267\272\233\257\233\273>1B\274x\211\013\276,0\215:\2335\016;V\024\224;>\317\032<\210_\322\273\352_\244\273\000\010\272\274\257\233\360=\370\215\345\272>\021r\274\321\214\360:.O\275\274r\233c;\276\223\220\273\361\222\014<(\n\236\274\207\274O\275\013\317\275<\331\312\246\273q\230\226<\020D\252<\177I\247<\367;z8\273\351\014\274L\322\r\273d\255U:0\371\230;g\257\356<Y\004\222<\0317\253\2739A\2749\177\"\031=\rT\315\273\323\362/;V\234\345;\212\0014<!\001\376;\230S\207;\362\030\205<\2320\224<\241> \273\320\241M\274r\371\034\274~\250\222<w\207!\2752 <;\307$\221;\311\226j<v\327\031\274\003\252?<8\252\345\273\006>\224<Z\004s=\333\006\311;J\265N\271\245i\007\274\274\257w:\236%\361:|\312\343\272[\233\350<\316\264\001\274\325\270\252\273\203?\347\271\200\322\263<\030\020E:z\203S<]X\270\272\205Y\177=F?M=G\301\312<\343\305\333<\343H\307=\205BN\272\370\311\376<\210\237\230\272\334\001\204\275C\223\232\272\334)\273\274\320\261S\274\004\243\312<\030l\250<\035\3140<c\327\302\272\320^f>\264\377\3108\026\353\230<\322\215\017\273\351\2778\274\001\\\216\274e\r\340<F[\371\273\033\377\253<\343\345\263\273<K\334\273\250\310\331\271\361\005\204\275\3346\314\270\262\203\355\275\250\\3\273\001\352\215\276\357\224U\276\254\310t>\365\374;<l\217.=YRl9\3106\233<_\246\343:nH\213\276>\000\331:\373\275\325=\033\353}=P\203m\275`\016\207<>\225>\276\210\336\233:\250\331\t>\324\252\246=\216\327R\276\231\n\026\275|\211\364\274\316\262\204\275\270\023f<\247\371\324\273\345\321\233=\307\233\217=\376\230\327\274\2043\n=\t\272\333=\320\020\3729\361\215=<\037\212$\273\025z\342\275\306#\215=`\264\332\275\200\002\275<65o>\037R\252\272M%\225=\216\235Q\272cy\004:rz\342\272VAW\275\244\247T\274`\267\224\274\2615\030\273\371-\\=\016\355\177\272\010\007\256\275:\270\022\276,\003\211=\370\r;\2749\276\201\274\014 W\274\353\031\341<\347\035\030\274\241u\336\274\260\'\326\274#\246\n\274_\213\224\273Z\306\361\274\\z\354;\343\220\346<u\345.<\302\250\262\274\301\316>=\351z\013<\362\013\200<\354\177\240=\002\315\377\272\004N:=Z\346m;sT,=c\304\267\274\034lx\275\277\321\256\2745\355&<\311D\236:\200\244Z\274\224\301\010\273\313>\244<\252Y\202\275)-\303<(T\342<N.h\274\370\264m\274\272\232\232<G\023=\274t=5<&\3010\275\351g\017\274q\303*<\276\361^\274d?\222\271\314/\233:\237X\036\271:\222F<\002\250\341\271\325\3746\271n\244y\272\221\226\370\273V\210\0168`\220\234:=y+::\275\255;\245\307\326\267\\\334Z:\347\301\274:\304\031\352\271\226\214\232:5\254\2059L*~\271\177\266\223\273\352\362\377\270*\212\274\271\256\006&\267#\3769:{\302\3179\332\347\\\271\231\210^\272\035\347\207:,\325\037\270E\013%\270\263!\0327F\310\205<\2409\3375Qq!\273\270\276]6OnY=k\236\366\273\327\027\271\274\022\002\037\273I\272+\275\340X\013\273\322\000\345<\201\304\260\272\315\233\216;\001\241\305\270 9\256;\326\351\311\274\212\353z;\311)|\272!\025\236;\371\336A;\325B\241\274z\275\321\274\223i)\274\231T\222;i\342\t;\2123\024;\364?.;3\350\'\272\246%}9z\215w\274\2677t98\261t\272\256\223P\275 \342V\271Cf\215:}\214\246\271\242\247\310\273_\251\205:\272c\n\273\316\366C\272]d\256;8K\2368\222q\311:\245\354o:\320\272\265;\310\311\274\267K\210%;\0224\367:!h\020:D\227\r:q\332\250\272\252\tK\2714fN\274\333z\034<~B\213:\237\031R\270\3229;:Z|\2449De\r\272\323\375\200\272\265\251\217;zb\2338O;J8\244-\2177\227\370\224;2\342J9ox?;\364\306\021\273\233F\004\272\037[2:A`\3208\220\277#\272\311\310d\271\207\265\2228\004\362[\272\016\247 ;\343\2722:\206,\365:\310\331O;\330n\022;\250\266\353\2710\n\334\266\374\035\236\272\2568w\271N\225\346:\344\354\261:\1779W9\203j\264:\364\3445:|s\3139<D\r\272\242\272\331\272\030\307\256:\342\010_:\304\007\2738\273q.;\257\332\276:31\004;\322\350\314;\343\306f;\377\032\324\276\030\020i=\305[^=\025\263t=\346X\035<t#f\273w$\232\274S\361\341:\217\2053\275\231\205\007;\317\r\246<\271\344\306;\002\031\202\275d9\r\276\027dI=!b\235\273\036\375^=E\037P<\243\236\027\275;\255\215\274\331\034g\274\276\334\317<l\326\026=H9\202<?\351$=W\000e\273H\352\261;8A\177\273\315q\231=\251\023%\271\"q.>\335\244\302:=}\302;\365\025\204\275\027I\'>[\355\027=\002\364\301\275K\014\276\272\230%\237\274\250\035\327;\251\331\002>\244@\0359\312j\267\275\356\307J=\252\271W\274))\327\274Co\275\275\366\300\241\274}G\023=Cv\313=[U\007>I\356\255=PB\t=39-=\354\206\031>1\035\353<?r\305\2757\027\226\274\271\001\303<q\036\241=K3\323=\206\010\2168\250U\033\274\354\030\250;(\217V\275\256\322\263=\220\342X=\271\212Q=\256\036\342<a\221\204\273\375\373\274<\375\231@\272\t\305\254\275\234\266\231:m\213\223<o\010\203<=\370\336;\355\364\365\275\341\357\374<\377\246\234\272q\255\362=\267Y\205\275\t\014\022\275\214C\343\274\356\254\246\2744\320y<\364\023m=f|\266< O\375=\335R\301\273\002\321e;~\226\202\274j\242\336=r\223\244\273\365\003\366\274.|\343<\\u{\273a\010\225=\256,&;\311\311z=\334RI<\277\002B\273\025\026\032\275P\320\244;d\262w\274\317kR;\376\257\223<\007_\205;\206\365M<\370\302\226\274\310G\332<>\177\310\273[\213\356<\022\013|=\373\005\203\274\036$\314\274\353\362\230\274*\233S<@\340\036<\217K\235<:!\221=P\305\345\273\236\342$;Wp\'\275\037\"1=\334\367\266\272\n_\300\273\375I\007\273c]}=]\342\204;\212\325g;\261\354\013=\341}\273=\214s\322:\225\240@\274\027\261E;EV\316\274\274\337\016\273R\201\236\273Lr\270\273\347\025n\274\271\3566<x\271\027\272f\231\257;XU\340;Zb(\274\323l\265\271n\222)\270\032\\\032<\370W\260;\253W\014\274\271\270\223\273\030y\002\274v\014\246\273\261\036Q;\332A\021\272t\021\036\274d\377{\273O\212\216\275\031ME\273jNS\274\023;\237;\027\034\000\2769CS\273-)\314==\240\371\272tJ\315<i7\001;\312\241\265;\271\346\231;8\243\216<>\010M\274n\357\375=<AV\274t\306(<\376\206G\271\233\362\034\275\372\212\002\276t\203\244\2759wC<\344P\030;\353N|=\036\326\360=\373\352\315\273\365\340\214\275\243!l<\201\203\307:p\200\343<\352\363\005\276\346\222\341\272l\343f\273\036\207l\273\302\270\336<<M\217<\021a\205\275\032\266X\274\243t!\275W\270\010;[x\357\273\234\313\274;\377\206\341\274(U\216\273\204\354w:\251g\017=8\304B=\274\251\327\273\303\215\310<h\025\313;\033\250(\274\261\352\211\275\006\301\326\273\227\377\005\273R\033\347;\265\2722<\035\277\264:w\206\022\273-\232\007\274\022\204\t\275\365a\213;\311>\200\273\324\004\31295\200\302;\220\277g<k\361f\274X\337\221\274\263\177@<\267\370\330\273\n\235\362\273\243\330\005\275\374[N;\202\220\005\273\267:\036=\366\350\353\274\230\301/=f\243\275\273\202\237\004\274D<\315\274\330\315\002\274QLZ\274R0.<\365$\262\274\205\362\231\275J\227\313<n\333\326;*J\342;I31;\035\366\301\274\304wU=Gy~\274fd\014=f\335\205;\304\277\026=\365w\037\274j\245\270\273Jy\366\274\371\210\262\272E@>\2765-\031>2\320\224=\022\363\245<\2149%\276tP\253:\014\211=\274\332\211\026<\335\\\177=d\316\326\273\216r\017=x\000U<\256\275\320\275:O\014=\321m\025=C\035\005<FO\207\275\344\026\020\275\320\251\016\274\357\016\225\274\215J\014\274\273lY<\014(O<w\202\002<A\310\t=\247=\332\274\376\234<;\362\327\231\273(H\212;>\303\250\273.\270\265>\203!r\273\223k\035\276F\223\034>\366\024\342=y:\212;\375\226\346\274\202e\244\274\377\254\211\275\017\304\225\273\332\240\000>\t\275\026<\336\213h\275#\210\226=\227*\n>kWW<^\252\302=\002\023\221\273\271[D\275\201I\212>\220W\002=\301H\002=\332\025\022\273>*\220\275\250/0\275j\311\322;%\033<\276\265!]=\231\347C<MF\307=\343\350p\275\r\006\260\273\3146\323\274bRc\273\274\221\362=\373w<>qhg\275F\212 :\232\221\025\275\236o\366:^\230\245\275fx.<1Z\262=EX\036\274)a\311<i\375\020<\0201;\274\335\305\276\273\230\363\225\275\234\227\342;w\366\377=\266\275@\276\002\261\031\275\262\233\t\275\177\177\207\274\037\305\207<\256\340\347\271w9m<z\005\004=2\371\223\275\261\021\202:\200\215\300\274\244\346\231\275p\331\276;>\370\017\275\030?)\274wP`\275\014\361$>\275i:\274\023\035W=\247/\223\274\245#\036;\245\306~\275\377\374\260<\331\2265\275\335`\"=\'\270\226=\031#\367<c\243\275\274\222\030\266\273\2334\216=u\3656<$N\0178\252\252\350\274\265\321\320\275\274\034~=\013^\202\274\273\010+<*\216;\274\342&\233=#\177\342;\346\303\222\274\\\010\230:\217\311\034\274\342HM\275;\375\314\272\004K$\274iN\'\273\247\350X<*\000\337\271T\n\340;j\247\226<\306$@=Yy\261:\326y3\274\301\205\307\272\252\374\225\274\215,O\273\376\335\336\272\270U\r\273\322\te\274Y,X\275R\246\333;\200l\362;\026\3413\274[\365X\274\3673\207\273\200\203<\274\244\243\271:\247G\t<\376(\257\272H;\t\273\027n\326\273VW<\274\332\321+;l\202\220\273K\264\367<\241o\214\273\366\313\352=\212\311\215\273\010\334t=Le\017\275\007\206\210\275vBU\273\317\356\206\275\003$\373\271\263\367\007>(\360\277;z\357\233\274\222\324\317;\250\340(\273\232\243\000\276\275\320\244\275\004\342\232<)\253p\275fyz\273\270\257\311<\357\351\243\2757\235\232\275\231V\256\275\353!\275\274_\'0=\311H,=\001\227b\274\320\254\033<K\327\272=\361\306\006\272\325\'\353=T\332\367=\312\032\010\273\026\200\356\271\327\255\250\273\310\026\324\274 \356\250;\312\252C\274%\361\223<\325\360Z=\177J\310:x\027\327\274vU-\273\240*O\273X]\276\273W\r&;\'\016\356;\362D\337<\300\217\212<,\216\236\274T\303\320;\263\243\346\275e\026\267\273\356K\221;\364\220\306\274]o\242\273$\331)<X\307S<\260\003f\2717\024\263\273\240\320\n\275\272\004\\;qC\210\274\231\254\371\273d\2109<\3002\013\275}5e\273\273\226\262\274\317K\227:\205\255\020\2745\370\020= \005\302;\351p\001;\204p\207\274\306D\224<\232k2\275\030\256(=\374\331\002\274\314V\216\274\360G\253\274\273J\202\273\177\352\033\2740\004\256;\027\373\261\2749\216\020\275Ol\001\275I\010\270;8,y\273\013$\225;1%+\274/\361\034=c\220\243\274\204p\264;\021\031`;\313Z\256<\206\3662\275\251\221\363:\304\022\310\272\353\224\034;\337B%=Jp\324\274\033~\340\273\362j\240\272jH\022\276\244dU\273\r(\337;V\260\335:o\313\345\274\210\322\317:\203\361\226;\364\226\t<\351:\246<\243\302\263<lS{<\226\222J\273\267\262\351<\365\257.\274\321\235\003:\306\202\237;Q]\016<3\276\014;\"\200Z;\226[`<i\201\365\273\304x1<\213\366\262:pn\021: Z\373<P\243\240:\342\313L=ZI\200;(;\367;\275kb\275\311\272\276\275$\305\324;\261\254\224=+\223\232\273S\263\361<09\270\272x*\236<d}Z\273$\240%<\360C\302<\330|D\276&#a;\3535\"=\302\365\037\274&M\341=\350\355\335\275ox\n=0\3653= \337H<83b\274\"#V;E\223\256;\003\353\271<}\216\257\274\340\031\373;\362\333G=\014\325\020=D\205\220:Q\262_<M.\204;\177\340p\275\327\226t\275\373\257x\275\314/\256\267\351bJ\275\360X\366\2721\342\213<\262\0262;\271\240\035<\207B\r;z\236\323\272L\305\231;p\240\005=\234\214\212<\235\363G=\335Q\023\273\t\376}=\232\307\023=\310\231h<\360\352w<^Fl<+\304\201:\022&\345\2729\326m<\026\3378\275\254\030!=\201Q\336:\302\343\020<\342\213\201<\024\035`:\243\333\323\273_K\014=\201\3212\272f\314\345\274\177B\335\274gq\2409\357\246\265\274\\a\227\2728\010E\274\333\331E<\221\2270\274\261\233\211<r\351\027<\225\203\034<\331\342\350;D\235\026<\323.\370;_I\016\273Y\t\311;a\376\\<\250\253\310;D\2205=\026\251:<7\322];\273\212\237;\330\0336<\333Cr\274\000\231\234<fJ\0319T\005\247=\303\200u;1*\005\273e&}\273\023\376\334\272i\260\214\274\252\213\353<\r\257\202\274\356f\004\275\257\274\030=\024y\214:\360Y\037\274\367\262\226\273!\302\377<<3;\2739!\272;\246K\016<\373>\361\273 \234r\275\002u\236\274\227\001\204;/\025\331\273{\024\255\273T\237Z\271\030\371R\273@\216\233;\014\276J<\t\000\356\273\313\234\247\271\367\367\302;b\003\033\274\327\'N;\223F\213\273m@\020<\216\374\'\273&G3=7\347\221\273\213&t\274V$\260<j\025\264\274\321\322n\273\254B9\275T$\001\274%X\277=\232\343A;$jp\274}%\255;\302\256\227\275\341\220\341\274g\344\276\275\222\362I<\311\337\260\274\242Z\344:\010!<\276u\261\003\276e\032U\275\270Aj\273\361\260\241\274\230g\217<\333\2305\275U\363\223\273\225Q\211\275\243~\316=\036\2360<R\331\013=\023N\340\275.\340 \273\037\030\224\274\30216\273\227[\t\275\246\340T=\374\354!<A\351\010\274\003+D=W\332[:\207\355\016\275\227\356\213;\271uC\275\305\250\210\273\241\256\220<\372\245\000\274\312j!\275\366\344\250;\303X\220<\326\274\201;\211C\026=\300\236\362<\370;c:A\245\265\273\267\272\3709\237\310N<\236\034\303\274\036\326\221:G\n\017=^Z\013\275\236\305O;\245\2736\274}\311%\275\r\371\230;\372\230\212\274\0105*\274\006\275\200\274t\253\361<\177n8\2739\250\032=\325!9\274\n\204\004;\204\357N\273\263^\315<\251\251\277\274\365\340\314\274\351/7<\373\375\332<\332]Z\274Jt\236;\225\001>\274\320\355,:\377\t\316\274x\243}\275\305<\362\274Tf/<\255\036\252:\024\203\376;36\027\274\252\357\022\274\306w\007\273t\201P<\226*T;& 3\275.:\304\274\306\252L;Y\022\021<\210\326\304\273\234%\037?\022\006j\275\225\000\264\275\213k\223\275\226\304T>\221\3725:I~P=B\264\2779\0230/=w\342\374:\342\347\007\275RL\263;P\247\275<\026\343\271=N\277\"<^3\350\273\235@\302\275=\324\363<\200\237\010=K:\345<H\311m\273^\274\364\274\346[\273<\274\302\207\274<b\327\274\363\257!\274\371p\223\274\233\276\2528\333N1\276\024\353\221;$\031\031\276k\035\206\273\211\326};\362w\356\2742\262\"=\256I\n\2754F\036>\220p\232\273\315\272\'\276S\344\032\274juS\276\320\024r\273\032\276\005=\360tB\275\217\007==\371\344P=&B\225=\213\217#<F\001@\276l\322\350=\311FC\276\217F\017<<\244\204\274\221Hu<\252\370\001\276\226\254\222\274Kh)>\3335\005>t\240\375\274*\252F=L}\357=FSx;\213W\226\272fH\330\273\255E\031\275\r>\026=\370\276q\274D\215\250\275\267\023\013\273\307\311]:&\236\332=\237\026\005;\246o\375=[\201\204;\262\235+\275\010E\250\273\320e\\<\242\245\037=\330\342G=\244b\350\273\n\300y\276P\254\205=\025GN\275\r?D=\n.\315\267$\027\227\274\353\306\377:\010T\261\274HR\377\275\276K\346\272\014&\234\274i\253\251;+\266\272\275\244M\243\274q\321\006=A\020^\275\360\352\263\274\013\003\270\273m\027\266;\322\025\204\275\3160\t:/50\272\315|\264=\367Z\326;Z\214\255=\306\323\014<K\334I\275\347R\033\274\250\2448\273i\262\313<\231v\344;\251\320]\273e\371\220;\373M\354\274q\305\237\274\"Y\256;\311\236\225\272\305\3655\274\276e&=\266\373Y\275E\363`\275\211C\274\274\200\350\216\274\262\261\263\275\207P:<\370\262\026;v\327\340;\202w\022;\311\\\215=\307q\206\274\202\215\331\274\333\352\223\274\330:\022<\002\315\346\272\324\2740<\353\351F;\213\257\226<\035\251\357:\236\315w\272\031}\354:<\301\211<j\032h=\005`\262\274\323{!\274.\010\306\273\204Z\025<\312O,<\263\220\'<\177\345\240\2728\235C\274\234\337\257;\306]b;N\024m;\342\231\206<R7w\273\005\222\222;\271\303\024\275|\007\302;\215<\225\274DGy;t\213q\275\243\363}\275=\334n<\"\357d\272Rz\032\276]\270(;~\177A\276a\263\260\273.?\217=\303\t\300\273\317\261\252=&\262\202=8\372\217\275\234\362L;&T{=\022\\|;\310F\301=[\025\330\275\"M\237<zu39\213#\325;\220\307\256\274\276\347\216=L\005\207;|g,=\014o\273=\225Ah\273\240\205B=j)\265\27579V;C\337\306;\215\024\222;X\245\221\273|\333\352\2743\2013\275\261\251z\274rq\322\274\034j\262\272\266\331\250<\n\001\215;\244\2569<\224?\247;\376\306\343\273\364\2160;^\230\262;\275\271y=\323\230\030\275\326d\366\273\330\"\263=\226\204><<_\375\273\221\t\247<,\251\235;W\255Z\274\025\355\315:\024dh\271\224\237\237\274K@+=0\'\223\273H\341\254<+f\217<a\315\017\274\rN\271\274\275\303\342;\354%F<\200\\\226\274\220\331\010;n\037 \275F\312\355\2734~\356\272z4\303<\245\241\003\274\303U\314<>\025\232;\3200~;\237M\010;\027\374\253<xl\254<\007\023J<\230\344\372\273n\272\303<0<\246\274\037\253\303\274\021\375\237\274]\241\206;\350&\362\273\376$`;\211t\224\274l\311\304;\207.\340\273\003\201\226\273g\332\014=\'\323\001=t>\003\273\346\304\270\274y\226K9*\330\001\276\376\026\276\274Vj2\275O\260\325\275W\273\344\274P[B;z&\366\274\377\025\377\273\016&\327<K\021\340\273\237;\2429h\274\014=\030\360\233\275\223\207\346\273\232\240\362<\201@2=yL?=\21358\275\2463\014<8\314^<\033,,=\313\376\226\271\360\207\375;\261O\226<z\252,\275;\343\274<t,K<\334\203\376;\270\316\n>\255,\241\273Z\241\004\276\362{\002:{\306(>(w\247=\227\226\000\276\3165]\274\251\270\360\274\235w\214\274pI\350<11\224\272\347O$\275\000\375@;#\261%>\005;p=\300N\210=\354\312\307\274\013\256\211\274\0027\365\274\320\032Z>K\316w\275\246\273\262\275\272\021U=\312\277\252\275/a\351\275G\263\251<\220@\t=\260m@>f\260\340:\223&O<o\370\330\275\237\371p=\361\273,\273\260y\204\275\357%\215:\250\350_=F@\253<_\346R=\036\227\310<\350\372\345\275\320\237\242;E\260\007\275\003\226\177\2746\3503>>M \274\261\251\212<\002\276\367\273\\?\024\276\314\326\037=+ \255=\026\270\243<7\036\220\275\373\236\370=\264J\374<n\006\270<\303\312A=\203v\340:\330\202^=\363\353\271<\200\007\343\275\242\033R=\020\356\210<\007;\310<o\032\316=\326\001\014=\276\221k\275\333DT=\243\3004\272p\354\343\275\307#\201\275\r\310N\275\346\301\211\275\347\237\330\273I\026\271;\034\275L=\246$\244\275PZ\234<2\302H<\017\021~=\357\275F\275\3761\215=Y\230\325\274\336\327\216=\315\010V\275g\277\034\276\201&\257\275\010.\323=2C2=\256\257\313\272\036\375\332<\021\374\313=\244t\241\275\316\276\355<\350Z\207<\270^f>tf\253<\302\221]\271Fg\316\272\253k\026\271\177\215\226\273\345\\\234:j\274\3459f\006V;\363!\363;\372Ir9ok\260\272-\355\211\272?6`\270\354\313\3516\346\230\2039\333\303\257\272{\007i\272\311\246\344;\212S\2309\374\331\005;\335\251\007:5%Q\272`\343\202\272|:\322\265\373\2479:\237U\234:\314T\016\271\001\252T:\342\271\344\272q\203\314\271&\251\3749\336\037\323\267P3\232\273\234\263\033\272\t\312\177<\225\257\302\271\305\376\242\275\370z\217=\230\251\311\274\355R%:\212-:=\263db:\310w\216\274\206)\225:\262/\'\2748A3:\321:|\274x\n\324;\002\246\312\275\332K\240:`\306\235;\334\036X\273\026}\001\275\363\257\264<b\"E\274\242_\332\273T\356\302\273a\213E<\025\267-\275\234xx:=\200\264\274\003X\016\275\201\261I\272\266V\021\273\314\201\350=\352\207\267\271\213Z\"\272\310X\325\271\271\177\023<EL\256;ii\036;knP;\302t\016<\331\021\0279\3450\235:\\\024\273\272\014\371\027:\367J\265\271\032\013b:q\371\006\273\237R\237:\206\275(\272zRa;\n\203\254:\274\270\270:@^$\273\037\374F\272\203d\217\272i\214B\2714\311\266:\2736\205:\235m\255:I\231\202\273\211\\\377\273\223d\":k\345$\272\367h=\274\034o\357:$d\014\272\264\224/\273\003)S8\030\006\313:$\244\206:\262\231\200;\t\235\201\2728\02269x\321\256\272\270\215\210\272\024-\273\273\331\322\3149\274\373\003\273\254\230*\273\323\021\017\273\036/\267:@\343\014\272g\256-;\006Gf\2730\371\212\273\003\\\016;\347!\262;V\263\3458\346\307\3259{\032G\272\370q\006<\240\221c\273\031m\330:]\265 :\207\240\267\271 \346\320\273\261h\003\273\264\010\264;\204\357\313\272\315\344\016\276\266\226\246=u\276\016\275:\036 =\301?\272\274}\232\005;\273D\220\275\354\005\341\273\355h\217\275m\254\215\273\262(\323;\001\036\201<7b\032\275\363\237\300=\240\356\340=\256\271\024=\366w\023>\337\333\357\274\232\025G\275\\\255\032\275\233\246\363<\247\017\026=\360Y#\275\364\014\375;5\"\206\274`\3326<\230\344X<^x$:\345,\330;g\311\254\273>\273\t>oN\250\273\316\351\373=i3q\275\026\030\254=\212\322\375;hI9>\211\032\333\274\323\215D>[\352p<s\226\274;\377\374H;y\226\257=\321\350\244\275\252s\201\273\370\035y<<\034\374<\026M\322\274\300t7>+i\216\274\200\023\017\275\2630P\275H\314$<\215\217\306\275\024}3\276\220r\r=\214\006\200\275zc\022\275\031.\342<\240\323\343\275\002\'\313\274\3508\025\273\'=\250<\240\340u\273\210\317\201\276JZh=G8\373\275\353\351\247=s\2366>\376]k;\003Y\265\275\230\350\347;\274+\204\275U\270\254\273\273Y_<}4\200=\276\302M\274\000g\256=\255\264,>7&\216<BD)>\377\2429=\031\215\237\274\327\257\215\275\031f\347<er-<\347\003.\275\360vf<\312\332\213\273\025\367I;e%\202<\310\026l\273\242\000\321<X\254\243=3O\311<1O\002\274\342\251\267\275\340:\236=\335\357E\275i&\320=\316\306\260<\314\341\334;\336$\343\275\371\225j;\221\325\357\274\212\361F\274&\240+=\222r\230</\031\206\275\227\313\032\275\276\262\005\2751o_=Z8\004\275\275\236P\275D\001H\275\206%)>N/\311<\374\n\312;\021\300\214\274\202\302z=\223\204-\275\304T\213=\252Ar<\010,\032>\242QT;\347\373\207\273^m\233\274<Q\364\272\"\236\003>\n\203\002=\203\364\302\275(5\256\274\260o\270\274\260%=;%\320u\275L\177x\273\36365<_\301\305\273}_\351<Z\371\247<p\t\\\275+\r\032<\251\302\t\275nGn<C\240\276=\021R\232\273\004\332\307\274o\244W<\205t:=P# \274;9A\275p\371\237\273C3\313\272\235)\205<\251[\225<\203\367\241;\021\375\033=\351\375\360\273tc\002\276\332\220B\273\237\360r>\214x?\276\203\343K\276\202n\217\274\021\232\177=Ai`;=\357\215\276\240~\227;Le)\276\330\001\006<\226\263\250=\266\331\021<\0353\327=\345y\323\274b^\203\275Q+I\274\342\376\306<G\217\t>\221\343d\276\362`\r<\317\'\376<\2739\243=40\006\276\272\276\330\274O\270\004\275o\247\032\275\211M\251<\244V\335\274\303\210\274\274\227\322\210\273\323\335\356\274\306\331\026\273\235\201M<\332\037:>\023\360\223=\023\303\302\273\321]\027\275-\354M;e\200\'\276\"\254\242\273Z\364\023;l3\333\273\235\021\266=\214o\222<\267o5\275\214\253H<%\203\375\275\353\252M<\334\014+>\345\375\274=\303\340\010\276\0343\272<\315\232H=\314i$\274A\376\204\274\002)l\273\030\341T=\200H\254<\266\264\260<\372u\311<+\344\205\274 \314\336<\t|\210=z\377\023\275D\352\001=\260\361\370=\217[F=\037\327\'\275/\300\320\274L3\026;-\336\201\275\024.\261\273@f\202<\362\224\\=\345\t\274=\311Q\006=M\357\261\274-\236\003\275\0134\201\275\227#{<\247\027F\274\264\310\r>\031vS\275P\335>=g19=-(*\274pP(\275\323\356\032\275\335V\032\274\316\304\317=f|\260<\373 i\275\372G\202\274m%\026;\336\020\2659\232I\n:zE\036\276w\342\305\274\330\273\211<.\236\202<\327Q\334;nZ\326\272@(\"<-\330t9\311\352\240<I\027\216;9\205\327\271vv\267\273\354\337\262;\030N\317\275W\347\310\273\032r_\274=\302\353\275\223\312\024<v{\336\273g\253\275\273s\324\373\274#\'\005:/\013\001<\"\205g:\036&#;4\312];\237\034\017\274Y\223\271\272\220<\034\275\207\312\207;?\335,\275%\321\235:\311\270\356:!\034W\2759?\270\275_\271\343;\245\240q\275\035}\210\274j\215\325=\346\277\004:\350!\n>h\035\205\273\\\310\312\275RZo=\211\320\304=\223k\230\273\250\202\241=d\305\262;\022\354\237;\254\221\220\274\324\260\026>\370\262%\275\024\301\306<\347\343\257=\353\234\200=\252\000)<2\353\t\276\206)\007\275\021\264\223\274a\274\302:\304\320\034>\341\223\031;\336\261\"\274\227X+:z\364\027;\320\347\230\275\201\031\216=\301\n\340<v@\273\275\253Y\030\273\235S!;\024\013q\273\307\301\353;6j\310;\356\305\223\274p0\327\274[\r\360<\370\036w<)\203\027\274\203\320\020\274\267.\017>e\374q\274,\337V\275\000\203n\274=?\001\275.\352y\273\035\356\266\272\222\010\3258F\226\247\273!\264n<I\2629\274s\365\305\273i\324h=\224r\005\275\365\374\202\275\342\376\027<\235&c;>\337\374\274(\025\n\273\003\322\010\275b\254;\274egt\273\361\324\262\273\250c\327\274\026\366\260\273\356l+;X\303\267\274\255\265\367:\311N\252<)^:;\n\342\'=&\232\274\274\207\364\332<\217#\270;\t\254%\275\007\344\306\274Oh\360\274g\202\001<\314\"Q<\331\000\025\2734\223\006<rc\243\274<\303@\274\300\004\202\275%b\361<D\212\r\273^vF\274\360\010}\272\365\244~=vm\254<\370N\211<W\351\201=\263GT=5\375K;>g\217\274/\266W\273&V\\=z\341O\273_\'\005\273F\327\262:\n|\033\274\305\333c\275\352%\326\274\376R/<\021xh<\0317\237\274}\\2\273\031fd;\033\227\006=\324\304Z<oD\212\273?2\016\2733\004\322\273\016\374\232\274@\353\024<\024\2269\273\271\326s<\037y\262\273|\362\255;\241\031\370\272\024\256\340=\242Y\257=\216sR=\010\005\244:a\267\214\2745f\031<@Fg\273a?\205;\2238/>D\233\223;\220v\273=U\313\365\275y\214\017\2767\311y;&n\n=Y\034\017\274@\242\331\275\201{J<V\020\026\274\242\222\253<\2374M=\263\017\370\274g\367\372=h\226\\<\001\027\246\275\013\032\331\275\272\231\235<9^\275\274\250\375\246=5)&\273v\201\023\274\376\016\334\272\017}\001\275\201\202\213<\355\367\353<\265\024B\274z\326{=\031\030e;yk\023=\375Wx;\372\306#\273\rkh\273\007\233\265;\'\004}<6V`<\035:I=W\206\211\27556?<\007%\275;M\273\242\274\345\227Z\273\000\004\336;\320\302\r=\220\247;<G\256\001<N\022\036;\267\317\302;\355\372]\275\212\0131<I\255S\274\336\202;\275\204*\317<{\232\224\273\213e\000=\370R\301\274\322\021\206<\340\354\007\274s\247$=?\250\000\274<\334\365;\365E\003\275\350\202p<H{\346\274\017k\245=\215\326\327;\314\365\344\273\274\307,\275\017\267\270\272\314\322\030\275!c\254<>\213?\275\367\032\004\275\346F\357<T\201\301:\0365\376<\274\356\364;\232U\005\275\337\241\260\274\271I\310\274/3X\274\322*)<~\323\220<\032\352\263\274\347R2\272\225\'\035\274C\205\215:$[_<\325>\323\273\366\201C:\'\375\023<\201X\200\272\361\003\252:B\322\007\274\036\212\2509\236\340\034\274a\322\014\272\037\240\035<\207+\305\273\201\013\210\274\300t\220\274\213\364\207;\333\336\313;\220\221\306<o\023!\273\031%\365\273\t\361\r;=\332u<\220\355\272\272\233\376\206\273\264bH;\3676%9\327\214\362\272\351\231\317;\2176\005:\346\034\037<\013\330\256\272+<\032;\344\336\300:\001Q1<\307\n\265<\330\210b=C\233\001<s/5\275\322\217\310;\316\263\221\274m$\232\270\213V\362<\233\\\373\271G)\203\273\232\246M\274\332\013j=ZB\205;9\233\001\275\r\342\257\273f\234r\275\252I\214=L\273\001\274\251\210z=\"\"\021<p\274D<\222\\4\274\332M\332;\346\220*;\217L\256\275E\265\206<\312{K\275\360\021\003<\026D\335\272\'\322\017\274q\312\021;AX\327;\330\022\367\273\007#\262;\333\324\365;\005\246\306\274B\305b:\345\024\377\274 QP\270\266\320\002\275\372\271E\271<s\225<\215\033\0039\242\237z\274\372+\204\274\231\336\346\273\374\365\232;1:\234<\371]\030=\343\236\t\274b\356\000<v\006\210<<\271\020\271\317j\210\273,\253\251;\345\247\312<\r85\274\3172\351;sW#;\356\300\325;/\351o\2710\241\201<1\221\253<2[\004<5\036\325\273\214d\241<\365\034\010<\273k!\274\201\2504:\234\025\302\273\252\272\201:-\351\311;\006\217d<\217W\213<\316o\317\271\265X\'\274\035\013\372\272\222\377\204\274\371\211v;1\276<\274m\224 =\363\251\333;\264\250\245\273Je}<\030\000\242\272\220\306\325\273\256~\210<nZ\210;0\357\333;\003\336\352;N\010\300<~H\002\274\202\033\3659\032\330\223:\007-\3159\377\371\343=`\037\240;\314R\301\274i\014k;\321eC=\220\030)\272W\025\3519\327{\330:\241\234\242<sm\2629\014\276!\273\007\037\023:>}A;b\254$\273\304!\273\273\373\017#\272=\215\241\273(\206\0139Q\232\245;\276\230B9\254\375t\273\275\204\364:W\256Q;e\31459\337\030\355\272\020\246\037\273Z7\335\272\361G\024\270+\217n\274\204\363\3249\377z\273\275\2718\030:\210\022\265=4/\321\274\221\250\364=]N\344:\233\254\215\275Q\021\224:\266\017\204\275\343\314\273\272\242\221\n>6+p\271hKz\274m\372\023\275\236\210\305=Q1\005:8\370\263<\207/\003:\230S_<\'\326\246\274]\320\036\274\003\355|\274)\325U;p\260\354\274\265\037\337<\310(\252:\300c\244\274\027\r\207=u\217\007\274\216q\276<D \265<Z -:\030\302\223;\351#w:u+\204=\247y\266<m8\223<oB\345\270YQI\275\016\303\350\2716\255\303<\350h+;g92=#\312\301:\267zc\273\351\223\357\272\246\222\221<m;S\273\273\277(\274\332\006T\272\252 \340\273\356\312\232\274\314[y\274\314$*;-\3302\2730\260\216;Z^T;\376Ia\271\324SA\274\345\250Z\274\300\217\026\273\222W\311\272\222\014\237\273\332\210\234\271\n\211w8ND$<\363\324Z\272\341\'\201;\256f\276\273I\2366\273k\301\220\274\2354\2278\324Z\225<K^c<|V\225;\"\004\212\273\247\316\222\273\nB\013\273\367\234%;\352Z\215:\003\2362;23\366\271\377\215\"\272fBz\274\021\377\206\274\324\035\037\272\240+*\273.\330\222:\341\024m;\277\3072\272\211C\032\273\202Nh\274_(\010\273\245\022\316\274\335\3016<Z!r\2714\243\215\2707o\3719\305\306\347\275\227N\026=\3634\345<\"73=\333Z\230=\354\020\271\271z\347W<H+\350;\304\266|=\242\353\0049\024\220I\273\222\303y\273\325\365\345\273F\347h\275\177\253\202\274\257b\215\273\353\335t\275\003n\001<3\227B<\270\200\376\273\230\274\310\273\211d\233<\253\327\205<\336x\026;\273t\232<k\265\037\274^2\016\273B\336a\273\236\024T=\320\032\212:}\360z\274\037X\315\271\312\260e\275Q\352\302\275\313\226\"=\004\027j<\367H\310\275\244\035\227;0X\305=\204\300\260\272L\245\n>\326[\253:\024`\216\275\023\254\200\274\245}\311\272R4J\275\2628\002\276\331\236\210;\332I\036=\006\216\251=P0\342=w;\362<\2010\335<\255\004\277=\230\376\231\275\304K\247<\263\276\206=\331p\002=\302\005\n\274\031\001\225\275\245\370\234;\226\355(\271\270}\241\274\247\336\2759HS(\274\224\3526;\370\322\216<\373{\373<b\'\213=\220D\026\272[\270\233;\2758\346;5\010R=D\326\2239T\276\205\274\221\'\200;\371\353Q\275\3543\301<\301\352\260\275\3179\364\272\264]\214\275-\254\002\2759\256==\364>S\274nq\033\274\272\251\207<\304d5\273BM\211;\315\307T=\263\335\371\274\032OV\273\031\251=\274w0\035=\004\301\027;\344\246\216\275\3629\200\273tw\253\273\307\010\327<:E\374;\253\3601=\266\004\345<8\227\005\272\\\240d\274\275\217\253<co\333\273\237\373\235\274\312Qf\274\220\203<<Mvw;\351G\220\273fb@;\255\325\345\273(\026\212\274=\036o\274\263\002t;\"\311[\2758\350\375\273J\250f<\354\231\356\273\\\201/\274\304M\302<\374\260\354\274\203G\200\273(\242&\274\263\277L<\305L\207:\330\007\347;\311\367\233:\r\356\200\275\315\2611\273\303\274`<7v\216\2743\257\001\274\211\336\203\272\363\361\325;6\246\305:P\022\217<\376\300Y:\267bc;\034\322\':`\206\250;\305\241\200\275\007\363\252;\'\004\335\273h\332\367\273\250\234\304;sn\204:J@/9\307\257\243\273t\203[\273i\336\016;\264\2270;\207\260\263;\220\201\273;\330\003\377\272\014\000G:\223\332\"\273\324\2167;\327\246\334=\346\014\006;\211\354I=T\367\003\274\371\317\231\274#\265\344:e\277\271;\014\344\003\273n\204\226=&1)\273\301D\261=!\360X\273\207QK<\246X\206=2\240\232=\206\343N<\243\252\234;\327\365\000;\204\300\313=>u\r>\225\213\035\275\373O\354<\340\001U<\237q\023\275\217qH=\363\272\2349{]\346<\213\364\327\274\024u89\266(8\275\345\020j\275\223\307\251:R\\\3438\273\202\031;\370fl=F\315\200\273\032\252\032=\200O\317\274\247\315\261\274\346\345\225\272fs\213\274\351\037H;\211H\235;5<6;\316\004\2409\017\362\237\274\307\020M\273\254\026.<9K\220<\332\353\232\273<g^=\033\"\246<\035-3\274\236\360\313:\261\177.\273\325<\345\2737\n\342\273@M\\9\375@\274;\2528\000=#N2\273z%\304;\213Aj;\212\262J\274\231\345\257\272\247v\377;\344q\203<=M\001<\2540\326;=\021R\274-mT\273\201\356\"\273\307\322\006\273\032\307\256\273\016\261\302<\321O\250\274L\200\376;7\266\003<\031Kp<\037\026\007\274[\211\026<\022\255\372\273\034t\221<\335\245\024=\025\262\233\274E`D\274\014h6\273\242\2500\273U\225\375;\262j\023\275\035\353P<\335u\211\272y\3514\273\323\3517\274\n\355\305;\367\331\300:\314\220\365<S\311\322:\232\242\000<)\315\\\275\022H\244<O\026\007\2748Vk\276\300\3320\266\006Ro=\353X\313;\004\326\213\2751,\301:#\317\241\274\277s\264<\267`\252=g\026\257\274\003H\323\274\234\361>\274\271\363\302;\002\035\204<\253\200d;\346\276q\272f\r\300\273\273R\300<ab\237\273\326\265!\273\310\235,\2728\261\027<\222Z\351\273>\334\352:\304\001\210=B\214\001;\252\024\027<\216\\\344:r\254\300=\3331\337;=Y\226\275P\022o\2740\372\217<\367\357B\273l\336_=\322|\365\273s\237\001\275\312..\273 \274\356=k\263\013\275U\255\201\276d0\372\274 \022\242\272AJ\231<\"\017\002>\363\027.\276\226f\n<\365\234\343<p\320F\273\232\306\t\276-5\226=\005b\277\273\267{\001\274\311A\242\275\203\317\n\275a\300\240\274h\037f\272\301\336\263:\360\026\351<\327l\240:Z\375\235\275&,\215\275m\266\306\275\005]-9C\346M>~\007\2419\347\246\204=\277\315*<\351\232\267\274\n8\317:\245\351F\275\245\207P<\371!\200=_5\373\274e\211\357\274\301\250\014\274\340\362p\276u\344\027>\037G\274=\227t\202\273\030z\305\271\264\363\266<b\021\235\274\222\345\230\273E\006\r<%\346\002=<<\364\273\n|\344;G`i\274\2668\035<%Bx<V\264S\273J\317\347\273\177\262\032\275\014\005\277\274]X\251\273\216o\014=\337\031\2159\315\307\233\272\264F\031=iV\312\274\n\343$\275<{ \275\203T\350<k\304\032<\227\226;\274\245\332\000\275\217\324\034\274\">K\272\305g\374<\327\243\036=\266M\367\273\256\347~\272SPe<\3147\224\274zP\014\274\372(C<\037\200B\275\242\305-\274\320\024c=\273\000\320\273?\265;;J\020[<\001\241\314:\177\207t\275\270]9\2725a\312\273\234\001\271;\2719 =\261\333\224\273%3\027=\235\300F<\354\226\355;\310*\244;\317(\017<\334z\242\274a\277\360<\017\2350\275\177\t\325;$\322\377\274\315\001\254\274\344\375\375<\345\325\023<\334{;\274~\370-\275\355S\004\274B\234[\271\215\224\244;\216T&<\372p\311:\2069,