node {
  name: "input"
  op: "Placeholder"
  attr {
    key: "dtype"
    value {
      type: DT_FLOAT
    }
  }
  attr {
    key: "shape"
    value {
      shape {
      }
    }
  }
}
node {
  name: "label"
  op: "Placeholder"
  attr {
    key: "dtype"
    value {
      type: DT_FLOAT
    }
  }
  attr {
    key: "shape"
    value {
      shape {
      }
    }
  }
}
node {
  name: "transpose/perm"
  op: "Const"
  attr {
    key: "dtype"
    value {
      type: DT_INT32
    }
  }
  attr {
    key: "value"
    value {
      tensor {
        dtype: DT_INT32
        tensor_shape {
          dim {
            size: 3
          }
        }
        tensor_content: "\001\000\000\000\000\000\000\000\002\000\000\000"
      }
    }
  }
}
node {
  name: "transpose"
  op: "Transpose"
  input: "input"
  input: "transpose/perm"
  attr {
    key: "T"
    value {
      type: DT_FLOAT
    }
  }
  attr {
    key: "Tperm"
    value {
      type: DT_INT32
    }
  }
}
node {
  name: "reshape/shape"
  op: "Const"
  attr {
    key: "dtype"
    value {
      type: DT_INT32
    }
  }
  attr {
    key: "value"
    value {
      tensor {
        dtype: DT_INT32
        tensor_shape {
          dim {
            size: 2
          }
        }
        tensor_content: "\377\377\377\377\t\000\000\000"
      }
    }
  }
}
node {
  name: "reshape"
  op: "Reshape"
  input: "transpose"
  input: "reshape/shape"
  attr {
    key: "T"
    value {
      type: DT_FLOAT
    }
  }
  attr {
    key: "Tshape"
    value {
      type: DT_INT32
    }
  }
}
node {
  name: "w_in"
  op: "Const"
  attr {
    key: "dtype"
    value {
      type: DT_FLOAT
    }
  }
  attr {
    key: "value"
    value {
      tensor {
        dtype: DT_FLOAT
        tensor_shape {
          dim {
            size: 9
          }
          dim {
            size: 64
          }
        }
        tensor_content: "\230F5\277 \025\277>W\007\307\276\027\217\334\277\210\243\221>\233zM\277\275\005\244\276\345\352(\277\364v*\274\303\275\203=\361\241>\277\307\333\204\277\370\365\007\276r\366\376>x!$\277\350\007p>\265\301*\277\017\025\324>\341\375j\277\373\177Q\276B\262\221<\2647\250\276\003\357<\276$=\254>R\274\235=\333\344\304\277\331\215=?\224\306\345>\032\221\247>\204\321N?\262\272\017><\374\214\277\315\363\207?\230Pu?\2448\327>l^:\277\325\'t\275\274d/?A\226\005\277i\225\257\276\007\307Y>\023\212\331\277\005\006\305=\315L!>+\301\252\277\307\314l=\267\350\250\276\374\212j>\027lo\277\247\206\n\277\241\030\024?\222vj\276n\325\202\276\211b\215\277&\213\030\277\221\315)>\223B\325<?\253\315=3\277\266>E\364\002?\354\367R?\223:\260?\003\357j\276|>a?b\2318\276\020\326\r\273\305G;\276nr\223?\033p\312\275>-\245>\352\006\321=\235\0325\277s\317\221\275\0311\220=\202\023N>\'\251\247\274\002E\360\277Q\204\370\275\244`O\275\371y$?-e\220\274\027\312\351\276\303K\277=\037\014\257=\302y\220=E\237\305?\240Q\257=\021\316\347\276J\2618<|\300q?\350\335\206\275\255zY\276LP\271\274(\207\302=\211\003\244\277c\366\240\277m\216\030\277\014\237\275=<3L=\267\340\001\276\000C\236=\266\324\003?\362\217\217>\347g\306>\n\214\017>A2\033\277\274]`\275s\300\375=o4;>aWE\275D7B=*\352n\276\014\003\201>\017\032\214>a8\215\274\275\266\363>\334\315\033\277S\356\035?~a\177?\277D\335\274\027e\020\277c\326?\275\031\260J>\265l\314\275\233\337\237\275\240\265\212?iJ}<6\1772=\211\360*\277\256\006\220>V(\254\276\03059>4yF=\035:\230?\356\220\320>\2769\033\276HQ\320\276Z\202\336=ZJ\212\277\276\247k>mI/\277\303\255_\275\370u\036=N\0232\276kW\022?\244\253\000\271_\0370\276\216W\317\276\373P\374>\036X\244=U\020\026\277<,\032\276\312\306\013\2775\246t\274\267\222l\275\244zg?K\227~\275\371\203\014?B\323\276\275\037\322\'\276`u\213\27516\232>\366\333\212?\321)\223\275\316l\033\273Y<\025?\252]\304=0\232E\276\271\372W\275\241\022\035?3\\\354<%M\234?N~\272?\001\036$\276h\344\327>\013\027\216=\333\260:<\221\276\310=\207|q=,\224(>\340\004\005>\332\363C>\324\370\256\275N\250\315\275\203\216\003>\004B\270>\233?\034=(\226\035?@\276d\277\234\252\224:\271#\376\275\"\352\357\275\006y\260\277[\r\013\274\275\022\364\276h\276\310\277K\350\263>\274\365\302\276\314\353\225>$\356\'?\232Gr\277\224\343\317;e\216o\276v\223\366>4\302\020\277\320h\224?\322\017\321\277\273\0243>`\002\306\276\020Y\210\277nw\252\277b\0272>\035\020\205>\211f\313?\260K\310\277\037V\233<#Il=\215\364\324?,>\242\277S1:\276\274\3520\276S~\365?\010\214+=\306\205\255\275O\005[\277\306.\366\276\300\261\252>r\034+=n\265m\277\274Z\204\277*\242\034\300e\367c\275\025\257\311?\247g\306\275t\345\255\276\273\345\243=BH\221>/X\330\277r\0075=1\304\226\276\260\327\254>\203ax?\373\331\332?\t\354&>\354\207\023?\337gl?\324k\273\276Yj\250=\340\321\243?\201\207\311>\t\034L?\376Mz?%\304(:\372\005\014\277T\347\202\276\2663\216\276\366\355\r?\277\237\245>xW\322\277p\346\234>|3\225\275\261\241$\276\337\337\276\276%\377p={g\270\277m\226>\275\365\215\256=.\326\341\276\020\201\224\277\315\277N\277A\022{\273\014$$\277\230\311\n?\022\337#\277\347B\227?\2550\332\276\360\361\013\277\\\3243\2774u}?\334\221\212=e^\367\276\277wy\277\226\201\214>\t#!\276A\036\t@%\250T?\026\274G\277\276\215\323?\355\345h>\303M\203\277\031c\261>\272Q\376<\304J\346\275\323\201\026\277\370\024\001?\265K\250\277\010N\317?\013kR\277P\'f>\337\365+?ib\266\277v\234\'\277\310\323\332\277\255\201\275\276\307\255\302?\353\004=<\344o\217?\r\315\010?\ng\317\277\212L;\276\372\244\230\276m\004\211\277\336\277\375=A\000k?|+t\277:\221\201?\313\333\313>\323\360i\277\261|b\277\330\365c\277\367\357\242\276\027\035\334\276M r>\363\252\350\274\317\236>\277\215\364F?,\323\216\277\331\364=?.Gs?\020Y\375\276\223\211\241\2765\222\276\276[L\340\274\206\220.>\3046\244?\246*F\277\307V\377>O\213c? \007\023\300\200q\377?4\243*?\321/\024>\205\266x\275\177A\372=\375\306\364\276\211\334V?\004\'\013\300,\275\330>\372S\321>\266\273R\277\203\220\351>\027|#?\362\273\220\275$\007\322\276\n\032\215\2772\016M\276\235)\236>[<\304\276B\266\257>\241\271\275\276\252\247\253?\231f\320>\215wr?\241\333h>\026\230\242\275\314\341`\276\035\351\177>\032b4?\215K=\277\316\344\221\277\326\225D>m\213\036>Y8\330=\231\026y?\203l ?$\036%\276\301\225\375\275\362\315\020\276\257=\017\277\376(\310\275`\273\256\276h\362\020\276\272\220\327\275\014{\377>m\324n\277\032\031\260>O\177\214?i\200\002\277\000\220Y?Nj\366\276\257\031r\277\333\032\202?(X<?\346\240\337\277\345E\262\277\222\202\317=\367l\026>C\277\003?l^\240\277)>V\277f\016)<\262U\376\276\377\036\213?\355\357\303>\334<\240?\322\037#?\301\217\247\276\226M\204?:d\002\276)bs?\351\032\324\276\026\307\312<z\212+?\200\022\332>\241\265\375?\t\003N?\005\212\006?\333\255\t?\356\\\212\276^Fk\275#\275\177?\320\276\204\275\367\341\233?\327\252b>v\022\235?\2356X\2763&\014\277J\034\211\277\221\277E@\024\345\335>\274&\220?I\236h?&\311_\277zK\244>\327_\355=\265z\340<\276Q\325?\254\360\014\300\371}\320\277Z\371\224>3\276=?2\251w\277\264\'\207?\362]\323?u\"#@\201\361\215?\206\022U>\266\240\253\275\3575[\277\020\3065?\216\342\343\276s2\254\276\357\310W>\232r\364\275\210z/>\252\315\327\276K\323\312\277\265^\024>\215\261\n\277\t*\016\277\217<\277\276\247\277i>\014\267k?\2572\226\275r!d\276+_<?\201s\315>\246Ua\277<*\351<\017E\032?\251 T?\324\215\026@hI.?||*>\204\234\357>\267\031\303>\214\216\321?\201JE?\244{\016?\225+\215\274t\227`\277\306\224\271\275\r\355\265\276\225}\n\277\377\212.@F+\275?\246NT\277V\265\324\275)a\207?\031V\223\277\370\255n\277\003\372\360\276B\030\243>\316\205\001;\213\215<\277x4H\277\371\351&?\362\340\354>!\274\240>\035\223\355<Y\277\021?L\303\010\277P6B\273\304\303g=/\006\327>\034\241d\277\006\342\330>P\363\232?\030\336\311>\320\036\207>\006V\257\275\231\0323?TE\206\276/J\265\276+\352:?T\027?>\\\036\001;\227\037!\276\365\301\353\276\2114\276?\031\3033\300\350m9?\"\275\211>\274\223\211?\362J\263\277\231\251\014\277\271r\263?}\241\263\2772c\236>\037tF\276\017M\230\274[\030U?i;\256\276\020\233\376\276\320\351\022?5~\260\277\340\370\302\275W\010\364\276\275\351\035>\373\215\357\276\231\034\005?K+R?\320(\333>\004\203\260\274\354\355 ?\270k\304\275\230\037\372\276\347\262B\277\373\302\327>!AP\277\227\222\266\277\220\004\222\275{\362\031\277R\022\313\277\226\213q>\226\333\302>\013\274\262>\216Ri\277\272\261@\277_\275>?\332\321\002\275[\242\223\277\302\241\216?\230F7\277;\2505\277\320|\304\276\216\346\'?\204\030\254>1\250c\276.x\'?\316\002h\277s6\n?\\\323\220\277\275d\354\276fS`?@\2353\277"
      }
    }
  }
}
node {
  name: "w_in/read"
  op: "Identity"
  input: "w_in"
  attr {
    key: "T"
    value {
      type: DT_FLOAT
    }
  }
  attr {
    key: "_class"
    value {
      list {
        s: "loc:@w_in"
      }
    }
  }
}
node {
  name: "b_in"
  op: "Const"
  attr {
    key: "dtype"
    value {
      type: DT_FLOAT
    }
  }
  attr {
    key: "value"
    value {
      tensor {
        dtype: DT_FLOAT
        tensor_shape {
          dim {
            size: 64
          }
        }
        tensor_content: "\353\226\"=\030\262\207\275\200\237D\277;\013\007?\316\217u?5O\213?\227\004\313?\245\352\257?\276o\210\275^A\231>\350\301U@(\314\002@*\210\220?\233\317\331\276\310\020n@\257d/?)\357\237?\037\265n?\351O\321?\367l-@o\035r?\374\351\002\277\034\257x?#?\300?\340U\203\276\372\343\021@\3442\033@_3F?\331\322Z\275\202\017:@\213\246\263?yL\354=\306\0138?2\271\330>)\007\314?C\346\231=\343\213\"@\276o\304<Jnd?k.m?_\217\266?\216<\022?\322V\032?\327~\240>\304\344\317?\316\276\267\276\245o)@\322P\217?>\326\260?(;\304?_\373\204\276\021\t/?\236\216\261?|\377\303?\374\306\313?\347\223\037@\3340&@*\014\322?/W\323>}\256\264?\322g\210\277\025\353\376?\354\324\237?gCO?"
      }
    }
  }
}
node {
  name: "b_in/read"
  op: "Identity"
  input: "b_in"
  attr {
    key: "T"
    value {
      type: DT_FLOAT
    }
  }
  attr {
    key: "_class"
    value {
      list {
        s: "loc:@b_in"
      }
    }
  }
}
node {
  name: "MatMul"
  op: "MatMul"
  input: "reshape"
  input: "w_in/read"
  attr {
    key: "T"
    value {
      type: DT_FLOAT
    }
  }
  attr {
    key: "transpose_a"
    value {
      b: false
    }
  }
  attr {
    key: "transpose_b"
    value {
      b: false
    }
  }
}
node {
  name: "add"
  op: "Add"
  input: "MatMul"
  input: "b_in/read"
  attr {
    key: "T"
    value {
      type: DT_FLOAT
    }
  }
}
node {
  name: "relu"
  op: "Relu"
  input: "add"
  attr {
    key: "T"
    value {
      type: DT_FLOAT
    }
  }
}
node {
  name: "split/split_dim"
  op: "Const"
  attr {
    key: "dtype"
    value {
      type: DT_INT32
    }
  }
  attr {
    key: "value"
    value {
      tensor {
        dtype: DT_INT32
        tensor_shape {
        }
        int_val: 0
      }
    }
  }
}
node {
  name: "split"
  op: "Split"
  input: "split/split_dim"
  input: "relu"
  attr {
    key: "T"
    value {
      type: DT_FLOAT
    }
  }
  attr {
    key: "num_split"
    value {
      i: 128
    }
  }
}
node {
  name: "rnn/Shape"
  op: "Shape"
  input: "split"
  attr {
    key: "T"
    value {
      type: DT_FLOAT
    }
  }
  attr {
    key: "out_type"
    value {
      type: DT_INT32
    }
  }
}
node {
  name: "rnn/strided_slice/stack"
  op: "Const"
  attr {
    key: "dtype"
    value {
      type: DT_INT32
    }
  }
  attr {
    key: "value"
    value {
      tensor {
        dtype: DT_INT32
        tensor_shape {
          dim {
            size: 1
          }
        }
        int_val: 0
      }
    }
  }
}
node {
  name: "rnn/strided_slice/stack_1"
  op: "Const"
  attr {
    key: "dtype"
    value {
      type: DT_INT32
    }
  }
  attr {
    key: "value"
    value {
      tensor {
        dtype: DT_INT32
        tensor_shape {
          dim {
            size: 1
          }
        }
        int_val: 1
      }
    }
  }
}
node {
  name: "rnn/strided_slice/stack_2"
  op: "Const"
  attr {
    key: "dtype"
    value {
      type: DT_INT32
    }
  }
  attr {
    key: "value"
    value {
      tensor {
        dtype: DT_INT32
        tensor_shape {
          dim {
            size: 1
          }
        }
        int_val: 1
      }
    }
  }
}
node {
  name: "rnn/strided_slice"
  op: "StridedSlice"
  input: "rnn/Shape"
  input: "rnn/strided_slice/stack"
  input: "rnn/strided_slice/stack_1"
  input: "rnn/strided_slice/stack_2"
  attr {
    key: "Index"
    value {
      type: DT_INT32
    }
  }
  attr {
    key: "T"
    value {
      type: DT_INT32
    }
  }
  attr {
    key: "begin_mask"
    value {
      i: 0
    }
  }
  attr {
    key: "ellipsis_mask"
    value {
      i: 0
    }
  }
  attr {
    key: "end_mask"
    value {
      i: 0
    }
  }
  attr {
    key: "new_axis_mask"
    value {
      i: 0
    }
  }
  attr {
    key: "shrink_axis_mask"
    value {
      i: 1
    }
  }
}
node {
  name: "rnn/MultiRNNCellZeroState/BasicLSTMCellZeroState/stack/1"
  op: "Const"
  attr {
    key: "dtype"
    value {
      type: DT_INT32
    }
  }
  attr {
    key: "value"
    value {
      tensor {
        dtype: DT_INT32
        tensor_shape {
        }
        int_val: 64
      }
    }
  }
}
node {
  name: "rnn/MultiRNNCellZeroState/BasicLSTMCellZeroState/stack"
  op: "Pack"
  input: "rnn/strided_slice"
  input: "rnn/MultiRNNCellZeroState/BasicLSTMCellZeroState/stack/1"
  attr {
    key: "N"
    value {
      i: 2
    }
  }
  attr {
    key: "T"
    value {
      type: DT_INT32
    }
  }
  attr {
    key: "axis"
    value {
      i: 0
    }
  }
}
node {
  name: "rnn/MultiRNNCellZeroState/BasicLSTMCellZeroState/zeros/Const"
  op: "Const"
  attr {
    key: "dtype"
    value {
      type: DT_FLOAT
    }
  }
  attr {
    key: "value"
    value {
      tensor {
        dtype: DT_FLOAT
        tensor_shape {
        }
        float_val: 0.0
      }
    }
  }
}
node {
  name: "rnn/MultiRNNCellZeroState/BasicLSTMCellZeroState/zeros"
  op: "Fill"
  input: "rnn/MultiRNNCellZeroState/BasicLSTMCellZeroState/stack"
  input: "rnn/MultiRNNCellZeroState/BasicLSTMCellZeroState/zeros/Const"
  attr {
    key: "T"
    value {
      type: DT_FLOAT
    }
  }
}
node {
  name: "rnn/MultiRNNCellZeroState/BasicLSTMCellZeroState/stack_1/1"
  op: "Const"
  attr {
    key: "dtype"
    value {
      type: DT_INT32
    }
  }
  attr {
    key: "value"
    value {
      tensor {
        dtype: DT_INT32
        tensor_shape {
        }
        int_val: 64
      }
    }
  }
}
node {
  name: "rnn/MultiRNNCellZeroState/BasicLSTMCellZeroState/stack_1"
  op: "Pack"
  input: "rnn/strided_slice"
  input: "rnn/MultiRNNCellZeroState/BasicLSTMCellZeroState/stack_1/1"
  attr {
    key: "N"
    value {
      i: 2
    }
  }
  attr {
    key: "T"
    value {
      type: DT_INT32
    }
  }
  attr {
    key: "axis"
    value {
      i: 0
    }
  }
}
node {
  name: "rnn/MultiRNNCellZeroState/BasicLSTMCellZeroState/zeros_1/Const"
  op: "Const"
  attr {
    key: "dtype"
    value {
      type: DT_FLOAT
    }
  }
  attr {
    key: "value"
    value {
      tensor {
        dtype: DT_FLOAT
        tensor_shape {
        }
        float_val: 0.0
      }
    }
  }
}
node {
  name: "rnn/MultiRNNCellZeroState/BasicLSTMCellZeroState/zeros_1"
  op: "Fill"
  input: "rnn/MultiRNNCellZeroState/BasicLSTMCellZeroState/stack_1"
  input: "rnn/MultiRNNCellZeroState/BasicLSTMCellZeroState/zeros_1/Const"
  attr {
    key: "T"
    value {
      type: DT_FLOAT
    }
  }
}
node {
  name: "rnn/MultiRNNCellZeroState/BasicLSTMCellZeroState_1/stack/1"
  op: "Const"
  attr {
    key: "dtype"
    value {
      type: DT_INT32
    }
  }
  attr {
    key: "value"
    value {
      tensor {
        dtype: DT_INT32
        tensor_shape {
        }
        int_val: 64
      }
    }
  }
}
node {
  name: "rnn/MultiRNNCellZeroState/BasicLSTMCellZeroState_1/stack"
  op: "Pack"
  input: "rnn/strided_slice"
  input: "rnn/MultiRNNCellZeroState/BasicLSTMCellZeroState_1/stack/1"
  attr {
    key: "N"
    value {
      i: 2
    }
  }
  attr {
    key: "T"
    value {
      type: DT_INT32
    }
  }
  attr {
    key: "axis"
    value {
      i: 0
    }
  }
}
node {
  name: "rnn/MultiRNNCellZeroState/BasicLSTMCellZeroState_1/zeros/Const"
  op: "Const"
  attr {
    key: "dtype"
    value {
      type: DT_FLOAT
    }
  }
  attr {
    key: "value"
    value {
      tensor {
        dtype: DT_FLOAT
        tensor_shape {
        }
        float_val: 0.0
      }
    }
  }
}
node {
  name: "rnn/MultiRNNCellZeroState/BasicLSTMCellZeroState_1/zeros"
  op: "Fill"
  input: "rnn/MultiRNNCellZeroState/BasicLSTMCellZeroState_1/stack"
  input: "rnn/MultiRNNCellZeroState/BasicLSTMCellZeroState_1/zeros/Const"
  attr {
    key: "T"
    value {
      type: DT_FLOAT
    }
  }
}
node {
  name: "rnn/MultiRNNCellZeroState/BasicLSTMCellZeroState_1/stack_1/1"
  op: "Const"
  attr {
    key: "dtype"
    value {
      type: DT_INT32
    }
  }
  attr {
    key: "value"
    value {
      tensor {
        dtype: DT_INT32
        tensor_shape {
        }
        int_val: 64
      }
    }
  }
}
node {
  name: "rnn/MultiRNNCellZeroState/BasicLSTMCellZeroState_1/stack_1"
  op: "Pack"
  input: "rnn/strided_slice"
  input: "rnn/MultiRNNCellZeroState/BasicLSTMCellZeroState_1/stack_1/1"
  attr {
    key: "N"
    value {
      i: 2
    }
  }
  attr {
    key: "T"
    value {
      type: DT_INT32
    }
  }
  attr {
    key: "axis"
    value {
      i: 0
    }
  }
}
node {
  name: "rnn/MultiRNNCellZeroState/BasicLSTMCellZeroState_1/zeros_1/Const"
  op: "Const"
  attr {
    key: "dtype"
    value {
      type: DT_FLOAT
    }
  }
  attr {
    key: "value"
    value {
      tensor {
        dtype: DT_FLOAT
        tensor_shape {
        }
        float_val: 0.0
      }
    }
  }
}
node {
  name: "rnn/MultiRNNCellZeroState/BasicLSTMCellZeroState_1/zeros_1"
  op: "Fill"
  input: "rnn/MultiRNNCellZeroState/BasicLSTMCellZeroState_1/stack_1"
  input: "rnn/MultiRNNCellZeroState/BasicLSTMCellZeroState_1/zeros_1/Const"
  attr {
    key: "T"
    value {
      type: DT_FLOAT
    }
  }
}
node {
  name: "rnn/multi_rnn_cell/cell_0/basic_lstm_cell/weights"
  op: "Const"
  attr {
    key: "dtype"
    value {
      type: DT_FLOAT
    }
  }
  attr {
    key: "value"
    value {
      tensor {
        dtype: DT_FLOAT
        tensor_shape {
          dim {
            size: 128
          }
          dim {
            size: 256
          }
        }
        tensor_content: "\272\240\302=B\367\261\272^C\275\275@\244\3038\260\274\2149x|\240\270FG\211<H\371\2348;\267l\272b\344\2619\346\264V\274Wc\220<\236\332\000\272\230\274\035=Q\217\3649\277\001%9\007q\354\2748\334.\274\325\370\373\272\367\300O\275S\315\230\270\032\000\2148\222\347\330\272\337>7\270}-\203:\214\303\203\275=\nX\2746o\275\2734\254\2019\240\370\2069?\371\203\273k*\240:Iz\245=7h\244\272\261\377@9\224\336D\273\'\375\251\275\010\367]6M\211\326\272\274B\0309\345u\211=.\320\032:\320p19E\362\3359[\332\022;\264\322\252:.;8\27237\212<8hn8\377\2210\274?\237X\273L\325\303<jw\035\2733\217\261\274J\354\252;rrp:Ah\266\274\001\000\020\276)\334\316\273\203\252\327:\371\213)\275\372\320\022\270AY\'\267w\265\001\275$Wy\275\255\177T\273\220\371\270\274\253\025\2329\nk\3609/\233\3748\213SC\276p\254\253\271v*\221<\013\213\325\274\000dy<\204p\375\272H\033\007=\201\010\265\274\202y\022\274\020\375\2349\364\333\202\275\025\nr\272f^\206\274)\270\262\275\256&\020:\251\214\2258\300%M<9X\0178u\313\303\273*S\2768\253\323\302;\004\330\227=\256N\020=\014\014\034\273lf\347=\371\332P\270\006u,\276\260\274\223<\225\320\2508\"\231\030:\265\310f<I\266\2176\023\261\324\272\251L\330\271\324;\360\275n\227$\274{\240\033\273\336l\275\274\273\354\017\275<G\207\273\315\377L<E%\006=\331\335\262\272^\032 \273\260a\251\273\302P\037\276.\2147\273\211\016\252\274W\263\357<\257J\344<+\216\213\274S5\310\275\200#\342\274\035\3134\274\244!$\276\032\346_9\363\257\322;P4.\275\301\3573\275\345\311\005\272TD\255=\002\232=:\335f\2659mMr\272\025m\327<\244\351\007\266\344\340^\270_(\363\2706@\034\273\260\027::\220\220\374;\006\306\346<\367\334!;\345:\3339<\032%<\232\264\246\272\207E\212\272\362\326\232\273\010^\264\271i>\3219\253\'w\273@B\2118\031)~<\236\013\200=\244%W\271\271f\027>U\263\0269^T\301\270\372\n\270<\305{+:\306\306\240;\256\225\342\271BR\3416\264\364\214\271>\031\237=\"\006\0368V4w\272B/\2077{\3467<C\r\016;\020V\0269\206#\t;S\026\t\272\336i+:wub8\004.\317\274\236x\2657\373\202\224\2730\004T\273\024\246A>j\240\271\271\013\016\035\275\036\376\317;.\224:9\0346\250\275-K\334=\007\315@9i\342.;y\333\243\274E\334\231\270\343\275\2007\265R\352\274\345b,:6\207\212\273B\002\241<\230\3515\273\211\254\316\274\013\306&:\327\255\033={\321\0269\001\307\257;m\275\230:\321L\210:nAV=\013l\206<\\_\265;\343\376\231<\255\006t\275\335\353\314\274\362\235\275\272uA\230\272q\026\264\273K\036X\275\252_\304\274\214\202\334\272*\3033;?DU=\t\013\014<\232\177\221\273\312\235\226=5\263\2379[\016\020:L\034I\274\322J\2508\373G\033\274i/k\272\0354\362<kt\275\274T|0\274:\251g<y\275\212\273\000BX9\010c\345\274M\2169\274\221\35729+l\356:\322\353\330\273IW\375\2723\212\013\275\226f\255<T\277\247\267\021%\347\274\345\225E\274\223\240j</\237\3329\270\300\233\274$\326I\275\237\266\300\272\230wM\273\320\035\204=\241\262\206:\330\032\214=\201\211\017\275\t\274\215\273\005\243\004\275\247\304\3058\232Q\331;\251\231\371\272\004?6\276\014\001#\270\203\275\005:\002\345\021\274\230\210\222=\326{\273\270/\313\221<\r\257\257:\267 \023\275\030\260\332\274\204\034\306\272\004\375O\274\332\330[\274\251w\026\272\254\306\211<M\355C\274Z$\001<\337\357\310;_I2:\021\025\217<:\345\310<\177M\353\2715\342(\273}\310\215=\367\357E=\2710\271\274kl\240;\327\032>\274$\254q<\276\347\253<\230\230K\275\001I=\273\224\332\031:\201\271d\274\265\031d9rb\313\273\032<\255<\205\022\237;TD-\275BX\364;\352\0025\273\246\212\375<\341\005\022\273\305K\225\273\366Q\262\267J\334-\2740\350)\272\211\253%\274!l\206<\366\235\341=\245\202\303\274\0246\313\274J\306\207=\\AC<\313\314\251<_\n\274<PiP<(y0\273\343\303\334\275\324\325\3509\020\323\037\270w\252\376\2747?\002\276A\317!;\002\255\243\275\240\261\3306\325\013a:\256o\255\270\304\304\255=j\307\207\273\r\340\317=\362\377V\275\021K\344\275~W\206\272\355g3<\370\324>\275\2506\232;~-T\272\233\220\201<\360\246\206<0\275\253<Mw\275=`G6\272\306]\017;|\204\257\274\023\001p\272\007\245\306=^\224\2759\211dG=D4\314\275\343M\021\275\267\211Y\275a\261S<\221>9\273\204\265S\274\324\373\215:\t\310\322\273\201\013#<\240\351];\274`S\272\227a\321\272\273_\005\274\371\353\007\275h6\206=\352~\035=\"\325\230\274\331\205\215<\272\235b;\035\300$<\301\213@=!j!\273\210s}\275\270\241\345\273\222\210\270\2758\340t=\234\241\330<\234e#\274\334\357\261\274\332I\244\275j1F\275\261\030\313<\216\206\312\273\2331\275<\331\264\317\271\265\212u;\365\'\274=\255\024\240=Ar\267\272\275\244\367<p\327N9\r\320\026:\033\023\217\274\263l\320\274\341\306~\271\373n\214<V\243\227\273N\225\013\275\304\016\237\274\\\230\237\273\032\227\351\274\371G]\273X\340\233\271FQ\366\274\260\026a\273\253\311\234\273\350\2403\273\310\274S:\rO\201;\336\020\356<Olg\272\332\224\331\274\356\271\206\275\345`\276\274\373\247y=\263\036\331;&\375\027\274\201\215\244\275\030B\r\274B\300\220=\354\004\320\272\t\370f8\271\006F\273\024\271\373<\001\2109;\272\256c<\372\366\3108\315\350\336\275\313\031B\274*\352\226\273\376\034\241<?\243\274\274\3609\034\273\340*\036:/\234p=\351\003\010\271L\324\236\273\375\263(\275\264p\013=\342\273\034<\226\214V=,L\222=\010\177c\275j\350\331=\035uh=u\253\010\274\030K\261\274\316BJ=g\\\3759\224\023\312\2647\364[\274}2F;\377|\345<\205\271Z<t\210\311<O\345?=\0107\217\275*\025\256=\254> \272\325\\7\275\235\2537<\242\333\003<\240)\237\275\350\235Z<\3668q<\311!\306\274\226H\314\274\372\3446=Gl$\273X\333\t8\266\304\t\275\200``=\007\035z=\273\336\312<\360o\031=:[\217\275\274\010\313<.]Z=3\225y=\236m \274E\225x\275\333Yu;\222\274\362<\327k\301<\370\355\241\273\321\310\317\274K\027\306\275\027\210\341<\3222\274;\017\273)\275\210:\3308cm\264<\356\360\350\274\353\263e\273\213\032X\274.\361\357:\367^\030\2754\371\231\274ZA\370<\202\314\214\272\366\240Y<*\177\247\275\3125\200<\002^\244\270\363t\206\273\215`\234\275g$\3668\234dQ<\n<\343;\304/S\272\344\362\375\274\210\231:=\316)N=\356j\245\273x{(\274\326\030\224\275\306\255\\\274\351\177\253\275\245S\021:\260A\216:4\365\320;\217\317\250=>\312:\272\206\204\222\274\365\265y<\247HC=\210<%=\375:T9s\364\275=\224\025^=\347\304:;\274\027\243\275\226\312$;L\013\254\274\232\362\230\275M\033):\222{\031\275\376n\236\275\\\360\367:gEq\275\311M?\2753\300\206\275\3201 =\022\201,\275g\357\244\274\270P\217;\255\'\335;\221o\330={f:\273V\306\026<\341D\274\274\204x\026\274\360<\3149~\2663<:>q\274\025\021\003\274\344\026\007\275Pg`\274\200\370\010\274\317\236]<\331\212\244<\236\203\215:C\033\242=C\n\311\271\277v\304\274\\x!\275\277;!=\034\261O\275a\252A\275 \242\030\275\301\372\213\272\311\202M\275\3632\002=N\265\251\275\264t\211;\017\275\032\275\304Z\332:\224\257$:G\216\357\274\263v\230=\367\247\332<\334i\236\274\304\311\232\270\252\373\312:\004FD\273\221\223\020\276\276L\220<\243\337c;\320\227\254=\335W\307=\006\355\324<\344C\271\270sa\216\274\021c\251\271\356D\177;\310\230W=\331\252\n\274\270\252\206\275\010\317N=\215\030\310\272\021\014\t\274\203xm=5\2501\274c\375\000\275x\323\026:\014b\213=U\266\027=\201\263\317=\241\005;\272/\272\264\273\264\362\205\275\2253V\276Pk\357\274X\236\017<\252\000\354\272WCu;R\244\324\266 :-\271\226\235\236<6\337\270\274\267I\343\273/\202\216<\356\200\256\274\241W\234=\202\264\351;\301\246\265<\357\002\246\273\004\345\267\272.\327\267\274x8\006=\027\253\021=x\007[;\361\206\222=\204\310\257<\262\376==\363V\232=\032?\006\275\310\017\326\275\343\375\013=\340\371\215\274\316|#\273\033.7\273\320\337\010\275w\377\324=\231\224C\273\0176\000>4E8:\004<\244:\222\322\321\272\036]8\274\253\352l\271\224\274\316:p\264\033;\302r\247<\265\245\356<@Ez\271\362\023\246=\351\346R=\330}5;\035\201\334\275An\231;\032\250\304;\365\356-<qJ[:\251S-\275Ie\234\275\226\032\3279\365\266+\275\335z\216=\351\337+=5z\272<\264%\022\274\222\227\314\274\303\2227\274\206\0104\274L\244\310=.\272\260:\203B\314\274+\006\316<\263\023\010\275\004$\355\273\271\347-<50\";\3227\020\275\240\332M\275D&0\273(\323,=\016j\"<\014M\031\273\221\223\014;6\013\225\2738\343\017\271\016EQ\275\226\352\305\274\234\347\025\2738\335\334<\263\010\345\275a\365T\275\251\025~=\213}\277\275\201E\271\275CK\235\275q/\016=>\305\372\274\342\202\323:\231\000\013<\022\241\362<?\2366\274\005t\027=c\376\200=\343\257\206\275\177\203\246\275\334o\r\275\367\341F<\374*\255\271\310\343\331\274Wrg=\351\206+=#P\317=\200\'\220\274\334\215\240<\3035\023=\343\237H\275\354\300\256\275r\231#\274\345\t\226\273\004\022Q\275\014\306\347\275\026U\316\275\344Q\017\275\224>B\275\353u\222\274\330\\\277=\345GT<F\314h=9\023\033\275y\367\253\274G%\342\275YU\t\275\335>\364\273\352\247!\271!\347\306<\357\313\035\274r?\034\275\305\366p<bK\252\274\013J\243\273\235\335+<3\225\253\275V\020/<\017uv\275\231\346D<\177 \272<\315\344\035=c\266\343\274\323\363\243\271\337\023\301\275\270\006B\275\204\237\206<b\355\022\272\013\214}\2756\305\227\275*E\202\274\373\214\376;D \257\274\027\325\306<~\354)<\002k\374\274\375\010\232\275#(\276\275F\317\220\273\342\234I>m`3<>NO; \221\2678p\235\037:p\363\374;\033\355C\276\346\220\030:\016\330\316;W\307O\273\335\276\266=\334\272\220:a\233\013\271KKX=6+\236<\362\021w\270B[B\276\325Q8\275\2478\363<\200\372\275\273%\t\243\271\360\261J\272%\225\206;\320\203\017703\n=%x\244=\305\256\200\275`8m<~\2564;\332\000\317\273iU\262<\377\247\221\274\306\316K>\016\314\000;\233-+<\240\240g\273\204Y\374\275l\245>\272mn\241\274\226\r0\272\371\330\262=Z\203\326:B\326\211;\013pF\274I\233\025\273\335s \272\246\002\n:\356g/=y\204\376\272\255\200w\274\310\373\177<\030I\021\276\016\205\'=]\331\252\275\277\252\330\274\201,X<\030\332\307\275s\356 \275S\014\235=/\302\211\274\273P\356\275iP\215\271F\363\007;@,n;\217m\257\275T,\220=[\352\203;\326\250\3229nJ\250:5.\002\273A\002\n;\177\\\241\273\371\r\263\275\366x\'\275\260\300\205=\014No=\036SX=\335#\010>/\216R\272\221k\222\271:\202\244\275\320R\026=\217\373\317;\226\240\305\275]\355\334:-\317;\273\367R\220<\352#\2219\312\241\366=\n\014D<A\376J=\361\225\203\275N\311.\274\246\232 <\177\206%>Co\231\274 \224\370\275s\272\303<`\212h\274\321\001]\274\033\353\032\274\020\025X\275C\364Z\274T\371q;T\302\374\275\272\0054;\370\344U=\213R\202\274\313\2652=\"\374I\274S\3210<\344=\277=\370!G\273<\031\207\273\311[\311;\234\333\023<u\002\221\274K\335\005=\356\030\325<\367\377\"=\035\342\007>iX\210=$a\234\275\034\014|<\301\332]:\344\363\005:ms\033\274&\330\210=\374)\377\274h8p:,\351\320=\232c\"9\375\337\037:r(\013\273H\235\242=\264\036\2709<\202\013=<Ca;\323\305\371;*\306h=\351-\001=\302I\305\274\323\311\023=:\001\374\271`\344E<\177\004h\274\312=D\275\000\313\201;\3451l\272\023\266\233\273k\032~:xi\022\272\233\355\227=+\316\263=\203\316\363\274L\263\200\2737\346\233;\215\305\013\273\230\344A<\013\035\364\273\202-\315;6\251i\273(V-\273?\004J<\350=\t=\374\337\2148O\341O<Z.\203\267\257u\373<\247\312\376<\265B\243\274\307\025\312\274s\253\242<\r\014\217\274\205\353j; `\022\274\034R$\271\346yE\273\377U,<\024[V=\265\030\000\275R\335\203\275t\r\246\275|\024Z=\343\204\n\276\265\210\251=\214\2371\275O\201%\275B\263\030\274\325C4\272\016F\324:\030+\252\275\234*\017<8y$\275\234\202 \275\352\370\035\275I\374\233\274@/\027=Q}v=\234\224c\273\316~\316<\035\313s=\241\362\233=\307w\223={\t\033\275\031(A=\225u\r=8\363\334\275`\017\025\273\365D\002\274\221h\024\272=\201\025=\376\310\322\275\001F\335<\326\253\014\273\313\026\005\2764\222\030=\344\376G\275+3\275\275\215OI>\221\274};w\r\366\274\234\221\344\273\034q\035;\013\216\006\275\024\024\"\273\305\277\031>4\335\353<\300\033\274\274\222\235f\275\225\246Z=5:M\271m\235\246=2\2554=\344=r\274\273gL\275\0264\000<F\357X=\264K\257<\205\335f<\000\237\010:gVZ\275\355r]\275}$D=u\303\362\271\023\024\372<\375&|\275\245\335\026\275=\271y<x\375\323=\371\273i<\346\372\317=\317\312R=\001\353b;H\201\356<\333+\214\274\223\3676\275\006>\246\2742\340\314\275\035\257\006;\317\305\230;\371\217\252\2757\033g\274k\360\356\272\364\3303\274\364\037\024=:\261O:\021\022\324\274<\243\177\274*B\322\275\335\177\036\275S\344\214;\262\001\232=X%\276\275mZ\227\275G\277\363\2750l\333:5\331i\275\320\222\340\274\253\010\022:\315\3238=\273/\256\275\302#\266<[\037,\274\325\036\352<\344\347\032=\t\227I<\247#\235=W\3776\275I\r\220\275`\"\313<\221\3441\275\345\313\316=:\202\030<;\217\334\275\031\031?\275J{t=\265\032\242<\254M7=\\d#\274\243\232\\=*h^\275\236\300\";1C\363=\213x\032\2759\210\211\274}W\205;\260\350\324<[\223\030\273\014\342\226\275m\342\236=\264\326\252\275\003\324\245;\231\037A=\250\027\257=\212W3\275\023\322,\276\024~-;\216\324\007\275\375\326\306\275\213v\333\274\250sc\275\361\345\324\2755w\311;2\024\371;\266\252\346\274H\334\365=\022\020\241=\307\342\020\275m^p<\010\307~=Z~\345=\375B\332\275S\2352\274-\007\226\275/C\343;a\310\227\275\237\250\271\275\231\211F\274\257F\225\275J8\225\272\360\241\200\275\2246\350\273\205\2708\275\247\227g;\006\314\\=;\366D\274\022e\"\275C\000@=L\364\350\274\235\260\262\275\326\006L\275M\376\351=Km\351\274\017%\211=\271\006\017\275\312\240\327=\254p\034\275\324\361\301\273\326\275\226\275\264\201\237=&d\244=j\341\033\275+\373\263\273\365\376z<\37626=\034\004\232<\036A\021\275\230g(\275W\343\310\275\353\200\346=\\M\336=\242\370\336=\332>\254=\022\\\334<D\367\212=z\241\322=y\340{\275\312\025\307=\ndz=&\312\256=n\036\321\273\335\204\017\273\014\333_=\376\276\322\274\214\371N\275r\320\256\275?O\237;>\331\236;\301\375e\275\256\215\256\273\222jG;\301\265J\275\246\347,=(\236\267=5\336\300\274y\217h=\265\217\305\275\211t\331<\240\220W<6>p\274\210\353\265;\345\311\210:\350|^<R\235\036;:\313_<\360\235\3749\255\352\337\274\027\201\351\275)\351\205\275\233\337\205=9n\313;|\315\372\273i\230-=\002\231\366<\241\032e=\000-\306=\365V\231\274\005\030\212==\"\300\275\344 \263\275\022W\265<\266{D;.R\276<\324\361g\275I\'\336=\027O+\275B\270\321\2750\220&\275\037\325\332\273\013\261\374;\304\030\333=\212\271\345<\026\245\334\275\320l\265<\325E\344<\263\236U\273\177\247|\272\356\242\205\275\007\023\302\275\357)\203=\312\372\222\274\263\305\340<0\275L=S\225\227=\304\301\267;\014\036\362<\323\220\356\275\n\324\241<:\032t=\016\265\026\275\2472\306<\277\304\254=\245X>=\005I\013>\247\254;\274\214\342\242;\332\346\t\275\004\014F=g\277\365\275\032\206\227=\230\250\230\273\316\344&\275F\276\315<\034\253\372<\210\362H\275\341\301U<y\026\316<\016\261\205\275\217J\276\275\353u_;t\333\320\275]/\235\275\255\206\224\275U6\027=\010A\244\275\216\231d\274VD\005\276\200\226h<&\304i\275\352\352\212=\257N\014=\331\203\275\275\222KF\274\345\362\205\273\216\273U\275F\252\275\275\020s;=F|\025=f|\302<\355\220J\275\367\306,\275\025\235\034=\273\332\341\275\245~\341\275\026F\333\275\300\363\030:\025x0=\260y\203\275+\206\207\272\013\363\261\273\370\203;=\217\335\343<\3256\200=\244\032-\275\215\224\321<\370\300\350\275\214\227\366\275=\024\242\275\367k\331\275\373S\226\275\227y\007\275\257m]=\231u\273<\331I\312=4\332\2579\232n\301:\203\2064\274\334\3038\276\260\346\021\272Z\311 =fzd;\376\362V;\272\236h\275}\271\037:e\356\205=\320\2757\275g\373\220:\311\205\022\276`\235:=\250\274\377\274\217Q\227\275\230\027G\267\226:7\275-\364J\275\364+\253\267\240\025\343<\013/o=8\037\365<+\333\364<\336\021Y<F\t\201\275\273\373b=\2426\202\274\007\314\000<?6\326;S\265\304;\216\010.\275\211\320\325\275\352\262\302<\263J\233\274\"\360\230\274\035\322 \275\024tK\275p\340Y\275\345nr=\312@ ;q<\346\272\025\030\3659\375\021&\275\333\334\354\272\177\263{\275\177\3231\275\0248_\275\326\017\036=\202t\277\275$\342\353<\026{\321\275\345\277\271\275\r\206\002=\347\262\202\275\330\037T\275\321\271\242\275:\336\205:\200\265\005;&R\201\275\3004\305\274\024tr=\257\177s\2759\024\201:\250S\030;P\026\031\274\321n\022>\273R\020=\177,K=\222\2344\275\330\221\024\275\261\'\365<!\312J=\311\302\265=\211K8=\334x\230:\"\354\316=\241\032L=W\342_\275o#\204\274\316\313Y8:y\343<\313\206\022=\304\374\016\274\325D\262=\024i\020=\004E\t\275\366=\n\276)2\004\275\020\254,\2749\363z\274\374\342}<\327\271\362\274\246Q]<\017\235\022<\004\003\t=\236l\353\275d\325\212<\340\341\005\273S\334\263<tn`\275R4\262\274\327\005]=\027N\322\274\033\013\032\275y\360Y\274\336\341\320<\336\227\016\275Y\275\235<\303;P\275\301*N<\035\306/<~b\002\274b7s\275\033E\366\272$\206\241<\343L\013\276\237\377\002>\254\240\352=\347\031\224\275\3720\\\275\246\217\027\273~\241S\274\372\367\314\275\203\202\035\275\003,\247\274\335(\303=\225\351\031:+T+;Ge\014=o!\336=\2154\023\272\354\3105=\211`e=\314\222t\275\303~G\274\353\345w\274\334\311\017=\225\025k\275\217\356\204:D\2629=N\233\327\274\026(\242;8\353S\274\354.Y8\366u\275<\257\177\241;\373 \240\273\271\305\237= \372\242=\001\003\036<\305\234\317\274\317\330\337<)\377]<\363\360G\275\n\030U\275\0138\235=\221\260Z\274\200\341\017=4\035\212\273\317\235 =,\351\203\274\337T\310<\211\323~\273\267v\005>\273<\210\271\034\231\215<\234\225`\275\332a\r<\3104\013\275?Wj;\345\010c\275\335\303\013\274m\363\361;\207\024\"<\334\267\007\276\032\020\203\274s\235\375\274&/_=\222l\335\275+\334Y\275\241\036\237\273v\264\341;k\323\017\275=\3511\275J\274\334:\036\337h\273G\254\007\275\273z\021;t\016\274\2750\312X;\363\236\224\275\336\340\311=)\255\362=\324P\367<\310\035\236<\236\325z\275)\213\223<\370\014\201=\262\032\344<\324\234\235\274Rm\214\274\223\267P\275\356*$\275\375\313\337\275zm\020;:E\256\274\336Z\274<\334(\213=Dg\205;\365\364C\275\246\367?<{\221\033\275\367$\233<\373Y\316\275\217X\314<\277*I\274\2408\242\275\313<\213=\315\035\221\275\3276\313=Z\007\202<\341\016\333=\353\375\322\275z\332\326<cR\025\275*\266\330<!\357\233;\351\r\013\274\013Zd<h\016\305\274\316&G\274JBv<1\014\317\275\240\223\270\275 \345\273\275\260\306\332\273\262\022\313\275\304;\222=C9K=g}\006:\017-\224=\207\t\310\275pz\304\275z\367\211=\236\236\001=\035\200j\275@{\232=\340 \273\273t\032\277\275\030\017\230\275\242\243\214\273R-b=\225Q\203\273f\266\026>\317\217,9f\037\271:\327\016\366\274\213\213\020\273\257\247\205\272\200\375X;6\372\t<R\222\001\275\356\275 \275@\323\n\274\255>P\274\215\023\274\273i\227\274:\033\007\272\275H\347c\275f\274\006\275\306$\237\275\306o\223\271\277\325\315\273\317\266-=\3345\231:\326\232\237=\327\342\'=\341\314\224\275\223\233\366\274\305*\030\2750\232\372\273P\232\205\274\027\354\374<\242$\007\275Rk\240<?\224\310\274\310\217\371;\234\244\002\276\262B\310<O\252\014\273\366\275U\275\026\272]\272\223\232-<\221\215;\2756.l\275\n\336\303\274~sZ<H\377D:l\036)<TK\224<x\252\302\275c\323P\275p\3432\276\317\250\266<\r\226_\275\237@\322;AM\247\275s~^=1\367\000>|\264\365\275\344\203\226:n5\371\275\3076u:f\tJ;\344\033p<\013\334p=+vd\273\360\352 \275\374\231\3769.\277\225;f$\037\274\344Vy\275b\360\371<\333\201\364=\363\004\367;\014\002B\275\277\274\027=\034\226\251<\367S\010\275\303\350\266;B\024\270:\366\260\330<\230\200\223\274J\002\024\274k\312\260=\007\211\213:\032\307\357\273\310\2447\275\032Q>\272L\242\016\274\340TV<\304\316\272=\033\374)<\362\316\227\275\2161\245\275\030 \343\274\377\256<\273\021\353\275\275\230S\264\275.\331\213<\363UA\275\372c\006\276\225\276\210\274\310\316\002<\336\327\351<\035\366A\274\273\016\016=\2003\326\275\326/\327\275\013\271r\275\001Pr<|\370\241<\316\026!\275\002\332\013=\220w\236\275\024\214E\275\310\316\327=5__\275\300\037\263\275O`\222=\253\375t=\335K)\274\035\266\300=*3\224=\351\246\232\275\332{<\275\027\317\031\273\333\r\274\274\312_\210=\370\276\246=\304y\232\274$(\200<o\013\035:\230\214\277;U\354\220\274\333\234\370=+V\245:\260\030\204\275c\253\201\273\330\035\271=c\336\231<kc\267<E7\006<\350\256\021=\370[\007:K\307\257\275\372\033\250<\215L\261:\356\035\374\274\312\277\203\271\371:\333\274^\r8=C\\F;)[\342<\363.\004<\t\256\'<\031\t\262=~m\022\272!\242\211\2759K\320\275Y\201^\273Cv\316\275&\025\023\275w&V\273\370I\001<p/\272;s\240\003\275\217\234q\274\346I\r\274\322:\342=C\345\024\274\363\313\032\274\304o=\274\230\\G\274\340\214\t<\306o\016\270d2\022=Y\221\361\274\247%\205\274\303\320J=\334_\206=\023\'\337\274\013}4\275\227\262\242=3X6=s\253\203\275\253\233\264<\353\000O=w\177T=s7Q=5\216\024;j\220\233\272\314\256y\275od\313\274\321g\210\275\247\206K\274\330~\353=\037\375\346\274A=\225\275\273\2453=L\034\036\274\250\001\221=o\202`<\364(&=}Q\334\273\263jc\275\r\275\320<@&\244\274k\370\025\273\014\256\266\274\357T-\273\002\275\312\273\350\345T;S\250v\275\305:\226\275\307\177k=l\255\215<\003\260G\275\t\034x\275]\020\210\275\374>\330=\253#-\274Z2\336\274Sn\036\274\002h\002=\251\342\007\273\275\327\247\273FET\275\203<\013\275\020\320\247=\305\320\233\274\204\314U\275z\230 <uaT=!\313\373<U\317\214;\037I\240=\265\025\017=M\337\3459h\207\264\275Cl\227\275P\266\355\274\177;\263\275l!\246\275Wd\002=f}\245:_s\026=0\255\322=\335\3057\275@a\325\274A\257\375=\201\373\037;\214\026D=U\236\t;-&)\275\312%\277<\3362\374<U\222\246=\235\223\220=NT\207\274H\375\230;*\037H<\332F*\275\241:\026\276\236!Q:.\355\377\275\n\026]\273\272\366\365\275\306X\002=d\223\364\273\342\003\255\273\356,\016\275\025\020\260;\013x\003=j\036!=\266s\220\274\271i\340<\026|\207;\304\204(\275\270\311\330\275R\2368<\227\330N\275\203\226\237\274\363O\330\275\347HX\275\307\315\212\2747xe\275\3040\177\275\235\256\350\275\237o\302\273b,>\275\236>\032\274_\037?\275\'\207\264;JE_\275\325\352\005=\365\001\221=\034\364\377\275aA\304=e\370\013:\302Pc<<\350\024=\246p$<\327r\362\273\253\370\311\275Uq8\275~\024\250\274\221x\202\275d\014\212=\242\336\324\275\272zN\275\355\302~\274\320v\344\275>{\376\275\300\376\332<\023{\237;\376\203\205\275\373\241\017\276\203\201h;\320\026\324<\332h\250\275\304\241\355=\327\263\027\275;\032$;.!7<M\255P<v\031[=\350\356_=\270\323\277=\301&\024=OC\250<\2149\201<\344\017e\274\363y\217=\0279\311\274qq\233=\001\010\342;?_\264=\320\227\263\275)\370$\275\221\327\326\275\310\023D\274\032\036\234\275\236\354+\275XH\177\275\032\231\315\274\204\037\244=6EG\275;G\217=\"\377\371\275\010\010\232=<1\202=\206w\324<r\253\326=\256Yu\275\021)\231=v\026\031\275$\221{=\326L\275\274\362h\360\274LTS=|v\264\274\350\306\224\274\242W\355\273p\343\034<\273\3575=#\252\222<\177F\324<\346\267\001\276O\304<=\220\235\273\274\274?\\=B\032f\27478\276\275\3760\033\275-\035#\275\355\035\334;\274\230\222\271\312\361\205=\000&\247=\232f\267\275)\370\364\2754\034\023\274\023y\350\274->\263=\035e\021>\313Y\222=\025I{\274YJ\024<\217A\234<A\010{<\225\222\001>~\004\363\274\264 \207\273(\344+\274Ye\220\275\376\376\212<&\203\265\2731\007:=Dv\340\275|\321N\274\360\240\361\274\014&\263\275\250Q:=\177\210u\275\271\217\204;/m\n\275\327\315\031\2755Q5=\026\307\264\2755{\242\273\t4\345\275\366(X\275\023\261W\275\256\277$\275\321\361i=-\234\257\273;\375\253=U\256);\350\251\304\270N\027\334\273\317\261\335\275\331\204\277\274\243sD\274\200\272w\274t\202\357;\326\r\333<\351{\302<\002%\207\275\316\030\346<OA\266\275\350\244\031=xk\223\275\362\320\273\274\373\t\230\275\003 \374;8\030\201=\273\232\314\275\221\004\003\276r\240\307<\214\260\356\275\030\325\216=\014\374\205=\277\302C\275(\256\343=Ex.<! \325;\000b\362<\007F\232=W\342\364=\323\251\246\275\001<\030<\347\301\213=\t\366b\275\266\025\257\273\200D\227=e/\016=]V\324\275}\361P=\260\013\332\275\031\326\241=\030\316}\274\274i\301=s[/\275\370-\257\275,n\233\275\307\317\212\275\314\333S<K\352N\275.\273C\275\024\374z\275\254\331\021\274\312\201\234=\277\362\010\276[\243\262=\257\275\335<\tg\204;!D\004=,\006\242\275\264V\243=\202\247\337<\002\016,\275\356\301c\274\036h\315\275\356\344\177\275\245|\361=\034\365\201\273b3\307\275\031\270\002\275U\327\3409<\235\231=\033\343\027\275\201\316\262\2744\010\201<m\241\330\275\205\356\273\275{\351.\275p_\031\273\n\033\226\275\n\343\335<\232p\336=\274\312\347\274!4\"\275\353\024l=\363\261\374<\030t\326=\371\342\"\275\000\006\257\275\224\007\241\274\265\250\035\275\220\313\227<E\344\206=Cf\225=g\232\320<\374\234/\274\257ff\274\310\351\216:\\7O:(\355+<\330g\203<\231\354\253\272\256N\266<\2750\\;>u\341\275\034\347L\275d\372\t<\240x\234\275~\307!=\223)\231:\027>\335\275\024\223#;s\026g<\343\365\206=\304.\353\272\237\366\365\274\235\376<=\t*\325;4\035g=r^\277\275Q2\330\275T\t\220=\300\334\251\274\\\341>=\222\342V=\007?\320\274T[\222=\3516N\275\246Em<\214Cw\275\014\273\237\275\236n\320;\231[?<\272\'5\275\036M\311\274\205\244\232=\002\224\272\274+D\252\275\200\323J=\t\332h<`V\2028\245\007\013<5\212\331\274\3221\211\273\334\324\224\274<\274\233\275>\344\336<\212\036\276\274JA/=\270\210\370\273H\225\302=\016\2705\275U\301\307<1\344\202=\272\035;\276\357\316\324:r\215\250\274\232\351^\274=D&\275?\203_=\356\376\316<\222[W:\256cU\272\362\t9\271\n\370\246\275\352\312\352<L\200\217\275XB\024=9\270\001\275\004;S\273\313\373R\275\323\324\304=\250R\332=p\246q:.aO=\374V\253=\320Qa\275\305\332\227<\'\373\342:P\275w;\237\036\212\275\201\303\371\274\235r\332\275c\227#=2l\013\276cL\007=\275Q\213\275\022\304\204=\311\364\256\275\202\245\255<\225\212\200=\352\025&=KZb<m\\5\275\327\332\010>$\\\320\271ds\033\274l\2000=\234\341\260<\232\377\374=/\212\305=\345\030>;w\373\251\275\033\260\202\275\265i\010=\211.F\274k\267R=\203\337\257=\377\220\246<\311\232\346=\000\325\205=\244\375h\274\2255}\275\234Q,\275\346j[:\257\302\224\274}-\255<\251\026n=sF\213\275p<\\\273\321\024z;O\325\256\2757F\002>\035\022}<\361\200,=\313\017\233:@U\305:R\177\037\275`\326\317<\010\370\317\272\306\025m=\210!\026<^&\201=\177q\344\274\273\350\213=\254\364\223<\022\305\030\273\361\003\037\271\246\310]=\301c7\275\274\373\307<?fN\275T\353}\273\314\025v=\277\273\342<zEO\274\257\276>\275D\\\371\275\356\354*\275\367\t\313=\200\237.\275\t@\206\275U\036\377\2747\254\273\274\310]\312\275\301T\030\274ga\017\275\317\206\032\275 \254\002>hC\354</\274\036<ft\361\274\212}\227\275\267\376\244\2744\263\354\274]@\266\275u&\016<\007\376\306\275l(\321;\203\322\223\275]\366)\273x\374\243<\217s\202\275\267fG\273j\236\257<\266\316\307\274c\221\270\275\030\252\200<2\037\371\275Q\371\007\275\234\017G\275\337\223$=\005\202C\274W\0322;m\204\247\273R\314\216\275\212\264\217=5R\356<^\210c<\311\222\243\275\365\275y\275i\177\014=\272\271\241<\035j\'\274\016\227\303=v>9\275\327\000\243\275jR\207=\334,U=\244e\312<\362A6=\371\201@\275\004B]=0\217/\275Ux\021=\025\236\207\273j->=\000!\227\274\023\351\035=\274\275~\275\345\214J=\216\241\344\273\016X\001\2763\215\\\2742\2132=\246\032\200=\204\233\360\274\342\247\211=\341\n\207\274X8r\274\236f\252=\034w\225\275\036\244c=\350\2403=\373N$=:+\211\272\304\334\210\275\262\221\350<\331d\243;$M\371\274\351\212\027=y\232\304:4n\026\275gT\005\274\335\305w\275\376\251(<\007R\200=~\372\276=Q\200z:A\212\005\276\310oQ\275R\177y\274h\006\254<\224&\324;[\367\235=\017\354c\275Q\324m\275\'\351\250:4\276\255\274\352e\254\274\344\254\226<N\271\3108\252\004\033\275)\240\2309\236\234\226:\200\321-:\364\361\226\270\330#\013\27175u\272\340*\3149&\007o;\231\201\010\271H\346V8\364\200\211\274\002\006\2529\001\342\217\271O\226\250:\306\362@;\355{\222<\332=\r\271-\356?\271\272L\265\274W\022\267;\\\227\202\271\272\25629\302\215t\272\216X\330\273\347\224\346\273\314\217d<\304z\236:\303\360;\273\377Z\3558\373\035\3018\326\353\265:EI\313\267\245\350\t<\304\213\016;O\261\224\267+k\277:\310\370\004;\014x?\275_\326\003;Wyj\272\320E\'\2727\347\232:\361#\325\2719\212\364\266Y\256`\274\247,\217\271|\023\004\272qLl<\030d\232\272Qd\315\272\253%\326\271\325\361\365\272-\213\310\274\245\241Q\275\034\251\316;\226\325\274\274\267\263\314\273\n\353\3569^\207\220\267\3521\36498L\304\271[\270\274\274(\t\026\272a][=>\"\026:6(+:\221\353\375\271\330\356\314==\241\217:\200\342W\275\270\002\257\274\340\342\201;\362\345\237\275\256\302b\267j\237;\275\255\005\005\275d\352X\272\005\320\207<\265\313\241:#d\325<\323/\226<2\213K:tS\310\274\363\270B\274\363\251~9\327U\207\273\355\3640\270Y2\366<R\377\257;\320K\241;\027\375^\275oo(>\206fZ\272\241R\257=\312!\265\274\305\327<<7W\032\272\030\027\343\273\306\004\235\275\033\017\3308\330\335\261\272\333\007\321=\232\330*\276\374[1=\325\223\226\2727\221\314\274\367\242\206\271\017\363\0059I\252\207=\320D\244\271\333jD6\221\327\342\274\330A\214;\275(\227\275\261O\303\267\020\342o;m<\357<O\222\357\275\317f\306:\363\031O\273\261\332J\274\036w@=\3042\0258\272r\r\270\311_F\274<\211\306<\003<h8f\031$=\033\004\2619\356\245\3019\034\226\327:\251\263\354\272\006%<\271Q\373K\274\005\245M:\251s\216:X\364\231\272t\345\2506F\241\223\274Z\344s\270\272\231\003\272\212\242[;\322\364\2327\276\265\207\274\341\246\2329=\t\227\271\246K\212<f\\\335:\367\r\253\271\273\256\022\273\336r\256\273B\002P<QQ\222\273\30742\274\357\247X\273,A\365<\024$\2128=\213\247\273m\215\257:m\370?:QC\272\273\021\277*\275\367I\2156\205Ot;e\301w:\374Vf=@\347\2269\301,\270:\331\372\214\272J\014p\271\256\320\331\271u\343\227\266\267h\237\274\177\205\0317\013\025j\266\326\224(<\215\254\234\272~\373\226:3\262\217\271\\\260\013\273\302\237\230\274\207\306E=t\016\345;\007\276\'\275\334\\\275\274oN\346:h\254\305\267\215\032\2518\331\034%\273\r+\201:\365\"\\\273\243\355b=\241ov<i\334\214\273\255\364V<\202(%\275\3147\0107\222\330\021\272F\224];Y\2339\272!m\203=\202\227\275;\250\255\0009\210Ak:\323\3208\275\031\344\253=#D98\032\003y:_\033g:\006wZ=b\017\254<\230R\211;\271\267\360;C\277\335\274\030\035\037\275E\267\212<\220$+=@\007w\273\352\2444<\233\231\227;P\022\0049\316\005\324;\257\225\n;\214w\351<<\022J\274\354\003\242\275\ts\245;\223s\332<~z\006;\006\343\231\274UX\350\274\365\305\225;m\307i\275\214\004\000=\367\330B\274\265\361\271\274\265\315D\275\370\266\2069\310\177\301:i\033\334;\360\010\233\271\360\227\223\266Z\034\3749b{\202=y\344\235<LWA\274\265b\'<Z#\014<V+K;\233`\357\273\027\306I\272Ds\022=.\243\000\274\227\322\352\272\246\\\027=p\247\020>\255\331\\;\261\245\343\272\305\302\257=\030l\357\275\326 \236\272i\000\204=\366o\273<\026N\224\274SE2\275i\220\274\272\236\374;\275G\302j\275P\240\216;l\250\272\275\336\016\323\275\300Z\301\275#\350\271<\254Q0:\327\020\234\275\353\316\255=\246\322U<\274\020Z=5P \274\335\363\207\275\214D\030\274\362\r\250\275\013\226\325\275J\265V\275\200\021\240:\274\224\250=/\316\256\275 [6\275\013\025\244=\374\271{\2754c\215=\232\207\254<A\205\022<`\3761=\245\001\271=;#\n\275\r\222\232=e\007\373<\005\"\247\275\272\3502\274\000\334^\275\354g\"<\265\023\205\275k\373,\275\257F?\276\221w\304\275\242\370\272\275W\010\201=\326\276P\275EuG=\343f\350<\277\342\225=\276v\223\275m\230g\273]\002(;\271\320\342<\002\'/=\002[Z\275<\000(\275\245d\013\276\360\331\013<\254\377\022<m\2506=\351\233\262\275\004\365\225\275u_\320<0\316y=W\211\230=\207\235d=\333a\274\275\225\221\212=.\336\235\274h\355\276;\026r\315\271G\335\241=\235\3019<\017\353\263\274\345\002l;\313/\220=\370Y\317=\247\016\200=\230\206\350\275%l\223=\337~\235<\020%!\274\277\035\254=dQ\261=2\347\327=\363e\322=\207\276\256\275\026l\336\274\261\016C=\n\336\266\275\262\335\307=\357\353\032=\255s\234<|\023\242\2758\005\240<\376\031=\275\326\256\214\275o\355\302=\224\344\232<\3057\036=9\343*=\2578Z=\304\332E\275E<f=&\262\302<\371\340(\275*S\322<\243\030K\275\307\327\204=>=\220\275\265\356\215<f\275o=\300\257p\275\360\206\177\275\001\342\261\275\312\325\345\273ho \2751\315g\274%\246\362=_+\003=\247\306\010>\274\324\361;j\240\267;\032\345\266=o\333\007>?O\313\274x\342s=\306q\201\275\260=\277\275\327n\262\275\3427H\273\243\\\204\275\332\027\267=6\0148\272;\350\326\275\376\226C\2758\017\207=\351o\342;S\265\'\271\267\241\302\275\235\216\306<!\342\003=\300\340\203\275\252\016f\275\003\300\240\275\346>\377=a\366\243\275\221\302\243\275\275\261\334<\375|\215=f\\;=\207\024\254\275:\224\007\274ub\273<\201N\246\274iX<<:\020\342\274\324\274\307<\201\023\005>\267a\025<\0379\037\275\302\304\024=\306\235W=\210C\202\275\324\376\351<\336\r\352=\245Bj;l\221\325\275\200\342\274\275#\264\240=\364\'\227<\204\372T=,\327\233\273\005C\031\274\013\372X=\350>\363<\321\177\006\275\256\300\320\272bN\362\275\354\327\236;r\320\313\273\223\214\227<\035\365\215=\350)\361<X\272q=\211\270\366\275c\310R<}\3503\275b-\026>\270\355\225\275E\301E=\224Bb\275Oy\r=:\230\240\275\274\243\274=\013uV\274Z\3632\275\222\341\312;\200X\234<\221\356i=nM\021=w\201\213\274\177\257\325\275\0314\177;8\221D=\330\310R=\375\276\244=\244Q\014=\023|K<\250\003\332=\307\312\221=\027x\t\274B\n\355\274)O\265\275\372R\202=\033\001\027=\251\207\307\275\305\262\261=\324\237\260\274\006t\006<l\277\357\2754\347S\275j\241\257\275\223l\267=\216\370\241\275 \311\264\275>Z\342<\337\225\304\275z8\t\276\356!\327\275M\270\341<\213\340\222=\240a\271=8\303\374=\213\036k\274\321\337\322\275\366bf<\007\372\215\274+(\224<=\'\312<p\'\352<\201\226\342\274\263_\225\274\204C\240\2755\034\342<\370&\277=\205\371/= 7\243<T\036\310<\276\231{;\207\232h<\256\3007\274\033\274\246\275\207;\"\273K\251&\275\2200m\274\023\231\243=\304;\343\274\021\0072\274x\265\352\275\242)\313<\2331H<\213\225\306\275U\334\206\275\002a1\275\301%O=q\2378;\363\374\000\275J\246n\275\200\332\260\272[\002\252<\314\372:\275\342\263\252\275\211\302)<\037\305\017=R\337\224<-\224\013<0\203I\274\021\2361\273\033\337\243\2749\344\254;\247g\275=\025\336u\275M\231\222=\352\265\245\275J;\213\271$\315\202=\220\254\334<\334\264\231<\270\212v\275)s\263<y\275\212\275\305\263\264:\245\027\321<%\256\250<\366K\306\274\351\275\255\273\365*\371\272\272\225\270\275\223\n3\275o\256\334\270:\305\253=]\244\034\276z\253\367\274\340\034\032\275\341J\021=\332\211\260\275\351\214\\;\257\232\342<\333\256;\274+\344r=x\263\004=\002\375\274=\376\371\"<\370]U<^\214k\274;\372\301\275zLD\275\3171\245\275\2740\231\275\360\026\372=\214\232\272\275\321c\221\275\366\306\312\274\016\201\235=2N\333;\304G\212\274\321\271%\274\306\321\300=7u\205=\232\343\006\274\330\244i=\271c\330=?Zn=4\032\323\2740C(<V\335f\275g\361\335=\"`\n\275`{N=Tw\246\273\006\265\314=\375\035k\275D\224\250=n\\a\275\306c\320\271E\235Z\273VE\214=\034\207\372\273\027\253=;\304\365\331\275\351\257+\275\211\263Y<7\367\253=\346w\030=G\030\307\274J\'\022=\205\275\374\275R\337u=\226\001\204=\225\323\235\275\\,5\275\346J\320<{\245\315\273\032&\243\275\233\014G\275|\341\270\275\244\001\255\274\240\207\245\274\257\351\227=\345\246\206=\255\002\373\273\363j\007\275W6\273\274m\200N<\230C\323\274q\374=\275V\343\371;l\027\257<\261Yg\275\035\360|=\240\"\201<\316I\242\275u\233\275<\310\2765\275\3313H<\210\224B\2758Eo\275\340\240\014=\326\352\220<\226\271]\275\3040\205\275\375US\275\353l\245\275h\210\206;\\D\212\275\205<\263\274\270\335\006=;j\034\275!\324}\275\031\233\361\275\355O\257=@[3\275\206l\214\274Q\234\323<U\365S=On\031\274\236\265\251\275O\207z\275\271\023\323<\306p\257;\0325\232=\234/\270=\206\013?<R\014\225=7  \275\034\327_=\210\334\261\275\225\352\201\275\242j\255;\322U\230\274\327\345_:\022\022A\274s\344\'=1\016\307\2751\347\020\276\306\226\245<\353\201\317\275\003\241\231\2752\347\356\275\255\237\332=\002m\216=\363U|=\355\257\225;\342\250\331<Sz\341;\364\352>\275{)\250\274PM\204=\010O\234\275\267m\266=G\315!\275E\023\265\275\341\224\206\275\254i\212<O\346\213\275\226K\230=\n:\002>E\266\"=]O\275=a\201)=\306\207\303;f\027\250\273\360%-=\177\277h\275=J)\272?CB=\2300(\274:U,\275\031\033p\275\021\305\322;\375t\317<l\213\234=\301\370v\275a>t<\270\256\002\274\010\326O=\t\017\200=\0063\215\275\251)\267<\035\226\371=\021d\274\274\353!\205=\023{\356\275\332\026C=\266\375\225\274\260y\266<\370\'\237\275=S\233=\010fK\273\265!v<$q\000<L#w=b\324\353\274\305\367\252\275\342\\K\275`\332B=c\344\300\275\025\210\251=n\206_<2\354\300\2731\036\335\275\317\245\264\274`Wc\275[8\247\274\200\365\272\272_l\302\275#\316\216\275\257\315\021>\226+\352\275\365\377\243<\211d\214\275nB\274\275\001\314T\275\310\221\262\275[\210\240:\265#\006;\347\3338\274E\302\364=![\256\272m\030\225=\n\034\241;\003\317\201<\364@\364\274\262\350\226<\210k`<\302\310\226=\237>\201;\313\363\256\275A\316~=\235@\235;{\225\235=\306i\000\272\315\270\252\275\362?\312<XJ\350\272m\266\\\275\307\376\216\275\2226J\275%\020\314=\352YW=\355\027\010=\254P\226\274\003#\2077-\221z=\353\301\216\274\342\355\r<\247tx=\301_\312<\000Y\371<3\231\225\2751\306\333;\341\2056\275T\017C\275\314`\364\272\036\004{=\373(\257:\333\346\023\275@\225$<\271\225\314=V\312\027<B\233a\275\244$\252=\337Jc\275\345 a\275\025\316\246<\204\307\250<\004\225\301\275\001\377u=\025\007\360\2741n\222=6\220i=\225\000\r\276\222\002\032;\2069h\274\220Xt\275\025hc=\362\314\267=f\026\234=GQM;apS;\345\352A<\203\324w\275\205\256\217=\340(\210=\340m\377\274e\360\353\274\321E6\273b\372\224<k\301:=[\213\303=\361*\321;\307\261D=K\352\223\275N(\326\272\377u\337\275bK\007:\345\254\230;\263\232\320\275B\024\223\275L$\233\275\264\307\304<\022\214\313\275\032\251\300=\265\356\275\275\330\330\212\275\327a\000\275\000\025\234= \304\024\276\204b\\=\303\370\224=\326F\021=\350 \302\275OH\307\273\333\204\214;\025\3450\2759!\257\2757ih\275i\274\324\275\332\014\217=Zx\272\275\346\302h<o\345\007=\235\217\210\271\335\033\265<\357x\204=\316cI\275\327\246\030>\020J8=\216\316\365\274\302o\226\275\356\222,\275:S\300\275\316\221\034=z5\272\275\324L\320\274\250\022;=\210Z\255\273\333\320\213\273\331P\230\275\356>\024>\250KM=\322A\213\275p\030&;\376\224C;\247\356\206=9KP=\377B\036\2719\251\353\275,\310\371\274f\345\215=\270\311\036\275\306U\014\275\337\202\315\274\241\376\232=:\225$;9\237\223=\226\305\205\275A!)\2754jw=\234\375\230\272\274\231\326\274\206\023<=z\2560=\245\370e=di\223\275\350A\007\275*\331B=\310\336\370\273\304\007\247<b\366\177=\233\330\021\274\302\227Q<?\032?\275\251\366,=\016\340V<:\251\226=Q\354 \275\352\356\221\275~\023\323<QQ\266\275\261\272B=\005\021\007\273\205n\310\275\236\235\233<\304\332;=\200p\240;^ST=\277qY<7>\006\275]\201P=\240\304\202\2756\210Z\275\030\306\251\275\256#j\275}\251<=|\357\241\274\277\362\335=\302\n\371\2746\344\271=\202Q\264\275\340:\221;W\2575<z!\326\274%c\220=\\&A=W0\222<\347y\007\274\002B\342\274\002`\260\275\265\305\324=S\316\005\274|9\002\275;C\247\275e\022\350\275x\2030<0??=\211\304\243=f\341\343=l\0000\275^\241k=\\`\000\275\2428S\275\215\250 =\032r\350\275{\363%\275\242PQ=\266\217\022\275\316\307\341<\254\270\006\275$\336\326\275\365\315\231=3\332\024=8P\230\275f\\y;\214\215l=\0362\030>\252\204O\275\316\010-\275\231\204\203\275\027\355\243\274[i\247=\370l\n=\220\360};\016\322K\274\352>8=\213m\035=\366\205t\275\206\200\242<\251`\261;:\304\033\275\230~\255=6\226`<\321XE\275U@N=\214v\207<\327\205\36683\205\\=N\261\023=\013\005\352\274z\263\304\274\025\034\236=\233\035f<\257\000\350\275\371\314\322=\376l\352<\010\036\t\276\\\350W<\316\021y\275wN\236;yb\200\274\022U\2359}\247\2459\365\374\221<\226\363\326=\241\267\361\271\232\242\330<\222\"#<\340\210\001\275\254\341\033\275\036 O\273^}C\275>/\244<C\345\367\270\243\007\365\273\007\246\254\273\374\300\305\274\177\265U\274\020\251\004\272|\010\303\272\222\347\313;\275\235\3609\r\016\367\274\232\264\004=\322\250k<\250\224G\275\371\022L9\247\217\207\274\263\320\224\275\216\r\370\273\031\214\221\275\224\353\275\272\350\013Q;\301\215\004;\320p\252\274\277\003B;\035\317\345<`\256\276\2744\007\321\275@p\277\274\031\345\020;\3161\022=\210\2141\272\262!=<\035\006\2259\233=\005=k\224\205\273\365\026\370\274Ne\212\274VB\253=\306:B=\021\307\017>\003\010\236;\303\273\255<\352\272\016>\365\223\222\273\351\245\226\275}\213\205;\222\2440\275\354!>9\376F\'\271\227\020Z\275\2317\336\275\211\362\370\273|%l\275\332\r\035:\023\343<:\032\377\003\272:\350\364=\306\234\257\273\235B\'<O\341\244=\216\002\333=^\247\242\272I\203\267\273O\325\267=!\021\230\273\315\355\272\271\200=\341\274\r $=\304\240\274\275\307B\260\275)\255l:P\242b\273RC\351\274M\264\255\274A\317\212\273J->\274\225\367I\275\327\3220=t\366\300=\017<\341<\177i\326<\226;\003\275):\246\274#\342Y:\261n\360<\013k\255:\340\301B\275:O\244\267#\264\306\273\271H\037\274\022\210R<<]\275=R\277\253\274\345\340\360<\326t\242<;\306\362;*\266\016<\'(u;\\K\024<\364\263\207\274\267\234\240<\372\333f\275s\013\206\275m\256\001>34\303<\311&c\274yc\025=\225f\013\276\253\201\025\275\272A!=\377\334\t\276\022\000\365\271\222\263\030:\331\355\222\275.\016\227=,\274\272\271O \203\275(\030\2249\277#\363\270rI\264\272p\321\351\273\242a\243\271\271lK\275m\242\321<\3537\354\274\213\212\235\274!\"\352;t\233\377<\242y\204<hN\343\267[Dd</\276\030:\007b\025;\345e\202\273Jz%\272\365\226=<{\200\230<\265\342A<\225\2633\2750O\001\275P \215<\210rC=\323\002\302:\251J\301\273\352E\371\275*!(<\262\'\202=}\223S\271\027\035\251\274\227|\312:\021\021\231\275\'\205\013;\"[h\274/F_;\352\232b<hh\014=\221]V\271\267\206\034=\277#\240\274\2319\222;q\352\2429,\020<\2746\350\327\272\261\026\365\274\315\376\025=7\364\215\274\346\354\006:j.\370:N\005\231\275\343\2743=\370\202[<\367\234\327;t\307\032\2754WQ<\322a\240\274\245Q\317:\312\360\313\272\201\377\013=\013===\3613\025\275p\276y;\274=\230=\013\t\202;\310\276\031<\232f\346=\314\342\247\272$\372\004=\010\213\033=u\230\230=\346\347W=V\366f<\010\267q\274\343t\225\274E\032\265=\356\0050\275\177:\352\272\346\000V8>WC\274\t\025\014\273\372w\212\275\n\255\201<\334\340\203\275\220\350.=\02647<\326(u=\035\356\205=\210\r\2519\216q7=\025s\203\275@{\302\274c\245,=o\257\014\273\243q\332\274C\014$\274\242-\237=\322\306(\275Vg3\275^\303\230\273@Mm\274\234\036\333\273\315\224^\271\025\327\243<4E\211\275\031\354\017\275\265\243.\275\031b\251\275g\321o\272\023\275@\274\022~z=l\251\013;\2270\2449MA\211\274\225P\355\274\013\202E=\361\251|\27576\032<\307\010\212\272\212\031\247\275a?\322\274w\305\206\2746\353\231\275\250\226\030\273\242n\200\274\356\325\305<\262\206\025\275\333\224\226;\215\002\020\275\314\215\306<Tdd\276\226\266\363;{\304\232<$\330\275\2748\356\376\275\221R\266<{i\277;\005\321\031=i\010\250=%\257\231<\364#q\275\305(\314\275\356\020k\275;\264\365\274\227\210\336:\215\206\334\275 \221\350\272z\014\310\273\343\341\225\275\341|\200\274|\205\236\275\342\205\"\271\270u\317\2748*\355<\367\257\262</\376}=\030M(>5\315[\274\225\td=\313;\032\275\341I[\275<\247\001=R\262!=\311\013\032\275\334g\r\275-F\256\275\310\205\r=\003\201\365\272S\260 =\310\346\200=\206\346\020\275\211_\212\275]\"\254\275\302K\355\275\313\021\217\275\276E\003\276\004_}<\016\005;\273\224t:=&(M<\247\265\000\276\251\340\301\275\235\324\316\273U\361\035<M\323F=\337\332\243:;\013\\=\"b\263\274\255\014\320\272\350u\221\2757\034\004\276\273\331S<I\334\212<\362\222?\275\340=\245\274\377\276e<Wmg=\322\211\005=\250$\014<<\017[\275Bs\372<IT\241\273\372\356\315\273Cr\253<cWN=\303RJ\275to\352\275\323\010\216=\017\372\325\273PVx=\333V\353=/\311\034\275%\255>=\r\210\003=\001A\316=\370\214\243\275\234\202w=\340\003\311=\333{\264<V\024\323\275j\177\255\275\3326 \275\000\273\000\275\324\354\346\27417\356\273\231\275\267\274}\0014=E4\307\275\376\266\253=T\316z\275\235t)=\342Os=E\326:\274\354\266d\273B\215!=\002J\255=\tO\206=\243 \264\273\017O\260=e\216\307\273\344\250\016=\212\242\260\275/k\256=\037R\212<{?\323\275V\243\002>\342\231o\275o\345\r\275f\332\262=\373\356\364\273\301\246|\275\242\213y\275\004\276\024>W\024\304\275\326\246\227=E\3100<\307\031\225<\n\304\366\273\017\342\244=\355\370\035\275\243l\353\275\350\333\t={\001p=\2148{=24\252=\205\257\264=w\333\271;_\217S\274\030\335\242<\337\025\226\275W\003\210\275\302\352\024<\251[\032:(\325\303\275\241 \006\275\3410\030<\"\367U\274\366\320\241=S\327\361<d\227\276\275\365\022\336\274\376J\302\273\3549\007>\360;\254\275\232\325\217=\354C#\274\245A\235\273\027\357\232=P\233\274\275\326\232X<\372\303\300=\313\366v=\335a&>\337\253o=a\031\250=\342\034T\275\272\222\247\274I\200&\274]\2327=\002K\036\274AJC\273\317I\266\275\002\377\374\274;\201\210\275]\205\304\275\254\303[=M\370\216\275J\225\266\275f\213\034\275rh\202\2747j\024\275\006\377\260\274\235\317u\275\306\032\270;s\336\027=\203e\321<m+\235=\211E\333\275\305I\252=-\246m<eB\340=\203\302\345=-%\263=\247[\326\274\305\260\372<\300;B\275H\345\353\275\307=\375\274<}\212=d\253\347<\341\332\367\275\t}w\274O\275\252=Z\202\236=h\0273\274\243\223\313\272\373n\275\274\014\0135\275\376\364\n=\210\255\204<\310\246\371\271\177\331a=Z\275\207\275;t\354<`_H=jVs<\310\350\003<\220\204\254\275\301^O=\202\030\025\275\025O\307\275\"~n\274]\263\262\275\272G\022\275\035\311\240=\033\307/\275\325\246\033>F/O\275\n\254\205\275\303\277\236;\014\346\212=\023i\355\275\216\254\212\275y\220N=\235H\270\275s\361\315\274\313p\231\2752M\207=\010\214\255<\241\010\036=?\370\232\275#\323\272\275{6\211=\033\364V=\261\340\323=\202\001\237\275F\326\232\274J\013\221\275\031\211\307=R\210\255\275[\354\037\2767\255\002\273\300\030\241=\003v\023\272o\212\234:s@9:m\276\257=#\355\005\272I\354,\273\315i\3179f\004m;l\177Y\275-!2\273-\242\310\274\246\335\001<B\230\032\273*\354\302\273\335#\247\2736\201\313\274\361@T\274D\217\355\272TZ\347\274d\002s=\220k\217\271\365\273\314;58\224\274\370\246\203\275\240\304/=_\242\373\273\373Q\n<\205e\336\2749\370|:\300\315\r<\305\207\013\2737O\032:I\017\3368\373\364\307\275\231\256\005:\216\3719:[\351z\273h\333\234\275\t~\000=\247Z\005\2736-\321<\315\247D\273\264\370_\267\313\367\336\2668*\273;x\255\351\272\341?\376;\373\250=<\033\321%\276L\014\270\270\275q\267=S\225t\275\364\300\370\274h\226\311=9\344\367=\256\323\262\275Q\337=\272^\361J\275;4\000\272C\233H9G\035^\274v\026(\275\270mq\2744w|=\214\375<\272\262\221\203:\360\035\010:\255\342\352\275^\006\2669\345\322\250=V\273\357\274\242Q;=\253\304\303;\203\211\375\272\252*\342\274\347Nu<\001Hc\273Ih\304\275\2204\356<\314x6\273b\374\"\275q\310\237;\364F\3279\241\277\310\275*c\003=,\205\215\275\030\257\351\272U~T\275\377\273I>\010C\033\275{*p\275\326\344&>\344z\013<\220L\251=\0307;:\243\362\235\272\310(?\272\203\021\305=\020\005D8\304I\0359\003|\222<\305S\001\275\233^\252\274\326\372\002\274\360\315V=\031\244X<\245\031]<\300\026\032;=\022\335;\370\372\247\273\262\235\250\274\216\"\353\273\377\276\241\275\373.\241=s\347\035\276\014:\016\274%b\240;7<\232\275\r\254\260=kl&\275\2339\214<\314\210\000\276v\356\'9\272\025\315\272\223\201\225<O\254\366<\355v\216\272\230w\344=\035\335\031\2727\334\017\272c\324\231\272=4!\274+\334\022\270\345\256\334\273\300\023F\273\271\366\260<\221p\367\274\346\022\001<\266\206\276\273\"/\333\273g\343\200\273G\177p\274\270\342\021\273\246\233\365\2731\026\201\273:\3404\273\022\203\004\275\2373\216=\364\351\215\266\316@q<\003\263\031\274\020{2\275-\272\240=\264U!\273\306F\212:\036\320\374\273\235\3649:=\226\030\276\347G\261\272\224y\000\273\311\234L;$\216\324=7\30309\363\202A:\211\307>8\032\273\002\274[/\026\275&Gi\272\270\021\305<\360\316;\273UO\003;\222\270\275\271\034\314\235;\210\010\234\271\014#g\274\340\247\327<V\002\221=\007\335\231\273e\237I;\365\254!\275\345E\000\275\2301@\276V&\025>Hr\204\274\3018\227\273\274\021\302\2736\321\212\272\264W\2768i\255\347\274\032\361\260<w=\244\274w\365\305<>\304\013=\320\244\\\272\223\351\215<\332\003\256=U\031\007\271\273`1=\36566;\242w\303\273< \207<\274\240P=\365\213:\274\350GJ\274\017\363\216\2747\037\342;\n|\376\272n\312\001\273.S\330\274}\017v\275<\277Q<\252\2343=\233\343\274<!\020\007\275\242\331\033\274\365\353\210\275\340\242\030>\310\326\266;2\013\353;\316\347\n\275\362\323\255:\032\350Z\273\215A\365\272\320\004\303<\222\250\262\2737\"E\275\032\370\250\275\200\t\205<\222\236|9\261]\027\275x\221@\275\257\371\021\273}\n\224\274w\277\316<\243\3669\2741\003\207\274]\035\225\275\344w\370:\240\276:=\344\326\372<&\004h<\335\213\000\273\032\3726<\2020(\274d!\221;{x\276\274\325P\236=!\251\203\273\3228\332\274\332\331<<\304n\357<\034\t\244\273\254\307\035\273;\377p\274\233\225\240\274\326_\207\275Y\237\260:\357\2718;\2564\216=`\2241\276-\241\024\272,9\004\275\327L\010\275+\n\244\275\353\312\261\275\014\010\214\272\210\343\263\275v\230#\275\002\317\375:\333H\001\276\331k==P\001N=\033\3751=xAR:]re\274u\232@\275\006\016\363:\260\022\243=\251w \275\263\305\331\275:>\\\275!\305\230\2750\223\t\275\350Q\253=G\235;<\220\265\317=XA\002\274\340q\251\274K\271\233\275\361\004\344\275/\350\216\273\020m\267\275\021a\353<H\217\353=\354*\325<\031\223k;\201\375\003\275\312\010\271\274N\261X\275!\314\344\273\240\363\264\275\t\300\327\274\032\234S=\227\343\202=\214\013\243<<0\323\275\\M\361\275\335r\265=+y\000\276\344\343+\276H\227E\275!\304\232=\"\201\305\274\317?\304\275\177\031\354:${\206<\320/i\275\340%\247=Z\325k=nu-\274\276C\200;Sm\245;E\326x\274\254\377\255=\031\372Q\27500\363<\235\274\226=\317\2755=\264\302\302\274\363\374\267\275\351\300\370\275\307c\272\275\246\272M;\252\265*<\203\257\300\2741\311\207\275X\253\276\275\245U(\273?+N\274WN\307=\275\223?\275\373\343\261<\356_\201=\276\016\203\275kd.=x3\301=\232CS\2754\032\007\275\257T\r<8\302\254\274\321\267\027=\rSH=K\317\203\275\2127\253\275h^\204\275\244\000@<H\242\036=\274W\034<\215\316\362\274\036T`<S\203\217\275\245\004?\275\206\351\215:\026\253\363<\226\325b=Y\0174;\361K\217\274\301\314\035=\305\037\203=\356M\271=\266GY\275\332pH\275\224f\207\275\355Y\353\275P\333\244=\372j\006\275\255%`=\370_\302\273t\357\213\273g\177x\274K\003?\275\340\372@\275\23239<f\310\344\274\270\213T;\265d\236;\033\312\220\275\255\341\255=t.C\274\364\257\203=O\334`\275\207j\336=\275\223\234\273\365I1=gx\257=<\2463<\0135\364;\373\306\210=a\324\361\273\256K\220\275\020TH;\364\207\200:M\3371\274\302(\211\275\203\031\214\273\023vU\273B\245\223\274\275t\277\275\242\"\235\2752\0341\275\231\362\343<\244\255\216=\227b\364\273pV\255=;\263\031=@\020=\275\005\253W\274\203\226S\274\257\"\003\274\025\'T=\260\343\251;+\226\231=\372\371\234\275\200\355\216\275\n\320]\274H\t(=7\311\n=/\235{<\373j\265\275\301\324\212<\242M\216=\010\027\225\275D\211\264\275\005%M\273\266L\244=\260o\2457S\307<=\372\353\310<\005\263E\275\264+\364\275c\356\242:9\320\260\275\275>_;\'^~\274w\016A;\017\252\327<-\004\374\275\327\314q\2751p\367\275\313\013\016\275\243k\201=J\202\031=\251\367\r\275\250L\250\275\'\341x\275\034Db\275\234\317\244\275\364\262,9e\245\203=\331|\217\275\261x\220\275E<\240\274\265L\200<\234y2\2758\347\261<\354L^\275\277\\\274\275\200\0001\275\316v[=\333z/=\210\217\230\275\203x\230=\356\246V\275kZh\275\205\346\030\275\333\233\232=io\014=\264y\231=\242\276\207<\212\222\355=}\356\212=\225\371g;g$$=\231\334\017<\031\250\n\275\245\\\314=]<*\274%;\"\275^\321\232\275>c\010\275\017z,\275\232\311\215\275C\303v\275\235\237\007=*Kz=\333\"\010=\243\237S\275W\337\211\274\024\'\250=LFt=+1T=>\276\t>\035Vz=\261\2400<a\253E\274f\017/=+\253\252\275w\313\257\274O\267\204=\220>0\275+U\336\2733\025\302\274\236\252\2609,-\026\272FW<\274\3647\304\275IT\323\271\264\310\246<\232qP\273\377\273\331\274\310\0065\275\323M\2749\240)8\274K/\274\274f\322S9\314\331\205\274\237\264\205\274SNM\275\022\361m\275\355\325 \2720\335\211\275\236\212\'<h\226\3558\313Zy<\246d\022\274\021\322\223=\016\360\032=\223\321|<\323\036k\275\026\326\325\2748\\\350<\022A\271=\247\371.\274\203\016\376\273W\272j\275=j\231\275\217`\001=\364\326\033=\272\225\000<\353\207\211=\313,\233<%C\\\275\330w\373\271/s\267<\3621\010\274\376\243\300\273$f-\274\005\024\031\273\206\004\313\274\305\245\340;\336 \214=@\235.\275\345C\246\275!\'\331\274\030\013s\274d\202.=ixN<Dx\342;\257\300L=I\262\007\276\021#\001:0z\2439$\274[\275\017\224\276\275p\260\322\274\r\232\232\275\300/\007:\237-\317:b\325l\273\252Z\205< \r\321\274\335\215\213=\351u\214=\356[\\=c\300\007=\023D\377\274\233\337#=\243\236\367\274\242\333|9\306\246\240\273\027\220\206\275\210\301\254=f\374\364=\230d\362:\321\307\311;\342O \274T8\r\2716\354\006=\367\254X;\020\367\330<\3000b\275?\0033=\202\n\256\275\031N\347=tD\227=bW\312\275A\335y=q\225\023=\340\250\177<\271IF=\304\250^=+\375\204\272\372\t\356\274\333\376\n\275\260\341\241<\325D\257\275nJw\275\330\340\240\275\371&f\271\215P\260<\245qn=\376K\023\274\0063\246\274\226\316,<\352F\020\274\013\277p=\'\252\006=\206\267\010\275\031$\242\2756\007\322\275d\036\230=\257\032\213\2753\221\361<\375A\344\274jG\215\272ex\025\274\016\nI<\243\345\246\275V\257\000<;\374\t\274z!\3059\216\227d:My\025=\026 \246=\3252\2109\231\360\024<\334D\276\274\360! \275\033J\222;\304\024\361<X\335\352<|\022\244\274\010\241\0359\232\355\006=\274\206\010=\260\027\310<\2108#\275\3340\207\272\240\355u\275\372\013f<\364\225\014\271\353\016\211\274?\363\336\275\333\323o\275\247a\266=M\372\020\275\177@\032\275\320s\210\275\302\220\307<y.\261\274\210\272\036<\003\366\224\274\224\022\220<\255\325\230=\325[8\274\230\3419=\221\031\215;H\252@=\272\224\351<\347\231h<j<q\272&\247==~x\235<>6\215\273l\356\267\275K\304\034\273\253\227%=\017[~=\031\252R<\344q\357<\355r\221\275\226\272/=4\026Y\275\253B\2349j\253<\275\331\303\213=\275+\207=^\275B\275D\277L:\327\036\344\272Kt<\275\020qS<8\376\257\274XhL=\\\275\225\275\354\021\213\274\332\001D\2759\270#\275\267\tZ\273\353\313\347\273\321g\"\272\346\325\365<\033RO\275\366]6=\306\362\026<=\036\302=\3160\235\274\223\303\326\275]\242\"\274\201X\307\274\346\275/<\327\300\205=\250CH\275[\245\254<\363\301\333\274\007\213\224\275\355k\222<\352\346\202<\004\343\247=\353\377\013\2745g\007\275\341w\221\275Z\2525\275h\245\345=\037\343\307\274\0340\325\275\242-\301<\245\004\006\273\246\374\031\275\354\264\376\274U\034\346\273O\232\322=\354\244\236\275s\2100\273\360\226{=\343|\024\273?\362\003\272z\340\250\275\344C\311=k\010z\270\232*p\274\205\221\246\275\303\\\340\274\035\327\246\271\021Y\311<\333\033\226\275\241\315\224\275N?\260=\305\233-\274\313\345\374\274\357\004\274=9?u=\315\335/\275\306\301N\275\0011\204\274\n\027=<GA)\275\353\005\320\275\255\270\205;Xn\025<\3568\245<\333\251\221\274S\035\217\273\237d\271;\200w\243\275q\0067\275\013\233\213;q\343[\274\376\306i=M\030\034\274hn\234;o\341b=O\2109=\366\311\020\274\347\261\362\275\217\202\273:y\003\271=\314\306@\275\005\346\000<\025\026\300=9\337\223\275\032&\243=v<\362<(\'\317\275\'\225\262\275\010OG=-q\022\275\227.N=K\211\275\275\3518\177=o\200\221=ua\311<\345\217E=\333\007(;\326\024\316\275S\374\243==fe\275Fp\200\275\023-\217<h\321\260\275\204\000S<\251\2766=\263T\214=\024n}\274\312\311\311\275\307\210\217\275\312\005\227\273\303\223z;X5\372\275\363\020\020=GV.<\005\013\225=\250S\223\275\250\233\007=4\353\251=\277\316A\276\324\255S;%\026t=\024U\205\275\010\236\256\270\256\241\366=\202G\303\274=\224+</p9<Vl\000\275\212\204\006\275\276\256M\274e]\372<F\261}\273I\262\003<\366@\311=cx\212\275\367\214\253=\270j\270\275*\272\331;\336U\377\275\025\233\321\275\305Z\240=Yk\333=L\356\253;\340$X\275Z\257;\275w\210_\275\353))\275\000C&=H\305\355=\250\362\313\274\273\334\356\275\365\037\220\275eW\360<&2\005=f\251\323\275\351\034\362\274|\023\372<\365\350\275=:\366K\275\305a\325\275\000\245\'=\244V\327=\236\234\342\274\273\316q\2750\206\245\275v~\256\274\017Gc=\357\357\202\272\256\312i=\223\347\232=V\214\221<\330\274\301\274qY^\275\305\265\216\274\372@\\=\321 \246\275\211t\247\273\377\354\234=e\321\213\275\270\235\264\274\213\357(\275\211\252\264\275*\376\r>\274\235\010\274x\206\006\274+D0=S\335 \275\244\263u\275pp\326=R\211&<\r\306]\273\242\204\207<\325k\003>\336\331\315\274\302\274\262\275f\204\263\275\252\211\272\275\241\034\205\273\032\024\"\275\032V\331\274>\211\326<\034^m<\234\035\037=\njO\275\326\"\253=\3718\273\275\036\000g:\232f\246=\267\2575\274s\221%<\213\252\272<\334|\233=Fa\316<i\343\262=\217L[\275\317\232\210\275v&\314=\000\003\223\274\347\007\241\275\037:L=c \251<\014Z\241\275\327Q\235=\202\205a=\006\255\317\274\343\000#\275\266\342.=\333\377\230=\303\031\332\274A\314\242\275\251\030\257\275\023\226\226=\232\234Z\273e\312\353<\307\256\303\274U\337\263=\200\214K=\365XR>p=\246\275(_\313\275\304v\273\274\330\"\340<\013<\306<?\000\217=\021\246\244\275k\263\313\275H{\324\275\177\314\353;\3237\214=\367%\364\274J\220\307=\027\201\002=\\\037\235\275\206\274\010\276`xx\275\\\251\337\274\035\302\245:&\241P\275\342\362\003\275V]\214\2759\220\035\275\313\225+=\001\266\210=p\'\275<\232E\023\276N\t\211\275K\364\223\275.\021\317<\nF\307;iu\310=\346\203\264\274o\003\307\275kW;=u\224\271\275\235e\343=\365\252\321<\037\203B=\337\206\276=/\360\n=T\353\013\275\231\265\033>_\352N\275\277F\031<B\347(=\202\234\325=\205&M\275EF\257<\207\223\302;%D\301\275\325\203\311\274\236/w=X\\\343=\362\247\227=\314\317{\272:\245w\274\347\022]\275?_\271=\367>\227\274\353\342\365\274\'\327\327\275\365\274\221=R\255\006\275\240\326\007<\360\277\255<\354\215\201=/\277\353\275\3508\216\275\3432\034>\360\326\253=\203\202H\275\224\366\311\275\260\001\030\275K\333\005\276\275\266\205\274\371\016i\275S\350\350<\2116\005>:\321\321;\307@\374\273\010-\306<\204*\273\275}A.;Hz#=\352m\227<\\\302\006=\350\276\177:\230\022\203<Nn =\224\3634=\022\312\332;\335}\022\275?\221=\275\006\271\233=\2178\204= \362j;\312y\301\275V\035\253<[E\211;\367|A=<n\231=\257{\263=3l\273\275S\245\201\275\364\300\304\275>^_=\371\300A\275kD\322\274#\342\216=\346\2438=X8S=\271\305\241=0N\203\275t\343\271;\037`#\275G\321\210=\275\262S<\212\200\353<7\035\242=uo\207=1$\217\275V1\270<\355{\325<\033\315\007\275\351b\232\275\225\263\274\275\242\241\213\275\350\200\002\276u\307C=.\005\004\275\325\267Q=p{.<@\341\235\275\n\305\211\275\2570q=\324c\241\275j:\251;\326\351\037\275\251\n;<k[\362=K\017\305=\337_\335=&mf<\267\230\002<$\314\t\275voF=w\027i\275\323\243\356\275\006C\223\275\034p\207=\206\035#\274*\r\306\275)aq;\014\313\357\275A\033G<wF\372\272\3715v=\377v\332\275\251\361\324\275\346I\030\274\263pC\274\017Q\322=\316[6\275\270\332\360\275\376Pf<\215dy<V\371\302\275\304\262\306=\017\242\262\275\336aB=\241\300\t=\004v\014\274\360.\225;`\201q=C\301\272\275\307Z\200=\234\270\002\276H\000\377\274\000t\257=\324-\003\275\224J8\275\3733C\275\255\316\262=1\253\263\275\230\204\215<g\367a=j_\037\275\202V\025\275k5\301\275\035\321\235=\343\306g\275\360>7\275\234+\275=\025S\007\276\200q|\274\232\034\374=\245\032\013=\347\311\037\275j\256s=\303\302\006=\242\035C\274\355\256\306\274z\025\035<\216\340\306<i\003\274<e\300\214\275A\264D<\201\230\017=_\302\307;ug\314<\217D\031\275\022B\377<sq\266\275\023\351\000=\021\0202\275\025\323\343<m\302\003\275\304\204o\275R\221\006;~\302\223=\177\204\226;\322\344\235\275Z\226\275\274k\300\300;i]N\273k\272\\\275:\324\202=\262X\335\275\350\276\345=%\200\365\275D\\\025\275\370\366;=qfc\274`4\200\275>aw\275D1\021\275\020\345>=\243:\265=\267N\351\275\343\300\377<\241\244D=(C\'=Xb,\274\262\017\307=4\016\363=7\207^=\355b\213=,\341\320<1N\214\273\251a\034=b\250\3258\201>#\274\246X\204=\r\243\240=\334\366q\275\225\233#\274+\267\252\274\027:\210=c\2366;\261\377\370=\223\221\262\274u\"\201\275\271\376R=\236@\244<\335P\"<I\250\205\274H\300\323\275\230l\345\274\177\006\217\272M\017\351=\352\024\217=\363\321\267\275r\351\320\275\016WM\274\250\277\202\275\210\372\203\275\305\312\226=_l\273=\t\006\026\275;\225\317<\310\362e:\266\357\025=6\221\245\273\026\227\243=Z\311\306\275\346 \031=\373\364\304=\0258u\274\017\350\314\275\346\274r\275\342\316\331=+p\001\276>\256g<\350}\357<\343N\250=\003\313\316\275O*\205\275A\033\241\274\317\265\322\274\312\265y=\223\302\036\274\245h\244\275;\032V\275\304\337\331\275\240\301\314\275\221i\016=o\203\363\274\215\n\320\275\3462\007<\206\365\025=7l`\275\222E\333\275Pc9<WA\236=O\322\271\275f\271\223;1\367\327\275\225\021\003\276\362]\234=\274\221s\2736\\\201=q2D=\332\227\265\275\307\2440\275\377\267*=\332\257\346\274\361\227\245\275\221A\356<\264`Y\275\320A\356\273\216\360\"<\240\270\344\275\236\3236=g\337\232\274\330@Y;]X\230;m\254\255=\313\364\021\276a\331C\273\306\217\212\275\251g\325<S\030\210=\227\tY\275 \237\327\274g\274\313\272\177\231\223\275\303\271\260;\020\376\320<\354\002\265\275$I\241=\376\372S\275\007X\004;\245N\230\2741g6=*\272\200\2726\276\222\275\023Hr<Q\221\373\275}P\335\273\377B\010\275\344\240\312\2759\374`=\033T%=B3\001\276}\264\010=e\"\304<\030\rf=I\026\345;\310\210\035\275\'\306\000=\366(\314\275\340q\014\276\035\333j=Nw\231\275\374L\231\275\036\226\006\275\036\n\356\274\234\364z\272\245\316\202\275J\223\320<\306\251\206\274W\203\207;\341\313\221=2\257\341\275\256\275+=\227\002\304<\0002?<\324\251Y\2754(\036=\345\324\346<E\316T\275;\037\217\275\332\177o;+-\025\275\211\313\252\275\365l\022=B\354a\275=\242\332\274\336!\001<bT\013<\024\236\027=\353[\356=m&\344\274\274\031\260=\323+G\275\215\007\315\275\232\305\222=[\033\374\274m#\237\275\341\027K\275%\030\207<\245\216\016<\323\222\221\275\032Z\260<\005\032\234=\374\211\227\272\\\305k\275\270@\211\275U`@\275\335\227\206=\353\231^\274z_\002\275\027\005\335\275G\352[<)\211s=\361\202\\\275\025\010\271=\251\306\277\275\274f\210\274Y\244\035;=\243\017=\317\367\233=\331Z\253\275\376r\216<7\337\206\275p6\201\275C\343\357=\371\036&=\340l\355\273\357t\250\275\334{w\2747\277\020=:\r\251\275\261\336\310\273L\265\341\275\230\200\240=\263-\264<\325\340\\\275F8\277\275\337\245\244\275&\372a=|\330\320\275\257\211]\274\276\013\204=\030t)\275\027\347\265=\362\207\010\274\363\0022\274\261\3360=\277l,>f\346\031=?!!=O\251\325;\335\326\326;\256(\263\275dM:=w\307\270\274Svt\275\244\222D\274\301\372\306=\236\"\201=\366\323\235=Y#\236\275\307\263.=\010\255\031<.\270\243=\374l!=P\036\202;\025G\021\275P?\037;>q\347<\237af;+\204==~\n\262\273\372\253W=\353\321\364\275\277!\314<\335\350$\2757\0346=0\264\244\275g>\372\274\235\366\212==2\367\274\337\227\277\272\317\245z\273\324R\222\275\222\304Y<\016\334\202\275Q\347P\275\247`z<\366\220=\275\3660r=4\232\207\275\212\016\345<\211\303\003\275\032\302\267\274\271\177\266=p?Y\275=p\247\275\217\2367<\312\001\255\2758\263\335;?\360\267=\027\t\256\275\0242\272\275\316\373y=\311)\307\275\256\300s=\330w\233=\212\322\300\275\254\355\345;EP\321;\212\261\005=\313\317-\274\235\316l\275;\273\226=.H\217=Z\214\257\275\323\337\005=\271\034\n\275\t\336*\275\226x\223=}\244\222\272\270\362\326\275_\213.=5%\240=\230\261E\275\021\325\226\2749@\324;\360\367\027\273\262\207\210\275P\017\377<\256\316\205\275\264\2779=M\271\276=\r*\014;\337\2243=\r9I\275UrH=\207_\377\275\376\261<=\213\321\306\274\321j\317<\246\221\003=\263\322\275=\335\231t=)\231W\275\235\205\200\275\352w\313<\320*\210=\350\035\234<\234\033\322\275Yq)=\262\211\334=\310{\242=\216X\200=*\026\247=\246\274\265\274\237\037\243=Y\354\033\274\247.\326\275\255\374\363\271\330\2350<a\006c\275\205\rH\272\320\361\303<m\221d\275\244\262\256=\360\277\2068\224\263\214=]\335H\275\254%\244=\330\262_;\371\254\026=\313\323\262\275\330\333\377\275\013}\t=\022\243\237\274\026\035\332:[\360\253<\374A\3229F\306\010:\225A!<D\030k\276\014\274\254\271\036E\233<B\247g<\252\204)\275\325\022W\274%w\202\273\364\327\223\274>\305\331\274W\334\207\272\2720?=\347\354S\273\222\217\200\274\230\276\024=\022\271\031\272m\337\336\274No\277<\r\241\307\272\252\242\362\274\234s\325=\265L?<:\n$=OG\3578\3707\365\273n\270\034\274r\324j:\230\023\261\275\204\240i\271\232\231!<\337w\306\273\n\202\234=\3444O;\270\364\205<n|x<s\001T\275\244;\211\274\316\037]\272\246\330\206\274\267Pc;+\212\303<\370LR7\355!\215<\275\246\234\273 w\226\275\335O\341<!j\222=YW0\2757\226\013>3r\206\275\014\251\373<\262\255\263\274E!\034=\352\036\022\276\315\023\236;\004\330\016;\346\367\026:s\270~\272e\r\013\276t+\021\275\336jH<p7\n\276\304\005\2558\307b\206:O\274\331\272^\247\030=j\242\026\273\265$\231<\342R\005=k\033J=\246=\240\272\226[\";\346`f=&zh\274^\277\273\272\341\352\230\274\357*a\275\246\023;\274\375|k=W9\226:x(\261<\2773\303\275\376\t\216=\021^v\275\220|\246\274\354\272\203\274\215\266\n<G\310\362;]\256\261<\375X/>_\275\023=Am\001\275<\275V\274\031r\256:\342\262\352:\352\335l=\302\310\3408*\370\261\273\025\265\242<1\307\016\2765l\204=\023Q\274\274\"\224h\274{$\213\275\000d\331<9\331\366;\256\323\266<\0167\217<\265\230\353\275\363\324u\273\202\t\005\276w\202\211\275\304iU<:L\230=>\341><\227?\231\273\312_\303\275i\341\202<^[\r=.\3755<\335\313r\271\2029\':\352\207\231\275h-\321=\232\310?\273\016+\345\275^\376\3529<\247\2609\251\256\033<\366\n^=\034\324\244\271\005\342s\274}\\\376<\222/\224\273\314\326\231\274wD\225;\254\227\243\274\265\307.\273)\312P\272\025\327\224\275t\022\237\272\nMV\273\272$\035\273\336(~\27297\273\272\245G,=\000e\337;\373BI\274._\025=\337$E\2752\370\244<\310\220c9IG\237\274\023f4\275~1I;\217\231\314=(\340\217\271\363=\360<\247\n\212;\277\323[;\340\020\321:8k\206\2753\006\310;\254\014\204=mk*\274[\320\272\271\237\177\001=\343se;\275\206\004=\0004Y9F\"]<$A\017\273\206\370G\275\254k\335<\035nt=*`\200\275\340\220\201:\005]\202<L\025\032\275g\267\375<{\371-\275*\016^\275\237=O<\332\216-\275\004t\005:\343\216\302\273\345%\024<j\303\325=\002r\307\273\351\377L\274\213kI\275E5\211\274\226&\362\274\336\037\017>\322h\265\272\000k\033\275\325\304\274=l|\215\274M\322\315=\2378\341<\227\375\363\274\341\027\240\275\364l\006;\312\026\365\274#\251\021\273\264\300\2048s\304\273;\275\211v\2758\230a\274P\226G<\217>\301=J\353\227\275\250\221\350=0f\003=\371M\033>\276\265]\267P\002~=\254\033.<|2\231\272\252?\371=\021L]\273\317j\n>\177\2545=\367\014\021\274\036\276\330\274\310\360\245\275\3719\354:>F\032<\243A\270\2754\376W\272\010\364\342\274\313o!=\232\252n=\330\212M<\013:\260<\342\3540\273\026\235\2559\221\026\320=E@\007=\232\002\3469\234\332\303=\031\2403=\233u)=\363z\264\274\235\341\007=y\260\021\275\236\351\244<\267\273\n=Bt9\273Z\376\357\274,BI;[*>=7\006\340\274\000\306\017\276\256\366|9\245\031\304\2731-\304\274nm_=Z\335\0329\277\036\267\275U\257A\274/\246\036\275!\261\036=\376\t\201\272\205\301j\275\016\231\246<\212\323\024:#S\356\275\030jN\274\307I\177<\330d\222=\243\303\2579\305[t<\025\371\355<\301\257L:\377n\330\274\215\276/\274\370um=\235cF\275\030\003\345<=\364+\275\206^\013=0WO=Z\344\304=\204H\010\275\244\037P<\342]\260<\n\331\314\275\217\223\273<\364\314\302\273\227`\231\274\010\0371>\224\037\"\275\037\3270\273\025\037\r\275\360\253\204<\243a\326\273\240\027\235\273\202W|=3Sr<,u\271\274\300xL\275\031a\276\275\270\313+=\3710\003\276\314i<\275\347j\024\275\302\211\320<\233-\020\276z\203K\275\340S\223\275\254O\212;\327\334\2369\213U\236:\234\221\272\275m\330*;\337\213\367<\3519\013\276\307[\300:_\206\\;/\276W\274G0\267\274U\255\013=\202\241\000\276\3702\370\274\227Nu=\226\245\216\275\307\252\216\274//\321=\336\001\210\275\373\230\274\271\372\255\372=\323\255\241<\"\t\272\275\272a\005=\304\202k\271D\020\035<\200;\025\273C\210\006\272kjW<\3734\262\274YP\230=\204-\224\275\356X\244=\266\006\364\275\271Z\240\274\030\360\021\275\213kF<\271o\317<\230\344\275\274J(\214\274\3324\241=6\255\202\275\232\353\255\273=\\A\274\221\266\'\275\216\215\347\275\333\275g\275\262.X\275\251\354\370;\367yq\274\\=\263<\234RY=\243;\205<\004u\324<\242\201\031\275\002\332\034=m\311\344\275[\312+\276\222\215\315\275\202\276\213\275\312-\341\273\256z\251<\211)\033\275#\262\257\274\256\271\376\267\220]v\272\036*\206:\260\300\311=U\010W\275s\010\212;`.\202\272\037Es:\006\220\300;\224,L\275\354!\357=\263\207\325:\223t\251\275\"\030\321\274wF\302\274\303d\212=8!\310<\2117\323\274\364\220\013\275f\273\304:\320\233\211\275H0\213\274a=\234\275\274j\252\275Xk\3159]\r\013=\022\206\336\274\334F\253\271{\376;\275Zd\005\274\331\254o\275\263\352\307=D\036\356<\215\351,\275\314\003\316=!\221\333\274\336q\271\275\2232\271<\352\354\032<\321\222B\273\271V\t>S\361\276<\263h\216\275Wow\273sv\246<g\341\216\274\375\206<=\311\374\246=\010\353~=\340\326\234<\274\245\257<R\021I\275\r`O8\326\267\302<\n\264v=\013e\217\272+\003\244\272\002jI<\241\270\006\275\r\342#=A7\222\275\222\264\313=\220\031Y\2759\356\346\274\024\270\333\273\310x&:<\332\215<~\274\320\274\252r\356<\252\024\244\275\014\013\206\2753\200\344\274Id\310\2741<\276\275\205\271\000>\203\231\341\274\302M\340\275\323E\202\275>Jw=W\241\330\275!!\027\275\241\3276<\020\036k\275\312\325\337\275\371\336n=\323\311r\274n_\266<\354&\224\275*\265\242\273\342p\031=\206\177l\2741\022\036<\317\305a=\226\234\223=\371\"\201= D\357<\262\253\300;\220\021\205\274\250;\320<\252\327f<7NA\275\020\371!\275\034\3119=>\226\355\274v\240\370\274C\235\025<\220\r\230=\201lT\273\205\210;\274z\243\204<K\314(=A\325\311\275\312Ql=\022\266\233\275\330N\322\275G\021\357\274`\377\353\274X\372\310\275K\003\315<\216$\036\275\211`J\272\rqB\275\3513\236=\325\213.=\231\222\341=\n\241\n>2GA\273`\010\270\274\327<|\275\376\242\364\272\243\234\241\275\023c\212=mr\023\276\"\244\035\275Q\242/\274\\\030^;\331z\'<\232j\300<\225;\220\275\\\266\034\274\337x^=\245y=\275U6\323\275\367\0201=D\305\"\274\223\311\027=\374\262`=m\217\330\273|t+\275\254\356\206\275y\223/<\227\307\010=)\377\260:\237F\242\274\264\330%=g;\316;q\370\r\274\271X+<{\032J=|\t\215=\3342S\275\021s\305\2750\205\n\275\330\001\207=K\275\373\273GF\277\275\261^\311<\321m\312\275\371=\374=\322\037\023\275@\251\211\274i\374\177\273\006\033\245=\242\215\305\275\324O\002<\265\304\241=j\265\017\275\020\301H;\021\260\215\274\010\275\232<x\233i\274\373\272\301<\0364\261<\272\372\317=\332\020\336\274\277\240\204=I}\241\275\230\367\026=6\323\315<\031\027\202=I\270\341\275\207\030q\275\256!\300<\365]u;\005\3216\275\325\332_<X\327(\275G\245\177;UD\343\275\301G\n<\352\201\003<\276\265\301<Ob\317=\256C.=\te\333\275\275LC\275G~\205<\232\272\002\2755\376\236\275v51\275\252\333\244\273\002V\270<\233\302\020\273\373\n\271=\232\213\030\275\275\356[=\027\254\000\274\243\333\204:~d\235\275\204l8\274\316\324\270\267\201\240\013\275uzw\275\356\277\220=\203T*=`C\210\275b\'\006=\347\006\241=\217\375\037\275\013\341\005\275j*\376<N3*\275\177i\264\275\231\376\204\274\t\252 \275\347\245\257<;g\302\275\006\250\r\275\347W9=1\321t\274<\014:=\032\355\031\275\0262S=r\376\315=u\330\217=\224J\016=\326\255f\275n}\365\275\322\343\314\275\301\014\r\275\324A\342=\304&)=b8O;C\375i\275\255T\245\2742\352v=\261\263\273\275,\006\r\274\274\2643<=\201\335\275Hl\202\275_\020\205\275h\245\216\275\267u\001<\252\'\245;\310\221\223=\234\204\322=\206\357\031\275y\246\224=\375?l=\0036)\275.\326\312\275\030p/=\250`\037\275\240\3212\275\226\200\204<\310\325\314;\353:y\275#\n\274\273\007\315z\275O\306::\237H\326\275s\311\362<\265\372&<9I}\275T\304\224=U\206\327=\222\021\245\275L\322\237\275\"\001\223\275\321\021\004;\243g\261\275\345\001\026\275\310\215/\273`x\327<2\010\014\275\000\352\356= \262\237=\312;\016\273\242\253\215\275 :\361\274\036\241\216\272\036F\247\275n\276\314\2741\275\267<m\223^<\007lJ;W*X\275\203 \033=\305\214?=9\347\323\275n\215T=H\205\331\275\306C\276\274\372U\221=\325/==0p\373=\177\225~=H\037\305<\334\013\274\275D\316\002=E\314\005<\275\370I=\314\346S=\234#.=\033@\345\275\213\033s=\300\250\255=\275M\261\275{j\354\274\330\205\010=sO\344\274\373o\256\275\347(\310\275\261\266\301<2V/\275\227\357\320<\347\247\264=\264G\005=\022\264\276\273\236\315\221=2}\340<\370\t\242\275\031\216\302\275\244T\203\274\261xH=\324\014\247=\330\246@\275\234V\025;x\220\344\275S!\257<\206\311\227\275aG\377<\001\254&\275\257\344x<\312\361^\275\3524\237\274#\242\207\272\337f\361\275|\325\202\275c\251\241=\314\274s\273\364\002\237\274\026Zr\275W\304\204=V\353\\=\\\223\276\275\020f\224\275\326=|\275\016\373\365<\341W\234=\026\023\255=x\204\264\273v\354\300\274\'\020\342\275.\024@\2752\023\342\274\000\034~\274L/%\273\201.K=\331T\010>\344\250Z=s\243h=\327\273\376<\373\346\023\274NK\225<\006i\212=-\321&\275\371\340\326\2744\257\2238\313\323\351<u\225\317\2701\006\0179\323\271\2069w\rV=*\035^\2702V\341\270\310\317\2318\346\253K\273\312\\\t\273\031\257\327\271\203\336\177\272\263/\035\271\20713\271\032\362\204\273;2\243\271tq\3138\363cX;v\341\242\270m\305\247\272M>\n<b\327l8\205L\013:\205\216\016\274\000_k\2723+u:\354\365\2079\240\242\2549\225\003<\273H\006\351\270S\310\031=\370TB9\010\003\3148:\351V\271p$8\273\361J\344\270\267\227\004\272\276#\2649\213\213\250;\300\022\265\273n\337\\\267\321\024%\272\203dB\272\351\365\333\271\331\374\247\266#9C\274\300\356\333\270\021\n\007\271q8Y\272\3468\213\275@2X9V\022\n;\300\200\2619l\227\332;\213\327\300=Z?\235;d[]\272\371\210\n\272pd\020:J\"c6u\263,\267\305\303/\272\n/\024>\212+\030\272\"\224\347;E,\360\270\364\022K9Dv\255\270\024\353\017\275\"\241,9\nB\243:f\347\211;akB\273A\376\005\271)Q\2719\233{\236<\254\030.\272\376\322}\271\311\202\331\274J\300\t<\266\037\376\273u\340\251\274X\337L99\343\347\271\035\367\227<\356\273\266\271\256\023\223;Vv\021\271\304k\005<B\2407<z\360\"<\247\000\"=\334\361\253;D]\345:mu\211\274\370\241#\274\210\254\013<\233\277+9\235\031\350<p\264\3536F\266\0049\307\t\276\272\346\333.=\026T\365\274\233\005]\274\rQK<\315j\316\273\231\304\022\2711\347\3008O\005\350<\0175T\271\304\232e\272\t\220\243\271\"\240r\275F\000\354\274\3118\340\274=\203\355;\365n7;h\362\261\275\202\220>=\025\316\305=\022|\272\272\261w\321\274\203mR8\230\330\2456{U \275z*\005\274\246\236\252\266L\2468=&\332\007\271\263\272?9\014\334v9\325\377\213\270qF\\\270\221!+\272\n\304\2778!\362\325\272\346\235(\272s\3703\270\3710\261\267\010\034\300\267\3677\303\270\013u\200\274O\317/\271\364\377b:\025\223\2059\310;_\270h\237\356\272B\262p;\032s\2378\314\330\301:*\333\210\273\233\002/<\326G\270\272\013\246\2568)\036\252\272\003\257\304;\210\276\223\270l3\342\273\276\245\0149\327\214L7=\214\0028\313\266\362;\272\232\0227\235\335\3257\235\021f9\026\014\312;~\351\n\274\332\022\344\266\206\r\224\273\027\256\201\271\320\372\320\271\364\213j7\353\0215\274\007_\262\271\'*\0338ZoS\272\007\213 9\353\336\0039C\327\326\273\007\367\215:BZ\321;d\367\231\274i\303\232<\311\023\312\271\245\361p\272\n\351\336:\340\230e8h\216\r\267g_i\272@\250\2559\274A\233\271:\376\2378\222\231K=\014[\360;7#\221\274:\360\214=\263y\266\270dwh\274\340l>:\361)[\273\266\244\016\275\203`\313\272\301q\207\272\220}\006\272\354k\262\274?l\202\273 \367\241\271\352\252\'8\353j\307:\001\261\322\274;\204\352\272\336W\r;\207\310\013\275\216\337q\274\376HC\274k\337\222<\303\242\'\274\0260p9t\001\347:[\243\346:b\347\362\270\206 \371\271vp/9Y\335\t\273\370&R\273uw\022\274\030D\221\273\216n>\274K\327\2319\001&\234\274\372\364\357\273\n\301\213\267+\033(\275\362\323\030;\236\324:\274\033\r\034<\203b\244<\t\261o:\"\031R\271\215\227\232\273;n\203:\260\260\0009\277\302O9\225\226\034<\352G\307;\376G\334\272\002\306\205;&P\221\271\245{\250;rYf\273\004e%;\251%\365:\350\035N9\330\274\217=\213\222\212=\323\331\023>\263\205\314;c\001D<\341\005\273=\304\274\216\275\206\324\215\272\335\030X=y\361\211=R\317s<U.\200\275\252\'\305:\232\273\225\275\272E\205=\025\375\362;I7\007\276\252\314\226\275\3713\300\275\037$\324=b\324\213;W`*\275\211\035m\275LE\246;\212\332\363<7j\035\275\020|\271\274\223\3530=\002\255p\275\243\214\241\275c.\274=\364\324\223\275H\010\033=\357\341\261<\222Z^=\277=\223=\271\303\331<\3376\301<\375r\266<\212\317\250\274c\276Q;\273\362\253\2744T\253<\243\003/\275\334\223v<\007LP\275d\363\217\274\036\330\014=\300\353\026=\023\225\007\275p\r\271\2758\254\336=4\232\025;\345\036q\2746;\361\275\211\005$=\223G\377\275\225=\226;\024U\022=\237\276\315\274\314\235\227\275G\024\273;\313UM<\313\271N<)\006w\275\2169b=n\n\303\275\346?X<\202\335j<\256\242\210\275\272\324\276\275\302&F\275\242\331\265=\255\341\300=t+d=Y\322\223\275\2035\274\275Q4&=!\3134=\240\016\347<W\340\213\273\352Gd\275E\323\331\275\375\320\014=\254\217\274\274\233\034W<\374\013\312<Xm\370\274\036y>\275\330\245\362\274M\367b<C0\206=\23789=Vc{\275\266\276\017=\226|\313\275\372\346\262=\230EF\275\266\355\236\275\210\203\234\2752e\035\275b\371R= \037\223\2741]\200\275.%\231=\304\320\305\275\2566B;/5\225\274$\234\000\275\371\335-;\027XA=\353{\370\275:Ad=\022\321^<\272\005\307<\r\241\305\2752\331\344=\024V\375<5\351\264=\355\025\311=U\342f=\3705T\274-\270\347=\205\271\304=\254$\334\275\033}N\274\270\340\363;\005\014\252\275\304}F=\331\266\204=\2713\203=\342\2416<\036\270\200<\360\201N\275?j\376=\256A\375;\020:\275\2758WC=\013k\222=r\000\241\2759:\232=\002[\223\274\036\013\236\274N\250\370<\037y0=\222A\335\274\306(N=\3413\303\275\244\366\304;\204\373\357\275\266HL=e\267\216\275\253\357\253\274o\002\203\2748\363\257= \336\013\276|\353\203\275\347O\236<-\231n\274\233\345P\274\360\251\344=\333\272\003\274X\365i\275\335|\014=\204\215\245\273\241r\233\275OC\316<\202h\000=bf\301\275\265\332v:\2449\320\275\333\340\261\2755\034\266;\365\007\301\275\n\236\202<\371\366\224\274\375\356\030=[\337\313\275dZ\277\275\202)\253\275\262\275\237\273\n\252\261=p\021Y\275\375\303\233\275\034\033L9\027\234Z\275\377T\275=\220.\371<\032\305\327=\204\3540<$\276\311\274\226\237\304\2742\004\247= s*\275udy=,@8=6\367}=\223\030\212={\021\307<\034\364\302\275\334\'\240<\226\"\335=`\037\211\275\356\242\221<\321\376\252=\255\246\216\275\362\307`9\023\321-\274\2539\022=X\224e=\021\357K\275\352\313/\275\301\223\361\275Iy@<a#\377<w\326d\274\222\332l=\"\357\303\275\022\237\357\2759\007\301\275w\036\345\274L\226\373\274\033\352\372\275v\300\225=\'\220/\275\347\020\225=\266R\303=g\335\303=o2\343\274QQ\210=c\375C<\211;\346\274\253\014\220=g\353\203\274\307Q\031\275\2024)=\321\254J<*\325\302=\206\367><M\225\352\274F\361h\275%V\221\275\"v\037=\366]\315\274\322n\352\274\224\243D<\212\321\317<\026\213<=\376\211\203=d}\242\2748\037c\275(]\247\274_\\\213\274\2136\342\275\264\252\250=-7\252\275\223SO\275\245\231M\272\240\343\206<y\346.;\273\3045\274*H\346\273\r\007\370=n2\001\272\334q)\275\261\026\371<C\274\225=\222\230Z=\362\374J\274\214\327N\275VH\215\275Y\036A;\360\242B=Y\212\374\274\276h(=0v\211<\274\014l:\277\251l=\347\2272=\014\033c<\350\355\310=\332D\252\275\317\2702\275\r\263\372\274\177\271A=\334\251\010\275M\0168=\317\355w<p\362\000>\333L[=\240\335g<dX\276\275r\263\027\274\350u8\275\324\274+\275\351\266\3309\023<\221=E\261\343=\2470\213=w\013\203\275rh*=\3023H\275\220\321\323\274\255\375\262\275\304\234e\272\347\265\002\275\337\213\r=Pt\374\275\014\211\211\275\037\345\\\275\376\277\234=\024\243\204=t\243\005\275Y9\003<u\201\263=\356eY=i\3436\276\010\013\030;\364\342>=\342\360\013=\221\366\310<\177\370\231=`@[<CP\007<{\024&<L]\322<\313\233\303=ci\306\274\377\t)\274\266FC\275\330hn\275,\020\252\275\02768\274\335\270\307=\263\251\242;\025\241\206<)\336\206=\2605u\275\337qq<\r\003\243\275\376\372\305\273Z\312K=5{\030\275\302\363R\275\313n\305\274\206\001G\274\263\245\224=}\360\324\275\212\376V\275K\356z=\333\'\307=\272e\036\275\362\365U<H\347\336\275\003\364O\275k\306\025\273\325\210\215\275\360\347R=\336I\351<MP\210\274\250[E\274\324\353\321<\tVW\275\336\373\270=\362\356\271\275S\255\225<[\016\024=\336\275\333\275-\235\257\275\2331!\275i\372\277=\302\300\307=\235f\307=\032\032\221\275&&\277=@\375\226\274\350\331\264<\226\347\003=\225mY=\305P\326<Q\r\233<\250\324\312\273\377-a:\312\221\312=\224\253\r>7Y\232\275\007\3373=E\311\350;H~\2748i\225~=M\227\326=\272z\033<\030Y\232=q\216\302\275\360\207\226;\001\355h=5\306\332<\036\265\037\273\337\',=\226\266$\274\375\2360\272\027\007?\275P\275\251\271\032\025 =mz\203:\314\nc\275\035\227X\274\036,\036=ap\210\275\007\200\370\272\2530\216\275v*\026>\304\001\307\274\256\345\260\275z\026\222\2750\212\223=\224\235\251=u\032;<\324 \312;\370t\245<\340\252\322=I\021\272\274\216\323V\275\027\366{;\254Y\256=\005\336\342=\217\306\322\273\274\177\215\275_\235\036=ir/=r\036\020\275f-8\275L\272\250\274{\237\2239O\316\301=\n\232\360=*8\244\274\n\337\307\275&B\301<8\203\272=-}\230\275\312\254->H$\240=\037\275L\274\274B\223\274\017x\241;\177\024\341\274\337~F\275\033\030\260=\265\370\334\275\277\270\330=\306\370\275=\233\304\344=\007\\\327=\341\204\337=\331:\270\2756e\364<\027\234 <\271P\231=M\204\310\275D0\023\273\r\275S=\272\252O<~\345\231\275\321(\343\274\221\025\'\275\251a\035=\234\260\223=q\261_\275OS\346\273aO\n=\277@\367\275\370\t\301=7\014\300=\253A\322\274\256\370\010>\334^\240\275D(\332\275M\261\371=\357\375>\275a\362\373=.\372\007\274v\231L:Io\254<\234\276\325\274\036i\025\274\220O\342\275p\217\024\2732\341\270\275`\373\314=\342\207\326\275\305\302{<\324s\205\275\255\035\321=\004}A\275\351\340\264\275\020\220Y\275#zZ\275D\244\021\276\004[\\<\232\213\030\274\355\027\211\275\013PK\275\272\352\214=\205\354G\274Z\354\264<Kb\254=\235\tx=\316\317\213<\363\216\244=LLu\275\354\010\210=\323\351\\=\321t\327\274J\334\203=\330\220\3269\004\021\256:\270\324~\274\326X\006\276\361\300]\272%\226\216\275\025\203z\273!\302\272\274:<\220\275\266\003J:\217\223\022\275\205\036\201\274\212s\230:J\204\016<\2719\366;J\372\034;\263^\252=B\231t9\312J\324;\362rW<\005\002\217:cc\206\274\347\215\214\275GB\203\275\335\372/=~;\362\274\315\213\305;M\207)\274\2156}=\336\231\330\2754\020\302\274\333\255\212\273\301\240v<\030h\302=\321\343\334;=B\246\275A\3146<\202\233\337\275\373l\001\275Q\310\273\274\3029\252\275\300\362\017<U\224\026<\016\005\363\271\270\231\202\275\243\261\361;@\265)\275\354|\334;\357\006\247=\327\'{=\037U\247\275q\2315\274}\343\270\275\013\275\221\275N\333+<\335|a<\010\326\336<\030U-\2760\350\243:y\255\266\273\331\230\364\275\031\335c=\264\235\226\275P8$\2755-t:\254\316\004;G=\277\272\322\370\330\274\t\003\022=\353\304\247=\206;)\275\371\026u=\323\231\027;c\271\212\274H\007\264<-\026(\275\235\013\030;Td\222\274\356\267\253\275!i\325\273R\303\007\275\212\035\323\271=!\025\275\214yd<\365\206\026\274&g?\275\365\245*<\256\214\010\275\205\311\272\275\360Q^\275-H\340<v\240\214=z\315/=\t\330\332=\354\315\223=\347\325\242\274T\331\000=\236\314\244\274\000\nV\275Y0\205\272D\262\r<\367\211\025=\260C\031=/\014W=m\2755\273\315\031\270<CE\363;\\\374\310<\212r\265=\230-i\274\225E\030\275\363\213r=&\366r\275y\247\336<\233\367\036\275\233SJ\275\003\204\324:\374\330\260=QCx;\177\372\252\274\232\217I<\377\214\022>\333\0138\273\\\345\261\273\347UB<\227:\327=5V\021=R\325\030=K\nD:P\031\017;\372\207\261\274\220\364\246\274\3421\347\2726\244\037=Y\363\373\272\224;\207\275g[6=\020\016\034\275d\230\027=\033\037`\275,\213\230:9\271\262\275\342\210\031\275\325\350S=\037\266\303\273\224\351\2439s\322y\275\242y\216<\254\202\367:\315\321\251\275TT\221=\316\235\251\275\303\236\324<\347t\320\274\025\366\225\275r\265:=\tk\306\274n9\214=\374:v\274\270\364.=\2456d<\201;\200<;8\327\274[\030\370\273X\244\215<{\263\300<\202x\245<\211<0\275\312\365C\275O\372\267\274\236G\025=\236H:;$H\256=\nT\204\274\263\340\200\275p=4<\367\300\021\275^\n6\275d\036>=)\000[\275\324\345\t\275MD\267;Y>\377\274\311\207\033\274\207\023\013<\330\342\235\274\333\230\017;\212\337\252\273\365\367x\275\346\320\034\274^4\016<\212\260\212=\226\212\265=\376\324\336;A\274X=\207\033\335=\\\233\220;\341\221\207\275\007\303\202=\216\265\236<\233=\312\275\206\2721=\023\034\022<\003\332+\275\340\330\316\275\307rq\275\235\000\010\274os\332:\325Sj\275\340\336_\271*\203\200=\356\256\353<\361\305\202\274\360\263\004=\262n\262=\203*\203<\243\347X\274:\271\020\275\n\267\374<\371\311\307; \022\014\275^\343\216\274F\225\303\274\373_\216\275\246\023\210=\345\271\246=\355P\214\275\236\231\316\275p\351G\273\322\306\'=6<P=\206.\373\274G\n\276=\020o\226\275o\030f=\274\033*:\352\316\214\272\225B\007\2749\352\311\274m=V=\204\347\372<+\321!:\316\013&=\234\323\243=\022\252\212\275vC\304;\3256A=\305;]\274^\271\006=\307N\035\274\215\342\227=P\021\255\273\021j.\274N4\363=\237\301\375;b\263\211\275\000\270(\263\244\003\317\272\217X\317\274\034\310!=kny\271Y3\260\274\230(\255\274\335:\315\275\033p\225=\010\371\202<\361\303\237=\276uc\274V\032\2117\236\303G=\302\202\201<|\227\221\2756\034[\275Rf\314:\304l\244<~\363,