node {
  name: "input"
  op: "Placeholder"
  attr {
    key: "dtype"
    value {
      type: DT_FLOAT
    }
  }
  attr {
    key: "shape"
    value {
      shape {
      }
    }
  }
}
node {
  name: "label"
  op: "Placeholder"
  attr {
    key: "dtype"
    value {
      type: DT_FLOAT
    }
  }
  attr {
    key: "shape"
    value {
      shape {
      }
    }
  }
}
node {
  name: "transpose/perm"
  op: "Const"
  attr {
    key: "dtype"
    value {
      type: DT_INT32
    }
  }
  attr {
    key: "value"
    value {
      tensor {
        dtype: DT_INT32
        tensor_shape {
          dim {
            size: 3
          }
        }
        tensor_content: "\001\000\000\000\000\000\000\000\002\000\000\000"
      }
    }
  }
}
node {
  name: "transpose"
  op: "Transpose"
  input: "input"
  input: "transpose/perm"
  attr {
    key: "T"
    value {
      type: DT_FLOAT
    }
  }
  attr {
    key: "Tperm"
    value {
      type: DT_INT32
    }
  }
}
node {
  name: "reshape/shape"
  op: "Const"
  attr {
    key: "dtype"
    value {
      type: DT_INT32
    }
  }
  attr {
    key: "value"
    value {
      tensor {
        dtype: DT_INT32
        tensor_shape {
          dim {
            size: 2
          }
        }
        tensor_content: "\377\377\377\377\t\000\000\000"
      }
    }
  }
}
node {
  name: "reshape"
  op: "Reshape"
  input: "transpose"
  input: "reshape/shape"
  attr {
    key: "T"
    value {
      type: DT_FLOAT
    }
  }
  attr {
    key: "Tshape"
    value {
      type: DT_INT32
    }
  }
}
node {
  name: "w_in"
  op: "Const"
  attr {
    key: "dtype"
    value {
      type: DT_FLOAT
    }
  }
  attr {
    key: "value"
    value {
      tensor {
        dtype: DT_FLOAT
        tensor_shape {
          dim {
            size: 9
          }
          dim {
            size: 64
          }
        }
        tensor_content: "\366\243\371\276k\307\240\2763\341\t\2767No\277\345D\222\277\363n ?\343sQ>\000yw>\235,&?\331N\342>Ba\310>\202\026|<b\343|\277\217\205\217\276!\031/\276\265\331\223?\247F\340>\330\365G?\177\203u?\364<\265>h\n\251\276\177Z\177\277T\207\202\277\3400f\277\037\363\236<8o\352?\263h\033\275\t\026\016\277A\t\261\274\365\213\250\276@\3056>kd\215?\316\274\260\277tB\024?e:\032\277\326\245\315\276%`2\277\262zv>y\272\016\276\323K\020?\376|\253?\257\256\323>\025\n\266\275\366/\231?\256\030\210\277\014\025 \277\n\322=>\030\205g>\275c\215?\316\337\237?R[\326>*\353\243?\252\265;>X\022P\277\264\270\317\276\240\277\306\277\2551\224?\320T\230\275\366?\363>Q\311v\277\360=\371>v`\247>5{\327>\340C\037\276|\325\326?~\260|>k\340;>\003\251\351\275[I\r\277\242\260.\276\235\256\">\273\356p?\304\253!?\312\240x\277\020\014x=7/\241\276\312\305\256\276\030\377\273?\352\010\007\300\274Rn<\013\2375?b\305i\276l\247\262\276\017\215\336\276O\367\206\277cAV>\330&\r>\r\357\022?\n\032\265=\252\014\302\275@4#=\232\335\233<|\223B=\374\331\350=\317J\236=\272\037}\277\226\345\016@\356\003\270\276\326\366b\276\301\207\004\276\263K\217?N\342\006\300\321\275t\275\336C\200\276.}?<m\010\361\277][\344\277\224\342\317>b\302S\277`1\330>~w+\277\356\224>\275\2272\222\276/\256\200\276E\2209\277\336\243\'\275\030\365\212\277D\374\210<G\231\375\276\376_\217\276\3613\335?\312\316\330>\025#\222>\300\303\375\276\335\234\201?\340,\204\276\257D\323\275R\234Z\275\\\311\204\275\307X\201\276\205\265t\277GI\237?.\332{>H\024B\276r\317#?p\263I\276/\003\303\277\330\0216>\341\275\251\275\2401\232<~0\000\276.=\337<Xq!?\350T\014=)L\004\275\203\037O\276\035_4\277\343t,?{}\200?0\356\211\277\005\367\216\277\rt\223<wex\277\276\256\205\275\234($\277\354\243\030\277\373\264\327?\335\263\360>\204\333;\276oiR\276@~\377>~B\266?\357n\013=a\244\271=\271\237N\277@\356\224\276\260\021\001\2764\272\262\277\263\210\214>\314\256\032>\027\035\353>\350@\261=-\306\215\275\202i\207\277M\364\002\276-\321\237\277\006\355R?\241\222\313\275B\241\200>\331\035\314>\303\n\206\275\260\376E\276x\217\211\277AFg\276\006\353\251\275\310\361\211\277\263#??~\211F\277\364\232:\274d}L=\374\204\245\275\304\237\326\2762\201h?\243\334O>\301\335:\277\357b\365>\355\005)\273\371\023\010\300\267\323\257?\237va\277\272f\023?\026\226<?~\310\330>\362S\215\276\334\345u\277\331\215\225>\342$\333\276\336\n\200?!\322\247>\265/\246>\270\021\356\277o.\243\276J\265\236>\3565\346\276T\373M?\221\217\016\277dH\243?I\252\227\277.\232w\2760}\343\276p\225P?\377\303/?\262\230C?\375\334\001@\031\344\323=\342\204 \277\347\322\371\276\275t\204?\205\376\236?\017\246\227?\312\316E>o\204\370\277\024P\266?\010\367\334>\324\366+?K\261(\277\022\343\214\276\317\214<\277\251\343\354?\244x\231\276}\221X?-\013\250?\374n9?\315\310\310\276\016\347\005\277\006/\213\277$(c>Xcs>%\002E\277\263\211\347\276\2429K?\030U~\272\035|^?\315sR?\255\223\267\277xv\013>C(\265?@\343\264>\307\305\204\277\377\254\245\276;v\226\276\236\274\337\277\377\314B?\370\365\367\276\262z\350?\t\245/?\335K+\277\244k\211?u\2158>\2520\006@\356\255\321\276.\243Q?6\234\265\276\204\367m?\346\177-\277v\360x?T\177\217\277P\240\365>\341C\214>\377Xv\276\t\372\333>&\034\014?Uu\227?\315\017\304\277\207\264X\277n\211\205\275&_\204?j~\321>Wv\035@\000\334\226\277\330\0228?U\322I?Lv\216>\237\343\311\2767\252\000?\361S\270?c\212\237\277\267r\206?\342\250\026=\300\027\037>\316\271\233?\210\315\254>\021\017J>\316\331\016\300\314\006+?o\336\374\277\023\231\357\276\350\215%\276}z\220\277\t\355\025\277\033\261\246?\340\367\024\276\351GB\277\247~\263?\350\247\025>\003\004\'\276\035|m\277mO\313?+\344\211=\332m\372?Y\332\270\277\326\225q?\010p*\277\025\214;?\004\242\323>z\004\t@OW\014?\225>\251\277*}\240\277\304\312\341?\013w9?\215\202\374\276\213\201,?\230=U??h$>P\267\206?0\302\343>+\340F>\354\\\363\276\354\224\220\275\341\023\234?k\266@\276\3450l\276\335\201\331>\002B`>\2751\307?4\276\202>\314+\342\276\321Ga\276\336\213\254\276ge\377\276\371\355\224\277\227(\261>\356\366#\277g\246c?s\222\263\276k\312\007?\237\255\274\276\322?\032?\242\337\206\277\271\266Q\277%g\005>\234\205\037?\213\224\337\276MW4\276m\010/>\275\344\276\277B\007\001\277\353+\231\2774\354/?\\\306\023\276*y \275%\260\357\276\320\236|\276>\223\344\276~R\t\277\253%\013@\356\224\325=?\256\002\277\327\372{?\276\246\371\276\032E\266<B\275d?_\252 ?yW\201?*\313\336?\210\345$?\232m\215\276\351`z?[\2169\277sj\223>4\366\001\274\t\007\017?\323|\210>\221\333\367>\306\332V?l?9\274\227Mg\277\370\351\320?\026\253^\27766>>\035\256\265?}\022\235\276\311\220\201\277\264\200)>\n%\026?Sn}?m\032A?\202-\034\277\3001\240?\216wU?\2554\037?q<`\276Cx?\277\006\2620\277Qm[?\324\320,>\037\327\023\300\010(\250\277\000\2053\277\273\3009>\313^\313\275\004\000\010?\037m\234?\241/\031\277\374\265\304?\334\267\r?\325\037\374>\205]@\275\237\215\366>/DT\275 \020\243\277\243\003\341\276\025|\034\277\224-\201>#\270v?\312_\032@\215K4\274\300D\021>\227\344\022?\352\254\251\277\260\357\313\277p\355*=\207\230\365\276\034@\370\276\202\276\241\275V\315\323?-\301\357>*\353M?\361\\\331\275M\374:\277\234\307\302>\210\004<=P>\032>\002\252\352\276\316#E\277\"\203\035\300>\370\265\277\034\265!?\255\237\234\277\232\230\024\277\272\215#?\357\312\221?\235N?\277lxT?FW\374\275\264\256M\277\230\337`\276-\004G\275\275tI\276\330R\036?\242v\217\2770\226\270\275\007\300$?\"\375\354\276\236\323\331\276C\034\242>\234\364\207>\351\331\030\277\355\233u?\231\204\373=\266\363\177\276\323\324\203?]\272\260\276\007\362==*\243n?r\325\221?\355\2738\277\361\271\206\276\024\352F?\266T\213\276\343\370\006?\376\364\336\277\355W&\277*\315\366<\001n\306\275\034\267}=\374\005b\277l\237\316\276%I\241\277\372\3026?\263u\226?L\003F\2770\0321\275\001\034\003\30072\t\3001\371\243\277\272)p?\334b\306\276\245n\024\300\360SF\277z\233w?\\t\236\276\342\224\'>\3718#\277t\246\246?\210\203V\277\240\t\036\300G`\021?\245\266-\277\350\250_\277\305\026\240?r\014$>\326\212\270\277\270(\006?\236\320\001?\034`\003?\231!\260>N\031\005\276\262T+?\340\n\t\277\260\021\002\274Jp\326?-\204j?-\314C?@j\r\277\010u\242>4[?\277\241\023\000>\264\335A?L\3704\277\267\335\200\2771I\270\275\350\234\n?\243\032$>\354\346\372>;\037#@\272a7>\306\335\032?\242Fs\277$\223\225\275\226\265H\277\026hX\277\327\r9>a\241N@\316\214\022?u\014\212\277\372\251\206?-J\360\277\320\312\327\277\200\"V>\277K\232>b\226\021?\252;n\277O\2255\277\305\206:?\306\244Y\277\206\0014\275\351\374\211\274x\204h??p+\277\324RY?c\027\024>\032+\261?\303 ~\276\351u\003?"
      }
    }
  }
}
node {
  name: "w_in/read"
  op: "Identity"
  input: "w_in"
  attr {
    key: "T"
    value {
      type: DT_FLOAT
    }
  }
  attr {
    key: "_class"
    value {
      list {
        s: "loc:@w_in"
      }
    }
  }
}
node {
  name: "b_in"
  op: "Const"
  attr {
    key: "dtype"
    value {
      type: DT_FLOAT
    }
  }
  attr {
    key: "value"
    value {
      tensor {
        dtype: DT_FLOAT
        tensor_shape {
          dim {
            size: 64
          }
        }
        tensor_content: "\207\376-?\322\304\270\276{[\243?1\302[?\021t\371?T\244\323>\206\222\363?b]X?\244\362\250\274`C\243?h\204\320?\246\352\325?\355\226`?\231K\315?\370\277\r@9\224\237?M\377\255?\321\307\350?\tn @`\263)@\224\377 @\365\3655?w}\257?\034\256\326?\243\200l?R\265\216\277\303P:<\206\336!@K\017\201\276\353\nm?\035\354\266>r\201\222=te\225?\r\037\'@9\333h?iA\032@\360n\271>\300\232\216?*1@@*X\277?\335\2461?\352D\005@A\225;@\227#\254? Q\021?\336V;?\245a\325?\0179\276?\247N\352>\220\253\336?\206\317\000\276^W\024@\264\336[?g\273\312?0\256\000@\333\202\361?\250\005\237?\240\310\027@\270\301A@\022\"\316\276\236\271\223?\3122\006=\0047\217?\'|`?"
      }
    }
  }
}
node {
  name: "b_in/read"
  op: "Identity"
  input: "b_in"
  attr {
    key: "T"
    value {
      type: DT_FLOAT
    }
  }
  attr {
    key: "_class"
    value {
      list {
        s: "loc:@b_in"
      }
    }
  }
}
node {
  name: "MatMul"
  op: "MatMul"
  input: "reshape"
  input: "w_in/read"
  attr {
    key: "T"
    value {
      type: DT_FLOAT
    }
  }
  attr {
    key: "transpose_a"
    value {
      b: false
    }
  }
  attr {
    key: "transpose_b"
    value {
      b: false
    }
  }
}
node {
  name: "add"
  op: "Add"
  input: "MatMul"
  input: "b_in/read"
  attr {
    key: "T"
    value {
      type: DT_FLOAT
    }
  }
}
node {
  name: "relu"
  op: "Relu"
  input: "add"
  attr {
    key: "T"
    value {
      type: DT_FLOAT
    }
  }
}
node {
  name: "split/split_dim"
  op: "Const"
  attr {
    key: "dtype"
    value {
      type: DT_INT32
    }
  }
  attr {
    key: "value"
    value {
      tensor {
        dtype: DT_INT32
        tensor_shape {
        }
        int_val: 0
      }
    }
  }
}
node {
  name: "split"
  op: "Split"
  input: "split/split_dim"
  input: "relu"
  attr {
    key: "T"
    value {
      type: DT_FLOAT
    }
  }
  attr {
    key: "num_split"
    value {
      i: 128
    }
  }
}
node {
  name: "rnn/Shape"
  op: "Shape"
  input: "split"
  attr {
    key: "T"
    value {
      type: DT_FLOAT
    }
  }
  attr {
    key: "out_type"
    value {
      type: DT_INT32
    }
  }
}
node {
  name: "rnn/strided_slice/stack"
  op: "Const"
  attr {
    key: "dtype"
    value {
      type: DT_INT32
    }
  }
  attr {
    key: "value"
    value {
      tensor {
        dtype: DT_INT32
        tensor_shape {
          dim {
            size: 1
          }
        }
        int_val: 0
      }
    }
  }
}
node {
  name: "rnn/strided_slice/stack_1"
  op: "Const"
  attr {
    key: "dtype"
    value {
      type: DT_INT32
    }
  }
  attr {
    key: "value"
    value {
      tensor {
        dtype: DT_INT32
        tensor_shape {
          dim {
            size: 1
          }
        }
        int_val: 1
      }
    }
  }
}
node {
  name: "rnn/strided_slice/stack_2"
  op: "Const"
  attr {
    key: "dtype"
    value {
      type: DT_INT32
    }
  }
  attr {
    key: "value"
    value {
      tensor {
        dtype: DT_INT32
        tensor_shape {
          dim {
            size: 1
          }
        }
        int_val: 1
      }
    }
  }
}
node {
  name: "rnn/strided_slice"
  op: "StridedSlice"
  input: "rnn/Shape"
  input: "rnn/strided_slice/stack"
  input: "rnn/strided_slice/stack_1"
  input: "rnn/strided_slice/stack_2"
  attr {
    key: "Index"
    value {
      type: DT_INT32
    }
  }
  attr {
    key: "T"
    value {
      type: DT_INT32
    }
  }
  attr {
    key: "begin_mask"
    value {
      i: 0
    }
  }
  attr {
    key: "ellipsis_mask"
    value {
      i: 0
    }
  }
  attr {
    key: "end_mask"
    value {
      i: 0
    }
  }
  attr {
    key: "new_axis_mask"
    value {
      i: 0
    }
  }
  attr {
    key: "shrink_axis_mask"
    value {
      i: 1
    }
  }
}
node {
  name: "rnn/MultiRNNCellZeroState/BasicLSTMCellZeroState/stack/1"
  op: "Const"
  attr {
    key: "dtype"
    value {
      type: DT_INT32
    }
  }
  attr {
    key: "value"
    value {
      tensor {
        dtype: DT_INT32
        tensor_shape {
        }
        int_val: 64
      }
    }
  }
}
node {
  name: "rnn/MultiRNNCellZeroState/BasicLSTMCellZeroState/stack"
  op: "Pack"
  input: "rnn/strided_slice"
  input: "rnn/MultiRNNCellZeroState/BasicLSTMCellZeroState/stack/1"
  attr {
    key: "N"
    value {
      i: 2
    }
  }
  attr {
    key: "T"
    value {
      type: DT_INT32
    }
  }
  attr {
    key: "axis"
    value {
      i: 0
    }
  }
}
node {
  name: "rnn/MultiRNNCellZeroState/BasicLSTMCellZeroState/zeros/Const"
  op: "Const"
  attr {
    key: "dtype"
    value {
      type: DT_FLOAT
    }
  }
  attr {
    key: "value"
    value {
      tensor {
        dtype: DT_FLOAT
        tensor_shape {
        }
        float_val: 0.0
      }
    }
  }
}
node {
  name: "rnn/MultiRNNCellZeroState/BasicLSTMCellZeroState/zeros"
  op: "Fill"
  input: "rnn/MultiRNNCellZeroState/BasicLSTMCellZeroState/stack"
  input: "rnn/MultiRNNCellZeroState/BasicLSTMCellZeroState/zeros/Const"
  attr {
    key: "T"
    value {
      type: DT_FLOAT
    }
  }
}
node {
  name: "rnn/MultiRNNCellZeroState/BasicLSTMCellZeroState/stack_1/1"
  op: "Const"
  attr {
    key: "dtype"
    value {
      type: DT_INT32
    }
  }
  attr {
    key: "value"
    value {
      tensor {
        dtype: DT_INT32
        tensor_shape {
        }
        int_val: 64
      }
    }
  }
}
node {
  name: "rnn/MultiRNNCellZeroState/BasicLSTMCellZeroState/stack_1"
  op: "Pack"
  input: "rnn/strided_slice"
  input: "rnn/MultiRNNCellZeroState/BasicLSTMCellZeroState/stack_1/1"
  attr {
    key: "N"
    value {
      i: 2
    }
  }
  attr {
    key: "T"
    value {
      type: DT_INT32
    }
  }
  attr {
    key: "axis"
    value {
      i: 0
    }
  }
}
node {
  name: "rnn/MultiRNNCellZeroState/BasicLSTMCellZeroState/zeros_1/Const"
  op: "Const"
  attr {
    key: "dtype"
    value {
      type: DT_FLOAT
    }
  }
  attr {
    key: "value"
    value {
      tensor {
        dtype: DT_FLOAT
        tensor_shape {
        }
        float_val: 0.0
      }
    }
  }
}
node {
  name: "rnn/MultiRNNCellZeroState/BasicLSTMCellZeroState/zeros_1"
  op: "Fill"
  input: "rnn/MultiRNNCellZeroState/BasicLSTMCellZeroState/stack_1"
  input: "rnn/MultiRNNCellZeroState/BasicLSTMCellZeroState/zeros_1/Const"
  attr {
    key: "T"
    value {
      type: DT_FLOAT
    }
  }
}
node {
  name: "rnn/MultiRNNCellZeroState/BasicLSTMCellZeroState_1/stack/1"
  op: "Const"
  attr {
    key: "dtype"
    value {
      type: DT_INT32
    }
  }
  attr {
    key: "value"
    value {
      tensor {
        dtype: DT_INT32
        tensor_shape {
        }
        int_val: 64
      }
    }
  }
}
node {
  name: "rnn/MultiRNNCellZeroState/BasicLSTMCellZeroState_1/stack"
  op: "Pack"
  input: "rnn/strided_slice"
  input: "rnn/MultiRNNCellZeroState/BasicLSTMCellZeroState_1/stack/1"
  attr {
    key: "N"
    value {
      i: 2
    }
  }
  attr {
    key: "T"
    value {
      type: DT_INT32
    }
  }
  attr {
    key: "axis"
    value {
      i: 0
    }
  }
}
node {
  name: "rnn/MultiRNNCellZeroState/BasicLSTMCellZeroState_1/zeros/Const"
  op: "Const"
  attr {
    key: "dtype"
    value {
      type: DT_FLOAT
    }
  }
  attr {
    key: "value"
    value {
      tensor {
        dtype: DT_FLOAT
        tensor_shape {
        }
        float_val: 0.0
      }
    }
  }
}
node {
  name: "rnn/MultiRNNCellZeroState/BasicLSTMCellZeroState_1/zeros"
  op: "Fill"
  input: "rnn/MultiRNNCellZeroState/BasicLSTMCellZeroState_1/stack"
  input: "rnn/MultiRNNCellZeroState/BasicLSTMCellZeroState_1/zeros/Const"
  attr {
    key: "T"
    value {
      type: DT_FLOAT
    }
  }
}
node {
  name: "rnn/MultiRNNCellZeroState/BasicLSTMCellZeroState_1/stack_1/1"
  op: "Const"
  attr {
    key: "dtype"
    value {
      type: DT_INT32
    }
  }
  attr {
    key: "value"
    value {
      tensor {
        dtype: DT_INT32
        tensor_shape {
        }
        int_val: 64
      }
    }
  }
}
node {
  name: "rnn/MultiRNNCellZeroState/BasicLSTMCellZeroState_1/stack_1"
  op: "Pack"
  input: "rnn/strided_slice"
  input: "rnn/MultiRNNCellZeroState/BasicLSTMCellZeroState_1/stack_1/1"
  attr {
    key: "N"
    value {
      i: 2
    }
  }
  attr {
    key: "T"
    value {
      type: DT_INT32
    }
  }
  attr {
    key: "axis"
    value {
      i: 0
    }
  }
}
node {
  name: "rnn/MultiRNNCellZeroState/BasicLSTMCellZeroState_1/zeros_1/Const"
  op: "Const"
  attr {
    key: "dtype"
    value {
      type: DT_FLOAT
    }
  }
  attr {
    key: "value"
    value {
      tensor {
        dtype: DT_FLOAT
        tensor_shape {
        }
        float_val: 0.0
      }
    }
  }
}
node {
  name: "rnn/MultiRNNCellZeroState/BasicLSTMCellZeroState_1/zeros_1"
  op: "Fill"
  input: "rnn/MultiRNNCellZeroState/BasicLSTMCellZeroState_1/stack_1"
  input: "rnn/MultiRNNCellZeroState/BasicLSTMCellZeroState_1/zeros_1/Const"
  attr {
    key: "T"
    value {
      type: DT_FLOAT
    }
  }
}
node {
  name: "rnn/MultiRNNCellZeroState/BasicLSTMCellZeroState_2/stack/1"
  op: "Const"
  attr {
    key: "dtype"
    value {
      type: DT_INT32
    }
  }
  attr {
    key: "value"
    value {
      tensor {
        dtype: DT_INT32
        tensor_shape {
        }
        int_val: 64
      }
    }
  }
}
node {
  name: "rnn/MultiRNNCellZeroState/BasicLSTMCellZeroState_2/stack"
  op: "Pack"
  input: "rnn/strided_slice"
  input: "rnn/MultiRNNCellZeroState/BasicLSTMCellZeroState_2/stack/1"
  attr {
    key: "N"
    value {
      i: 2
    }
  }
  attr {
    key: "T"
    value {
      type: DT_INT32
    }
  }
  attr {
    key: "axis"
    value {
      i: 0
    }
  }
}
node {
  name: "rnn/MultiRNNCellZeroState/BasicLSTMCellZeroState_2/zeros/Const"
  op: "Const"
  attr {
    key: "dtype"
    value {
      type: DT_FLOAT
    }
  }
  attr {
    key: "value"
    value {
      tensor {
        dtype: DT_FLOAT
        tensor_shape {
        }
        float_val: 0.0
      }
    }
  }
}
node {
  name: "rnn/MultiRNNCellZeroState/BasicLSTMCellZeroState_2/zeros"
  op: "Fill"
  input: "rnn/MultiRNNCellZeroState/BasicLSTMCellZeroState_2/stack"
  input: "rnn/MultiRNNCellZeroState/BasicLSTMCellZeroState_2/zeros/Const"
  attr {
    key: "T"
    value {
      type: DT_FLOAT
    }
  }
}
node {
  name: "rnn/MultiRNNCellZeroState/BasicLSTMCellZeroState_2/stack_1/1"
  op: "Const"
  attr {
    key: "dtype"
    value {
      type: DT_INT32
    }
  }
  attr {
    key: "value"
    value {
      tensor {
        dtype: DT_INT32
        tensor_shape {
        }
        int_val: 64
      }
    }
  }
}
node {
  name: "rnn/MultiRNNCellZeroState/BasicLSTMCellZeroState_2/stack_1"
  op: "Pack"
  input: "rnn/strided_slice"
  input: "rnn/MultiRNNCellZeroState/BasicLSTMCellZeroState_2/stack_1/1"
  attr {
    key: "N"
    value {
      i: 2
    }
  }
  attr {
    key: "T"
    value {
      type: DT_INT32
    }
  }
  attr {
    key: "axis"
    value {
      i: 0
    }
  }
}
node {
  name: "rnn/MultiRNNCellZeroState/BasicLSTMCellZeroState_2/zeros_1/Const"
  op: "Const"
  attr {
    key: "dtype"
    value {
      type: DT_FLOAT
    }
  }
  attr {
    key: "value"
    value {
      tensor {
        dtype: DT_FLOAT
        tensor_shape {
        }
        float_val: 0.0
      }
    }
  }
}
node {
  name: "rnn/MultiRNNCellZeroState/BasicLSTMCellZeroState_2/zeros_1"
  op: "Fill"
  input: "rnn/MultiRNNCellZeroState/BasicLSTMCellZeroState_2/stack_1"
  input: "rnn/MultiRNNCellZeroState/BasicLSTMCellZeroState_2/zeros_1/Const"
  attr {
    key: "T"
    value {
      type: DT_FLOAT
    }
  }
}
node {
  name: "rnn/multi_rnn_cell/cell_0/basic_lstm_cell/weights"
  op: "Const"
  attr {
    key: "dtype"
    value {
      type: DT_FLOAT
    }
  }
  attr {
    key: "value"
    value {
      tensor {
        dtype: DT_FLOAT
        tensor_shape {
          dim {
            size: 128
          }
          dim {
            size: 256
          }
        }
        tensor_content: "\010\234\r>\0178\250\275\"[\241<\006\032\036\275\336\200U\271=+=\275W\032\300\274%t\261=$\336\031<\272\020\204\273\314\234\351=\311\273\211\275u$\355:\307O\013=\270\017\210\275\344\231\312;JT\3079\202`b<\241z\224=\223(0\274\270\013{\275-T\002=\247@\340\274\352\037h=3a2\273\203\225\231<\026\272m<~\372\223<\244\357\024\275\267\253\230\274G\301\370\275\236\351\024\274\031\310\313\275k\032Z\274\253\313\365\274LUf=\226\357\000\274R\254\363\2734\203\374=\024\002\232\275\326\255\214;\237\320\'\274,\013M=\\o\261\275\204l\351\275\254Q\367<\003T\035=\014\277*<\'\005\023=\005\037[\275?\017\302=\316\253\236<S\220\251<m\371\237=\312\213\212<\r\032\204\275\356\360\014=\302\264\256<%\205q=\2319\024=s\"\211<q\252\r\275\264G\377;\t\333\312\275Z\263\334\275\257\313\361=\3058\342\275\271\255\014\276\204F,\274\226\237\376\275\261\275D=\016P^\275\276\260l; A\217<\2027\273<\345\023)<t\r\201\275\235\340\252\274\243@\343\275|\231><oM\013\270\350_\237=\005\270\377<E\037\036:\210O\215=\233{\212=Oo\274=\263\025A<\022\322\277\275\315Z\375;\361S\234\275%\237\202=.3\257\274\247\340\214=\332\236\226\273E\2301=\303\361\310;\324\302\'=1_I=?o\225\275\315\023D=w\303\327<t\331\302\274\372\230\317=00\025\275n8M<\220\230\312=\327\010]\275D\335\r<\230\240\203\274\253\244\250<\273\031y\275\037\013\305=\230*\327=\327\205\271<(\301\236;\217\367\267\275\272I\343<\234\'\355<9\270\227=L\345\243<\244\310\210\275#\226\036=\340\224\311\273\325\243k=J)\"\275\224<\322\275:_\250\275\305\022\000\275\244\264\222\275qu<=\202\210\264\275\315\254w;\272\361\223=0\270\334\274\374\245v\275+\013\240;\303y\027\274.\000\213=\372\247+\275 \222\'\275d\236G<\023\313\306;\'\364);P\253y;W\315h<\215m\302\275M\326\006\275Vj\374\274P\204\213=-\335\234=\323w\356\275K\334v\273\233\016L\273z\355\374<;\205B\274\037(\r<\031\310\242=\364\353\375<DY7\274\214\013\205=@\210\224\275P~\245=\262\253\270\275\3519\026\275\216\246\222<\251\210\201=\244\300\330\274\276\205\347<\357\020M=hW,=\367<\323<E1\360\275\346em\275$\215\202=r\324K\275\255(e=j\216/:u\344j<hte=\005\332A\275?\253\032\275\2727l;I\261\252=>\307 =\265^]<w4f=\2160\316\275\266\231\210\275\306\311\224\275\377}\207\275\"\356\017>\270#\342=\267\323\335=\221v\352\275\315zq=\244\266\275\275\221\366\310<\300O\200<d\345\215=xOk\273\217\320\332<\215_\277\272L\016\212\275\353\226\311\274\377\271\210;\234\211\313\275d\324\253:\257\370\330\275+6\252=\254\332a\275J,,<\367v\300\275\231u\330\273\324\356\323\275\374\234\013=c\227\'=q\\?<\303q\244=X5\213=\004\245;\275 D\227\275E\247\222=P\355\206\275zd\373\274(\311,=\356\025\200<+\264\033\274\310e\016\274#Wo\275Q\307\313\274\325\334\234\275\246\236r\275\017(\222=\220\251a=UOk\275|\2252\275\356\014\r\273\304t\240\275\351\334\232\275>=\212=k\306\301\275\240\224\231\275\250\244\240=\344\310\027=\007\023\277\275\177\330\030<\236\021l=\244\337\n\274B\251\262\2714\336\324=\201v\241\275\007G\365\275\260\371\003>)\204&\274\264\360\215=n)\206=\333\027\004<>\324\245\270\2119\022\274\343?\3329\217\374\333\275\332\316C<\243\275\215<\216\244g:hTN\2754\2770\275\271\220\003<\265\221\006\276\350\n\020\275\301\341(=2\260\244;Uf\313\2713tC=hG\232=\261\337b<\374\365);zt\233;\245J5\274\355*\222<\356\353\n\275\023\302\206\274o\232\306\275\324^N;p\320\370;\232}q<\361\361\331<\210%#;\203\310\254\275\244\301\371;:\025\t;\354\243!=\252X\211;\n2\374\272#\302\212\275\204\034\251<\177\212\024:\374\033\312<W\020\270\274\207t\220\2758j\326=\366\210\000=GI\276:\313E\342\275\217 \206\275\305\320\372\274\006\024\034=M\335A=\357\330\312\275\274\032O\275I\036e\275?\3057=\222XO<X\006\017\275q\374\004=\"\340\212\275\r\214y=\345\370\361=\367c\"=I\354S=x\330\273\275\224\367\371=\305\327\217\275\0351?<\226Y\n=g\217\247=\237\006~=\235\002\034<\002\251-<\347\215K<t\374\261\275\036\201\307\272\327~\210\275i8P\272D\177\264\275&\324\303\274\0308\353\272\203E\374\275>\247\237\275\374i\371\274\031t#=\3709\373\275Bv\003>\t\347\275=h\332\212=\374iG;\n\365\376\275H?\311;\026\326\363\275\267\336\306<:}\212<\250\336\356<\272\364x<\371\305\371;\034d\357=v\375\023\275\276\320\207\275[C\220=4\244S\2742#i=3@\262\275\222V\316\274\276\351\336\275S|\006<\213x\024=\271\272\006\272\327\270w\274\343r\201\275\277\'\201=\024\372 \275\343<\341\274\252\313\263\273m(O\274\336W\t=\t\'\265<p\272\310\274\031\n\350=\3476\334\275T{\366\274\257\226/\275(\201T\275;C\252\275\331\013\364\2747\263\002\275\367L\217<\240\321\340<\302\264P;Z\0276=\037\333\237;\231\203\373\274Xq\203<\241a\323<\300\005~;\3726\021\275\r\353\372\275\330g\247\274\240\3629\275mo\253<\340h\276\274\242I\001<5t\027:\265\332\321=\336\225}\2744\205\325\274d:79\363\316\026=\302\204\262;\030t\246=\"m\246\275\335\271/\273\"8\311\275\3622\205\272\357\265A=d\322\305=\332\020\223=\337\361\266;\222\313\213\274F\211#\273a=z=]T]\274\235&\310;\024\nj\274\254Bv\274+\201.;\326]];\254A\305\274HM\243\274\340\331X\273\244\337\362\274\t\273\307<\263\227\351<\013q\032<\031@\212\275\313\277\350=J\325\005\276\n\341\206\275|\271L=\256\036M=\332\327i\275\022\367\253\275ml\200\274\240\025u<\372v\205\273:\032\003=\177~\367\275V)\372<8\212\022=;\005j=\310\362y=\237\351\327<jF\344\275\314)\211\274Hy\224\275\223>\322<o\311\'\2752\342\252<\227\310\200:\377Y\247=Y\003\300=Z\357\214\275\317\'\370\272ef\311<\313\273E\274\341\216\346\275l\036\262=\226\022\325\275\035\307\224=!}\201=\361e\276<E\322\321\274\304\344\345\275\3143\251=\033\t/\275\032\235\227\274\207-J=\261\221E\275\276E/;\376\210\314=\346:\320\275\336\230\022=V\223\350\275\340q\356\273\3312{\274B\333#=\276$\323\2744\336\235\275\366\360\000\276\373_\237<\027\231\t\276az\261\275n\321\270=/q9\275\243*=<kd\246\275\226\337\321=\263\200.\275\026\274p=h\303\314\274q\202\034=\331W\300\274\020\251\360<9Ib\274\244\301\225;\234a\322=6B\276<\252\307C;\005b\224\275rL\022\275i\220\263\274:\334\334=(\371\302=\342\316\023\273\265H\323\274\337\260\223\275\212\036\023\275\271-{\275q8\221:hY\246\275\242\323\206\275\317fB\272\002\373\323:e\020\242\275\216\n\331\275\2373\257<\\c\254<\373\367\222\275e\213\371=\331=\t<\255\377\037:\273k\202\275\266\007\260\275\247\364\n\275\224\177\226<\360\244\320=uo\254\274\340bh=V1\335\275\002\335\n=\346\225\315<_\177\010<\027\007\006\275\037\037\242=\246\376\371\275\345\346\005\274\203@\350<$5\265\274\375\026\000\275\337\327\235=q\254\002\275\241\260\n\274)=\303=\261\274w=A\t\317:\366#\236\275\255\204\352=\200]\211=w\"\320=>\220m\275K8a=\035_\314=i\257R=\227o==\014\"\343\275\304\305\251=K\217\322\275\303Q\260=\005\003B=a!\217\272\301!\226\273\003\036\337\274A\220\220\275\325\236\304\275\023\243\006\273\323Z\027=\005\267-=.\320\226\275\367\177\253=jM\274=\251x\034\2751i\316<\216\245\272\274\371.b<\345P\274\275y\230\341<\236\227\307<\312\317\205\274\261\236n\275\210\254\025=mo\211=\r\242\352\274@$\033=\257a\026=\r\220\'\274\351\362\004\276\324\215\243\275\377\022\3258y\267\260<r\3029\273\347\354\262\274\316\310\334=\300/\326=\311\235\240\273\331,\227\275^\212\333\275\254)\322\274\033\347\361<\002F\023=8x\277\275\231&\307\275\210\023h<\344\366j=\317-\327\275\252\216\377=\264\221\254\275^Y\003<\200\n\013\276$gj\275\035\353n\2743\035\312\275r\001\222<\363E\247=\232;\314=\212\236\261\275A\252\263\274W\034\204\275\254\337\226=T\354\246=\370\354\346\274\013eJ\275\250\1774\273\316\\\205\275\336\262]\274!\177\223\274\014\350\033=\304.\235\274~W\320<\210#\206\275{d\374\275Vo\217=G\261f\275S\027\375<\344\272\r=\241/\010=i\217\\<\214\265\335<\002\270\034\275\326\3479=\225aA<~\241\262;Q\264\224\275^\202\275=\342j\213\274\354\230\356<\334\245\310\274\221\221S\275\337L\370;\303\263\020;\316\032\020\275V\201\032>\374\355j=@_}=\334wy\272G\273o\275\277\266\300\274\260\373\254\274\372(l\273\333\220\025=]\211\325<\035\222\316;_\202\241=\035\273\036=\2747\261\274\330yO\275\340fW\274\224\370\215=\013y\305=\207d\007\274\272\255\255<\3028\302\275,\267\326<\212t;=fT\225\274\230f\032\274S\211\225=\201TR\274\316\300Q\275X\202\342\272\251\247m=\013\301*\274ok\002<=\334-\2756a\311<\270[\213\275\352\246\221=\342\343\233\275\013\020T\275Zq\224=h\304\206<\266\036\023=O\237+\275_kD=E5\000>P2\216;\002p\'\274Gj\032\2750\333\264\275\276c\345::\t\243\275>\260\204=\031 \320<qF\232<\212}\216=\265\320\265;\2343\317\275\226\027\214\275\3079\000=\263\213\232<\230\341\241\275\026K =aS\322\274\345\207\034\275#}\335\275\253\373\020=Ca\321\275\225\033\352\275\325 \331\275k\331\267\275\301\313\262\275\205\330\010=\354\243k\275^\266\302\275q\203\227\275\005\334\236<ek\337\275\000Z\201\275\177\311{<\003\217%=|6L\275\376u\250=:E\016\275D\037\020\276\247\327c<\267V==H\r\306=\263\327\277\274C\026\367\275\241\270{<]\347\245==\320\245=\363L\233\275\274\013\273\274RE\230=\301\003\206<\215\216\001>$M\225=\027\225\322=\254s\\\275\316\006\235\274cfN=\365d\223\275H\200\000\275\033\033\366;\317\207\305\275\307N\234\275v\331\215=\322s\177\273\200W6\275d\2377\275#\354*\275\220\261\344<\2421\\=\'W\211=\250\n):$\036\234=\375>\364\274)\257\201=Z\246\2369\364,;\275\316f\307\275\264\327$\275\321\276\310<\027\252\337\275\322)\267\273\313\362&;\350\017\363\272\374ZJ:\214m\266<6\'\206\274s\260W<\'\033\232\275\036\311\262\273\200\333\036\2757T\222\275.\272\223:\365\356\304=\033@\316<\271\302\203<\304<\242:\236$\377=\303O\031;\033\211\211\274\226u\265\270f\243\331<A\001\226=\372\202Y\273u.\332\273\"d\225=]H\241\274\376t\':\302\2445\275;\270\037\275\024\2044=\212gI\274\273X\201\274yqF=?V\212=\350\033<=\376L\267\275\016T\321\274\367\'z<\026u\357\273\256V-\275:ia\275\372\262\336\273\322\n\016=Vu\n\275\233+]=9\220\245\275B/\234=A!\004\276\021\374\303\273.\245\343;\316C\347\273\357\024\346=\310/?\2753E\205=\021\026\034=\356\3517<\003.\361;(\201#\275\264%\234<\0041\344\272\0234\005>\005\3753;\340\000\320=z\r\0249\224\252\212\275d\260\035\274:c\264\272\336\244\220\275N\260x=>M\340<\205=\376\274\246R\303\275\230\241\271\275n\220\013<\364L_=X;];pID=\024\232.\275:\332Z=(\360\215\275\263\340\262\275@\251\237=\335\226\221=Vd\353;\331\230\202=UFf\275\373X\347=\213w\227\275\346\302\361\271\375\315\377<~\256r\275\247\307\001\275Xa\322<ZJ\262\275\306_\204=\266\301\202=\352\033S<\314g\341=\361X\241\275\230\220\263\274\322\207\207<h\240\230:\207|\316\275\217\306\221=\000\207\347=\022\0246\275\310K]=\233\177\306\275\347\245\023< ;\225\274i\245\303=/\211\334=N\356\225\275\017s\201=i(V=X\300\304\274\353\277\020\275\265\371\244=s\2032;\317\005\246\275!\t\304<&\275\016\275\2619E;\233\022z\275\342\236\331\275~\302-\275\345s\020>\247b\202\275\346\264\207=\211[n;\310\315\277\272\236\331O=\232Jd\275s\312\233;\355C\034=\251\202#;)\351Y\272\336\021\203<9\025\306<\257is:HQ\271\275\342\340\017=\265\333\275\275\334\204l;\277I\352=\212|-<\332E\001=d\322\271<\262]\243=\254\315\215=c2\373<\303n\3078\305\326\230\275F\233\177<DiZ=\236\312\266=\022\226\221\275\374q\241<\326-\270\275<!\250\272Uc\330<\345\205_\275\377#j\275).\322=\203Z\273\275\275\026w\275\212SY\275\262\335\030<\312\242 \275\264)\314:0r$=@\327\006=S7\256\275\376Mz<X{L<\265Hv=8\031\033\275\365\342\003\275\216\377\013\275\347\352@\274L\377\256\275O\231==\000\177I\275\256\367\301\274\331R\366;\226\301\177\274M\3076\273\252\314?<|\376R\275\350\031/<Z\255\363=\276d\345<;\267\277=\202\220#\273h\370\330\275\236\304\005>\0246:=\005\331\234\275N3\240\275\250\264\240=\r\300\253\274qd\274=\311\241V;\000P\334\274\203\3527\275\2352\344<\005\227\007\276\317\307\223\275\020\024\303=\225\245\201=\215\321\330\275v\313\247=(\177\024>\253\036u=\273\234\220\275u\314\216=#\265\366=z\315\316\273\357\215\307\274\270\320s\275T\252\206==\335F={h\275\274$55=\225M\254;\203j!\275H\232\234<_?\344=\241\324\212=\013\360\323\275a\323\376<H\003\330\274v\203\244<2\007\334\274\333\253\032\275\204?\215=}e\274<-}\312<\243\333\235:\210\271\342=s~\341;I\367A\275\352\335\242\275y\221\304=\271\350\260\274\250v\253\274\210\210\265;\361BN\275V\325z<fzj=\030\216\2759]\237\034<\006v\206=\273\2209\275\253\323\274<\021\310\315<\243\306_=ZX\026<P\320\272:\352\217\026\275\232\247\227=\t\243v\275I\315L=[\322\032=_\265{= \360\220\275Q\004\034\274\356\252\003<\031\375x\273\t\030\203\274\n\217\243:\261n\037\274\361^\304=\363\016\243<\033\020\266\275cyf=+k\363<;6A\275?$v;\231NP<\003\367n\275\3556K;\253\022\210:\247\320\212\275<\010-\275/\037\336\275}k\001={\3345\271GC\004\275y|\205=\334\220\370:rGm=\307\366\324\275np\303\274u\232?\273\'\214\022=j;\307=\tV\313\275\310\250\201<6\030\215\273C\213[=\023\243\332\275\030\255\001\274\214\2647\276\244\001c\275\332\301\314\274\031\230n\275\036Ht<\277\200S\275d\203n=\003\340\266<(\310\315=p\016\003=ht\360\275gF*=\237\304A=\310\311\223=\3344\r<\320\310\205<\205\226\243\274D\216\033\275\277\307\225\275\016\021\232\274\224\263Z\275\363\343}=\266H\206\275V\253\255\275\323[\222\274\270\211\317\273\217\367\301=\007\302\221\275>4\240<C;\377;\017I\264\275\365\010\306\275n\317\374=\232+\"=\331\210\246=\220w\301<2\267\364<\2529\214\275\016Bk\275\374\276l\275\224\307\250=\267@\253<\203\223\037\274\014\235+\2743[\320\274/\270%=C\253\t=\333JQ\275\270\205\216\274\336\032V\2757Xg\275c\014\357=,\271\317=/Vb\275\277k\215\274\315\347\246\275\001\347\n\275\215\343\343\274\316\036\033\275\365\000 \275\326\334\333=\273\305\003>\270\220\241=\003\030\277=\316J{\273\216\256K\275k\272\337=:p\371\274(\201\225=\315G\314<\340\320\025\273?\236\253<\030\260:=B\323Q\275\004ib\275d\026C;\3778\224\275|\215\311\275\010Ws\275\030x\004\275\004\253\231=>{\301\275\340_/7\272\"0<\256M\030\275\nI\305;\374\310\237=3\270\355<\035\000\006\275\3422\331=\333#\216\275\273\003\212=\330\035%\275k\261\264=k*\220\274\200u\315=\\\322\275;\376\323\230=\351\017\035=$? =\210u\317;E\362\217<\264%l=\327+\231;(\211\030=\334\306\202=\226T\201\275\020\014\253=\3115\260=\274x\311=\254\267\226\275\374\327\322=\312\237\310<P\014\"\273\340\314\305\275<\203\257=^r\301\2756\322\224=p\3649\274\325\226k\272>\252\333=}\035\277=C\345\211<\274\340\203=\3706Z;\260\2514<\312u\\=3\346C\275\366\263\373=e\372\211\275\025~j\2740\217\225=&\271\324\275\206\\\327;\003)\017=\005\007\203\275\373\346\362<h\r\224\274\304\235\261<\027\n\241\273\237\201\316=CM\310=\240\232b\274%(\313<X\375\202\275\020{\213=\236U\231\275;X\215\275\223\021\266\275\231\321\343=\316\177\216=o\264P\275|[\203=\202\353\335=\364\'q=\023\226\207=A\035\244=\244\354\301=\257\030\"=\230\312\205< \276*=\315Z\t=D>9;8\217\363\275\336\261\261\275\317u\016\274\337\336\235<\\\220/\275\235\201\023=\312WF\275\0132i<\331Bf<\274\202\205\275\365\330\223\275+h6=\361\323\251=\034\024N\2757\303\230\275a\200)\275\327\362\336={\006]\275\273r|\275k\244\266\275>S8=rq!=\364\314\022=\273\006\351=\334j6\273\303\222h=\'\243\276=\353\362\273\275?\226J\275\310&\001>w>\n\276E@N\275\014\177\370\275i\354\357<\221\342\257\272U\343\272=\265\022\0229\250\251\373=I\362\274<\356%\303=\023X\3569\367k\315\274v\374L\275\222\022S<\307\233\025=\027\027\276;\212\255n\274v[\211:\340\255j\272l\307\236\274\224I\250\275\373\235,\274\240\360\254\270\255\253#=\177b\245;\3508X<hbp\274\332\314\243\273\314\262\204\275\002x\217:\221\304-;D\212\222=y\023\311\275\224\004\241\272?\351\206=\001\365\244\274\260b\371<\203\313\214\274\237d\371\274\253\r\315\270\360\223X=\212\202h=\014\346\n:\202\031\352;BC\326\274\366E\010=\236\t\257\275\276\367\204\274\210\304\266<$\3403<\203U}\272\003[E=\212\345A\273\230\032b=\247\370J\275\005\3379\274\247/V\274\250_n=\213\275\264\271\222c\254<\036\312\246<i\360\013=\242\024\343\272\007\036}<-\311\'\275a\327\010>\363\000{<\364?\030\275\366\327\266\274\241\014\266=\020\304\232;\'$\331\274i}\216<\326mY\275j\241f\274\246\213f\274i\302\305<r\332\262\274Mv!\275\354\247.;;\361\265\275\020\373L9\027\336\321\271\3659\227\274\3501c\275Y6\377<\240\334\377<\033\242)=\313V\237\275]\014\022\276e\324E\275x\331F\273\370)\307\275\340m\237=\326\277Z=\251K,>\241\234\n\275\274\030\022;\027m\202\275\213\006H\275q\313+=\312\014\277<1pT\275\324\266\270\274,q\020;r\242\303\274\354\216?\275\337\276\020\273|\223\">\300?\220\274\0046|=)\206>\275<\365R\275\257n\256\274\374c\206\274\274p\215<\025%\034\274\322*,\274\003\306$>\006\\2\272\177Y3=\237\322&\275\033\355\345<\325\212\256\272\227\306\202=\320\265\330=\'\360\222=y\020\322=\340T7=,\217\364;\304\347~\274\270:-=I\260\376\273n\2666=\215\331\221;O[\206=\323=\235\274\002x\357\274\320\301(\2724\277\212<\244\245\003<\374#\3078\323^`<a\020K\274\213\352]\275H\364=;\366\350\203\267\365\025\230\274;\357\340=\377\303\263\274\345\330,:/\036\211\275\245\024\325\274\307\ru<f|)\275s]\310\272\316Fq\275\030\266(\273o\r\272\271\223sn\275JF\000\276\354c\301\272\214\347\032=q:h\274t\303,\274\240\020\223\275>\021\236;\3141\267\274[0\233=X@\327<\254\3246\274\321O\026\275h\374\243\275\002G\270<Aj\222\275H\356\30096\236\242<\225\201\236=\004\324/\275>\305\352=\300\352\200:3\336\317<n\247\225\273Y\022\351<\034\367\255<\250\014.\274\214?\272\273\226\221v<\235\300\272=\256\305-:Cz\243\275\254\332\361<\210\2322\275\267G\331=\375\272\211\274\022\301\352=\325\300\335<\364@p=\375:>;\211\274\206=\324D\344:\025<W<\210\314\250:t\026v\274\337uQ\275\253\247\305<_\203\027\276\256G\276\275\207>\304\274\342\267/=p\002.\275\370\024<=\324\316\314=\310\327\213=\365\221\250=`\n\322\275\020Q \274\275\374\035\275\230F\232<2][\275g\230\224\275\022X\206<\234\262\344\275\004\211Y=PQ%=\310F\341\274\207\245\215=\303\017\300;\305\377\n>x\344\"\275\rt\246<Z\373\001>g\374\226=\302\374\217=!\'\242\275\315\007\316\275\372\263\000\275\250\033o<G~h;\323\212U<\346\2704\275k\312\307=\211\022=\274D\247\274=\2412\213\275\255-^=\276\362\3639\346\315\227\274\253C,\274\376O\035=\234\337\257\274\021?\275\274u=\200=\253\351\204<g<\004>\234u\216=\241\004r=\"%\350<\261\007\237\275\2022\005<\364\376\177=%\007\367\274\273R\373;\262|\r<\365\252b=\035\205\257\275\345n\313;\0327\243\275\326\034\366=\223Uk\273\204\250F<\322\201t;Tv\207=\360*\227;\303\20458\346I.;A<@\273\004_\216\273 ^\327\274\021\332\265<\030\317?=\231\032\303=\201\215\241\275\224tu\274\322r\274=\231\204\272<g\377\251=\330R\264=\014\036\235;\355\223\214\273\215\213:;\313\234\021\275<\206M\274\364\344\205=\263-\007=NM\200\274\324\314\234\275\202%\341\275P\261)7\304w\267=\231M\235=E\347\225=m\004\317\275\320\344I\274\334Md\273\312\344\370\275\034\242\275\274\304~\304\275&\206\261=c\362\367\275N3\361\273\334\026\255=\202\304\245=\037\272\245<+\023\251<|Y$\275\301=\220=\257\274\202\275eR\226=z\006\252;|\337\224\275N\016\225<\373\031\362\274{\321\352\274]\315\233\274\322i\247=c\343\274<x_\002\275\237\201\032=1\324U\275\254\350\362<\274(i<\031\033\265\275\332\235\336;\272\034\003>\301J\202<\006\013\331\274;\230\240\275en*\274_7\332\274\253C\255< \360O=n8\224\275\202@\201=\357\265\207\274\014V\245\275\241 L=8\317P<\263\r\007<\267w\266=(\265@=\366\375\207<Jd\305<|l\317\275+d\210\274?\265\256\273\024\337\253<\350\353W\275C\026\317;\002\256\233=\237\252\332\274\233\337\375\2753\350\032\274\\\177\310<Q\\~\275\222\001r=\322ol=\331f\276\274\245\260y=y6\264=8Z\313=\313\361\372=\213\322\274<\244\203u\274:\342\334\275\335\"\027\275\332\r\306\274\223\\\250\275\307\274\311<ta\342<\237\336\266:\243\034\253<\033\217\'\275\343\rO=q\232\206=\302pu\274Lq\260\275\t\336i\275\022\362\024\275\276%\357\275\365J\346<\320\221t\275\3024#\275\273\211\240\274]\006\252;\t\227\335<g]\367\275\0364\r=\364\337D=\030\227f\275\235\022\263=1uS<\255\234\254;\261\342\004=\326\033\224\275\311-\037\275B\266\312\274\330\250\247=\354\232\225=\024\204\274=V\026\275=\372\333h<\374\365\333\275\366^\267<|\034\253\275J\372\'\273Ko\323\275\355H\246<\243\277\200\275\031v\221\274\023\360\216=\300\306X\275\261<r=\336V\017\274\225H\312\274\303\016\265\275\003*==\272\372l\275{\np=\017\r\256\275\354\316\231<,\304\352\274.\241\000\275\330\257\010=h\033\005=a\212\006>\335+\004\274\317\225)\275\211P\035=\356\270\205=\206\345\253\275 w\345\275}\013C=\252]\237<\364k\340\275w\365\302=\350\364\351\274z\\\204;II\216\273qC\337\275t\302\211\275\245\367\352;\210\373\252\275\345\023\353\275>\276\332\273d\273\232<!J\\<\010\376M=Yx\262<\220\220\025\2746\373B\275\335M\237\2754\276{\275=\244\302\2755\001q\275\362\303\267=\203\275\330<\231n\237=\224\367\334<\245\027\017\275R6\333\275f\242^\275\376\364\321\274\270\313\251=\273d\035\275m\331\206\275\246\210\010;\0363/<\242\335*\275I\317\202=\002\375\274=I\t\260\274<oE=\014\021\230=\244\314\226=\277\255\366<\022}Y<\302\354\366\274\001\206x=\273!%\275\016\321\242\275\307\025\347\275\037\217\345=vhX\275\375\025\250=\031t\334\274\332!\237\275\3434F\275,D:\275\035j<\275\260\202\314<\331T\340\275j\024\307<\006\330g\275U\336\232\275\247\360\254=I\177\316\275\316n\353<\325\204\252\275\271\013\220=\347\332\256=_\330\312=\025\371\331<\033\252\206\272\027\272.;\347\332\235\274\004U\2728\002D^=\343r\3318\260\333?=\216\035\033\275\250x\333\275\343\277\237;m\2307\275K\322\251\275;t\000=\213\320E=\005\366\177<v\370m\275\017*\242;\224\"J:\303\307\257;xg\264=\370\347\305\274\033A\2047x\273[\275LtL<\017\261\205\271?H\264<F\364=<\245^\266=\344\016\027;\244\250\352<@u\245;\027Z\t=\017H\010\273T\002\347\275i4\222<\202\217\253=\217>\365=\2434\230\275\025\356\220;4\245\242\275\362\\\016\275\204\312\236:\265\004\213\275{\341\002\274j=\310\275\030+A\2756@\004<\2136\r=/\3306>\316\\L\274e\330\235=]\355\022\275\235\313\242\275\005!\254\275\014C\301<\353\202\324\274\273\212h=\305\2610;\315w\007\274)\307*=(|w\275\010\264P=A\252r=@\230\221=\025i\253;\237\364\r>=H\217\275\327[\360;\n|\354<\253?\035;E\r\210:\272\007\277<\323p2\275\306k)\273\274\t\272<\313\377\365\275\234P\264<\352k\314=q\214\225\273p}[\275\020\031&\274\330o\275\272\001\245\342\275.HG\275\nhX<QlO\275E\035\276=\n\"\306\274\305\262q\275\207Z\254=a^\240;\241\365\244<\347\310\246\274N\371\257\275\332\261\374\273\033\210k=\233\215\\\274G\277c<m\231\241\272\027\336\264=,3\230=\244\004\250=\274xk=\351\333%\274\243\013\350\275\346\266\304\275C\370\211;\241\027\257\275\356\210j\275\334\361\033<f\232\235\274\301.\235=\023a4=\216Z\364=\337\252\333\275\006\321n<o\371?\274\010\315\225\274\311\005\242<\256\251\313\275iS#\275\336\233\243\274\037f\323<\251:,\275!\347\350;\003\323\310<w\360\222\275\000s\"\274\271I\337=\334fI=\017\307\277=\371Y!\274c>\237\275\266\244\347\273T\021\327=\240$>7%z\215=8\'\215;yz\326\274\230\216\036\275mI\373\273\215\226\202\275\341\206\2609\314\267\227\275?\317\210;H~\262:\216\310\230\275n\020(\275\321\324\204\274!\022\007\273Q\321\223\274X\374\"<\353\205\204=\215b\342<-\25149\2266\030=\274f\350;\324\217\025\275\233^#=\'\333\212\274}\032\324\273>\2121;\342v(\275Z\252\346<*\024\221=`tE\274>\251a<\301\322\0029o]D=\252A\013\274\3031\207\275\206\373M=\340a\351\274\0208\243=&\221\244\273\271\276\261\273\373p<>\223\031\344\274\024\377L\275\321\233\014\275\343\367\245=x(\243;\021\373y=0q3\275\310\200\362\274\227\365\177\274\r\240\027\274\372\024\307\273l2\211=\2341s;\317`\246=\025\225\331=Of\247=;\343==\214z9\274\367z\376\274(t\353\275\024Z\217\275+>\242\273\245\364\034\275aWJ;E^\210;9y\232=Q\231j=\316\001l<\367\363\270=\007P\347=0\307\227=\035\237\023=*!j=M\330\313<\335\314\215=\265\365\231\272\353\245F=\336~\030\275\213\244\224<~\233\033\274f\366M=\222-#\275\t\245\244\275s\270\262=\211WQ\273\271\262\264\274\377\"\327\275K9\034\271\257\0054<E\221\345=Y0\226\273`6o\275\302p\244\275WM\315\275\007=<\273\225\022\312=\230\212\247\2744\353\355\275\3741\003\273\244c\311\274\373\333 =\306\005\227\275\n\337$\275\243\006\203=\316\254\333\275\001\275\310\275\233Ga=\347\366\277\275\345\021\t\274\237\374^\273\272^\255=\267)\200\275\365\204\342\275TV\022\275\276C~=\037\006\327;\360r\026=\243\327S\275\\\003\276=Zs\355;\016j\306<\r\023$\275\246$\2568\205\302\301\275S\334T\272\257\305\337\275\023\240\217\274yj\037=\\\213\222;\323\223\025=.\247\257=\353\220\007\2750\225\235\275\204\370h\274t\253\274=\024\234L; \026\234:\310\353+\274\013\004>>\310D\014=8\t\023\266\270\252\207=P?Q\273\231\022\347\274\376\010A=a\306(<n\217\274\274K\016);\006;\207\273J\023\341\274}\346\360\274\017\033\204\273)\025\211\274\337\356\235\273\334t\301\274\337\n\020\275\376\264\300\271bW\267\272\206\366\177<jd\311\274\365Rm:q\203@;1t*<W\247\005\274\211\2731\274\273\326d\275\327\017\226\274\310\377f=\261.\274=\233]\271\275\252\307\331<\347,\265\275s\334\210=\315{\210\274\333\310\213\275#\353\205\275Pu\341\271\263\252\001<\356d =R\356\217<\254\311\307<\337\312U\275\363\252j\275\255\310\357\275R\177\r>\350\335\240=\365\272\221<\271[\326\275V9\265\274\301\367\022\276\201\356\"\275\357KQ\275\232Y\023\273\"\213\037<070:~\367\205:\256\211\302\274Z\035]\274\315.\344\275 \2319\275-W\225\272\317N\324\274@\347#>\237\245\231<\332K\014=!\355\017\276\020:\250\273\336Y\376\275\271\201\203\275\352 _;\266\333\275<C\311\324\275\227\234\267\275\364\312\223\275\200\214\310=\'=\254\273\300\n\317\274wH\213<7\372Y;\006\212\230\274%\320\220=\340]F=\326@{\274A\030\000=\264V\247\275]\341\027<\025\252+<\307k\024>|\210\261<&\355\343\274\307\226Z=\313\274%<\312Pl<\215g\\\274\031\263z=Oe\354\273HG\004\275\302\332\301<+\207\233=\3773\354\275r}2=U\363\000=\217\351\021\275\320&\233\273\207\216\272=v\256\200=\344a\202;\301<\206=If\233\275Bd\224=\360\003\206\273\023|)=w\270U\273\026xl\275\305\022Q\274\323\232\242\273\321\307\365;\246pf\275\n\031u\274\324\375\330\272\036d\247=\010\367\206\274\340\031\247=\276\200\370\272\021\245\232:`\"\370\274\025v*\275P\023\027\275\333\352\002=n\264\331\274\020\000\201\273\220\252\307\275\216\263\253\274\037\361-\274\027\274\013>)te\274h\314\214=\003&\262\275z\227\236=\354\216\210\274\277.W=Y`\251=\335H\014\276\315\267\021>\010\024\375\274\005n4<\370\313\344\275\377;1=\271\257\374;3\276<<\211G7\275\245\366\t\276\211\331g\275\337\261\370\272\264\333Y\275\335\334\253=\327\307\243\274\205\345\320\274\316\2629\275t\357\321=N\337\221<\266:\310\273KRH<\223\364 \275\374\216\017<\276Xp\274\260p\200=\031\351\240=\353\316\316\274\350|\273\274m}\225\275w\314\227\275\302\243\236=w0\350<\003\204\021\275\320+U\274+\261$=Y|\202<E\343i<\332\332F<\001\033\233;,\247==\321Q\322=\302\320\202\275\252&\367\275HJ\276=\330\300};|\240h=\333\320\244=\n\273\025\275\272rb<Gm\223=\244?\373\275\354\311\330=\310P\372\275\016\201\332\275\322m\245<\237\377\250\274\355\211H\275}/~=\264B\005=\311\246L=\211\004\276=\220HR\275X\332\031\2740|w=6\004\370\275a6`=\214\225Z\274Z\327\002\276\227\273\217=\234\207P<\203\247\255\275\352z\273\274\257\236\357\275\377\376\275\275cGX=.U\311\2748\312\235\274\341Uq\274\211\314\272=\235\177\344=\275\207\324\275\035_/\275\346\361Y\273\004\317\302\275\254\3663<\377H\001\275@\261T\275\360\215.=gJ\204\274\030]\240<A@\347\2759\252|\2759f\004\275\260$\026<\352\314\313\275\237\316\213<6\317?\275\273\360\033\271\250xQ;\263\027=;\355\310\255\275\201\023<\273U\355S<!\016\323\273\340\203k\275)pl<\001Y.\276S\021\352\275\315\247n\275\177\363|;\325\016\204\272^\312L<-\322\202\275\n\315g\274\022\001[=\333\347\326\274\321\216)\275\216\213\240\275\207\275\311\275m\352y\2741vU=J\332\";z`6=\276\373\234=>\377\254\275~\320\276\273<-\307\275\250\256,=\217\376\324;N\215x\275\336\272/=3\211d\273#\233\234<`\217\320<\244\021\027\271\016\255\237<\330\010\227=\335\307\014={\363\340\275{\213\273\275\367\201\007\275N3\250\275\006ue=\\\345\361\275\214\303\206\275.\236\311\275\300\325\177\275\\\014\215\275\205#\204\275\3518V=\205\225\n\274\204_\017\275\020\3038=\033\2362=L\276\217=,\366\031\271\226\227\265\274\377\013\352\275?\007\264=f8#=\005\025\225\275\212S\266=\367\333\303<\r\253\274=3\037\244<\035[\335\274;\364z<\021\235e<\026x\345\275\350%\342\273\204\'\306\274@\305X\274\323;\322=J\016\320\273\347\302\177\273;\260\017\276\234\317:\275\326Z(=6\240\001=m\365\214=?N.<;aN\275Z\213\254\275`\331\024;\264\206\252=\256\362\320=\340s\312=\252\034\223\275\2352\206\275#Vz<Z\3548\275\357{\267\274nJ\347\275h\265\210\274\304\216\235=\247\365i\275zs\001\274|\255\223\275\344\304T\275E\325\304\274\201\266Z=\0361)=N\224~\275\303\326V\274\215\324\276=\r \025=\227\352q\275\212U#\275T\203\234=d\334\333\273P\203\247=\025\031\312;\001\351%\275\321\353\250;\037\262\244\275\344:&=\216\023\333\275\014\310?=b\003\345=!\217\334=f\r2<\033\337,\275r1\205\275a\003\236=\320\235\244=M\375\022\275\205Q\225<V\000\205<\0041\027<\002[\214\274^\010\337;\001\363K=\215fn=\037\224\300\274\234\367\227=\361x\207=ThT;T\177\265;\236_\232\272\304\nu=\272\037\324=\366\300\370:\375H\306\274\005\321|=\201\307H\275\250F\343\273+\270\014=r\363m\273\230y\036\275jW\341\274\313V\001=\215\222\315=@Vy\275\"]P:P\301\306\275\317\346\023=w\310\221=\233/\270\275\3375\202=)\n\324<-\342\221=a}\003;7\366\037<{\217\006\275\230\342\323=F\336\265\275m\246h\275\322\315\202\273\006z\250\273=1\007\275\341\022\315=}\312\210;\026\355\241\275\021\007\346\273\262sc\274H\313|<\327\302y\275\277=\"<\207\013/<\266\353\337\273\031x\300\275d\266\261\274\344S\334\274-\217;\275\330\253f<\210t\350\275Q[\211=)T\337<\244\361*=\3723B\275\354!2\274}\013\215<# \202\275\2333/\275\r\215\247\2728m\256\275\264R\213=T\2138;b\356\005>kW\326\275\234_\000\2769\3415=\242F\250;\310\342{\275+\177\227\274S\001\027=_r\200\274\324\033\267\275\267\021.=\3177\272\275\272\305\334<\304\200\205=R\227\217<\n\005\204\275[}\030=\221C\224\275A\337\246\272\036\311\376\274\034\265\250=\351q\376\275\235Fx\274\333+q\275\347\254\302=\033\002\202=\312\220\237=\366J\230=\363\022\227<\214\225\226<\032\345\310=\205k*=\010\216%\275\\t\273\275\377O\232\275\335\302\240\275>\013\236<\325\357n\275u\202\232<\221G<=\tB\013\275\356!\367\275\233\312\337\275\004\261\240=\021\3172\275\031;\023=\001/\256\273\034o\372\274\2348\276\2750\022H\275YI\223=\275\310e\274=>\231=\352\206~=],~\275\355\345\305=\220g\243;\326a\356\275\306\334m\273\242\300\257\275\"\316\337\274i\207\274<\370V\360=\270\035\253\274\336\361=\275\003\253\002\276\373\246M<\265\213\372;\022B\3708\014\365\260=\316\210\033=\256\r\276\274\257\363\277<\017,\252=\377l\272\274\264\300W=@w\275\275\204\206\231\274f\252Y=)\225\240\2747\340S;c\260\037=\250K\205=\227v\273<a\253\212<]\254\377\273\362\323\035<\014\014\357\275\230=F\273\204\213\236\2731C$\274MY\235<\322\360\211:\232\323\377\274\272\350k\275\360O\263<\036\217\314\275:m\t<2\2763<z\356?=\230\273\265=Uh/=\363[\017=\233[\\=\232~\302\275\244\263V\275\021\247I=\0319%\274\335=\377\272j\313F\2737\230\310<\3502C<\331\312\340\274Q*\277\275G\236\234\275\215,\323\2759\201\006<\231@L=\210\237\264\275\301\002\300=\244\024\r\275\360\004\352\275Et\206\275;\354\031=\332w\325\273\244Q\322\273\233\374\264=\340l\273<_f\342\275}&k\274d\025\r=\254\022&=\031\340\t\2747\313\334=\232\262\256\275\230\207\203=\362\013/\275\262\242\214\275\254\001\"<d:\004>\253E)\275\002\256\213;\262\245\303\275\006\021\022=^\207\344=\237Z\210=Lrg\275v)\366\274\2778c\275\014\231\310<bM\310\275\254\027\267\275\244\235>=c;\026=\005\316,\274O\332`<)\177\010=\\\352\326\272\226\200\264\275\327\232\014=\253-\270\275\275%\261<D\233\231\275\315\006\245\275P\013\312\274\005\326S\275\275E\313=\346\277\036\273>=O=\005\330\203=\0266\232\275\241k\355\273\303T\014\275> \307=\361c\344\273\204\320\333\275\nO\270\275Q\306\272\275\254\341\345\275\273\001\256=\205*`\275Qo\270;wO7\274\177\376K;\324\253\302<U\342v=P\007\227\274\030\254\017\274q\034\217:\003wv\275\205\211\353=\242\023\351;\375\275\004=\240J\277\275\366W\310\275\245\3006<B\216G;\366\354\200=\003\374\014\275\274\3164;@@V<\262\227\211\275i\341\316=\304\370F<\344ej=-\345\216\272\237s\266=\337\017+\275b\352\200=\265nU\275\324\357a\275\377X\t=\330g>=\'\033\022=\0175\264=2\243\275\275\242\336\020<*x~<\274\310\230\275\335\3226=\375\330y\274\274\374U=)\177\253\273\005\304\367=}\036\261<\033\2361\275i,\204\275\356N\177\274dV\310=|\307\027=j\3661=\025\207h\275\353\3040;\273O_=\274\032\n\274e\037\233\275\233=M<\006\204\252;\004+\234<\217n\224=[\314Y\275[\026\322\273\261\311\t\275\376\n\026=\345\231\306\273\247\256\242\275F+L;\n\364\302\275^\276^\275\031\203v\275\013\020Z\275\336\317\223=[6\022<\330\321\237=;\013B\275\274+\201\275h\247\366=5\200C\274;\261\251\275\305y\300\275\0029\263<\020\352\353<\225N\263=\205B\311=Q\273\322=\\y\226={\211u\275B\307\323\275Ua\"\274Er\215=\244o]=xM\350\275\344\246\370\275\327xS=4q\266=\2601\343<l\256J\275e2\263=\024\233\207:O\'\262=\274\373\037\275\nG\004\276&,\365\275\0255Y\275,\010\310<X\276z\2757\225\203\275|*X=]\207\251=\326\215\244\273\361\205\343\275AGt=\355\277\332=\313za=\337\220\372<\234\000\324\2753\260%\274ak\221\275\302\\\322\274\334\\\263\275\221\376D<\346s\306<\367\375e\275\342\251\351\273\n\324\363<\300\355\365=\356\025$\274\242\231\263=B\220\200=\032\313\371;\372\265\000<\034\335\364\275#_\267;\230\005\004=fP9\275\310\320\246\275 @28\234\316\270\275\n,\364;\022\245\2239\370\272\373\275j\324\250\274\337qL=\327@\330;\212\216\013;\222\345\037\274\027_\253\274q\225\313<\277o(<&K\220<\352|\231\271\312Nr=T\306\245=\326\276%\275\215\375\\\275\370\277\235;L\202\371\274\3615\226\274G\304F<Xr\301;\216p\245=\254\267\225=\256\272\024\275\275\267~\275P\331\251\274\214\241\210\273;\324c<+a\034\275\320\214\276\273\t\354\341\274\347]\013\275\030.\331\275du\312<\026\\\326\275:.J\275\3549\003<\013\245\263\274\354\206\177\275|\337K=\026\213\307=\321\250\226=\311\024\211\275\274\261\031\275\tF\270=@\227+<\032\201B\275\\\001&<xo\000=\243Y\"\275\024\304\023=NL\004>\204\206\270\273c\320\366=\371\202\274=\020y\375\274z\367\215\275K<\326:H\350F\275\031\346\240=\032\335Q=GO\r=\357\365\003\275<&\214;\301w\234<\371\263!=u\314\010\275r\245\244\274\260\245\001\275\330\335\007\274\325\314\263;8\237\305=\245\252\307;\377\243\311=\311\360\265;\235\013\211\275^\225\306\275d\2171=\210o\212;\\\365\206\275\245\311\352\275(\034g\273\361X\355\275\306?\232\275;\263\212\275+\341\346\273C\265\363<c\244\021=\233\202\000\274\000\275\300\275u\363\323\275\302mB\275\221\362\245\275\204j\237\274^\200\312\274\232u\325\275\363\302\205<\016)\343=\261\270\234\275\n\341\260<\342l\344:\337\300\023\275B\016\306\275\202\211\214\275\352\266g\273\305nl=*SV\275h \010\275\244\273\273=\r\n\230\275?%>;\205\007}=t\370e\275\226j\344\275T\341\371=\222M\257\275\251\234\276=\321\376\234\274\200\023Z=a\352\346<\033\376\375\275\255\233\333\273\014U\274\273EA\034=^\244\274\275h\227\307;\034\301\244\274\301\013\230:^\001\210<\370\007\257=\002\271\344<EY\000>\257@\207;\300\212\261;\317\276^\273\320B\207= \252\'\275\3366h\275\301.H\274%\0007\275\264\362\213=\305dk\275\267\001\237\274\032\252\345=\004\210T<\000\336\364=\273\263\333=;\200w=\213\321\205\274o(\217=\255B\021\275`9\212\274~A\363=\375\237\021\275\355\373\037=|C\212\274FN,=p\n\005\274*\014\320\274\250\006G=\240\270Q=\r\275\004=\250Q\033\274\177\222%=\252\305v=\275\237|=\225\321\306=\264\013\301\275\251<\202=B\314\"=\nu|=\231\004\026\2740\333[\275-L\266\274\215M\205\274\226\036\376<\236+R\275\027\320*=\214\027\036=\202c\361;\230;\253=\031\034\262\274@\241\227=\235-\216=\255\'F\275\234\014\247\274l\203\206\275\250\366\331\274\240\334[=\007\004\211\273\010\371x=h5\262\274Q\0346\275\242\356[=\231\266\310<7\324\336\275f\375\330\275\000\031\231\275\374\310\233=\346^\321=J\233Z=\346\264\227\274s\357w\275w\260\303\275\351p\257\275\007dk=\222@\354<9\273\345\274\333E\234=K\2551<\201K3=\306\020\265\275\262\271\251\275fh\220=`o\333=\r\230\350\274\363\032B=>\311\271=\364\026\212=d\374\230=\254\210\272<\215\2701=\313:>=\316 \'=EH\276=\036\005\347\275\376\367\206=\224\225\242=t\366k;\223\032q\275\214_\025=s\367\230<m\026\225\275mL\206\275\305\0273=\346\342\031\275\300\256(\275b\262n<\233y\014=\311L\020\275\205P\234=\002~I=\236\335\\=Hx\310\274\021\377M\274%\355\300\275\245^*=\262Q\234;\251\231\363\275\222\3509:R<\345=-\260g\275\233%\244\274\0345\002;\177I\213<\321\251\317<O\360\252\273k7\207=\017\357\216\2754\211\375<\330\007s;\002\205\227\270\037\000\336\273\321\255\t\276d\267o\274.v\t=$it\275Zo\032=m\030\273\275h:I\275\025\311{:\271e\332=\261\266\301:\366\313G<F,\004>\264\022\322=x\345\3117\327:\220=I\247\367\274\276\252u<o\"G=6v\204\273h0<\273\021\222e\275[\353\210\274\226k::\264\275\333\273\206\2302\275\267%\354\275\221s(\275m0!=fe\241<\001\335O\275g\373$<3\352/;`\326\264<I)\245\275\253\002\333\272\371\261K=\325\375$=\027/\275<\207\307\037\274\370\313\215\275\265\204\203=\356k\206\275$\022\213=\325\230\372\275\276\3365=\337\253\335<j\357\003>\267_\205\273\320\203\330\275\271]\030<+H\263<g\374)=\002\335>\274k\305\241<j\264\t<>s\017<C\002\237\275)\256\330\274H<\371\2742\3363\272\"\274\321\274\352\377\016\274\355\023\316\272\302\322\324\275\234\253K\275x\032\000=\354\370V\275-\370\307\275SC\207\274t\340\243\275A\216\262\275\302(O:\326\335\326\275\323\254c\275\202q\266\273\371J\213=e\336d=q\004\243=w\202y=\203G\014\275\331\'\265\275da\177<\0350\240=\325\204\230=\221\344#<\271\320z\275in\000\276\366\361*\274\275\210\230\275\257Pl\274\035\360\033=h\236\223\275\251\252\312=\330\376\213=\376O\353\274o\377\224\275\217f\021=G\246\230\272\265\317\217\275#8\212\274i\374G=l\362G\274\206\315\207\275.t\023=\326\274\215=0[\306=\237\340`\275SY;\275(\363&\275M?\204=[s\224\2753\206\216\275ne%<\013\r\000=\025\265\276;=\237\360=\352\265\332\272-\262\201=o\207\236;c\207Z\275\250TN=\323s\325\273z_p\274\332\375\217\275\277\362\n<;\245\203;\023\247W9\347\010\231= \010\322\275\307\204$=\322:q:)\350\260\273\266\271\271\274\223\354\021=\033\227\250\275N\335\2319P)\337\273D\020\016\273\245\275;=\r\323D=\024\373\272\275~n\231\272\271=7\2759N\226\275A\347\037=\013\363*\274|6k<\376$\200<\342\201*\275/^]\274\217\270\221;-=\252\275\355\262\237=xn\211\274\027\246\000<\0228`\274\370}.\272\362\023\211=\214\2428=\034$\t>\333\351\324;$N\312\275\301\274a<Jw\257<\354B\372\274\t\270\207\275i\247\004\275\"`\231\274k\271\275=\247\253V\274-\355\323\275\300|\363=\004r\233\275\342\261\300=\356L\347<A\361\216\275\267-/=\305\240\326=\206\221\235\2755n\254=\320z\005=\222\262n\274n\2244;\265P\267=\362?\010;\364nE\275\"Z\260=Ia\200\273=\346\256\275|{Q=\304\034\233\274\353h\325=O\2544=+!\266\275l\306m=\020\300H\275\342\363\216=B\205>< t\010\275\267\024c\275\200\343v=72\226\275#\357]\275\353=c\275\"\315\335\275V\342v;\300\235?\2755\3411=\262v\232\274\367y^=a\022\331\275\346\270\257\275\021i=\275\341\273\373\274,9\375\275/\236\336=u\314\245\275\247\311m\274\252\314\264=|\266A\274\023\243\"<\344u{\274\255\315\031=&E\256\275rm\223\275[\013\217=\240\275\372::\212I\275\017\226\256\275N\271\363\275\375\363W\274ys\214\273\220\017\262=\275{\346<;\226\245\2740\236\021>\204\330\016\275\267\230\005=\353v\347<\'\252\255=\357\n\310\274\357\326U\275\2016\3608+\367\240=\312\326\210\275<\010\333=|\212\300\273A\215T=\366\260\324\273\210\263H\2747\353\">\023\0061=\004\302K=\270\260\267;\303\234\2339\207\341\212<\016q\221\275\334\376l<6\242\216<\330\317\252:\334\245\374<\023\220\312\275yX\312\275\346\334#\274\021\215\206\275&\371\304<\220o\252\274\200y\264\274\030S\331=,\0375;\206\212\336\275\3731\010\274\207\356\204<\005\033\207\275AZ\037=\013\273\304\271io\275\275\326\3432\275t\331\262:\243\212V=\204\335\350<\216\t\373\274s\226\234=\344\221U\275\216\257\224<(\354(=\307\034\267\275\037\267%\276\324\025j=s\215%\276\216\004\304<\305\237\016=\257\262\302:\274K\220;\305g,=\266\332z;@\035\342\274\020\237U\274\370\"\033\274\006\335\025\276\233\347\237=\225p\263<\270\'\346<P\251`=\3476\222=\032\377\027\274\310\024\317\274!\257\325=\234\333\024=gP>\275\317\010\376\274\254\353\225<\334v\276=\032\333\177\272\3173\267\2736\334\303\273\246\220\222\275\027\267\375\273\275\350\205\273\273\374\225=jF\025=\336\0226=0\326\003\275eg\302\275\36392\274\001\267\315;\221\025\345\274w\252\005:{\314J\273\310o\214=\200O\310\274e\320\343\274\336L\273=\242\340\333\275\272\346\202\275\236\353P<\216x\020\276\024\320\247\275\261\255\226\275n\246\233\275\014\275\270\273j\210\346\275`\365w=D@\316\274\\\326\245<\277\261t\275\322\370A=\315\016\006=\263\350\212<\202\2758=S\375u=\270Z\253=\215$\277\274=B~;7\'e=\253\031m\274\203<2=\344V\234=\3220\014\275\233\004\177=\202\256\217\275L\007\321\275S7c=\202\253\352=Yz\036\275\346\021q=\362,\006\275Gu\225\275Y\021v=\267\231\345=\244\205\021<\326\004\205\275\362\340\020\274t\256\331=\362\250\035;\204\305\265\274\321\'\371\275d\235\214\274\300\357\353=\323ek\2757\204@\275\022\rm;h\032\335:\256\014\223<\204g\222\275\323e\301<\237#\347\2748r\001\276S\300\203\275l\211s<\013\217\000<\311\210\214\272\'7\312\275&\005\"\275=<\361;\272\016j;\3119\364;\010JB;\261\351x\275\341i\035<;D\221\275\304\300x=gX\021=\335~\004\274\300\371\264=\341\0363\275\177\230,\275\"dh\275R\264\'\275\214V\366=@\014\337\275\016\234\344<2\200];*\340\250\274r\312\345=\277F\340=\217A7=\032\212\375\274\356I\2658I\350\277<q5%=~w4\275\326\364\022\275_\020\345;n\352\007\275\206RG\274\240\000\016\275\265|c=\225\255\304==\026!>q\035B=x \244=\2655\305=+\371\256=\207S\305\275\277\244\214<\315n\247\274o\'?=\364\201\345\273\251\364\234\275\020\032c=\005\017\260\274\255o\255=\273>_=AZf\275\324\004\222\275c\301\301<\202CH\275\'M\324\275\031B\275\273\215\226{=\261\003\207=\271xs\275`\013\230\275\010\201\202\275\024\026F\275Z\035\206=\204\000\367\274j\030H\275\225\342[=\241\014\310=r\271\324\273=Q\235;-\277\232=\264\002\237<U\007*=\356x\262=\320#\202\275I\334\255<\000\014\261\275Z\317\244=\306\265\022=\207N\223\274-\255\205\275z\234R\275\204\351\035=\031\205\t\275\027$\020=\276V\002=\237\264\203\275p\337m=RY>=\356\247\212<~\002e=\2537\305\275]\315/\275b\"\272=\273H\244<\354R\r\276\321oa=%\205Q=\"\264\014>@\207\321=\247\321\035\274\220\342\216\2754`\032\275\321\245.\275hO3=L\037\350;D\217\216\275\345A\246\275\271\026D\275\362,\\:\n\001b\275@\245\303\275\345\031\261\275\310.\201\274\026{\257\275\n\313\322=|\2518<m29;\355\2778=a \026\275c\304\251=/\036\222:\030\227\304\275\305\263,\273\210\025\243=\237\220\275\2759\002\035<$\3075=\274\266(\275\0210\274=\256\014\021\274\355\312\333\275\334\324\351;\254\245|\275\234\024\335<\214W\211\274\351\340\363\275\242\273\374:\017\214?\274\n\'m\275\203n\035\275\203\257z<N\273\252=j\374\216<\343G\003>ZO\307\275\354\254\261<_\010\221\274\275\233[\275\250\274\205=\235\255^\275\177##\274\322<\260\275\0336L\274\372\rS\275\356\3347=H\212\223=\026\326%\275\251E\321\274G@\261<\233\243\242=3\322\307=\315\341V=\364!\332<\234\335\317=\305\355\216\275\201\350{\275 7\205\275Y3\034\274\345\023\007\2757\325#=y\275\226<\243\376{=\375\263\006\275\302T\372;\307z\035=\315e\021<\223\273\277\275\256\322{\274\020!m\275\235\276~\275\340Q8\274\321n~=k\361b=\336N\374\2721\"\322\275\013O\224=(z\207<\331A\346=\272\335\345;:MZ:AK\307=\30411<\216\372\006\2755!\344=\302\']\275\235\275\350\273\346o\306\275\034^(=\227x\206=\323V\035\275\2437\372=\271\005\230\275\231EK\275\356{\000\276\242\013\247\274\222\371\263\274\024\264\262=\335V\243={\333\010\276\305\373\020\275\203\340S\275\300c\204=l\022\343\274\327\267\210\275\206\236\231\275\212\010\"\2753\302\235:\222\211\274=\343v\377\274\374:\246\2752d\267=\014\030\332\274l9x=|\340\354\274g\'\017=\020\225\201\275\373\365\376\274\024\021\341=\005\237\314<\357>\347=4\223\264=\270\\\247\275\272\244\307<\370v\266\275l\210\243\275cC\232=#\227\332;\265\352\341\275\000\347S=\r\377;\273GB\204<j\311\257\275\005\n\336\275Z\r0<\347\221><}%\203=J\346\351\274\005\317\032\275\222\256\200\275\023_\277=m\331\212=w\272\201=\332\271\236=\302\362\315\274_@\203\275\341\360Z=\374@\332<v\036\246<\275\275\260=S\341\277<l\210\222\275W\216M=\272q\345<\243k\251\275\3629\327=.$n=7\337\027<\260\0107=l\020)\275\357\024R=J\024\245\275X\214\231\274\027\232\345\274\375we<\217!G\275z_\311\275`\344Y\275\277S\253\274S~\202=\251d\243=\360(\251<$\366\224<$T\031=\324\217\327\275,\223\231\275\326\306\341\274\315|b=\304M\307<V\202\272\275\244\223\354=\323\3268=\177\310l=\367\332x=\246Of\275\245\033\320\275~c%=\270\274\311=\006Y\203\275G$\255\275\003\3458=\203\227e\2752\364\233\275\177X}=\310\256\001=[B|\275\010\301\360\2755\376\233=\013\233\266=\262@u\274\256\360\357=\233\200\226<\246n\261\274#\332\'=\006\274\263=9\223O=\016H\277\274\234\237\277\275\215\261\337\275Z\302<=K\257\336\274\263\232\352<es\276=\366\265c=\314\t\264=we\331<\346\377k<bY\335\273\335J%=#\212o\275\335G\177=\3515/\275\035\276\276=\272\207.<{\322\216=\315\242\351=\002\332\031=\326fV=d\322\252\274\225\321\220=\023\303\327=c\310\230\275\0343\300\275P\020\347<{rq<\001RC=\254y\203=6\361\007=t4\177\275\003\004\205\275\363Q\\\275\336\273\273==tp\273:\010p\274=V*=\207\021\237=b\273\263\273\314\020\330=\371\372\227=\227<[=\235\330\214\2752D\326\271\351\256U;\375\275\207\274l\256O\273gi\';R\\x\274\313c\257=\301\310+\274\315\253\217\273_\254z<\314\231\352<\251\023T;\377\374/\272G2\377;\265\027|=9\263u\273=\274U=\201\0047\274\016\220?<hy\004\275\375\225P=\317\365\244\272?\023\203\275\252\267\222\270\234\332\233<\206\214%<3B\257=\346J\216\271|{~\275\317\302d;\376\005\370\274_\254\320<g{\016;\266;\222\272nQ\257;ou=\275\315\274\204\271\025\201\017\275\305\210\326\275\242\005 =\330\267\201\275\366\264$\275\316\035\277: \004\217\274\333\240\211\275\355\300,\275Ly#<\365\237\"\275\362\203Z\275\210\304\336<\n\310\321\274\356\"\021\275\2604\0379\342\271\354<\320~\224:]\021\250=\242#\002\275\215%\332;%\235E=\0278)\274&\3147\275G\217G=7F-<\340\201\267\275s\016\267<\302>\230\275?\017\021\274\343`\370\274\276\324\370;\327Gm<\200s\374\275\223\316/;\211\214%\275\022v\3179$\236\356<\022\320i\273[\022\n:/\341M\275xjT\275NBL<b\034\211;U\2328=\322\304G\274)\222\266\274\217\337\221=\374\215\3739y\336y=<\260\222\2752\270\371\274\320n\227=\273.\310=\235\353\204\275t\240\023<\3717\341;$\245\335\275n\036\\=_s\300=|\232\376:IG\302\2726\232\222=\004\264p\275kz\232\273\244\001\260\275\352\253\364=@I\026\275\3031\243\274\220\214Y<}~\270=>\253I=\302\245\026\275\022\327>\275\322\205\035;\365B]=\326U\330\274\24347\275\252\0061\274\036\202+\274G\031\323;x\\G\275\247Y\336=lO\205=\253c\252\275\177\212\201\275\217{\351\2751X\264\275\007\035\244=~:b\274Ip\246\275\254\345a;\211\346s\275s\247h\273\315\321\277<?j\242;T\362C\275\006$\351\275\203\353z;\013,\316=\000b\005=|\310^<\230\301\034;\220\351\022\272\004$>\272;wS\275P4\306\273+SU=ax\262\273\307#\220\273\374\nq=\010\037\330\274%\021\304\271\335*\n>\246|\372\273S\344\200<P?\227\274\225\322\321=\005r>\273\226\017@=\240n\021=-\247\214<p9\332\274\004\006R;H\315r\273\367Z\315\274\276\277\314\274\200#^\272C\234\023=\351\232I=\267.\222\274\256\031{=\223\274#\273\304\350\216\272j\002\216\275\220\t\246\2748b\373<\247h\202=\240\311i\274\320\316\030\274\306\272\016=\370;Q\275\214H}=\367\223\177\274\035\257\000=s\r\322\275>\370>\275\316i*;K\206_=\2124n\275\251\266\340;\334h\262\275\332\344\250<N\010]=u\325z\274\020\260\215\2755\351\373;\023\342T\275\302\355Q;G\361M;(\340\321\274\344\306}<*\035\265<\251\251\207\2759 \300=\027\232\260\275\246\003<\275\310\t\365<\341\010\t>:\002P;\022.\235=\214\034L;_n\271\273\327\224\234\275\265p+=B\305\256;RRJ\275\212\262.\275|\350\010\276_\327\356=\216\024\212:%\250\246\275j=~<\207\356\220\274pg\307=\024\013\302\275\212\265\332;\014\007\274\275o\326\312=\004\344\263<b\270\206\275\236\273\350\275.t\317<\317\005m\275\345\351M\275\325\214\260\275\351\263\023<\026\307\277<\346\013X\275*;\334=\313\034\312\274D\352\212\275\3303{\274s\264\222\2730&o\275\227N\310<\221T\314=I\312\247\275\214\013\024<\245q\304<B\364n<\340\370)\274O\377\323=\206b\026=\237kq\275BP\317=\363\355m\275\334*\214\274\245\311$\275\271\214^;\242\375\351\275\303ip\275\334\232\211\275n\300\244\274\324D\\\275\257\005\221=\206M\t\275\037#A\275$#\334\274;q1\275\242\313\352;\274\307\2268\300\372\273<\271f\232\275\247HT<m\323S=\035\277}\274\026\001y=\263~.\274Kd\320\274\271\257W\274\371\354D\274\242l\273<\177W\n<\206\360\010\275\\$\324=\017s\227<\311*v\274(\325K<9z\207\272D\323\275\273\215\007g\274\000\037(\274\276@\257=\203\tp=\r)`\271M4\273=\242\302\214=R\2322\274\327\331\216\275]2,\275\240\316~=\203Q\234=2\020\n=\344\240\336\274\312\\\314;\207\365\203\275\270%$\274\006a&\275a\250\222\274\223%\n=\037\373\227\272z\000\366\274P\034x=\013\"\216\275\362\260U=\205\270\341\275\213\240\017\274\314\264:\275\337\336\275<\034\253\276<\254\021\345;f\223\322\273\344\360\014=c\262\303=\341(t\275e\275\334\275\210\223\264<\376\322\024;\010\342\232\274\214\030\'<}\335\275\273\273.\231\273Bd)\274/\001\375<\377\326\246\273\317\004@<\326\324}\275M\202\213\274\267B>\275\235\327\304=_\316\362\275\255\177\306=\037\235\210\275s\006\007<\277\261\273=\375\372\307\275\034\246\252=$\020\263=Sp\304\275.Y\022\275\260z;\275\301\351\317;\362S\251=\326\241\001;\376r\353=\241\021\016=\032\323\251\274\243\262p=\340\377\006=&\212U\275\270\274\213=d!\317\273\216kZ=@6\030=\337\270\215;\003\255\211\274\032&\000>\273\271\321=\235\232\235\272g\200\311\273x\330\377\273t\206b\275N\270\267=\337@\244\275\257\247\343\274\037\327x<\303\331\303\274w\335\230\275)Q\223\275\274K\326\275\302o\241=\007\025\302\275\252\334\310=Y\315\260=*.\237=e\244\341=\271\025\006<\026 [\2757W\373\273L\330\273\274?\035\r;\345X0<R\244\022=\355E\006\275\210\"g=\326\236\030=1\024\357<\244c\313;\342e\007\272\001\207\313=!f\356\274\204B\035=\345\227\\=\327\247~\274yO\205=\265e\336\2757\277\036=L\311\310:\332/\330<\323\034\331\274\251\276?<\2025\341<\311\352\336=s\324]<\223Y$=\3464\006<\334\t\252=\341E\362\275\010\372c=\nX\247\274[\275\257=\3215\214\275\267\221z=\234\360\256<7g\330<\346\357\342\2740\227r<\264\357\352\274\342\323\376\273\254\2624\274\347k&\275\325\200\201=\203\274?\275\265\032\365;Pb\031\275\021\356\223=w\016\235\274\230\266J=U\177\260\273\t\031\237<n\0206\275\236\210\360\275\337\344\353=\17782=\310\201W\275\360\234\301=0z\212\274\034\205\223\275\014,\204=\263\330\272<3\216\010=LQ\244\275\344h\014=\023\344\231\27486\347\271\347M\273=\200\333h<\375_5\275\241\337\223;L\267R=\211\301\270\274?w\201<\022\013\310\275\260\333\253=\"\344\225<!\340z\275\336\374#\275\251\203\326<\340A\354\275\177\344\213\2759\024y\275\326l\037=$\342\247\275\t\352\232\275T\303\331\275\312\374\232\271\177,\267\275Nq\241;L-\243=\375>\364<\004\232\262\275\371[\323=\355z\237\275\353\205\367\275\300\363\227\2758\033\254\2755\200\234\274\321\212\241=\236\206\264\274\026\331\345=2h\235\275\321\236\036<\255\023\036\275<EE\275\321\306\266\274\374@\200</j\323\2733\017\333\275\217\335k\274\346\346\036\2752&\261\275A\225\201\273\247\333o\275\010]\210=uV\035<>\367\021=w\247\324\275\333\302l\274\353\347\201=\3336\363=\234\037.\275\316\267*\275*CZ=!u8\275<\214\202;\363*\203\27529\252\273\213\347\272=?\323&\274o\3125<\025\250\t>\337-\250\274An\013\276\331\303\303;D\221\253\275\3076\337;\004H\271:\345\003\203=C4\276=\244\357\303<\236\024\272=K\370\326=\356\001\240=$\026p\275\361\230\220=\004sG<Bh\357=\344bm<8\346Q=\224S\273\275\246\203\327\275\017S\004\275S\257t\273\030\340e\275\3332\241=\300m|\274)\033)<h\016@\274\345\376)\274\263\216V\274)\311M:\344n\010\275\252\261\022=\360w\325=[L\260;\030\261\221\275\217\023\370\274\260\211\335\275V\221\335<\21114\275\265\016\243\274|HT=\376\200\306=\334<\237\275\006\001\214\275\027\205\216\273\327\313\027<\006\317\231\274v|\220=\004W\360\275\333\234\325=]\206\230=2e\326<r\274\237\275\233\245\272\275\327\342\345<\320\344\024\2759\217\361\275\365\275\336<\331&\216\275\232F\312<j\243\370\275\004\237W=\'\230W=\301\000A=~\235\031\275\202_\311=\242\3664\275V\261\205\275\023\240\270\275\035\240*<\353i\303=\264\242|=\001\325\227=\016\177\362\275\251\220\313\275\351\037:\274\265\210\000=\237\032D\274\033ko<D\356:\275|\274\367=x3\224<\\O\001\2765.\365\275#W\307\275\265>\242=\245A\'\274\253O\357\274\376\np\275\332\0374=h\361\211=\226B\016\275\310\225\225<l\346\304\275\266\225\314\273\273Z\315\275\322\256\235\275\336\261\306;,[ =tG\212=\036\230\272\271\251\031\230:CO\207\275\033\r\363=;5\024\275\235\030\227\275\251\241\263\275t%\364\275\316\362\216\274\221\333\216=\315\234\321=\226\351\001=~\207\230=_\375\333=dm~=*\370\303=\324n}=\'\351\225<\377F\274=\222\342\006\274g\026\203=dv\222<.\301\220\275\227\260\350\274\315\202\355\275\240=i;Oj:=\323\244\322\274\344\032S\275\357\332\203\275\376\340z=\272\344\243<\3553\365<\246Z\302;r.\035>3g\014>Q:\252<\213!\005\275`\376\317\275\t\224\241\275Z\251\351<p\225\376\274\234\363\t\275\364\275W=|\233\250<\'pM;_\317h\275*]\257<Y3\030=\241\217\276=\302\272\225<\031U\202\275\245\240\330\275I1\351<\2123>=\366b\301\2743\314\264<\224\'\'=A(\237=`\346\326=\336\014\352\275\223\360V\274}\377\251\275#\330\234=\345\371&=\377M\022\274\021<_\274\326\366\262<\344+O\275\177\273\214\274\247\267m<\022\304.=7T\316=\251\034\033<\310\206A\2726\307\245\274\212fI=\334\373i<\227\343\343=+\320\335\275TF\325\275\327\325V=\213RY\275\221\355|=\020\024\374<}\315$<\306f\246<\263)\243\275\204o\024\275u\267\260;\344\375\323\274\301\007R=\025@\215<)\342\276=\343\334\035\275\276>6=\'\216\262=\037z>\274\325\340>\275\000&2\275\207\267\352\275\005\217\242\273Yr0<\021\252(\275\221\361\341\275\374L\330\273\244\361\354\275\177\244)\275\237\0360=X\204\257\274z\371y<\302n\377<\324\331\336\275U\272\335<{\"\001=M\345\205=\016|\346=\232\204\000\276\0277\212=\342Cn<\241\2223=\311j\220=\325\325\201\275\002\210y=\216=A=\336\033\327<\304\020\277\275\227\332\277\274L\303\235\275T\237/\274\204?U\275\256\301o=\227N\211=\267-I=\257\274l=\000\031\357\275\241Y\032<\257W\310\275M\361x\275\231\335\t=\324pH==\263\276=\033\353\264=\366\216|=\206\204\036\275g\252f=]\211\306=\202`\204=\341\260\234\275\270C\0319\267O\257\270W\375 ;7\301\034=\272\265\346:\337\315\225\275\245a\245:\277xP\275\307wv\274\016\300G\275\323K^\275.\306\037<\203\355\270:w\030F<\326k\312\275_\211\214\275\014\264*<Q]t\275\227&\243=\335\335\312<\226\366v7r\337\246<+\\o\275f\355\020<\216\327M\274)!\251\275\250\263\325\275r\375{<\340\201x=\205\252\264\274g\2459<\271\372b=\337~?<\325\246k\273\322\035\246=e\254\017\275\010\310\234:\316\335<\275\226\036\200\274w&P\275\235\336\213\275`\t\312\275lmZ\275\267\302+<#\r\r\275\216\326\010>X\325\366\275U\301\016\276-\021Y\275g\250\022=7G}=\006Q\230<\354b*=\245e$=1\340\220=r\315\326\275\274\233\005<\310\315\022\274]/8\275\357\372X<\361x\021\275\252Z\375=r\016\261=\374\005\332=\355\211G=Y\330\355=\227by=\221\034L=\244\305D\275\207+\267<q\021\213\275<\366\331<\305\210\307\275\r@\277:v\324\320=\300=|\275%;\311\273\'j\320\275\003\374h\275\203\377\210=\'\026\306\275\342\267\242\274\230\365\327=\345s\215\275\341\235\214=\334\330\223\273\364\356\203=s~\313=@\370\224=:\303U\275\222\232\325\275n\240\034\275\231@\030<o\212\272<\344/\203=w2n=\203!\267\2740\020\224=v\227\347;\035^\236=p&\203=\274\276\004=\300s\336\275!\201?\274\334\274\324\275\0316\315<\033\255\222\275\342\241\211\275\2246\333:!\355\217\275\'RU=\203\240\034\275<\254\344=\340Y\213\275\351\005\342\275\350\327U=\'\243\006\273J\325\023=P\260d=fH\250<\036\326\000\276%D\006<\n\346\256\274\037\356U=-a\211=OC\333=\356d\340=R\317\205\275N\365\251\273\'\341q\275K\215q\275\360@\005\273\233E\303;@F\010=RH4=\253\241[<P\257\341<q_\215;\014m\322\275\230\"\315;\300ft;|\221==\330;\032>\177nT\275\311X\210=x\366t=\352U\214\275W\224\252=\305\241\244<-\177<\274\264\265o<Z\257\335\273\017>1=\340\226\275=|\255B\273\001\261\335<3Q\202\275T$\244\275\267F\246\275\272\365\032\274\343\206\273=\323\347T=o\025!<V\370~=r\223\207\275i\234\320=lr\236\274#q\235=\024N\240<\252\347\202\275\345\310\221\273\210\372*>\365\025\263\2751\352q=\201\3257\275\304\313==\255\323\034\275\336E\201\275u\225D=m\014\310\275\342x\357\273X\2118\275\361\354\242=\234\272D\275\205\251\342\275\032\315*=Jv\026\275&(\304\275U\354\355=\304g\240\275\340-\334<\231n\356=^\260\256=\247\032\254=1\355\236\275a\277\376<\031D^\274o}\346\275nn\230\275z\370\345<\030YO\275\333\254\273=\204u\\<\335\200\230\273\311\305&\275[\332\010\275\031\003\303\275\203O\303\275\202\377><{\002\212\275\352M\244\275\225P\241=\003\005\232\275\271\271\322<T\371u\275\034}\243\275~\241\364\275)\365\303\2756\260o\274\307\020\274\275\273\356\273;_py=\210F\250\275\270.\270=9\\`\275\207\267\352\275A\352d=W`h\275\016\036\240\275\213\003\320<8\210>\275\217\2161\275\010w}=\003q\212=fy\202<%\\\027>\273\365\007\274v\245%=\376\223\032\275\023\020\025=\345\343\374\274d{\331\274\001\362\321\275\203\005e=/\226\340<Pp\233\275\031\'=;rV\260\274\301q;=\216P\253<\204A\230\274\210\245\333=\t\315\201=Y\002H=\370a\233\273\312\206\344\272\375\252g;Npo;\222\354\003\275\300\337\020<\232\376@\274Vw\010<\273\201\003\273\317Z\232\274\274nG=d\267\024=\371\327%<\255*\245;w/\211:o\376r=\014\367\212\275TE\264\274\023-m;X\272f=%\272\372:\001\346B<\262\246{=\273\327o<\336\274G=\237\257\335\274\361\307t\275$\367\352\274\361\026\345=\363\244f\274j\271\212\274\013\017\243;b\316E=U\267\240\275\207x\214:\321\r\t\273\334\006\261\274\331\2311\274\223\021\000;Jy\245\275\016\264%\275x\002\330=\226\211\255\275c\020\222\275\274\212\313;\3538\214\275S\265=\275\224g\255=\363\023\026=n\210\233\275\373\354\351\2750\327\026\275\225\266&\275\226\267\006\275=+\317:\241\3013<\311\245a\274\226\342:\2755\036\236=dx\020\2765~\005=[\317\255=O\267\326\275\002\326\n\2751\321&\274\364v\021=\330\275\377<0\036\017=.\371\365<\356\267x\275\320\240\3729\332\300\235<\357\001\325=\240Z`<\256aj<#\273\\;E\273%;$\2508\274>\361\014\274\360\257\252\275\337\344\212=\210\304\223;]w\003=\302,\263\275\211\307\243=\203T\304\275B\"\337\275\355\231\312;\352\035\274<\030)a=e\032i=i\335k=\254h\376=\r\336\211<\346\325\354;\262\363\266<\334v\272\275\027\275_;\211\224\032=g\373&=\231\342\341\274\373\356\273=\306\375\275\275\335\177b\275\230c\343\274\242N~\275=\202\026=\034\031\354\275A\355v=\347Q\240<.=\304<\265!\026>\221\325\023<\266\344\244\272>)\200=\330Z\250<\361}V\275+\311B=\232\014x\274\201\357\300<2\352\256\273\177\001\010\275\327\252\216=\277\211\005\276\271\246\024\275C\211^<\353d@=\n\202m\274\r@\322=:\266\304=\267\024r\273\274L\242\274\367e\232\274Y\367\305\274\2204\207;\254\014\255=hL\362=\232\350Z<\267\007\274\275\370\023\004;\030\251\221\275\203\033R;\225\300\214;\035V\201=W\r\237\275\226u\242\272\300\314l=\254\027\347\275\253\221\227=\003\302\324\275|\313\346\275\253l\262:\312P\266\274\027\0219=\261\'\224\275r\322\274<H\277\337\274\3642\243\274EHe=\013\245\350\274\037\366\256=\340\373\025=GZ*=\220D\030=\375\354J\275\004\357l\275\\\303%:\246\274\021<\250\262\335=\010\003\273=\360\241\230\273!\245\211\274\013U%\275\254\002s\275O\211?=\302\324\213;\256v\233\275\314\373\010\275tX\226\274\267\032\321<d\273\233=$Y\330\275U/\364<\257j\346\274\375z\032\275G\377o\275\\\362\031\275=N\204={\033d\274\0266n\275\256?\372\274v\312\225<L?\220<\307\3577\275\242\305\223=\273\323:\2754\234\005\274\263\037\220=~A\276\273,\311\367\275\302q\021\275\032s5\275\221\325\034\275\250\262\335\275A\271\216=5\317\316\275\343\344\212=Y\316\250\275\222a\232=\257\301\246\275:)\224=\237/\244\274\327S\206=\226\243\243\275\206=q=_\232\255\272\376\323\217=/\356C\275E\212\355\275P\236Q\275*E\253<T\365_\275\203 l<\222\374I\275\313\006\026<\032O\001\275Ie\034\275\235\346\277\274\202F\200\275F\224+<\036\324t\275\233<\371<W\005\r=\330#\311=\347j\336<2\013\242\2753\361\016=\301.\216\275\210W\352<I\234\242=1\230\335<3\002o=\340\220-=v\304\241\275\266\275\224=^\324\227;\226\036\273\275B\000\023\275\247\232\206\275\223\017\212\275;x\276=\245~\261;ur\237=dR\246\275&\231;=\275\212\365\274\205\200\276=\034\243j=\034\3058<}\245\232=\346H\371\274\355A\305\275\376P\245\273 9C<\275D\311\274\302;6=\006/\033\275\013\303\372\275\271[\220=>\235\355;7L\305:\374\377<\275@+\325\275~3R=\016\177\375\274\205~\304\275\233!]=\002Q\250\275\376\317\\\275\322\371C\275\367\204\030\275\235&.\275A\016\356<\251,\241\274\016\224\035\275\244\351\207\274\335\024\363\275\r\021k=\276\227P=\365\206*=\333\212\007\273\302\224\034=\342w\266\275\272\204\251\275\357\221\316:\021\216g\275N\353\342\2754x\245\275F\235\311\274\030\362\206=\362\260\216\273N$\330\275M\332,=\000\240I=o\224d=!Z\241=\321\341\302=2y$\275\323fG\275\025y\303\275\306 \r<\316\244\262\275\344Q\323<\'\251\366\275~\267&=#\n(\275\230\021\312\275D\007\034\2759W\323;\263\203X=})>\275\031A\177\274\244y\261\274B\nS\275dg\221=\257\2436\275\306\2673=\371\2410=\252\365\207=U\3542<\264\240\355\273\313\353\226\273\243\262\337=k\tc\275mHr\274s\005\205=$CV=y\230c= <\220\275#\343\016\275g\272\324:\243\201\300\275W\372\334=\247!\217<\352\347^<\223_}=\307\362\237\274\346\302\020<b5\031\274\240\"\360=*1\316=\3575\351<.,S9\262\233\215\275\230\030\255=R\036\024\273MwP\275\001\374#\275\006\024\361\274\013,&\275\320\305\003\276\367\263J=&\021\226=\203\355\235\275@A\355\275\305\254\313<v\206\017\275\213\320\207\274\255\207L=\375\275\224\274\221\352\340=\005\000\227\275S\215\274=P\222\337;\2230Z=qrH\274\013h\201\275D\211s;$\024\263=)\313\265;\321\254\267\275\237H\271\2758\273\250\275\306\3559\275\372\313\274\275n\255!<\032D%\274\226b\313\274T\342\215\275,H\226=2\311^:\231\316\026\275\211Da=,\223\250\275\036\245\310=\220-D\275tO)=\234\205U<\000#z:\357BF\275<\360\020>A\232\322;\266\256=\275\001\202\365\275d\256\277=\020e\036\274\352\224\246=\217K\355\273^}\335=\3263+=\236\262\356\275\336\2355\275-\236\026\275\375\"\374\274\001C\250\275`\246b\275\216\231\332\273UP\201\274\223\265\211=\035\321#<\305\356\313;Y\233t=&\310\013=7\022\230=\200\351\023\274\322%2\274\363\001\315\275\231\250v\275C7U\275\373\320\201=\r}A\275e+\312=?\027\302=7&l<\243\347*=\016\327\236=\304\301\272<\210\301\211=U\370E=\264\345\331\274\257\024\000=\221\216\330\275\374\227\020\275\005%(\274Jd\206=,<\013\275|\233\200\275\013H\356=\033\323\341:\034\210t<<+\222=b\025\241=\343L\271<`\375\301<\201\217=\274(\204\246\275~\272\007>\023\000\243\2758\343\213=\234}\207=\226\336\204=(\024\035\274q\354\312\275\3602\233\275:\025^=\001\013,;\022\367\343<q\372\252\275\320\t\251;\256\027<<\304\233Z=7\214)=z\316\367=\234H\251=vu<\275\367\316\214\274\203\021\027\275;\220\t\273b\023\310\275\255\252b\275\220\023\261=\266\373\020=4pT=\022\023\266=S\202\231=\342H\314\275\265\356\274\273\251d\020\275-b\352=l0\262=\032\357\017<z\370\230<\317\021\273\273\332\223\242=~\322\223<\264\211\267\274\334\324c\274\213\322L\275\216\2032\274\214\026\361\275x\317\314\274\215{\372<-\254j\274a\364\203\275e\335\376\274\246\2559=\3743\251=\223n\005\274\005\031\350\275\017\210Z\275\3748;\275\321\344S\274\332\245\223\274~\267\275=D\320\262:\234l#\275)\3534=\023h\265=tN^;>\355\032=\002>\210\275\365\326n\275[2\231\275\360\351\006\275\311=\244=\306\366\273;n\341\254\271;\247&<\217\256\246\275\377#\313\274C;6\275\252\345\203\274\373\342^=\213\226\232\275D\030f\275\310\262\244\274\270@\212<8\210Q;\036\320a=\313\327\333=\255\371\263\275\220aV\272x)!\275\337\305\342\274\022\273\026=\363A\207\274\373\267\031\273s\371Q\273\351\n\310\275$\003\216<(Q\026:\243`\345:\255\000H;q\221\336;\n\270~\2754\tr\275\032\250\263\274I\226\331\275[\240!\275\356?m=\274\321\205\275\253\206\344\275\2235\322\273\332\355\207<\363\352\252\274\355\021K=d\354\362\272S\370\005\275\367\235\311\273J\331\344< \230\255=\225SC\274\023\363\236=\024\235\200<\032\272\214;\027F\234=l7\261\275\306\326\252\275\3772-;,\255\213\275\0210\267\274\222\352\271<B\004\035;\036j\274<\017D\210=\365(\201\274\001\227K\274C\332\256:$F\365\275\021\021q<[48\274ER\227;i\236\211\275U\375\001\275c\346f\275\303\215\251=W\361\210=\355pv=J\351\251=n\204~;5c0=D}%=x\267i=\242w\243\275\237\234B=N$\324=\315\017\217\275\255\2142:\311\364P\270G\351\256\275\006\230\246<&/\265\273\320\344\021\274\204\377\375\275t?:=\351)\262\274\323e\341=\022\024\345\275\272\224\022=C\364\206=\326/\272<9\022u<\205$!\275\363W\n>\351\311\256=\033\356\255\273\030?\'\275\200\271r\274O@\017\275(?s=:N\264\274\242>\244\275\244\232\204=\031*\237\275\307\244\257\275\355h\222=~n\017\274\n.\227;\023\372\336<+N\022\273y\233i\275\337\377E\272\3559\361;27Q=\025j\254\274\332\323\336\275\334\024\260;\352\372B=\237\313\021\274\0054\244\273\344X\262<\033P\257<\276H\311=(\234\264;\312U\2029Y\033\001>5o\325\274\023<\251\274^\033f=\253-\220=nM\212=\3505\000\275\026A\310\275\333\246K;\367u\215<\256\007\026<U\220H<\233\343\363;=EL:\314\316\036;\242\211\325\275pN\210=\036*&\275_\221@\275V$.\275(T\0169\361\300\315=u\263,\274O\347i\274\200\243r\275m\321\220\274^\364\223\275K\334\263=]0Q9\'\037&=jb\235=\351\r\337=\213\222\303=\312,\206=U\325\231=Sf\244\275\013\317\266==K\020\275Pg\206\275\340\027\034\273[y\037\274o\032\267\274\000\344\026=O\177\257=\331\202{\275:+\341=\365/\177\275\r6\215\275\027\216\320=#\251Z=\262\234D\275^\035\236\273\302j@=rZ@;\'\375S;\000\213\323;\242L\220= \206\267;)X>=\363\010b\275S]O<Gx\201<\236\344\226\275\216\232\213\275\030\\\334\274\234\351)\275\320+\221\275Wp\177=a\364\241\275\216T\276=@\202\021\275@\350\226;r\354n\275+\2562\275\r\376;\275\305D\347=ss0=`\002\262=\220\257\211\275\355\275\034==7\315=D\263\273\275\241\206\026\275\332,\303\275l\037\232\275\310q\260\275\336\360\034\2757\030\247=\226\315\035\274W\245\204<\363$\223\275\006\205\266=r\004\030=`&\245\274\010v\034<\201\325\307\274\264\324\252\273&|\265=Q\220\271=\212F\320\274\"\343\310=\250\345O=a3\022;KU\005\2740\022C<\206\202/\275\224`\202\275%/\344\2751\204\300=\363\271\207\274\212\016\245\275\263\242\205\275\\\303 =\361,~\275\336\262S\275\3532\256;\323\321\232\275\237f\303<H\005{\274Y\315\021\2759*v\275\\\264\263<LM\203\2751\262\203\274\036\376\016\276<|A\275\330D\363;~\370$\272\366D\226=\270\"\323\274\300\363\021\275N\331u\275T\203\003\274a\370f\275\275E\243\274\013\010\304\275\325\312\367<,\213\215\275#\3470\274\t\251\177=r<\240\275lT\221\275\3245\031\274\007\207;\275\264\275\271<\232\350\026=\262\313\014\275s\232|\274Q\021\220<\273\264\354=\334\351\033\274\224\2432:\006D\r\275\210}\316\273\323\350D\275\224}\n=\232\022\271;\237\213\227=o \247=\235>\226<k\211\340=\227\351\254\273\376\020\305\275\267\220\300\274=\267\242\274\342\2336=e\032F==\356\361;\370-<\275\202{2=\323\272\025\275a\220\302<\353r9\2760p\232\275\277:m=X\352\027\275\235\027\374=*\016Y=\242 N\273\267\n\261<B7\361<\312\332\007=\013`\004\275\201\022\n=K\223-=\036\224V<\007G\362<+\300\212\275\325D\026\273\354Z\214\275L\026\264<z\214\274\274el\255\274\014\340\"\275\007\265*=Y\242\222\273k\316Z<*\307\316\275\203i\311<\373R~=\375\025t<\257\352x<\311\007\360=:\342\260<1\216\267\275\337#\334\275\240b\205\2755Z-\27316j<e\205\350;b,V\275\277%\234\274kT\247\275\304\326\030\274\357\210\277=$\205t=\263\344\255\274).\231<\360\265\030=8!\225:\307`\344<w\317\220\275\3432\356\273\223PR\274\350c\211=s\304\215\275:\'\235\274\366\n\235\275Q\211s<\244\303\277=-\251N\274\376\374\315;C\207\210\275n\371\241\274\346\245\236<\t\227\245\274\301\022\350\273\360\013\263=\272\216C\275\3153\210\274\016O\311\275\370\276\211=\033%n\274\010e\027=\324e:\27582\341\270\037\252\277\275\371(\301;e3\253\274\217\204i\275\323{\216\275\332`p\275\000\032\242=v\321\033\275\201]8<\030w\243\273\021JQ\275KY\315=\314\002W=d\300\026\274K\370\237<\316N\263\274Y\246\214<J%)\275G\274\244\273\353\305\336=5}\'=\270\027I\275\3010*\275K\222\000\275h\326\220<P\n\270\2752\316\331\274V\323\207\273\226]\357<3\275\265<3\350\226\274\350\260T\274\023~\255\274Z\301\036\275I0\203\275E\252Y\275\2732g\274_X\312\273\207&j=:\224\004=\324N \275\2642\332\274\'\266*\274\245Bf\275\345&\337\275\236\320\317\275\344r\343</\372?\275\324\031\330\275\314\315D\275\2749\010=\265\236\333\275v\235\356\274B\002\014\275\324\031.\274\273\332^=dR\206\275\036\216\236<\003\245\207\275\206\310\266\274S\357\273\275\360\271\333\274RY\000\275\004\031z\274H\262\267<\001]\342\274\341%6\275&\237\351=\305Yw\2754\305\006<\263&\262\275g\255\224\274\304\211\304\275\261\372\005\276\353\033\341=\361:U\274\013\355\355\273kU\220\275\214)N\275\003\026%\275\244W\313\275\"\354\031=\241\342\263\275\355\037\026\275\002x\033\275mk\230\275q\246\243<\\~\211=\300\265\353<\235\344m=c\363h=\206Z\233\275\'\374\023=Ra\021=\r\345\343\2756\000!=5\010\323<\303\3353=\177\363\314\274\231c\267=k\215\237=\273Ty\275\032\347\205\272\356g\322=\021\336X\274&\210r\275\231P\362=\025\337\206=\272\277\037\274\273\264\024=\010tn=\323\002\270\275>\246\271\274\013Q\254=\303\001\260<\332\234\355\275\227\r\242=7\016\322=\200\224\321=e\3501\274\262\355\254<D\364\224=2\371B\275/}\022=O\020\251\275\240O\233\273l\376\343=\356\316\255\275x\254\304<\234\373d\272\217\245\232<\333i\333\275\033K\373\274\350\n\262=\316\r\276\275E=\025\275\020_\022<7\035e:O\363\311=\265\363\r=\270A\203\274\260w\314\274=\245\263=\"A\332\274R^K=z\301\026=*\352\226\274\234\327\377<\324;\240;\343!\243;E\260\r=\207\255\374<\006v\r;^\315\202\275\265\221_=\020\227X=\343\221\220=\342\031n\272Fr\354\273\r9\232\275*\002s=d\362\014;\001M\202\275\377\231}=\205\276.=\\\361\270\275~\366\221\275\030\233{;%\321\320\275\375\"\323<\037r\264\275\300\254\205\275\n\254)=N?u<sP\321\274\270\263\363<y3\021\275T\337i<\306\033^<o\361\225\275B\274\345\275#\327\327=k\205\263\275\241\246\357=t\2115;\224\243\002>\331\030\317\275:\306\340\275\006\310\213=\201Xc=&E\240=\236\211\277\274\271v\225<\350\265\230\274>\037\266<\233\022\001\276\357\242\223<\324I\245\274\320\3421\275+\206I\274\362*\214=W\236\274\273\356-r\275\2454\245\275<\3576\275[\232S=]|f=\215\221\241=\315\356o\275\205l\207<[\271\017\273Aw\206\275\365\020\332\275:W\002\276\024c\341=\032\244\273<\243\201\"<O\253\335<L \033\275\305\356\234=1c\252;R\245\\\275\374\213R=:\001C:\371\t\315\275U\231\225=\3771_=\232\207>\275\355\341\350\275\304&\255\274&\231\252=\363\245\254=k\2453\275\351\251\223\275?t\337;ur\324=F~\217<\350\354\204\274\026w\223\2759|\003\276\374\273\007\276/\001M<#q\033\274\223\362\013=\r\236\241\275?\217\262\275\365\250\371\274.\323\017\274\200\332|<\237\265\263=\222\242\220=-\226\237\274NP\316;\230\033\014=(\226\202=-\353\312\2746\316\300\2756\006\305;<=+\275^\215L\275g\\\237<\320\302\032=\365X\251\275\354\306\"\275\232\216\026;g\240E:\027\r8\275]LZ\275\230jd=&D\214=!\243\275\274[6\022\275\022<\341<\270\273\262\275a\230\374\273\377\352v\275M\276\347;9j_\273o.\222<\273\346B\275_\017\272<\264X\r\2752\017\250\275\014\245\274=\301\226z\275\343O\204=(\214\245<\236\021\257\275\261w\352\274\315\3548\274\231\307f<\325\375\300=q\333\315=\314\344\304\275\344\265F\275<\024\246\275\031\002k=\276\034\202\273\214Un<\267\037\227=\027\311\323=k\342\243\275\200\244\013:\365\262s\274\2001\314\275\200\177\214=\321\303\020<tja\275Z\034\330\275\212T\266=*\352\257\275S~V\274(O\227\275mw\206=9p\001>h\242X\275_\034\253\275\302#\244\275;cy;\214\216<\271\034\223$\275[\001i<fO\326\275\314\377\224=\214\313c\275\327\374\211=\304\355\004\275\232\207\272<L\363\300\274\206\250\223\2752\345\345=\213\313\026=\312\317\234\275QE\014\276\346<\367\275Y\361\232\275\265\212\014\274-\316j=\3748#\275\1772\253=k\371\342\274\272h\025\275\335\363\222=\361\264\t\275\004\326\213\275\346\241\030=\027\022\313\275\220\243\201<*\330q=1\n\005\275\373\241\245\275\304\347\214=C\013\311\275*vQ;q\363\226\275\277\316\325\274\027\266f\275\035\234\220\275}\226\346\2751)\"\275\354|B\275g\357A=lQ\377=kU(<\236{\030\274^\270n=\274\345\004\275B\203L=\374\255I=_\250S\275\313s\326\274\262\216p=-\344\303\273\213\001G=\266e\244;{\201\225<\035\r\250=w\031\024=\005A\\;\301j\251\274\317\210\315\274\214\371\325\271v\330i<\232\373%\275\213\2568\275\230\002\372:P\346\354\274^\317\320\275\315\236\313;%mN=t\272\332\271;q\221=E\n/;\304f\022\272AR\331:T\325d\274\254\3655;1\336[=\325.\035=*x\377:\343\311\017\274\324\202M\274\360S\365:?\367\356=\274\304\202;;=\267;\305%b<\323\357f={5w:\010\373p=\275\302\346:@]\242\274\375\260X<>\016\214\273\251\013\350\271\225\310z\275\375&$\275\342\225\2608&\350\007=v\223\257=^f\333=\362\357\315\275\324_X=\035\202\374; \336\207=5l\212\275g\240(=\232;&=\202\021o\275n\244\001\275\263S\026<\375\334\271\273\327\3349=\222\221l\274\001\213\003=4#\351\274\245\001\005\274nK\377;\256h\305\275\027W\023=\216\267%\274G\226\225\275R.\227<\346\310\000=F\375W9\007-L<\325\347\021=S*\t\275\324j\002<\n\'\261;\\\3716<b\274\270<d\273\n;\263\207\342=&\\\004:\323\034\373<\317\034\217\274J\223\3508\202\356\340\275\030\234>\275\346\263\240\273[\t\243\275\226\303\221</\250\364\275\212\350\220\275\247#\373\273\"\346\200:\"\007\245=~Y\255\275\251\224\245\275?\336Q\275u\236\013=\002\316\216\275@\374\221\2743b\200<\225\341?=q\352\353<\330\324\333\2744\215N\275rA\200\271\245\202\202=\211\356\212=x!\212;\203~_=\006~R\275\327]V=D\357u=\035;Q\274\005\203\362\273\026\262==\022\301\303;\220\320\\\275\316H\3269l\221\354=j~\303<\nq\024\275\257\256F=/\371\007\2750 \233=y\'b=\200Ps\275^\371,\275\231\023\240\274Vb\247<\256\304\005\276\356N\255=\003\347\004=\302\3439\275\370K\264\275[\336\361:aWH<\005\305X;\365\372\201=5OJ;\313~E=\377\311\037=\006\366h\274\030\215\265\274\001\214\020=\t\275.=8\211r;\364l\224\271\034\200\224=\036\206\251;\321\230\214;#+\031\275?\233@<\353@\323\273\020|\374;J\313\001=<,\3628_\302\202\275\311\021\253;\377\332Q\274\347\364z\274i<\373=\353\357\203\2729\345,=5z\351;\262\374J\275\276\212\031\272\202\345V<\372]f\271\322Eo=\004\267\243\274u\320\317<\355\353\246\272)\260\231\275h\245\341<\210\'\335<\226\234\362;\226\312\262<\035\255q\274\314\215\254=\361\362\206\275\214\036\326=X\274\244<\236\212\230\270\244\357\265<\377U8\2756\206\272\272\201\311\316;B\235s=\206\260O\275n\301{\275a`\336=\263\241\243=\375\364\320\275\033O\017\275\310\007/=\257b\353={T\224=\332\247\244\274\023m\177<\351\351G;\037]\r\273\246n\254;{\233\021;w1P=:D\177=A\261\032\274\031x\242<\304\240\302\275\243F\311\275\2740\272\274]8\321\274\276\211\024>\021\252\227=\210(\006\275\262p4=\3369_\275\322M\234=<\n\003\275]\r\377:\333^\001\273o\260\243=Mf\210=W\r\320\275\253p\206=:\004@\275\233S\264<(\3568=\270\247u=\333Z\326\273^ \035=?\247\340<s\322\255<\222\360\213=l\202u;\264\217\202<\0018l=\250\273\302\275*Qt=\001\026\336\275U\326V=\251b\273\274^e\206<\235\313\226=\352\362+\275\322\344\026\275\360yC=\341N5<B-b\275j\323w=Y\002m=\302\207\260={\301`=`\'\322\275\303\017M\273\350\003\017=\337y\215<LN\210=\374,\200\275\323\323;\275\261\246\001\274\321\242\3548\007S\270\2742\003\201\271<\025g\275BYF\275\307\205k\275\212\330Q\273\323\231\366<\214%\306=\025}U\273\252\240Q\276`\321#:\362\330$\274\3356\306;\347[\255:53U;l\250\212>\3702\033\274nG\372\267U\221)\275\246\010\225:\330\273\225\275 \366\254\274\254\370\313:\340\322\022\274w\226\';\232\326k:\347SC\274\372uU=\232\336\250:\356\316==pw\256\273\377\345\376\273\203?\251\275\266]F\273\002s:\274\265\343&\275H\'\270\274\212\257\3318\323\277{\275\302;\311<\357?\023=n\357\036=\270\274\335\272\202\244o\271!#\341\274\002\301\032=\246QW=9:S;\177[\022>\177tw\274\265\273H<\214\004\025\274\331:\356<\017s\255:\322\277\216\274F\206\340\273\222\217\331\273\234T\374<\022\204&>in\300=.w\002=\260\344\244\274\234A\247\275%jN=M,\324<\016\222\315;\372\260\342=\252\031\236;R\351\221\274\215V\344;\234\"-:\200:->O8O;\367\223\263;*>\307:o\310v=z\356.\2738\'\022\273\321\351\301\271\206\342\340=\374\241u\274I\211\207=\267bq<\037\365\212\274,\270@\276\255\236\n\275u\372\337:\213kY=\250\007\001=B!\'\275_b\341=y~\336\275\326\212\346<\362\231\266\274!\235(\275\005p\272<\265\006j\275\346\206\025\275p\301i=\252\217\2028\253 ^=\245\366\343\272\316\037\237\270\260\365\024>\365\360\244=\273\3224=\366\325H\274\331TJ\275C\331\330=\252\204\232=\022\345 =1x\366\274\234\3035\273\017+\264=R\270r;Y\324\000<>\224\263\274\253\253,\275\275\270\017=\020{\246\273\270\362.\274\245B\266=\351\'\211=\251\203z:\223:\216<\343g\246\275\371\267\324<\224m?:7Wu<\257\310e:\336)z\275\342O\333\273\255\244\372\274\252\021\005\273.\355\213\273\241\374\300=L\014\372\271\245^a\273\371\177\353\271\230uE\273\031!\001<\030\337*;h\247\252<\204\2737>\333|\007\275& \236\270\017~\272<Dw\226:\"\356\341<\017z\004\273\376\t\236:6\252\312=\030\213\241:X\324\305;\235\202\342\275b\225w\275\rv\203:~b\305=j\312\031\274\035-h\275|4\224\274\322.\036\274\354a\2539\372e\001\276 *\037\275\'6\2406\004\347\271\274\302\001\224\275\226\266\350\275\214\341\017\274\nvM9\316\343e<8\215Z=\014q\363<.P\374=\337\026\016= J\315=\354\333C\273\020\367\311\274\260bx:,\010\216=\250\326\320;\314\271\262\274\342HM=8\'\251<\327\313\312=k\300\234\275`\336\306=\353\242\247=\013P\t\275\213\325F=\253\204[=\327x\202\275T^\207\273z=@\2758\230\021\275\3418j:B6\023\272\371\010\230<\220\240\031\274W\3528\273I\372\034\276il9=t$\205=\260Z\337<\243m\233;i\376\377\275\030\362\237=\003\177\002\275V;\261<\2372\267;\313\245\245\274\006\347\223=\261\260!\275m\346\247\273\237\223z<\0323k\275U0\337\2753\\\267\274AGS<\237\366\0249\376m\241=$\300\326\275\352G\017>\366\006K\275\204H\225;*\335\300<7\004\341\274;\372\324\275\027\033\367<=\357\013\276G\245+\274k\250\271\2744\254\253=\336it9\360\234\316<\333n\243=CP\212=\231_\033=*\t\215\274\223\354\017>\221\205\032\273\352H/\274\024\'\013=H\203\t>\323\000\020\275x\275\007\275IW.>\250\257>\270\341\300N=\213s\200=S\\\026=|p\241\274\003\341\356;\347\224\305\274\t \r\271\214\260\250=\307F\2008$\335\212\275\2353v\275-)\006\276\256\376\032;\216\220\007\274i\206\331=\201\020?\273n\257\262\275w\005\353\274\372\240\006\275\0002\203;\357jf:[\365H\2747>n;\266\014\274\274|\232\307:\n\270]\275\246{\244\274$4\253\275\\&\362\275!zt\274\035\226\220\2750\212\020;\003\006\031\274\333U]\274\307\201\215\275\352G\351\272!\323\207\275=EY\274\314\244\223\270\201\t\201\275\372\375\022\271\246s7<\021\254\270=\225\017\360\274{I\2557@\314\242\275\334*\240=\234(\366<\352\332\346=7a\301<\257\373,<\030\tK=.)g\274\355\r\225=L\317!\275{\222\365\274\365\366\270\275\220\265f;\375\023\007\274T\023\243\274\n\355\036\273\230\3162\272X__<\276w\032<\257\265\355\273\300\036w=\320/\265=\337\271\312\275\260\351\367<\370\347\001\275O6\250\274%q\375\275\021\347\244<\347@\016\274\034\276\304;Mca=9\346\200\273\251da<\322\341\372\274\035\273;\273?\356\030\274u\271\004\273\203F\014\275u\256Q\2744\315}\272v*\t=\"\246\255\275|1\354\274\346\226\221\275-{s<\362\255d\275|\363\020\275\031\377n\274,\372\345:u\244\010\275\354 \321=\234\034Q=x\266\003\276[\006\220\275\211\2162\275_9\350\274{\031\246\274B,7\275\"\327\021\267tY\314=\3746\361;W!.\273\t\034B\274O\264G<\036n\366\273\230\345\345<\375\023\224\275\0302\362\274\357g\210=\235h\000=l\320|=\315\265\236=3x\255=)(\025\275\006BI;\n\266\020\275\020\272\330\272\355y\001\275|\002\027\275\365\2278\275\014\253\253\275\344iz=\030\026s\27550\303\275\177\363 =\214f\205=\364\037%<\361\030\300<\354\276\253=]\034\354\272\254\005\261\275\022,Q;\255eg\274e\264]\274\360\312\022=E\326\232;\374\371L\275\3002O\275\3022\027\274N]\215\275\3652\305;\226tH;e%z;\235\305\232:\242\310\250=\357\353z<\035\241\204\274\002\247O\274\250\275R\275\202\233L=\274{\367<\221C\237\275\010\346\033\272\010c\212=^\277\033;5\311\255=9\205g\275\302\252\227\275\261\3245\274\213\315`=\314\371s<|\\h\275\340!\344<\307b\206\274\344\375*\274\316fT=\350&\363\274P:\210\272\263\010\223\274\333\252\177=\207\010\224\275\212\202\220\274\023\200\213\273\314\201\207<\270\371\257\2749\272D=\254\277~=0D\022=\2541\217=\346\\b\275_\031\214\275\225\024T\275\277\n\212=\316*\332\274\222\205\255\274\335$\364\274\032i\323<\203\253\000\276\335\372\223\275\261\352\322=a!\227\275q\267\222=\374\t\326\274\002?\020;\021\266\222\275\321D0=\241\304\274\272\335{\023=\3768\347\273\203\rF;\231\227\246\275\220[\250=\200p\303<\003\302\352=sj\365=\013\221~\274H`r=Aos\273\362f\205=\346\"?\2742\036\301\275\366\351T<\367=\250\275\266\253\232\275g\313\213\275\351h\276\274c\365\342<R\245\371\274\003\312\32499\263\366<\267\210\266=U\332\247\275\323\246\025\275g\340\367\274\330c\305=\222\302z\272\224\375B=BI\235=\340\344\312\275\227\353\005\274\250\357v=y\373\365\275\354\362\025\275\n$\227\275\303{c=\n\221i=:\370u\275\345\036-\275\351b\027=!\005S=\361\257\244\274\001\005\020\274\020\341\357=D\270Q<\t\021\374\275\347\252/\275E\337\275\275\3629\223:j\3350\275\356\252\035=6\347\314<\251\"\'<\263\330\312=\374[\177<B\253\201\274\211\3439=n\312\211\275\330\264\303\274L\265\241\275\010\214\270;\246l\247\275\205\313\205\275\253 