node {
  name: "input"
  op: "Placeholder"
  attr {
    key: "dtype"
    value {
      type: DT_FLOAT
    }
  }
  attr {
    key: "shape"
    value {
      shape {
      }
    }
  }
}
node {
  name: "label"
  op: "Placeholder"
  attr {
    key: "dtype"
    value {
      type: DT_FLOAT
    }
  }
  attr {
    key: "shape"
    value {
      shape {
      }
    }
  }
}
node {
  name: "transpose/perm"
  op: "Const"
  attr {
    key: "dtype"
    value {
      type: DT_INT32
    }
  }
  attr {
    key: "value"
    value {
      tensor {
        dtype: DT_INT32
        tensor_shape {
          dim {
            size: 3
          }
        }
        tensor_content: "\001\000\000\000\000\000\000\000\002\000\000\000"
      }
    }
  }
}
node {
  name: "transpose"
  op: "Transpose"
  input: "input"
  input: "transpose/perm"
  attr {
    key: "T"
    value {
      type: DT_FLOAT
    }
  }
  attr {
    key: "Tperm"
    value {
      type: DT_INT32
    }
  }
}
node {
  name: "reshape/shape"
  op: "Const"
  attr {
    key: "dtype"
    value {
      type: DT_INT32
    }
  }
  attr {
    key: "value"
    value {
      tensor {
        dtype: DT_INT32
        tensor_shape {
          dim {
            size: 2
          }
        }
        tensor_content: "\377\377\377\377\t\000\000\000"
      }
    }
  }
}
node {
  name: "reshape"
  op: "Reshape"
  input: "transpose"
  input: "reshape/shape"
  attr {
    key: "T"
    value {
      type: DT_FLOAT
    }
  }
  attr {
    key: "Tshape"
    value {
      type: DT_INT32
    }
  }
}
node {
  name: "w_in"
  op: "Const"
  attr {
    key: "dtype"
    value {
      type: DT_FLOAT
    }
  }
  attr {
    key: "value"
    value {
      tensor {
        dtype: DT_FLOAT
        tensor_shape {
          dim {
            size: 9
          }
          dim {
            size: 32
          }
        }
        tensor_content: "\211\3400>\n\241\t\276\275\023\260\276\344\321\024>\230==>f=\247>H\213\205\276QdI>\330\270(>zZ\271\276\002\221\251>&\022\204\276\357\375\335\274\3309\354=\212n|\275u\243\345\275\341J\276=%\237L>D\361\236\275k\003\371>]\275~\273\246\220\214=\331_\257=\005\002\\\276\020,\365\275\006\221\357=\300;R\276\n\365\217\276\210\264\022\277V1\233;\262\244\004\274 3\255\276\255\353#\276\223\221t<\220\345\036>\272w\t=\362E4=\263\275J\275\301\202%=\211\217\023\275C\303\301=\021`\307<zq\256\275\2315\237\275K\022\353\275/\2219\275\331\255M\275\177\340g<\273\370\014>\013e\231\275iG\252<g\224s:Q\206\242;\226\3102<\346\340Z\274\215k:\276+\344\252\275\245<\034=<\014\251<\343\342\233<L\246:<d\271\237=\235\202\251=\235o\360\275@\203\013\276\272C\036=~\005\225=\274\0143=\234{L=\016#F\275D\200\263=\321\332t\275t\354\231<c\016o;L\366\033\275\350%\321\275i\373\013\276\326r|\275[\263\025\276\214\363D=\035\361\331=b{2\2755ox<\2401\342<F/\353\274\323=f\274\312\016h<\004\020\303\275\247k\263<\253]\357:\347QL=[e\256=\232Uf=t\211\323<F\\o\274\222\3216:\016\037\264\274\315\302h\276\321\356\376>\375\373\317\274\305\3550=\026\276r>\323I-\276.\302\022=\31778?EI\266\276a~\034>E#\320\276\305lG>\034\370\024\276\r+\314>\351\3630\276\010A\377\276h\220\311\275\201\314=\275\250\213\360\274\212\362\203>\264\317H>*\020\t\277\013\310\352\275\221\364\310\2746z\024>\323\025;>uO\232\276\022\030\003\277\325\211}\275\014\3102?\331\325\235=\000\2622>\313\016/=d7z\275:\275\214\276\361\256O\276\022\326\214<\262\200H=B\240X>}\223\033\276\315\031\221>j\030\277\275)\242f>\271\252\234>%\242\335=?\373\r?\006\032)=\261\236\023\275\006+\331\275w\177^\275\264\242f\276k\326\202=\226,L>\340\321\355>\226\366\021?\257<1>\350\240\273\274\327\205\350>c\216\260\275k\261\243>\003\273\027>\020\001Q>\17785\277\252\217>=\232\021`\275Q\222&\275\330\217\201=i?d>\372\233\363\275\374!\026\275\031\221 \276\326\005\274\275tL?>\377\310\216\276\223\"\270=\326X!\274\347\301\330\276+\360\273\274M\267>\276\324\002i=\321d\222>\300\010\254>\343eK>R\331\340=1\010\027>0\343\257\274\0137\264=\237%w\276\372\353\033>X\223?\276ey\020\276\002p \276NBu\276\212bx>/\367\373\275\2403=?\376\021\026>\306~\250\277\276\214\212=\204\277\252?\332kz?\223G\234\277I\330F=[/\222?^9\023\277\373u\343\273\232\357\036\277\267\016\t\277\016\225\'\276\330+\226?y\204\343\276\025#\274?q\022\036>\024]\342\2766V\300?\020\337;?\302G%>M.\203>p\316C>-\362\202?\267\235\331\276\2550\271=\"J$\277\344[\034\276\035\232\222\274\217f\273>yi\247\277\212\256\230\277w\343m\2748\023\301?1\212\274\274\027\177\253=\202(\313<kY\223>V=\334=\307\307(\276*\2522\276b\350\242=.\300\225\277)\321Q\277\264\374\275\274\303\250t\277\254\207\302>u\235\307>\2018\177\277\006\020\311\275\3641:<\2052\306\276\224z?\276\245\262\254>\343\001h\277\236g\247\275\367\330=\276\240\003\366>j\371\017?\330\3039>\031n%?\033\024\216>\341\204\033\277\017\325\235\276M\210\210:\242\333\222>\377\334/=\225]\014>\362a\020\276\227f\275=^\222+\277\210\247^>e\244\312>\364(\'\277u\267-=AP\030;T\242\314\275\272\250 \275\241\263\201>;\017\311>\211\177\216<!\337\221>\204\366\300>\034>\264>\302\'\215>\344\334L\276\rtn\276\242\313\301\276\234m\343>\037yv;\333\216\232=\376\332\324\276\020\355\264>T:\022?e\243\317\276"
      }
    }
  }
}
node {
  name: "w_in/read"
  op: "Identity"
  input: "w_in"
  attr {
    key: "T"
    value {
      type: DT_FLOAT
    }
  }
  attr {
    key: "_class"
    value {
      list {
        s: "loc:@w_in"
      }
    }
  }
}
node {
  name: "b_in"
  op: "Const"
  attr {
    key: "dtype"
    value {
      type: DT_FLOAT
    }
  }
  attr {
    key: "value"
    value {
      tensor {
        dtype: DT_FLOAT
        tensor_shape {
          dim {
            size: 32
          }
        }
        tensor_content: "G\021F\276\220\017\376>e\235\003@\240d\216?\007\227\204?\005\216l?\034\016\305?\372K\013?\236\210[\276\345\245 ?\020\345\301>\017\273\214?\311:C?]\242\031>\240\324\267\276A}]?W\033\332?@s\343?\357\020\242?\274J&\277\205\322F\276{\233\230?E\013I?C(\225?!\226\330?\304\322\207?km\241?\014\356\010@\372\211T>0g\236>\035\226\261:\356\n\014@"
      }
    }
  }
}
node {
  name: "b_in/read"
  op: "Identity"
  input: "b_in"
  attr {
    key: "T"
    value {
      type: DT_FLOAT
    }
  }
  attr {
    key: "_class"
    value {
      list {
        s: "loc:@b_in"
      }
    }
  }
}
node {
  name: "MatMul"
  op: "MatMul"
  input: "reshape"
  input: "w_in/read"
  attr {
    key: "T"
    value {
      type: DT_FLOAT
    }
  }
  attr {
    key: "transpose_a"
    value {
      b: false
    }
  }
  attr {
    key: "transpose_b"
    value {
      b: false
    }
  }
}
node {
  name: "add"
  op: "Add"
  input: "MatMul"
  input: "b_in/read"
  attr {
    key: "T"
    value {
      type: DT_FLOAT
    }
  }
}
node {
  name: "relu"
  op: "Relu"
  input: "add"
  attr {
    key: "T"
    value {
      type: DT_FLOAT
    }
  }
}
node {
  name: "split/split_dim"
  op: "Const"
  attr {
    key: "dtype"
    value {
      type: DT_INT32
    }
  }
  attr {
    key: "value"
    value {
      tensor {
        dtype: DT_INT32
        tensor_shape {
        }
        int_val: 0
      }
    }
  }
}
node {
  name: "split"
  op: "Split"
  input: "split/split_dim"
  input: "relu"
  attr {
    key: "T"
    value {
      type: DT_FLOAT
    }
  }
  attr {
    key: "num_split"
    value {
      i: 128
    }
  }
}
node {
  name: "rnn/Shape"
  op: "Shape"
  input: "split"
  attr {
    key: "T"
    value {
      type: DT_FLOAT
    }
  }
  attr {
    key: "out_type"
    value {
      type: DT_INT32
    }
  }
}
node {
  name: "rnn/strided_slice/stack"
  op: "Const"
  attr {
    key: "dtype"
    value {
      type: DT_INT32
    }
  }
  attr {
    key: "value"
    value {
      tensor {
        dtype: DT_INT32
        tensor_shape {
          dim {
            size: 1
          }
        }
        int_val: 0
      }
    }
  }
}
node {
  name: "rnn/strided_slice/stack_1"
  op: "Const"
  attr {
    key: "dtype"
    value {
      type: DT_INT32
    }
  }
  attr {
    key: "value"
    value {
      tensor {
        dtype: DT_INT32
        tensor_shape {
          dim {
            size: 1
          }
        }
        int_val: 1
      }
    }
  }
}
node {
  name: "rnn/strided_slice/stack_2"
  op: "Const"
  attr {
    key: "dtype"
    value {
      type: DT_INT32
    }
  }
  attr {
    key: "value"
    value {
      tensor {
        dtype: DT_INT32
        tensor_shape {
          dim {
            size: 1
          }
        }
        int_val: 1
      }
    }
  }
}
node {
  name: "rnn/strided_slice"
  op: "StridedSlice"
  input: "rnn/Shape"
  input: "rnn/strided_slice/stack"
  input: "rnn/strided_slice/stack_1"
  input: "rnn/strided_slice/stack_2"
  attr {
    key: "Index"
    value {
      type: DT_INT32
    }
  }
  attr {
    key: "T"
    value {
      type: DT_INT32
    }
  }
  attr {
    key: "begin_mask"
    value {
      i: 0
    }
  }
  attr {
    key: "ellipsis_mask"
    value {
      i: 0
    }
  }
  attr {
    key: "end_mask"
    value {
      i: 0
    }
  }
  attr {
    key: "new_axis_mask"
    value {
      i: 0
    }
  }
  attr {
    key: "shrink_axis_mask"
    value {
      i: 1
    }
  }
}
node {
  name: "rnn/MultiRNNCellZeroState/BasicLSTMCellZeroState/stack/1"
  op: "Const"
  attr {
    key: "dtype"
    value {
      type: DT_INT32
    }
  }
  attr {
    key: "value"
    value {
      tensor {
        dtype: DT_INT32
        tensor_shape {
        }
        int_val: 32
      }
    }
  }
}
node {
  name: "rnn/MultiRNNCellZeroState/BasicLSTMCellZeroState/stack"
  op: "Pack"
  input: "rnn/strided_slice"
  input: "rnn/MultiRNNCellZeroState/BasicLSTMCellZeroState/stack/1"
  attr {
    key: "N"
    value {
      i: 2
    }
  }
  attr {
    key: "T"
    value {
      type: DT_INT32
    }
  }
  attr {
    key: "axis"
    value {
      i: 0
    }
  }
}
node {
  name: "rnn/MultiRNNCellZeroState/BasicLSTMCellZeroState/zeros/Const"
  op: "Const"
  attr {
    key: "dtype"
    value {
      type: DT_FLOAT
    }
  }
  attr {
    key: "value"
    value {
      tensor {
        dtype: DT_FLOAT
        tensor_shape {
        }
        float_val: 0.0
      }
    }
  }
}
node {
  name: "rnn/MultiRNNCellZeroState/BasicLSTMCellZeroState/zeros"
  op: "Fill"
  input: "rnn/MultiRNNCellZeroState/BasicLSTMCellZeroState/stack"
  input: "rnn/MultiRNNCellZeroState/BasicLSTMCellZeroState/zeros/Const"
  attr {
    key: "T"
    value {
      type: DT_FLOAT
    }
  }
}
node {
  name: "rnn/MultiRNNCellZeroState/BasicLSTMCellZeroState/stack_1/1"
  op: "Const"
  attr {
    key: "dtype"
    value {
      type: DT_INT32
    }
  }
  attr {
    key: "value"
    value {
      tensor {
        dtype: DT_INT32
        tensor_shape {
        }
        int_val: 32
      }
    }
  }
}
node {
  name: "rnn/MultiRNNCellZeroState/BasicLSTMCellZeroState/stack_1"
  op: "Pack"
  input: "rnn/strided_slice"
  input: "rnn/MultiRNNCellZeroState/BasicLSTMCellZeroState/stack_1/1"
  attr {
    key: "N"
    value {
      i: 2
    }
  }
  attr {
    key: "T"
    value {
      type: DT_INT32
    }
  }
  attr {
    key: "axis"
    value {
      i: 0
    }
  }
}
node {
  name: "rnn/MultiRNNCellZeroState/BasicLSTMCellZeroState/zeros_1/Const"
  op: "Const"
  attr {
    key: "dtype"
    value {
      type: DT_FLOAT
    }
  }
  attr {
    key: "value"
    value {
      tensor {
        dtype: DT_FLOAT
        tensor_shape {
        }
        float_val: 0.0
      }
    }
  }
}
node {
  name: "rnn/MultiRNNCellZeroState/BasicLSTMCellZeroState/zeros_1"
  op: "Fill"
  input: "rnn/MultiRNNCellZeroState/BasicLSTMCellZeroState/stack_1"
  input: "rnn/MultiRNNCellZeroState/BasicLSTMCellZeroState/zeros_1/Const"
  attr {
    key: "T"
    value {
      type: DT_FLOAT
    }
  }
}
node {
  name: "rnn/MultiRNNCellZeroState/BasicLSTMCellZeroState_1/stack/1"
  op: "Const"
  attr {
    key: "dtype"
    value {
      type: DT_INT32
    }
  }
  attr {
    key: "value"
    value {
      tensor {
        dtype: DT_INT32
        tensor_shape {
        }
        int_val: 32
      }
    }
  }
}
node {
  name: "rnn/MultiRNNCellZeroState/BasicLSTMCellZeroState_1/stack"
  op: "Pack"
  input: "rnn/strided_slice"
  input: "rnn/MultiRNNCellZeroState/BasicLSTMCellZeroState_1/stack/1"
  attr {
    key: "N"
    value {
      i: 2
    }
  }
  attr {
    key: "T"
    value {
      type: DT_INT32
    }
  }
  attr {
    key: "axis"
    value {
      i: 0
    }
  }
}
node {
  name: "rnn/MultiRNNCellZeroState/BasicLSTMCellZeroState_1/zeros/Const"
  op: "Const"
  attr {
    key: "dtype"
    value {
      type: DT_FLOAT
    }
  }
  attr {
    key: "value"
    value {
      tensor {
        dtype: DT_FLOAT
        tensor_shape {
        }
        float_val: 0.0
      }
    }
  }
}
node {
  name: "rnn/MultiRNNCellZeroState/BasicLSTMCellZeroState_1/zeros"
  op: "Fill"
  input: "rnn/MultiRNNCellZeroState/BasicLSTMCellZeroState_1/stack"
  input: "rnn/MultiRNNCellZeroState/BasicLSTMCellZeroState_1/zeros/Const"
  attr {
    key: "T"
    value {
      type: DT_FLOAT
    }
  }
}
node {
  name: "rnn/MultiRNNCellZeroState/BasicLSTMCellZeroState_1/stack_1/1"
  op: "Const"
  attr {
    key: "dtype"
    value {
      type: DT_INT32
    }
  }
  attr {
    key: "value"
    value {
      tensor {
        dtype: DT_INT32
        tensor_shape {
        }
        int_val: 32
      }
    }
  }
}
node {
  name: "rnn/MultiRNNCellZeroState/BasicLSTMCellZeroState_1/stack_1"
  op: "Pack"
  input: "rnn/strided_slice"
  input: "rnn/MultiRNNCellZeroState/BasicLSTMCellZeroState_1/stack_1/1"
  attr {
    key: "N"
    value {
      i: 2
    }
  }
  attr {
    key: "T"
    value {
      type: DT_INT32
    }
  }
  attr {
    key: "axis"
    value {
      i: 0
    }
  }
}
node {
  name: "rnn/MultiRNNCellZeroState/BasicLSTMCellZeroState_1/zeros_1/Const"
  op: "Const"
  attr {
    key: "dtype"
    value {
      type: DT_FLOAT
    }
  }
  attr {
    key: "value"
    value {
      tensor {
        dtype: DT_FLOAT
        tensor_shape {
        }
        float_val: 0.0
      }
    }
  }
}
node {
  name: "rnn/MultiRNNCellZeroState/BasicLSTMCellZeroState_1/zeros_1"
  op: "Fill"
  input: "rnn/MultiRNNCellZeroState/BasicLSTMCellZeroState_1/stack_1"
  input: "rnn/MultiRNNCellZeroState/BasicLSTMCellZeroState_1/zeros_1/Const"
  attr {
    key: "T"
    value {
      type: DT_FLOAT
    }
  }
}
node {
  name: "rnn/multi_rnn_cell/cell_0/basic_lstm_cell/weights"
  op: "Const"
  attr {
    key: "dtype"
    value {
      type: DT_FLOAT
    }
  }
  attr {
    key: "value"
    value {
      tensor {
        dtype: DT_FLOAT
        tensor_shape {
          dim {
            size: 64
          }
          dim {
            size: 128
          }
        }
        tensor_content: "Y}\265\274\245d\210\276\345e\306;Z&L<\013\204\205\273\3259\226;$\312\260\273P\336\277<\226\202(\2742E\005<i\241R\273=\357\210\273\027\217$=\325U\353\274\2333L\272\n\335\252=\377J\341<`.\263\275!n\310=9&\245\274\335\242\023=l\322\207<r\340\234\275\226\251\306<jrY;C\303\224<\234\365\r=\314\"$\273\267\235\204\273\211\241\337\273\304\035\035\276\316\323\257\275N\022\202\274\340\256\267<\273\274\034<9\017\316=.7\024<\245\267\000\274]\341\"=\003-s\276d\370\030>a\346$\274\354Q\267:+n5;S\326\373\275\240h_<\2642\252\275\355\214!\276\030\302\010\275&\243j\276\310)\002>\256\257\200\273\034\033\302=-U\215\275\353\272\265=\036\030#\276i7\311\273B\254\225=Q\230I\276\334\034\007<nn\355\273[\373,\274\234\331[\276/A\017>\005\224\210\274\037\266A>\2275W<ZTd\273\277\177\243\273\027C\371;\016}\265\273\027\236\201<\326\261);\343cT<\210\2348\273_|\371\273\263JA\274\200(\276\274T\213\213\274\224A\334<}\233\030<$\264>=\205K:>\252\222x\274.\252\237\275\332\013\\\273\273\006\311\274\344C\223\274D\257U\275G@\202<\207!\206\275\266\300[<\361\362\231\273:\344\000\274J[\301<?I\n\275!\035\301\2744?\212<\263\345F\2758\344\311<^v\243\274\235\322j\275\264\257\036\274\034\263\016=FE\313<\3159\034\276o\344]\273)\220$\275\272\347-=\021\330\022\276\334\335\010<n\254\035=I\205\211<\273\311\204\273\026\363\230=c\004h\274\230\355\031=\376\300\026=\276|L=\255\243O=L\350\371\274}\273\034=~\334\357<|X\274<\323\321\373\273E\262\002<\0222+=\252\340\247=T\022\276\274n\233\342\273\374\325\267;\rH\205<\263\267\t\274\365\377\220;!\344\316\273\020\034\303<\021K\355\275\332\237\316;f\r\202\273\0002\202\273\350&\342<S\244D;\332\211:=\362\327\001>y\216\373;\237Z\206=\226\336\240<\235\243\234\274\324\232\014=\207\206\204\274\265\331\354;\n\010g<B\212d\274\304\204\212\273I\221\247\273F^\334\271+\366_\273/\272\223\273\373}\000\275m\006\206=\022(:\274s(&>\251y5<\032\242\223=\254\001,;\373\335\n\274Z\365\034\275\377\251\016\275\rz2\276\024\004\353\273\331l\372\273y\037\257\273;\310\256\275\177uT\274\367\345\023<g\004\037>\326%\362\275\331\027?=\3331\216\275\233\313\020<Vnr\274\005\005\205\274$\206T\274,\200\000>\\\006\215<\037\322O<\216\221\331<\315\004\372:-\334\3369=r\022<\266_\016<L\033\250\275*\327\220\274\205\335\031>\030\366r<p|\336\274\232%\013\274\226L\t<\\\215\271\273\222\010\357;\340\000\036\275\354D]<\030\351Y\273\267\211\336\273\265\005\201\274j\216 <\037{\306=\353\316\206=\266\221\333\273F\207\021=c\371\212\274\352\005w\274K\001\021\275\202\377 \275\300\030\007=\rd`\274i\004\333\274&\317\303\273\037\223\264\274\341\317\177<\320\260\206\273\350\214\313\273p\\`=\300\226\364=;\213\277\274\036k\003=\200\2473=v\222\234<\020\013`\2733\006\222\275\214{`\274l\304\021=\205\357\253<n\007\035=\303\003\204\2733\307k\275>B\037=\270\020\220\275\367\r\371<XR\016=c\032\013<\263\223\247<\263\225\314<#\207;\274C\2125=\317[i\274_\374-=[\354\232<\354\005\232\274\310\027\002\2759\005\306<\007\030\"=Z\235\020\274\261+\202\275\2008\344<K\243\345<\205\335\326\274\247~\353>\256\345E<\223\247\"=\355\327\262\273\216^(<\007\003\204\273\027\320\351<\351\352\257=a\026x<\340\361=\273\376\345\357\272l\027\257;\224\375\007=\276\274K\274\023\013\021=F\365h<\233\037\260=N\253\202\2760\202\214\274\213\250\334<j\022\202\274\341R\335=,\376\344<IH\r=\3214\225\274A\324\256<\355\215\004<L~^\273=\350};N\211\361=\020?\036\273\003\315\022\274\205\3261>\247\224\310<\244\2502\273\331\311\205<\353\311\251\274\375K\214<\343d\232>O\333%>\023\343\375\274M1\201\273\212L\275\274\320\313\315=m]0\275j\323\215>\276n\266=\357\202\333\275\245C\230>\240Z\237\276\013\001%<\346\240p\276\006\343\032>\346\263\244\276\300\305\000>qQ\227\276w\227j\274\r\007\221\275\255,\267<+\260\206<\325U\320=\321\376<>a][>4\346\242\274\357\322\215\275\017S\325<\r\022)\274l`\322\273\002?\214<\217&^\273J\257\265<\220\220\226= \223\373<\363\213\031\273\031\337\036\273\266\345K=\nt0=5\300\031=\230\005\235=\267\224\242;,\301k\275e>\243\275+S\216\274\300[{=l\200s\275\231\3561>,\351\225=.\274\300<\212\r\372\274\337\233Q=2j\r=\230\326\205\273P\005\340\271\330\266$>F\356\273=\313w\346\274\244U\362<\034\020\301=\267\237C=c\247\006\275SJ\367<pjZ\272\217\2734=k\251g=\207\364\035>\001\3111\273\353\342\314;@y\206\272S\304\004=\035;\202=\253\001;=yM\206<\371@z=\311\t5\273/\360b\274\362\313)=\241C\350\274\316\006\031=\204-\235=\000\220_=,\202\005\276J\300\337<\252z\276=\267\225\363\273v\310\005<\257\332 =\213\003\300<\017\026\025\275Et\021\276\261\270\030<\255\3045=7\265J\274\256_\005<U\207\274\274eu+=N37\275\323#6<\016\361g\274\344\253\035\274IK\026=~\265\034;\026c\340\275\363\221\032>c\373\030\272BKn=y,\340<:9\250\274 _S=wc\200<\217\362\014\275=B\022=\027\333\270<,\327\001\274>\253X=\342L\300:\006a\366\2730\2204\274u\030r<Ow\330\275S?\243\274\336\200\345\275\367\372\301<6\266\220\274\200!\020<\356\034\020\275\335\032\211=\013k\001=\307\360\010>\253\265\260\274\315\212\212;te8\274n\244#>N\362\241<\030\nn\274\201\236\216\275\310\241j9\216\243(\271\021P<=\313\020\"<\255\226\t\275A,K\274R\007\r\276\311n\277=$&&\275\343J\233=\301\354\263\275\025\017.=r\312\2459\217\331\263<2B\372<\n\262\354;\354j\361\274\341J;>4\227\313<\352\275-\275W\nW\274\304\374u<E\303\261\272\356\312\351\274\340\264\010\275|h\277<\307~\037\274D\357T\274#\314M\273e\030J\275DbO>Q\t\265<\026\376\376\274j\253\322=>s\223=-\004\225\274\343p\251\275k:\001\275H2\203\274\334t]:5 \235\275v\215\036\275\'\016N=\276\010\366<\354\371\013\2740\303\202\274\264\2727\275\333\244\020=\350W\025\275\264TU=E\315A\274R\225,=\253\371\210\273E\352\005\276\314\212C\274;\277\n;\001\270\206=\000\302\033\276\343D\202\274}\344\244\275\275\272$=\277\377\356\274\256\n\037=M3\214=\026\357.=\374!\230=8e\232=R\266\344\274\251\201\237=pe\000\275n\342\247=\331\321\226=\371\260\030\275\223\000\005\274\223\246\343<\222\252z=\'\t\021\275\371!|\275D\355\252<\024\224L=X\027\204\275\270<\026\276\311&u<\000\240\201=t>\331\274\242\325i<\355\377w<\377#\231=\002\267s=\022\276\214<\350\351\002\275K\001\265\274\037A\201=\204\022h=Ua}\276@\004\273\275:@\366\274W\030\304=\346\336\326\273\332\305\366\274jI\341=\317Oh\275\210\"_\275\335\035\\=\001Z\203\275\242\227\310<\354YO<\227\254\3159\327\310\214\274\350\037\311\274\351\317\235=t\\\030\276\361M\370\274\016S\223\275:\r)=\263q,>\230fp<\307\302=\275\034\345\2439\362\236\010\276\356m\241\275M\257\373\274\252\357\013\275\332k\\\274\261C\314=\224\000\221\275\004\212h\275\203\345*\276\317\375\317=\001\265<\275Q\203\211=\177|i<!\366\005\274\363\\\"\276\307\321\333\275N\217\035>\247W\254\275;\035r<\253\032\304=\004\277\203=\233\177\212<\346\250}\275\221#\202\275\223\004\001\276>U^\275\014v\255\274l-,=\331?\213\275\"\272\340\274O\317\330<_\224!\275\303\302#\275%\203\225=C=\032=\362\373\224\274\230$\032\275\016\034G\275\270g\353\274y\017k>\261l{\274@\275\375<(\350\t>:\\\237=\340\210\353\274\220\273\364=\300\224=\275\211P\235\273K\271\270\274\255\212d\275\243\240n<\313$\347<e\235B=R{\223\274\232C\354\274WG\004\273\351\367\337<?\032\204\275F\335\345=\217\254\253\275\373\343\\=\3673\034\276\367\020k=Z\320\274\274S\372\214\2741\r\333=Z\254\326\275\351\021\353\274/\366\316\275~[\321=\202T)=\363\224\036=\347X\361=q*A<\206\360\320=I\200\023>\356)\301\275v\355)>\245,e=\277\026\324=_YG=<p\257\274Cp\342\274\342\250\201=\327\017\026=\241\357\367\274\017F\020<\036\360j;\342\341)=jue\275h\0165\274\013\367L<s,g=u\255\253\274\330\302><\376\366\024\275\361\255\224=\002X$<\204\230g<Y\327\340\274mP\232\274Li_=ZE\253<\332\254\014\276NhT\274!\010\000\274b\023X\275d\016\223\275k!\340\274\300\352\302=@ZQ\275\337Xl\275OC\232=\314\355\217\2751\304\212<A&\264=xV\265\270\r\255^\274\331\001\256\274\272=\236\275\3613\204\276g\221\254\274g\211\351<\323\341\013=\263\201\033>\225\213}<_\347\010<\0322V\275Y\321\207\275\356\003\212=\'A\234\274P\201\005\275p5\024\274\025\007\250<\001K8\275.\021\234;=\377:\276\246\217\216=\340\272\006>M\013\350\273}y\031<\016\273N\276\267\356\217\274\005\227\005>\002\037\023\276/:&<|\223\337=?7\217\275\017\035\034=\203\366\372;\303S><\002=&\276\314\271\247\275\201\217>\275\202\3122>\250\340\022=\013a`\275#L\263\274$\347\255<v\\\346\274\352JO\275\216\260\320=G\311\t=\305\027a\274{\277\005\275\252\360\267;\226\276\214\275\301\0146>\236O\272=\035?\331\274]\220\032=\226\023 \275S\213\316\274|\260\\=S\344\257<\353\230\340=\n\032\326<\263\211x\275oh\250<\343\312\242\275\321\031#=-\341p\274\332\343\350\274\355\250\330<\275.\377\274\225Vl\275y\036\221=\004\325\032\276\216\270\276=\237\375\336\275\235\243\026\276\365n\246\274\237\366\n\275\230A\315=\005\362\005;6,\306\274\245O\206\274\365\t\312=\036U\370\275\301\201\">Ga\320=8\320s=\316\350\312=\271]\225=#\022\004\275\030I\002>\306G4\274\360l\365=\004h\336=\014\311$\275n \337\275\242\306\301=\310\307\322=:\220\222\274\342\225\351\275-\017\r>VVu=\321\010i\274\014\375\253\275S\244\022<\356^\367<V\337\353\273\231\"\335;\326\257\251\272>\3724<\214\265\000\275\2306?<\363;q\272j\360\311\272\200b\215<\342\3260<,\001,>\223\330@=\242OB<\344\024\016=pk\000\276ZO\204\274q\035\230<\333\177$\273K2\251=\016\3251<\247\232\314;&\213_\273\360U&\2748\375\201;P\345\021\273^Tn;\230\0327\275\344\342.>**\201\273\257\301\347=\3166`<\343?+\276\032U\342:\\J3\274\020\022N;\007Q\202>k\244\366<\2231\235\274\374\016#\273W\t*\274\302\240\252\275\234\005\215\274*p\262=S\207\215>\335 \000\276\361\016]=\207\335\267\275\373\374m;\300\036V<\006\270^\274\371\356\022\276\325c/>\033\317\333\275m\223+\274\213\006\355=\360\324\336;\341\247\003<\024\331V=nt\205>\374\276\364\272\357>3\274\353\300\372<AV\211<#4\275\273\337f\331\273\331!(<\333\016\207\272\r\222\000=v\322r\275\340S\245<\252=a\272\312-\356\272\313\271\014=\203\2241< \353+\274)0\325\274t\177\225;(\267\245\275\312%\316<\371T\177\2747\347\204\274\344\341\206\274~\370\346=\241\0348=\203[\261;\0135\003\274\204\320\361\274J\223\231<\304\016:\273\003\2162;\322\340\327=\323\032\257=\210\220b\274\302Y\324<\350=)=\222\246\261<n\365\002\2749\005\020<O\230\024\273%\313\"=w\374\241<\023D\227=}\267e\272\244p\030\272x\252\222<L>\037<\244\267$<3\347\344<1^P<\214\"[<\251\216\006<\237@\000\274;n\267<\300\215\377\273\3404\365<\222\217\020=7m\030<T\037\007\275\270\210D\273\261\357/=}d_\273\247\262Q\274\314\201\355<\023\242\314<1S\317\274\351\206\022\2765\r\n<\031)\260<\325\201\271\273\227m\257;H\321\270\273\236\252\357<Ukz\275 \316\007<S\304#\2731\347\237\273\356\372\361<+\313\312:J\325\262=\353\217\233<\204\364\343<\202W\350\275\364\2257\276\307C\331\274\000g\037=]c\320;\345\334I\275\365\"\250<E\374\267<\205\216\242;\265R\016=\254\271\331\272Z\033\216\273\333\305\255\273\366DA=o\031\307<\226\306\020\274\273:\356\275`\355W<\"H\365<{\247 <\315\335\013\274\004w\334<\371!\375\275\315\360\000>\372\030)\2748\322\305\273\216\206\346:\232\357\320=\305\237\214\274\022\337\r>\220\360h\275F\346\246<\341\272~\276\355z\027\275c\275\357\272\371\350[=\361\301\014=DT\204\273,\302\027\274\32435\275v\002\222=\361\336\235=L\017\260:tBG:\271\027\360;o\023\220\276\356\231\032>=)\227\274\342r\341<\210\301\223<r\376\322;\370\252\326\273f\351\n<\376k\237\273\306\307]=\001\303\225\275\235\357d<\177\336\025\273\032q\316\273+v1=\022\357\306;_\370@=aI\254<l\263\204\273\202\375\016;\311\265U\274A\327\246\274\006\302\326\274#\266\205\274\353\341G\275j\231h<OM\260\274\354\353\236;\223(\"=\224tf<\213B\244\273\203\250\306\273\227v\016>4\026\023\275Rc\343\274\003Oj<g0d=,s\002=G\036\240\274&\353\236\275\334\217\355\2735CE=\327o\204<\304\351\317\275T-\035\273\247\306,\275\270\006\351<\333\317\244\275\211?.;oy\033=\274q\005<&/r<\355\025\243;\335u9\274\266\2560=U7m8\037\266\003=\37599=\201 \226;\314\370v\274%\370$=\217\037\r=\344j\374\273<\000X\274\362\035\213=\355\372\035=\324\252\375\274\241\023\017>\364\023\270;\224\337\214<*|\214\273*\257\316;fl\350\273ge\n=\237\311\004>E\221\355;\202\335\301\273\317\332\253\273|\300\334<\334\317a<\323\2567\276z\020\032=\004R\017:\364\n\214\275<\350\234\275d\325\217\274\236j\036=\240\334\016\275v-\354\275\247W\017=@\243\366\273\363\321\256;\257\352\251=\251/\221\2720\013\254\273\022\016)\274M\001\315\275\036&\243\276\362\350\235\274/\020\200\275_\243_<\016#\246=96\251<2\244\005\274)\336p<\223\025^\275\226\'V>\327S}\274\266y\253\273\370\273\330\273\225\355\006>\210\'\300\274\370\362\351=\340\314\232\275vrk=\327\002\">\261c\217\275<\363\222<d\376\005\276\345\272.;\367_\301<\271\354?\276\272\010\367\275\275\313\240<\301\267\031=o\2337<\177.H;\013\367\t\274\241\343\323=\215Ra\276\026q\311\274\307\007\260\275\227\t\203<\326\236 \275_\362\316\273\21662<\316\0330\274\016(@\275{?\007>\270\221{<-\003\240\273\223\'\'\274\347\232_\275\002a\311<\345^\224<\203\377\037=\346\350N;3\246\312<+r+>\t;r\274\3317\253=\002R\277:D\214\020>\002w\313\273c\247%\275\244\\)<\253S==\327\312\244<p_\303\273\313\020m\274\350\317A\275\205\302\230\274@\207\005\275\033\357\216;\303W \275\310_\276<\245\'l\275N4\201\275v\306\356;\312\030\274\274[7l=\335\022\302\275\310:\330\273\350|X\2752\331\314<c\355\375:##\366=|3 =\'kc<\240\203}=\3661\265=\033\314\315\274\021je=\374\321\031;~\353G=w\'\204=&\202\017\274\310r\254\274*n\202=\216.\221=\301cA\274\r\351\031\275a\352\207<\254\'\006=$u.\274hf\221:c\243\217;6\266N;yI\026\2744\201\\; f\2259\304z,\273\376\227\035\275\377\303\023<A\3453\271\001\276\232\273\341r7<X#|\273<\004\325=q\314\016;\311\022j<:hZ\274\224\247\373<\301\355t\274z\332\022<X\'\251:\342\261u<\226\274\250\2738\017\356\2724\377E;k\023\363:\371\277\017;\204\367\007\273\325xq;\321\005\214\275\240I\363=P>c;R\253\237>\344<\315;\367\032\036\275n\005\360\273\236\261B\273\213\201\307:\360\354\366=\010\212\243<m\034h\274v\224v;\256y\003:,-e\276Wl!:\241\317\021=\274\323\242=\260\260\351\274^\245\257>BB\310=x(\3669\325\320\263>FK\376\274M\256f\275\327\231\034\275\312`%=\n]\302:\2455|\276\\X%;\010L\351;\336\216\246\267Y\360\203>p\036\236>{\317\n\274\246^\010=[=\365;8\t\202\272\t\341\371\273\303\205\204;\020FF7m\023\010=\322\342\\\275<\345I<5\0079\271E\260_\273(\001w<0vA\273lC\216\275B\332\300\274\260\373\"<T\336a\275\244\215\004>\225\323c\274-\377\300\274\230\372\2059\355\300\001\272\300\031\243<\260.\250\271\3368\301:\307Q\002\274\316\335\272;\002\203\035\273\\EK;\374\264\t=\257\264K;\214<\310\273&(\n=\364\013\221\274\364\242\214\273\252%g\273\364\262\201\273\240$\217\266\253\221\323<X&h\273\204\376_<\2757I\271\342\242#\273\354Y\320<;\342\213\2744I\215\274\321\300\373;\000\267g<\337T\250:\304\356\367<\357*\225\273TF\203<v\020\244:(\207\272;\231_B<@\264\3137\334Fj\273\215\n\326;\3577\245<\025\033\235\272\343\212\037\272y\370\003=\200\247\212<\022\301\222\274\220\204}\275\265\207\030<\377\370h<2x\001\2738\177\240;\305v \273\306\336\242<Q\"\312\273\n\254\004<\363\"o\272\2440\253\272\253\022I<\334\306\341;{\344#\275\232\023==\014\373\002<\001Y\023\274\022{(\276\271J\271\274o\222\266<\0042\207\271\255\362\224\275H\203G<\002\001\215;?\361\304:U\236\242<-]^9r\333c\273q\205b\273\206|\223\275s\305i\275\240\324\200\273\237YT\275\335\260:<\315\250\214\274\325\206G<\327\002\336\2734\246\274;lH#\2765M&>\351\266\004\274%\033\360\273k\247\215\273\"t=>\215\310+\274\306\243\026<K\335O\275\025n\233\2746\210;\274\031\2249\276\346\215\235:\236!\351<\345\016\366<\274\333\t>\204A2\276\2375\211\275\201j\220=rZ\036>\214#\220:\250X\245;g!\026<]\353\215\276[(y\274|\010_\274\340z$=t\260w<\303\261\177<\370\016@\273\353\222\341;ry\037\273j\330\210;\373\021\227\274\203\351/<I\365e\272J\200\000\273\350\325#\2744\001\230;\010:;>\315k\t=\031\214\3759\315\302\262=\237\320\262\275\346\362\213\274\314l3\275h\007\231\273Fm\003=\367W\035\273\022\333\276\272\271\213\001:\213n\2279<\0307<\354\002~\273\315\365g\273B\273\252=StJ\275\236\200\240\274\336*\021\274k\300\371<\276}\267<\t\3552\274\033Q\"\275\311\322f\273/\353\264;\'z\204<\n\004\220\275<\253\204\272\305SY\274[a\003;21*\275\314)\033=\006`\005=}o\256;i\272\034<\257lF\273\356>\373\273jg\241<t\327\200;\016\222\264<5\233\000=\350wK<~s\220\274\354\230\307<\302v\373<\241T\227\273\201\337\227\274^\273\302<3\254$=}F\241\274T\206?\2767\226\256;\327%><\030\251\001\274\371\004\201;\212\026\355\273s\r\217<0D@\276\352\360\367;\253\264h\273\326X\202\273\206\314\n=V8\001\2750\201\007>\262\247\374=\004\223\302<d\022\243\2742)7>l\216\241\274\247_\001=\336\025]<\301-\214=4\336Q<\360<\001\275\267\222\"<\242m\274\274\'\232\211\273\317:e\273\370\023T\273\367U2\27537\006>\234\263i\274\021&\237><\301\032<\003\374\237<;\370\234\272\374\346\005\274\224)\271<\261\252z= \2527\275Z\301*\274k%\200;uzE\2733\243,\271T\316\316\273z\244\024\2720G\312=0\374\201\275*f\256\275G\206\005>\243dk\273\371\317d>\313\263\005\276B\341\227<{\252H\275\324\026\274=\030\":=\315\347\020\276\306\224C<\352\205\310\273\272\337\224<\327`k=\326d<<\021xv\2745c\266=\377\323Y<\266XU\274>\367\367\273\337\305\345;(\234\274\273PP\r=\271V.\2764\311j<\3373`\2734R\343\273\200\257\007=\306E$\275\314\030,=\334\232\t\275\2374r:\323\035\005\276\244\307\232>\204Cs\274g\014w\275\256\347\244<\2339\222\274@\306\254\273j\002\324\274\310\033\201;\274\275;\2754\276Y<\331\240\211\273\313:\302\273\217G\303=[o;>\267R\236\274\324\243\"=\010\255\022\274\304h\212<\005Fl\274)\264F\275\207B4\274T\346\220=V\t\240;\230\246\354<\021zV\273\264\360\307\2743\371H=\342Q\237\275;T\032=\366\3619=\331\2211<\\\n\257\274\265\245\215==\341*\274\307\271\035=\217N\332;`Cn=dE\237;x\354;\275{g&=\033\251S:|\025e<s\026\345\273\005Ns\274\354O\227=BK\231=\241\241T\274\024\t\317\275\235^\264;\013\243\333;\2200p\270\327K\242;F&B\273`\240<<p%\305\274(\221\363;\261#)\272\334\244\320\272\031X\235<\036D+\273\354\266>>\254B\230=\250\315\242;\313\265m\275l\220\306\275q#\210\274\013<\264<\312\346+;l\376\205=m*N<\362t\352\273\344\025\206;\251\200s;\350\347S\273 YE\2735\223\232\271l\200\250\275\357\006r=\257\224\324\273\376t\364<2)\317;\336\'\253\273\270iV<\022\257\247\273\006\260\031<\260\376\357\274z\2668\275i+\321\273\256\210L\272\220w\337\272I\326\223\275/\006W\272S\263\025>\264n\210\275\231!\260\275[\226\025\276M]\010>\256\014\226\273\271\255\256>F\245\003\276$\350?>\235\272\025\276\027O\275\274\352\305\360<tS\360\275\235 \032\273\251[\227\272\036+C<\310`f=\2542\204\275-\357&\274\370\246\220=\305f9<\375q\2149\312\021k\272B\362\314;#\326$\273\006\t\354<\362^^\275vC)<\030\332#\272\271\206\002\273\245\317\341\273\371\241\r\274\025\355\325\274\021\034\263=\314\013`\267\367\347e\275v\216O>~xJ\274\222\230\256\274J\276\220:\306\315;=\230\347\312<\204\240p\274a\222\034;tB \275M\334\006<\273B\\\273z\370\241\272\242\357\374=\360B\277=\031\347T\274\327\007\307;D\\<\274\322\346+<}\013Z\274:I\263\274o\323\205\273\262\003\341<\360\267\003<n\3544\275\211\2025\272\277\234\215\274\223\202\\<C\264=\275\262P\313<\000p\370<g\362\373;,WM\274\204k-=p\305\240\273\316\352\244<\3442S:SQ\357<~\350\336<e\304\315\273\222\220\236;\310\335Y:i\273\236<$~9\2736dZ\273<\000\003=\335\027.=\3606\350\273\177\000S\273\246\201\214;\006j\230\273\340\273\022\274<\216\366:j\215\2617\306\210-<\032v\316\274\307\036\265;v[\216\270\225\317}\272\226\\\003;\227n\0179P\242\300<J\252i:p\310\251:\264\312~\274\350,\003\275\227\216^\274{\307\214<\201\001\026<\026\324\235\274\277\177d<\004\252Q:\230*\034\270\215\024\243\2710N\221\267\312N@\273k\237\217:9\303\204\275\236\352\273\274P?\274;l\310\235\275\256&\340;\364\272\0049o\344\005\275\270\212\361\272o\2747;\3315\332=\000\344\\>M\371\177\273\242\322\t:\231\365\242\273-\256;\275\262\211\276\272\312k\000>\252\330\001>T\334\256\274YY\341=\0317U\276\202]\214\272\203\274\014\275\257m\224\274#}\305=\332!\315\275$*\340<\204\363\027\272\363\004\210\275\2762P\270<\032\002<\371\240(;L\303\362\275\260\252\026>\245U\262\2734\3165=\377m\373;\230x\031\274\022\373\032\274x\t!;\005IV\271\276x\205\273j(\036\275\265P\265;\224\007}\270\204\237F\272]\242\364\274\024yh:4\306\205\274\036I\265\273\337\366\317\272\r\007\227\274\0046S=^Q?\274\260\215\371\274E\362\027<8\204\355;\027\316\013\273\\\275\3119\251\3148\272W\301\026\274V\241\241:\335\3274\273\013\245.:\036\214,=}\020\271\274>H\266\273r\370\346;\275\037w<\340\330\003\273\225\233\331\272\211<\201;n\271\254\271\026!\006<\266\215\230\273:{y;\3207\205\270\342&g\272\302\272o\273\3220\024;y\327b\273\342\355h<\024\211\032:\010c\243\273F\327\202;\265W0\273TH^\2736\3403<\362\002\253;h\200h<A\t\303:b \014;\274\3039\272ta5\271\207+j\272\211\241\224\272!\266\265;\177*\n\273*\210\361\274\245w\022>\033Z\243;\324p\247<\022\245\235\273\230*\300;\211d\037\274:\374 =1aa<X\343\365;\210\355\234\273\246)\361\273\345DO=\210\207\347\274~\016u<f\205\375:\2706#\273\235\314#\276SnC\276g\033\261\274\013\224Y=Bf\313<\340\252\337\275\020:\037=\265\371\r;\177\n\240<\320%I=[\310\250\273\035\r\240\273\031\210\024\274\357U\274\274F\261V\276N\336\236\274\031\343\024>\265O9<\327\314\255=\247\222\201<Z3g\274\324\215\237\273\352{i\274{O\343\274s\0133\274X$\037\273\363\362\262;\253\031*\275\337^\t\274\202\264\002>\270\331\017\276\026\014u\275\271\247W\276\324dE>C\006\247;\301\223\336\274c\033\n\276=\303}>\254\003h\276\356\263\023>V\372\375<-\2549\276~cZ;\264\377\327\273\327+\007\274fyh=\261\254\321\275\006:\275\274\330\211\263=TQ\205<\271\274g\274\016%\322\273c\267\'<\367\376\276\273\022U\204=\231\316\273=\221u\205<\225\255\221\273P\270E\2745m\032<\205CW\275\023\327R=\025\243\307\274\243!\230\274?\236\223\275}\223\202>j\377\214\274\261s\310=\254\372\253<W\342m\274a\\\351<\353\nC\275\352\307\272<\253\204\344\274\0267\205<\302\035\273\273c\232>\274\203\237\016>\333\250Y=\307z\375\274O\274\245<\240\025!\274Q\005\340<\277so\275>\177\250\275\372u~\2736\232!=et\014=\"5\364\275\031\324\243\273\'O\211\2756\215)=\227\363\224\274R\277\177=\357\362(=\\\343\000<\t\300\325<\302d\313=\323\256\214\274\340=l=\354\216\237</\222b=<_\241=\"r\300\274 \000V\274\324\306O=\205\025\021=\3420\032\274K\242p\274\352rf=\021\016\311=\017\027\213\274\265\315\320=:H\274;\0160\300<y@\004\274\221\357\224;*\316\023\273\203b\221<\026(\233\275-\345\376;\026\032\242\272\322P\341\272J\244|<\216\001\217;\213\316\266=5 3=\016\327\023<\\\361\227=\250\230\303\275\246\276\202\274kV\310<\320\313>\274\3677\210=>\2004<\236\334\200;4\003\232\273qb\330\273g\355_;\203\302\352\272A\221\201:$t\t\275l\037q=\307fz\273*l\276\272g\256$<_\320\356\2756\213\277:\217-\035\274E\301\203<\363>j>\354\2108\276<\226]\274\253[\234\272\003M\014\274\302l\231\275\201\016m\274\377\301\271=1-\r=%\227\236\275\305\317\266=\207\2601\276 \3056<\224\340\002\276\014\327%\274;\037\317<\316+\250=\035\037\325\275\343&u</G\345<\016)\224;:\256\370;\333\023\334<\023\226\031>\373y\001>\313!U\274M\265\211=b\343d<\247\214`\274\272\345\367\273\007V\004<\232\220\341\272\207\224\275<K\325a<6\314\200<\270\007\227\272\205\344\022\273\305\210\020=\370\253o;oG\310\2748\t{\275\240jG:\332\030\342<\250(\321\274\316\334n\274u\203\215\274\210k\205\274F`\007=\262O\357<\232\262\277:\014\025\033\274a\276\225\274\221I\202<8\224\021\273\020$n:)\231\213;\014\007\334=\\\205\212\274\310\312\307<\245\034\356\273rc\202<\303\277t\274\357gn:\364~V\273V\020\t=}\321\232<Nh\014=\326I\227\272\215*\257\273\203\277\242<\007\351@\274\241\013o<P\036\233<\360V\017<d\246L<\216[\305<.\313\010\274\306\221\322<\354\366Z\2747\n\274<q)\010=P?\350;\247\233\010\275\235$\355;J\025\006=\001\207_\273\333\353\004\274\202@\212<[\354\307<\271d\235\275\334\352g;\304T\247<$\336\246=\330\224\031\275^\002\233<\026g\205\275\234\200\306=~\320\334\275\220\350\271<\226zj\275\016_\257\274<\267\231=^\244\316\275\264\2003\276\350\334\323;!9\020<Q\263\234\275d\325\024>\006J\021\275P\332\035>+!\014;\354\372\313\275\274b\307=h\007\'<%\275<\275\355\t,\274\003v\004;\344\253\322\274\021O\362\274\350\237\327\274\016\237\213\274#\374\203\274s\022\034\276\371\332e=K@\036>?\225\002<d\371\222\275|2\034\275\306\203\374\274\354T\"\276\221oH\275\225\341{=\364\n\320\274-\364\031=\2522\256\275\013\360\357=\247\010/>Z\340\316\274\243\216\203;\230;`;j\007\217<\245\245/\276\3347\022<\213\007\030\275\301\247\247=U\334P=\320\253\301<$\211\006>P\261\236<pw\253<\266\231\241\273\307\276\025>\260\200\337\273\002\350\206\275\021\025[=\004\036g=\342\225Y\275YH\033\275\032\322\022=\341/[\275|\233\304\275f\237\356=\207Q[=\261\300\030\275~\256\027\275\341if=1U\261\275\261BQ>g\204\373\275\017>\227\275d\213\373<\227\276\005\276\037\343\020\275\007\322\227\275gO\2229\266Uj\275\021!_\2758\003\001=B\201\357\2733\265X\273\316Nm=q[\327\274\364\031\016\275;B\206;\3253I<\317\000\241\275V\365$>,\344\260\273&(\022=.C\324\275d\274\004\276\210\331-\275\0174\312=`\200\035>\357\271\257\274\177V\005\275\206$\365\275\314%\000>\013Y\313\274\326\362\323=8X\021>\317Z\254=h\342\221=\224\014\270=\tU\363\275\257\365.>\350\001\251=\250\352\006>q\271\213=2\303\024=\3518\001\276\227\027\037>\030\233}=\305\236\277\275l\326\023\276\352\004~\273!:\260=\240\347`\275\376?\220\276U\210V<\272\214\204=z\373\261\274\272\322B<O\377\241\272\035\313\211=\215}\356<\333Fz<\234\270\316\274\277p\247\274\256<\242=%\022)=\202\214\004\276\327F@\275\372\315-\275\034\241)=\341\004R>zR\347\274\332\342\302=\375\213\017=Q\203\007\275$\006\203=\032\022\205\275\3747~<vP\322=\036G*\273\256\004m\274\014H\264\2749\031%\275I1\314\275\250\360\275\274V\255U\275\037\305\023=\210\372\022>P\337.<\302SA\274\177\246\216\275\2034\301\275\254\236\222=M\350\025\275\243)2\274\262&\r\274\254\352\347\275\017\000A=u\315\304\274~\273z\275]\343\233=8\354\016>\252\212\273=f\025\336;\353\213Y>\211m\305\275v\273\216=Ce\273\275\217\177\276\275\'\224\025>w\255\016=\355\200\303<\361\037\221;\370\201\301\274\354A\357\274\251\270\223=\2157>\275\353\036\237<\336\017\027=\314P>\275t\233\270\274\212\271\263<\200O\007\275\026\317*\275\376\253\022>>\306\013=wu\255\274&_\314\274L\221\357\273\236\3148\275|\244\345=\347\226\214\275\350b\277<8\2166>\251R&>\223\\\325\274\244@\267\275\377\252\035\274\312\323\007>\342iZ\275\312)\267\275/\354\352\273n%\220;\363\267/=\311R\177\274\316a\323\2749V\021<-DE=\335Ca\275o3\231=\037\232\001\276N\225\241=\t\234\023\275\035\335\'\276\352\347h\275\230\'\250=\034q\246=\202\2434\276\373\023\252\274\211\371%\275\201\017\002>QH)<\231n\370\274\346\375\335=V\034\261\274\002\244\367<\323\2256>E{\241\275u\247\007>\013=\374\274\333\322\320=[\231L=\203\224~\274;\304\005=O!\202=\354\340\342=\223\373\205\274\177\351\260\274\023\025\334=\233\372\357=\267>\345\274\014\251\264\274MQ\375;\260t\"=\207\324\371\273eh\340;`_\017\274\317\267\316<\303Zq<\273T/<\225\323\273\2730\003\226\273\255\000\345<&e\'\273\007\306\301\275\326\336\004\275\265\235\307<\371\200n=\276L\003>\226{\243\274\017O\n=\254\341\233\274L\213\244<+&\241<\027\235\005\274\334\203X\273_,\326;J\241?:\207\326\204\273Ulh\273\220\036\033=\361\356\321;\220\207z\274\245\321\026>X\303\212<j?\344\275\345\211\033<\261\322\246\274\205 N=\007\272\371=Gi\305=\313\372\255\274\304\254\304\272\310\2664\274n)\213\274\3164:\274\r\307\373\275\255q\'=m\311\217=0\226\205=\341\322\366=\331\325:<Z\023\022>\264O\367=-v\007\276\220\215\273=Y\013\262<\207\255\207\274\356\230v\275IK|<\024\2373:\006#*<\036c+=j\351\376<\344\362\256\274\2037\267\275W\016\241<\033X\336\274\343\320\007\274\316\223I<\302\010\337\273B\316=\273\244yC=\265:\276<\2361\231\273H\216\370\273[\267\235=4jV</:\356\274{\032\000\275\200\325\267;\037\217\273=\305\036\204=\370\007\220\274jp\323<5\235{\275(\215\347=\246\342\304;R\273\266\274\030\277\207\274\013\355\221\275\337\214\306<\274-\235\273c\322\321\273\036\340f\2751\200U>Y\334\353\274-\2442=\022(\313\275\321\022\033=o\036Q\275\364\221.\275\306H+\274.gC=\2337\'=\313\025X=S\364\250\273;\306L\274G0?=;\200j<W\217\033=\002b4=\220/\0138\252\301\"=\276\n\240=W\r\241\2746\270m=\013L\243\274C\375a=D\245\013=o\222\217\273\013u\201\275d\217\331<LO3=I\231Q\2744\270\"\2744[*=M4`=8\027\357\274\003\017\000\276\257\233f;y\017\r<_\365\311\273\344\355\222;P>\243\273tF\314<\227\366k=*F\301;\334\310H\273J\341F\273\245\343\337<I|\016\274\371\224\231\276\373\335\223\275\252\031.\274\255E_=\375\345\037>\313\202\227\274\203\351\004=`\366a\274\206\025O\276\352~\260<\333\000\177\274\334\272S;\360\"\325<\265\221\336:s~K\273\343\'\000\274\357q\357\275\302P\005\276\332yj\274oo\371\275\333\352\001<\222\261\024>\214:\021<\214\031E\274gu\351\274\\(\007\2764\323.>|\200E\2741\364\302\273\207\016s\273\374/8\2762MU<}{-\276\371\222`\276\334\023\005>I\216\201>\303{f=v#\245<\323VM\276\350V\017\276\004k\016\276C\216(\276\333>\255=m\277\347\271\000\037\006\276\307\216\007<\265\177\214;\373P\245\274_\320u\276\303\324k\276\"p\264\274\253b\032\275\367\311:<a\037&\275\2447\352\273\315H\020<\346P\227\273|\201\226\275(\343\365=\207\366U<L\275\026\273\272\301\333\273\"q\346\273[\246\005\275e$\000=5\321\025\276`\201!\274\320jJ>ADz\275\214\266v\274\227\215\247\275\351G\t\275`\2275\275|\250K\275\2615\243\273X\201A9\230F\032\274\246\234\202<}Tk\273\256j\376\273XF]\276\341H\213\275\301j\375\274x\224\243<\211\006\024\276\014\362\330\2717\r\213\275!\333\345\274\033\024\023\274y_\002\275\366^$=J\264\017\276\0354<\273\333\367E\275)\252L=\275\206\365\275\275\320\344<\305\224l<\221?\273;\301\351&=\022\021\240=\006\333{\274~\272A=^\311\032;\314\300\365<)\003\034=\336\033\262\274\364\210w\275\322\034j=\237\340\025=#;\354\273\024t\204\274\n`g\274\253\305\317<\217\352\231\274\375\271\234=\346!,;\320K\350;\361\270\277\272\226\322s;\347O\253\272G&\237<\t\231\270=_^\221;<p \273\327&\016\273W0\270<\031A6\273\0105\2569\317w1==$\210\274!!\210<q\014\"\275\3324W\274\314\030\335<\\`\354\27298\007=\030;\211<\327)\257\274\374G\232;\345I\013=\216z\377\272\375\032#\273\325C\220\273\264\032\304\275\263\n#\276\'\256@\274\033G$\275V}\307;{F*=AMb<u\020t\274\364\022U\275sQ\035\275\233\242\370;\310\030\000\274g\235\214:\201\321\213\273.O\001=\222\002\314:lk|\275\177\265\376<\000\261\037<\032\231\t=~\373[>\365\030q<P\305\007=Lv\006\275\223\374\201=\013\267\201\275\274\2544=\017H4\274r\357\221\274\331]-;<G\357:\017n\001\273\324\351\367=N\215\025\276=Iq\274\024x=\273\234V\023<\005Q\271\274w\0168\273X\010\333;\310iJ\273\344\367\010\274\206\327\241=\304\314\033<\252\370\010\273_\323\242\273\307\272\304\274\"qL;\357\201\342=\254\332\350=\367p\033\272\265\254\023=A\354?>\242Q(\2745\207\017=d%\020\275\246+\256=o\241%<\205\376\241\274\232Y\237\2727\371%\275;t4<\014\204?\273\321\036\250\273\017\243\253=\311\034\033= \302\234\274\236&\027<?\372z\275k\004R<\205L\022\275\225\240\201;\203\216\345\272\325\003\014<\221\244\316<b\366\222<2\021+\273~\222<\275,I\326<\326\317\313\273\005\352\256=\255\224\206<\364\212\200;$\256\246<<\250\205=\177\020\261\273s\353\n=\355\262\t\274\\^\342<\025]\026=\237\375H\274\023\364\254\274\266\217\345<\2775\346<\254\367\273\273%#\345;\233J\351<\325pH=\277Q+\2758S\310=/\326\025<\306ce=\363\363Y\274\035\243\025<c\260\253\271\256gV=\311?E=\252\'G< op\274w\316C\274\256\365_=U\202\235\274\250\036\302\275\306\n\323\275~\345a=\361\237m=\301\252\221\275|\300\300\274\273v\205=:\343\004\273\027\034=<\311t4=4M\267\273\237\226c\273\353>\204=$\347\275\272M\367\001\274e\t:\274=\000\002\276\034{\330\275R\272\261\274Z\'\355\275s\305\314<\354\356\017\275a\004n<>\341,\275$\243~\275\200*\237<\226\363\237\275\366\331\354\274\n\033\312\273\"\206\007\274\244\307-\274-\222f\274OX\212\275\372\234\236\275?\200\326=A:\353\275uR\201=\232CD<3\235)>`\221\235=\021h\223\275#\200 =[D\362<\237lQ\274\033\361C\276u\030Z<D}\327\272\031\357\300<BG\361\275\005\330\305=bK\n\275Lq\003=>e\341<\375z\035\2751\320i\274@\371\215<gg>\274\330H\203\273\324\003\333=\020]\354<\322\265\031\274\275\223\203\274\005\346\037\274\371\306V<k\376|=M\277\251\274^@\214\272\327\212\031>\366\006\256<\222\013\255\274U\036\336=X\221\223\275\212\247\032>\032J\n\274d\304s\274\362z\220<\034r\353<^\204\000=c\372\022\274\3616~\274HH\017>`\213\267=\313\341-\275\3225~=\377\2679\2754\274\374<B\0271\275p\353\372<l\363o;\253\032\311<\"\313\205=:\\\331\275\233\377\202\274S\331\242\275;\020s=\240@\241\2759\007\314=u\327\216=ExN<%\026!=\277\007\014>tP\026\275M\231\305=\010k\341\274\264F\266=\211\316\261=:\265\305\274\324-(\275gq\347<\027\357\230=\017\365\330\274\332%\241\275Thl=2VW=\r\023\021\275\374\377\020\276\230\327\355;\323\233\352<z\310i\274\201\315\323;(\264Y\274(\2634=/\234\014\276\272\274\022<\325\235\t\274\"\372\"\274\351\267\201=\032\343\\\275\023\316\330=\010\306\302\274A\316\271\273{.F\276\272~\350\275\363\332\323\274\024 \207=\221\254\225\274g\022\304;&\022\321<\250\212\024\274U\371~<&\365\007=\204\177\210\272}\357\263\273oK\001\274r\227\210\274 \203\216;\207\263j\274\372O\023=*\333\222<\315\263w=\360\326\3779l\242}\274\211\341\313<\263\260\206=\325\223=\276\235n\215\274Tw\253\274fxI;,\023\233=\350\214\357\273\2357(\276\243D#\276c!><\272\216^=|x\036=\210\346\200;,\231\264\275\356\357M=\341\370\016\276\037\t5\274\234\304+\273\370\310\224\273f>\326=\335,\035=\037c\020\274E\302\344\2739\253\\\276\217\204 =\324\325\341\2740=\030>Q\261\274<W\301\372\274c\214g\274\254\211R<.\273\032\274\360\025\323=\342\362\277<\205_\261<$\246\377\273f!\\\274\021J\233=!\3367\274\211z\235=\035\251\257\2756n\320\274\032\300\273\275\340\251O;\3209\262\274\233\032H=C\353\210\274\336\252\215\275n\250\250<\2713\326<\007Sz:\210\371\306\274X\370\261<\204x\327\273\203\260&\274\356\\\347=\367c\212=\010\361\r\275\001\360\223=\376~y;^\016\275<6\"\221<f\267\375\275aE\224\274\314(\004>\004 \342<\245\364\306\275v\353\376\273\310\267\225\275\276-h=\245\273\305\275\270\341\337\274\021\'>=bA\037<\314K\300<fs\337<t\271\004\275\3439\243=\335\324i\273\352\373\211=l\337\324<\273\2126\274\356x\317\274\206v\220=\211\325\013=\214\261\243\2748r\305\275\'\"\265=a?\000\273\374\3010\275u\370\357\275I\333\r<\235\273$=\316C\177\274\345^\004<\243?\277\274\344\355q=\356(:\276\373\330!<\353&\201\274\026\270\200\2744Y\251=\216\022\357\274\n\316\017>\362\353\344=\034*\202\2724\253\312\275zjX\275\220\201\327\274\341J\251=\013\325\205<\276\031\213=\235\217K=\270\365:\275\272\010y\273d.R=d\230\344\273\206e\022\274\310\201\200\274{\315\r\2769_\014>\253\r\307\274\2655\362=\245\223\305<&\202\373=\373@\006<Z\242\375\274\004\216\367<AT\020\276\335Q\320=\343\374p\274\241.\177\2743\027~:(+(\276\002!}\275-SF\276\014{\"\275\211\315\327\275\336t&\276\212>\005>A\310\277:^\363]> z\313\274.\213\216=\311\370\223\275\273nG=\276~\000>\'/\007\276\306T\263\273F#\276\274\272b\211<\031\253\217=\013Z\333=\214Y\022\275\232<\265=::\344<\031\024\021\275\270\202\204\274\217\344~<\252\275|\274\002\205\232=\347\234\346\275]\320\306<\0376@\274\366T\326\274\024q\021\274#>0\275]Y\214\275Z\026\207\274K\311`\274\026\214\273\275\223\202\232=\230\327\267\274\274/\032\275\202\261\007\275da\240=\227\230}\274\261\023\231\275\312D%==\227T=i\002\326<\372\362(\274\363\002\260\274\325\"#>\304\234R=\263S-\275^\270\234=\231\310\005\275D\017\212=K\"\026\275\t\323\r\272S\355<\275u\t\324=\230\3704=\202\325\002\276\030WV\274\305\023T\274\304\225\215=W\021\233\275/A\350<\205*\243=87K\274Z4\273<\232\243\242=\253\350j\275+\245\313=7\304\242\274{\315\307==\222\201=\026]/\275\tLz=\357\351\200=\366\251G=\213\276\355\274\337y\276<\240\241!>\024$\020>\341\177\221\275)5\n\275\032\350\230<V\315\231=^\225\005\275\220\345\202<9\010?\275\375\263\325=\324\177\202\273\247B\230<\244#J\275\024\237\305\2747\323\234=\340\324\235=5\361\002\274W\245\255\275\004z\224\275\3347\336\275\332I3\276\255\027\013\275\302\017\022>\342\361\347\274\034f\213\275o-\263=?\027s=\215\370\025\275n \207=\214\2126\273%\240\267\274\342=\364\274d!\r\275\211\014\177\275*L\020\275\260m\260=\214\357L={\376\030\275T7F<\247\325\303\273\031\346\355<#he=\006\305\350\275\231\275M\275\005\t`<\035>\207\274\321P\r\276\203;\333\275\203U\223\275\374\003\323=%w\320<\031E\r\276\322\3324\276\246\336\253;\250\247\265\275\217\375\032\276\203\007\t>\2775\314=\240\246\375\275\\\331N\275\350\314\255=\211\034\232=\266\306\307\273\373\202\205\274\312D\226\275yJ\355<&\331y\275Y\334F>Y\353Q=\270[\201\275M+\010\275AT\367<^\024\332\274\263>\273<H\327&>\377\362==\r\362\243\2747H0\275B\225\361<\245 m=9\350\221\273T\033\315<\274\214\313\275\266\236\372\274\324\022\374=^\220\005\275D\265\222\275\"B\220\275\210R\342<\022\225\301\274\005\"\205\275\\\273z\275\013\334\304;\324\200b=\373w\277\274;\313\376\274\267\0053>\235\2473>\347\"\226\275\234\037\323=\261\326\317<n\014\361=[`\374<\326\371`\274p\027\305\274\246+S=\367[\370=\317\006\344<hY<\275\025\006\274\27562\024>{\216\216<\317t\217=\207\225\003>=\275(\275\317\320\341=\372%\246=!7\212\275\371\303I>\314\352\304\2742\250!>\323\343\302=\277\030\014\275jsc\275\360\332\317=\026$\r>\004\331\347\274\"\032\353\275\266\t\016>\2614F>\237\252\263\274.\262\226\274W\323\307;\201\276\030=\301\251\222\273=\217\275;?\234\246\273\326\314\245<<\306E=cv\023<\316\365\205\273\372\200#\273\241k\250<\276\243O<7\\F\275R\220U\275\322\352\022<\316\213\373;\336?\340\2736F\207\274\006\363\324<!c\315\274\220\373\"\273\217G\243<\3730\302\2723\255\"\274\233=\005=_\347\240:\r\201F\273\003\026\320\272\244\210\275\2735f\311:\030\361V\274s8\316\275+SP<\252\261\366\275\022`E<\032rn\274\244\000\371\273A\332\016>&r\363=8v\217\274\216\004\202:\365\2156\2740\232\025\274\320\201\273\274\212\325d=\370u\277\275P\230\272\274\026\242\213=\260-#>a6[<\222\003\003>E4\217\273\225f\264\274&\017\256=\342\305:=$\314\223<\034\026+=\361%\225<\200*z;^\3353=\305!~=M\273\022\276A\265\211\274\017\027;<-\342\177<\215\037\237\274F\311\255\273\243\371\'<\355\245\216\273#\340\013\274cu\251=\213[\232<\010\350V\273\362\262\244\273\276\362\215=vU\000<\271\272\335=\212h\235\275\r\347\000\274tV\255=:\246\274=$}j\274~\356\306\274\243)\274\274\371\355\277=\014\205\361;L\212\330;\362k\277\273\020V{<\210\264\250<E\253l\273\231\341q\273\225\362\333\273\275=\000>\347k\273\274V^\343<\205\353\177\275\n\271\332<d\307T\275\345\362\361\274:>4\274\246\267\326<Re\036=\023\274\\=\320\333{\273\177\221\251\273\361\310\366<\325q?\274\307\251\241=:q\004=\026\014\235;i\230\367<&\207r=\240\312H\274ix)=D=\351\274\304\215/=\352\355==\276\'N\271j\224H\275\266\214?<p\023C=\341\210\021\274\364\002\204\273h\312)=\031%~=\002\2654\275\202P\242>*\367%<\026\3557=\222Jq\274K$\032<\303\202\362\273\371\371d=\026=?\276}\201I<7J:\274QD6\274m\026O=b\254\210:\351\371>>n\312c\273\032\017\326\274[d|\275\311i\257\276\273U\322\274\027M\223=\344\336z\274{\316\201=\263\200>=>^/;\260\334f:\024\331k=\020g\250\272\202\247\374\273rv\035\274&\351\260\275\036\017 \276\346e\242\274Dk\231=!a\332<|\232\373\275y\253Z<:\315:\274\346\313\200\2741\204\335<B\313\350\275\250\274\351\274\356\276><o\303\025\274\360}\263=\030\240:\275\324\257\231\275|\017\240\274\003\353I\275\325t\373\275}e\240\275GN\027<\246\375\265\274\031\236d<\013\021\036\275\240\333\206<!\220\204<\014\301\202\274\203\320\202=#\310\000=\264O\242\273\006\225<<\236!\374=\3508\324\275\206\001\017\275\322\021\037>\263\370\371<\020\' \275 \036}\274\301\265\221< \275\263\2732\221\201=Zs\207;\002\320\364<\245\354+\274\251\304W\274%\242\246=k\364\000=\277\332\006\274B\333\211\275\344\367\251\273\n\213\016\274\347}\230=v\013\277\274\021h\027>\030\006N\275\201e\276=o\n\210=\016\265\001\275\235\260 \275>\023\204;\352\346\003=xJ\021\274\220 z\274o\372\235=\274\236\220=S\201;\275\212}\204=i7\201;*_\301=\333\226#\275\304\254T\274\360E\216\273\301(\255=\177Vz=OPH\275\030\0006\274\260K\355\274\334`\225=6\364\024\275\252\331o<\337\226\225=\035\027H<\001\361\206=D\201V=+\316\001\275\340\334\300=]\201\355<\300\336\247=\001\360\264=K\312\262<\031\235\253\275\036\362i=\3615\276=#\326\354\274\341Z)\275=\364\252=\201\031b=\030\255?\275\342\003O\275\023hU<\006\366Q=a8\226\274\202I2<\373\273w\274\233\004W=M\374\302\275\200o\177<\307\035s\274\304\021-\2740\307D=\201\021\236<\250\201\306=\376l\354=m\237R=\342\251\035=\214\010\224\275\2346\321\274\253=\207=/\'%\275z\035\205=|M\005=X\\D<\311\314\273\273\036{\241<1m0;\037\207\023\274\t\214\026\274\216^G=[n\335=\235h\262\274\234\304\265=\357\273\010=\016\'\236=\022\037\227;\021\221\263\274\221\013\261=in\037>\202\370\336\274\001U\014\275\024\223e<\320\332\254\274py\354<\363P\236\275\262\330\231\273M\265.>\223E\313\275\315\311/>\021x\027\2761Z\031<^\025\024=\314\307\311=\333a\375\275\200\2666>\0345S\276\037\001T\275s\230<=\037\204N;\005\232\230\272B7g=\240\254\222=\033\3726>\r\244\030\275-\315f>\273\226\020=\240\233\037\275\314\265\227\274\304\243\246<\r\224\207\274\346\367\310\272d\323\276=R\266\023=\2551L\274\244FU\274\256\014\217<\360\026=\274\205|\210=t\354\255\275\213y\021\2754.2\275\361\225\331\275\253\221\306\274\335\025@=T\3505\275\277\247)>\212:\202<\360\'6\275\316\361/\275\353X\337\2730\321!=\235R\'\274\027I\201\274\361\3731=K\025R>\222\332?\275\203\013\254=]\317\365<\324\023\222=\346\336\004\275\244\357\344\2753\365\334\274X%\234=l\013\205=\006;g=z\301f\274\260\373H\275\363\331F=\275\363&\274\360F\332=\031m\276=\203x\312\273c\335S=_;\210=<m]\275^\332\307= R\331\274s;\301=Y\323o=\361<\333;\372\373\206\275h\211Q=\216(\263=\\\251\254\274\377E\301\275HE\202=\323\263\r>\323\212\303\273\257\370\317\275\017\275\341;\014u\212;W\307\255\274\232\225\360:w\255\000\272\234O\356;\036d\372\275\2749\354;\261&\343\270\360%\014\274\350\235\025<\316Q\204:\272\031o>\021g\320<\274uy<PV$\275&\321\007\276\207N\001\275\341\177O<\\,\300:\377\325\341<\375o ;\353ay\273\t\370\377;\2765O<<e\245\271\2074`\273\255\017/;\232\344\022\276\\W2>\227\311g;\316\351\232>\365\304)<4\000\203\274\321\037\255\274\001#\002\273\373\013\037<\020\373\023>\324\344h>\320\350\332\273A\242\274\272~\342*<\345\300\010\276NH{\273\200\360\240=\234\223S>\033\374\214\275\317\023\007>\326\313\240\276(\317\006\274\203\\\241=\261\024\217<\255\334x\275B\013\277\275\302.{9\211\235\337;\302\365\245\274\3002+\273\342\226\214;\2275\200;)I\242=|\365~>{\376\224\273\341N\257=v\256M<\267\250\353;\372\243\215\274\231\275\';\365Hp\272\324\322\211=\362o\034\276I\265\n<\037\002\t\271~\322\313\2730\307\263\272:\276\003;kG\267\27545\2129r\003\262;n\373\354\27548]\275\232~\313\274\001!\213\274z\342\037;\233K<=\217eS=C\302]\273\231\023\264;\314P\243<A\364 ;\351\350a\273+B\022:\3446\325=z\220\347\273\205#\321\273\244A\330<\375\367+=\344\352\244;r\250P\273\265\347\t;,\221\201\272\310s)=\221\261\253\273\331\306\335<Q\327\n\271(\300\215\273\363A\230<8z\305\273\200\007\033\273\335\276i<\006\024C<\376q\353\274\213\266\203\274f\315\240\273\036\306T<v\274\017;\325\267\013<4\250H<\227\360Y\273\003\311\326;\243U\263< >\273:\017Y\316\272J_\210\274\223\030\326<\222rt<\036\323k\274\0264\n>hG);WDk<\016\025\346\273]\231+;\211j\325\271\365\262\266<\220\225\007\2759y\210;\231\000!\272\030\240\014\273/\235#<\366\220\311;\251\250\252=\302\310\211\274\365\325\340;\2527v;P\337<\276\037gP\274nD\307<t\340\003\274\237\001\200<DR\325;\210\244\014<D-\244\273\362\004\316;\250\351\200;3=1\272)Q[:\306\342\331;\254HS\275\277\013\312:0\307\030\276\023f\263;\275\304\345\274E\221\207:-\026\323\273\'\3445<6i\205>\261\202\266\2757\207\005\274\344\273w:n\000\225\273\300\361\357\275\0043\031\274W:\365=\022^\370=2\355}\275A~\210>\025\353\340\2757\030v<\316\206\024\276bw\215\275\023j\201\272\365\221\000==g\266\275\205c4\275\246\221\226=\277\342\260;\247\274\005<LK\370;\343u\265\275\344\355\237=\311\214<\274\001=\226= \227\026< \361\210\273\242\265\327\273or\257;9\234\235\271\273\202\024=I\245!=\342\205\033<\351\263\033\272\321,\001\273\320\216J<\346S\001<\224Q\302\274\006\364\216\275\266\347\302;7\310\220\274\343\005\357\275\021\365C\274\321\354U\274\215\230j\274\275?\003=\232R\033=\302\"\355;\273!\347\273\220d\233<\023\215 <\003\347h\272ZY\247:f\242y<\320\360\367\271>\265W\274\3000<<\224\003\341<\036\213+<\347\226\376\273\335z\363;<(;\272\032i\321<\313\262/<B\014)=\370\302\031\272\215\330/\273\333\t\001< ^\026<\024\333\276<\323\237\202\271\3727\n<\276Yo<\233\316!<\336\031\235\273\251\310\220<\321Z\016\274u\245\177;\2571\017=\262M\200<\354O\272\274w\270=<\037z\312<\236\336\244\272\331\327\211\273\0330\310\272^\305\342\273\255z\230\274\323p\215>\035kh;\377bi<\271#\027;K^\237;=\023\227\272\"\333\220<\016T\257=W-\274;\201!q\272:\323\035\272\334N\342;|\022P;\265\271\370\275\341 \244\275\243G\254\271C\233<\274\022SI\276&Hg\274_\335\304<zg\240\274gy\002<\252\3676<M\373a<&\216\270\273p\242\343<\2156\"\272g\r\275\272\245\0029\272o\362G\275w\233\\\276\242\201\r\273W\246H\276\314N\304;RT\200\275\325Q\222<6\377\356\273X\215\221\274\240\2560>\242_\330\274~2\032\274:\351\377:\277r\005\274m\245+\276\241B\010\274a\334\340<W\227\247=\221\224\220<\332\002{>+\345+>@=\251<m@\007>\300\305j\275\363\324\257\274k\266Q\275\213\236\023\276\032\350\222\272\347\202\"\276\330\031O:\337\341\365;\0032\010<\313\315\025=K]\273\273\255\334\201\274\310\225\341\275,\017\036<\245\324K\273\303\211\033:9\377\342;\000\017q\272\255\303\272<E@\360=\277e1<\241\355^\272\315\007\237\272\300\300I<]X\005;\311\307r<=\274\265\274,\274\213;\234g\313<\032\331\036=+\335G\274\333l\307=\366\003\351\274\3041?=\033\233\"=b9\016<\275\203\020\274Z\334\t=Z\320\034<v6\330\272\032\305\334\271\274\355d=D\234\006=\232\224\225\274p\032p;\372m\003\275Y\241\203<\302\256\251\274\265#\220<N;\264\270\n\202\367;\027\234\221<H\216\244;\336\303f\272P\311\235\273\316\311;\272W\207\033\2756\3329=\351W\026;\227G\333;!\320\001=/+\212<\267\312\331\273\352\262\333<\3365\261\274\013n\016<s\276\035=\222P\242<c\215W\275\335\272~<U\\\024=\362{\023\273+QK\274\004fd;V\255\030<t\375\004\275\261\326\210\276\020\255N<&\0259=R\306\025\274\022.\014<\236\352\005\274\224\023\317<F\375\026>y\247Q<\331\363\n\274NC\222\273\274\347A<\203kh<\\\032\217=\016I\210>\271|\213<$\241b=@\254\217=\305\212\244\274\240\\\356<_\254\325;\332\356;>!\004\202<@\247\211\275\312\307\300\273\301\362\034\274\022)\264:\247=\355\273N\260\372\273\327\315\007=\031\267\273=\274\203\236\2742]\013>;{\327<NO\000\276\'p\304;\244\316\267\274\361\301l\275\212\001\311\275y\270`>\020\240\366\274\240\234\200:*\373\315\274p\361\367=\220\344\346<\237\261\226=\020O\007>G\352\312\275\200?\007>\213\336s\276\204\036\2539\036?j>\322\211\367=!\205\370=\354~\036>x\262\371\275\205t\237=g\372\001\276a\352\246<y\016\023<P\202,=0\360\207=\302\360\340=\333\233\321\274\374g\257\275\237\324\324<\354\001\274\274,K$\274\273\344f<\310\322\230\273L\227q\275\311G\331\275PG\314<M\200\277\273\307\000$\274\377\344\274;\236\027\016=G\027\245=\2749\203>0\314\225;\264\251\225\275\005\006\007>V\345\216\2747\364\224\275R\222\013\275\307C\004>\212E9\275\024\351`\275\335\014\246\273\003\330\005\276n\236\003=\303V\007\274\335\"\222\274\306\226p=a\027\214>|p\004\275\007\024\371<\013^\304=\371\266\223=Y\220B\273\313_\027\275P\0172\274\351pD;\365\2356=\200O\335=\2705\023\274\232\274#\275\302.\251<^\033\207=\252\345\025\274eW\267=p\251[\274\335\016\261<\263\347\264<\236\235\251\273\324\337D=U\332\236;D\321\316=\tx1<\007\232%\275R\335\205\2755\2625\274\263GE=\034\270\214\274T\206\014=\201\351\227=\350\251\020>\336\266-<\251E\231\274\"\354\361\272\022\362\340;\234\350\2529\3307{\273a\2517\272\355\373U\274\3348\226\271Fn\324\273\322\023=9F\025\253:^\301\341\273\274T\263\272\265Q\255;\356\3028\273F\310\246\273\2442{;Y\001\221\274\007E\007<\205\034\202\274\242Y\250:\360|\352\273\224\262\356\273\276/\006\274\276@\246;m\335\033\273b\247(\272H\240\253::\003\215\271w?\333\273tN\306\274W\227\371\273\344\321\325\273\322V\214\273\213\327\261;\204.\356\271L\021\244;\346]}\272\357\357\014=\256}v<\260\025\354;6N3\273\323\0309<\230\347\256\273\330t\217;^k\035<\202t\036=im\334\272\261\350D<\344S\014<\021\215\\\274VG\033\274k\236\222\273\036\343\024=\254\262\335\274\324\225\207\272\321yE;v\204\007;B\356\276\272\215jA\274jr`\273 Gk;\263\356\220<\034\013\363;\206\324\232\274\334\272i\273u~%<\200\374\235:\335X\201\273Z]+\272\202M\033\274H\274\273\273d\246\365\273v\025A9\016B\2369\241=\233;G_\274\272\213\r\002;r\344\247\274\227\213\302\273\220\t\022<\342\213\036\275\220\275\r<\024\361}:=\265<:\210\370\320\274\301(\247\273Q\373\312\273z\030\306;\230\226P\273\263\304\364\272\333\034\304:\305\022\216\272_*?\274\350\"\201\274\215\265\'<\275O:\273_\212n\273q2\006<\226\376\233:\370\201\364\271?2\002\272H\266,\274\266L\340:\373A\276\2735\03369\311\000\371\271\230\035h\267\251\273*\273\243\232\321\272}\375\263\273$L\255\273\352\214\2159\304?\002\274\036\362x;\016\034\'\274\262$D:\376\274\317\272\361$:\274JWk\274S\234\014<\373\2461\273\304%\233\273.\221\304:V\222i\272_]7\273/\261\235;G\210\341\274r\016\234=&Rr;<\013m<\361h\311\2736\375^;}(\216\273Fi\202<\000\207$<25\336;\347c9\272+4\261\272\321\013\013=es\224;\240j\342\274\316\034u=q A\274J_\025=\037\022\241\275j\340=:TT\345<\263\3276;\273\213\221=\033K\027\273\271Ze\272r\245l\273\265\220\023\274\375\271[;\217\t.\272\327\241\237\273e3\276\275\317\264\024\275\2622o\274\336\016\376\271\320\036 <\251\313\020\276\226<\225\274\032s%\274\2133\301;=O\307=P;*>}4U\274\371\314\253\271\005*\0339\364\245\177>\003\263\034\273\356\340\244>\234\226D>\210\2625<\265\320\211\275\372\217\335\275cV0\274 \306\316\275&\334\273\275K\225\373=3,p=@\035(<b\\1\275\323\355\316=\257\"@<\354Xy\270\354\251#<$V\343=\347[\302\275\305x\265\274a\037\314<\020\341\024<F\303\245\274\331s\303\273K!\324;\372\305\200\273\227\032\005<m\311\\\275#|F<?r\021\272\223\234\361\272\376xl\274\036\023b:\376\202M\276\337\313\233<]\216\231\274\337\347\274\273\006\022\333=\250\314\202\271\030D\225<f*\332<|\035[>\013\025\023\275\346\276\255:b.\372\273\323(\216\275\007\301\014<\330G0\272\271\003b\273H\242\307=v:&=\244\234\340\274\335\373D<!2\3139}\305\367;\341P\023\273\374`e\274 v\241\273\272g3=\245p\374;\270.\037= \3402\272O\365U\272M;\312<D\212\3009\014u\213\275\211\216&=O\360\344\273Qq\203<ZTn=\3225v\273\007\241\220<\244q\3139\315`\031=)#\t\274\037\320f\272\376P\226\274\263+\241\274\214\364*\273\"}\"\273\322\226\030<\032\345\020=\376\314)=P\244O\274\235\3433=\004\226\013<_\034\326;\242S\262\273w\000\213;$3}\272\003\330m<\246\'?\273\014y\002<\250+\030\272\236\262Y\272G\2343<;dO;\301\035\335<pU\317<aAt;TL\023<g\252\004\275\240\212\243\274\344L\205<=&\214\273\256\262\026<\324~\030<\202\031\343:\232\324\313\272{V\212;\336l\\;\005\336\001\273\2158\357\270\244w\210\274J\226R<H \006\272V\035\020>\231\226><\343\327\003\275e\317\313;\200\332\277\273\020\366|;\t\250\243<\234p\265\275\2066\020\274\302\247\371\272\227w\346\273\317\001\033=\267\346\327\273\177x\332=\330@\253=L\201\330\274\0336\202=\027e+\276\237%8<j\212\335<FV\312\273\024?{=\014\001\n\275(\370\242\274\304\362\014\273\025\302\213=I\334\260;o\033\305;2\034\327;9\342\300\275\020z\227\275\250*#\274\022e_=\227&?<6\007.\271\350}\242\273\203\r\260;\365\211Z\272\030\001-<\030W \274\026,\034<\333V\023\272\276\'\212\272\344\035C<\314\016\251:\266\244\n\274\320\347N<nh\3369>\263\344;l\231Z\274\231k{\274\206z\034;\023)\372\273S\022\003=\362\225<<\251\344!:\245dE\273D\271\231\273\004M\023<\354V\014\273\021\013\357\270\270\342F=\375\247d=\243\343L\274\264M\351;\327\273\354:\246\033\305;\215E\026\274\001>\313\274|\350\335\272r\224\207<^\331\037<H\310Q<o3\023\272,q\225\273+\325:<\036\365\n\274\033\270\220<\\\026\220<\302(\226;\227c\321;\277x\205<\351y\232\273\004t\217<AA\235\273\216\271J<\220\306\237<\'|\036<\216\010i\274\301d\022<\216\002\324<c\332\026\273\003\245*\274\234\0179<\022o\220<\312e\366\274\017%/\275\241E\375;\256\363\241;\347g\327\273\221j\247;}|\264\273X\033\305<[b\245\275\336\336\342;q_\270\272\2265d\273zh\334<h\224\023\2726\274?\275;\353X=\215T\254;\377I\033=\217p\'\275.\321\250\274\213\211\374<%p\234\274\3328\022=\365\034\236<\203i\254\274XF\032\273\032K&=$o2:\034m\207\273\210\016\013\274\010\251\305\274\367\351\251\275\264\345\027\274\000\315N\274\240$B<\335|^\275i\332\020<\"d&\274\330h\017:\234\006\215\273\365\233\022\276\361E\014\274[\010\235\273\305\367\\\273c4;\276\2231\002\274\277\254G=L\332\216<\374a0<\215\204\027\276<\251\345\275#\332D<4\266\305\274\234\026\304\275q\000&=S\373\377\274\021\262\016=\032\246\327<\351\305\005\276\365\302\234;\270\305\305;\203o\\\270(\353\310\275u7\r\276\3209\271\274\243 \021=\002\204S<1\370\265\274P\356\353\273=\273\356;]A\221\273u\037\316\272*.\204\275\203\263!<$\310\247\272\351\221\315\273\253\232E=\r\224\252\274\354-\256=U\031\222\275R\254J\274koU<J,\312=\265\"\210\274\\\343\230=w\226\"\275\303EY=\006\272`<7>\245\274*\300\206\273<\251C\274\'\245/<#\237\236\273\215\207\032\274\217\262t<\3434\273=\026&\001\275\207\237\200<\270\340=\274/\271\220;\020\260T\274\306\261\216;\224\265\364\273+\255v<\3756=<g1\251\275,\256\255\272\004[\017\275Y\251\010=r\022\003\275\001\374\202=\037\225\273<\242\266\242;\0223G<\243\233C=\262\020M\274My8=\003+\356\274\351H\376<B\263\313<\321\317\246\274qp\341\274\254\021\013=W\311x<C\t\351\273V\002s\275\261/\033=Q/\325<\275\0059\273\300\235\013=O\351\221:QG\2739\361\013,\273\226.\010:\303\252\3608\267\265\014\271\n\217\203<J\035s:\251(\001\270\332\357)\270\343\001\210:\221\213v:[\227I\273\322\336\020\275X<\240\272-\306\"<\370\016\322<;\036g\273\r\324\260;\305\272*\273F\274\007\274&)\250:\225-\275;\2372\260\271\247\322 ;\212\307\3627O\224\241\271\206\222E9\2037\013<\372e\241\274U\022\336:DG+\275\364(\246:\304\3630=\034\357o\273\244rn\272\342\335@;\317\222\235\274\315\334\272=\024\205r\272f\004\031:p\033r\272\374\201\3368\352\037\2409\006>\003=kA\275\275\004r\226<\326Y\036\274\034\316\235;\027:\220;\241\357\234=\000_k\274\261\200\367\273je\367<\021)\204=\314\260\330\273\202k\227\275H\350X\271\232T\034;\277u\206\273}!<=\230\230\"\275/6\024\273\321\202<\275\221w\272:\010\372\207;\025\020\377\272\322\344\':\266\t\2248qH\256\273\375\227|<\245gv:\277\225\314\267\247\232\2408\325\0253\274\330X\007;\224\006\003=X\350\247\274c-m\271\364 \354<!\336:\275\230\365&\273oq\203;p\004l9~0\235\274\212\361\215<\342f\025<\370\322\3229[\326\322<\t\266\2059yp\263\271d\017Y9\355\252\303\274wEp\275\371\020\016\273\266\027\340\271\317~#<\212 \323\272\272\016\321;\340\030\021<\374\036\3579\372\343\314\273\177\247\020\273\375\311\300<\241q\350\267G\217\375;\236G%:#\247\216<\277\031\314:=\270m\273\260I.\272q\341\313\271&\200\263\273\320Z\2179p\210I;\016\352\237\272\260E\270\273\256\270Z;7\203\346;\225\2717<&RY;,\375Y;\341V\2508\270\030\362;l\327-\274\300\224N\274\212\307@<cN\002\275B\225\230\273\024W\n\273SQZ;\345\276o\273\334\267\0008\323\217,\274b$\347\273h\331\310\273Oia9\000%\2639\204\200\322\273\030\027\001\273W\202\013;z\021\364\273E\200)\273`\340\331\273\323\225N<\351\353t<\020\266[\274\n%?;\235H\224\273\016S\303\273~;\216\273\341%\225:\224\3566\273\330\304\256\272i\033\323:y4\021\272\213\300\024\27426\253\272\365\300\211\273T\262\'\275\301A\307\273\377\272\221<\357\376\270\273\264+\271;\376fY\272\330*\030\274\345\255\223\275\253y\276;W\224\325\270|E\247;\372+\235<\023\227\200;Wa^\275\340\352\r\275g\214\267:CB\303\275\013h\211=9\244G\274\346\005\242<\266u\226;\214\307\260<k\301\234\274\360*\001=\233J.8;Y\273\274\244\267H\273\254\276\256\273\242aE\272\311\252\355\274\277\351\352<\252{\033<\227>W:\332\315\351\273\026\302~\272\342\231Z;\320Qe\273N&\3767\017\036\332\273\232\250[\274\013p\323\273%\211b92c\3539j\rY\273\377\215\014\2734\344\225\273\355\017\256\2735X\006\273\371\313\230:\020|\335\273wxI<\365\006\322\272,\nI;\342\373\345\273\276\227\026\274F\347}\273\334\241\313:X\354\360:\346\243f\273\353G\354:\234+\366\271l\022/\274w\354\255\274\355h!<|\022\324\271\211\236\036\272\346J\257\272\353\255?;\363\007\222;\361\313g9B\007\026\274\002\021\224\2738tN:\366b[9\254\216\277:\027v\247\273\014v\n:\020J\336\273\357\327\035\274O&[\273\236I\010\273R\"!\274\302O\036;g\332>\274\240\033\007;\257.\204\273\353A.\2745\272\n\274\255z\213;\321\200\310\273\307\303S\274\305Dg:\202#\005;2x9\273l*\226\273\372H.;@\004m\273t\311S\272N\366\t\272\217\034\363\272\276\372\271\272\230\217\000\270\210\002\036:\350^=:;\330\257\272\270\017h86T\305\271/\353\3079\331,\264\271\210\246\330;\017\022\";<n\007\272\2367\022\27248\007<\001\212\036;\313\275\305\273W\"\331\271g\315\3649\253\245\022\273\373^\010\272?\242\017:]\216\027\2739\333\3608\332#N:\r\214\3508\220-4\270\217\307\366;\270\373\233\272\267S/=l\010\206\2724\014\037\274\354\023=\273\030oh:\010w\214\272\034\233d<\345\341V\275f\341d:\0339\304\271U\232-;Y\347\364\274\347D;:\235\334\326;\335um<Q\232\257:\34351\272p\305\327\2743\316{\273\177\004\027<\236\027\335\273H&\022=U\344\271\274\332[\035;\331\252\025:\301\025M\274y7\217\267\275\274Q\272L\356\326\271t\277\020\275v\213\337<\363\000\002;\002t\310;\315k\240\272\302g \272Rk\213\272\372\225\243\2720\220\'\265\260AU;T\375\'\273\257@\223\272\271Jr84\375b\271\307\013\233:Q>\202\271E5/\274\320(~:\002\331&\271\211[P\2721\213\267;\017\006\035;\312\234u:\222`\032\272\213\274\331;cI\22492\\\371\271\350^\":T\372\241\273\222\374\342\271m7I:F\3100\271\263\264\365;\372P\223:\214\246\t;h\312\252;\004\204(:\244tn\272\357\03159\322\nJ:,T\2128erU;>\271\035\272\336\2277:_\337Q8\210\377\303\266\030/h\272\000\224\2708\243\3231\273MP\2159d \272\271\336\342\367\271\316\365b\272\342k\013:\230\374^\273\254@9\272\351\222/\272\017]\334\272(h\203\272\016:B\271\204\020Y\273\235!\263\272\362\314\0269\316\337f9\257\276\2479\234:09\342\263V;K%\200>\372\206\023\273Y\276D;\000GB\273o\250;\273\250s\036:\306\0141<\313\365\215<\2146\233\273\355\202N8\243\254K\273\t\300-<\227\201P<F\363\210=fqV:\234\232!\273~\t\346=\333\274\312\275X\344\022;\333\016\014<\223\374\264\274F\302\333\275\235\322\013\274\352!F<P`\345\273\246\233\200\273l\224h;\216d\236;\331\301\177;ua\022\27660\026>\347\344\304\272\327P*\274\340\376\257\272 8\261\275\340Y\244;\251\2170;E\306\240\273\214z\310\273w\016\302\275\202\252\257;\004\267\001\273\345\332\246;qN#>\255\342\032\274\034\331\275>Z\017\365<]@*=\0219\r>\374\357\370<\303\237\201;T\311\273\275\242%@\275\322/Q\275\277\256\300=\364\020\260\275\361\016\201\274O\210.<\225\243\304;-\371\256<\234V\t<{\376\r>1[\334=\353J9;\207\354\324<\242\035\036\272\260\243\351\270h\035\024\273\'\306\343\272\332\243\2239\274\260\347<)\025\244\275\220\352A\273\312\342\3458\264\2325\273;\225\240\273R\357\205<*o\370\275P\013\351<\274\240\006\274\252\2349<\002I\310=\214\200\235:\221\337V\274O4\223\274\244\376\207=H\213\014\275\207\372\027<\306\227\t\274\342\205\277< \255!;\374\245\303;\3128q;\036u\037=~\267\313=\334\234\332:iP&=\030w^<\302b\323;\230\251\237;h\024\360:0\343\022:\225p0=\370\2555\274Y\251\200<hYQ\266\236|\311;\220M\007\274d\217\235<\376\274\"\275\326K5;\324\264\024\271\2479\261<F\217\262<\323\'\033:\252@\334\273\367\210\324\274\241z\330\274\275Ub\274X\263|<\236\005\222\274\255\351\254\274\266`\333<W\375O;\003h\030<n\350)\274\025\272\004\273d\216\220<\332\236\263\275\214\241\234\273(m\316\267Mf\223:\r\247V\2722#\266;K2\007\275\231\343\204\275]F\021;\3327\233: O\010</\250\223\274\274\317\320\2737\265\034\275\365\355\206\275\306\243\365<\367\273Z\275\021\301H=\255Q+\273\320<=\274!+Z=\374#{\273\327i\376\273\203A\204;\274g\304\272\207r\302\274\264\032\025;\223g8\273~\263\353;\341i\t\274\251s\304\275\236J\203\272 \001>\275\0046\022\274\024y\233\275q\336g\274\007\220\271;\2354n\274\t\227\247\275v\205\002>\270\363a:E\212c;\017\203\246\274\224f\377\274\332\2771<4\313+>:\2572=\032\351]<;E:<\337$\357\274\240\030\324;~\370\277\275\005\226\301=~\342\201\274\2531\305\274n\027\032>Z\025\364<\333\362.\276\232\255b:\251`+\274\206TM<\301\344\343=z4+=\337\276h<\360\3629\276\231@-\274m4D=z\357\341:\365\302|\2739~\223;\253\276\217\274]\024\271\274\\\366\347\271\361\310\214:\207\374\342;bv\370\274\031K\000\274\247U\261=\005<\252<\251C%=H\240\031\276\252)\004>\364\346Y\273\007\260n\275@\007Q=L\223\250\275\237.\373\273\263,f;E\347\035\273\211\300J\275C\206J;\202\3366\273g5\363;g\274\020=E\026j\276\305\346\237<\333\317\001\275b\345\200\2747\005\030<grL<\244\377\236<\236\200\335;\270\244\177\275T\r\020\274\200\234L=^i\217:\300g\272<\222\224\361\273S*\\\274\302@\347;\372\020\360\274\200F\250<\332\365\302\271\337\303!\275 \244);p\016\320\272\003\354\203=\310\233\355\273L\3074<\200b\034<\244\317\317\272\332\230\351\274\303\214\345<#\273\032;\331L;\274.\274D=\244@\025\274\341\300q<\n\204\211\275\317\347\347\273\324`\023\274\2409\245;\277\222\224\273\363\357\23674\3234\274\222cp\274\311\302\t\274\022o\2619\224\337\0019\334\202&\274\177i\216\273\363\266>\274\232`h\274\237\354\213\273\205\214\301\274\371 \224<\204\344t<\364\006h\274x\020\213;\322\270\305\273Y\324\017\274\373J\350\273\314\306\026;\222l\267\272`\016O\273k\034\317:\202\376\256\272\323\014\346;\326On\274\030\325=\273^\254\377\275\347\241\034\274\255\232\340<\265\222\222\273\004\020\271;/\030\n\272 \'\217\275\233\224_\275R\2266<\220\276\2279\246\276\372;g\270\210<\243\206\347;\362\301\255\275\221[\033<\237\331\210<i\340}\275%Hy=F\331,\274\2763\217=6P#<d\n\374= \002q\2751\363\264=\273cW:#i5:o\013\302\273\342\006\335\273O\003\375\273\206l\243\275\335;\331\274\257\017A<\016\215z\273\316\262\'\274N\321\356\272\242\330\224;J\361\260\273\224)G7\352?%\274\263\020.\274K\225)\274\204\216\2559\200\220\3079r\177 \274=\207\250\273*\322x\273\201\307c\274\261\340e\273\277\250Q;\306\016T\272y(b<\337AD<U[\312;\247\224\317\274S\265\206\274\232O\302\273\275\232P;\006\221W<\357m\370\273<\r\376:\201>\233\2723Z\335\274\346;\032\275\211k><\262T\227\273\231\264\323\273\031\251\245\273+\233\267;/;y;a\374\2459v\306\202\2741\201\014\274\267\373\023\274\346\352\25496\274*;\037\372\023\274\222D\257\2713Y\337\273\301\321b\274\010P\267\2731\347\013\274\330\340\\\274\310\301s;Q\024U\274\310\205k;\035@\003\274&\030\236\274\240\022I\274\267\302N<\330_\226\273u\212\301\274\373-\255:\264:j;\026\372\006\274\377\344\020\274D\t!:\217[\270\273\302\245S:\244\251\3759\302\306\371\272I\274\036:\207Q\017\271\237\230*\272\005\241\262\272\361\306\3079+\020+7\344\017\216\272\016\264L\2728\254\3629\277\375\246\273$\277\3559G\033\235\271\333!\321\272^k\017\273\206\216\250\272_\345@\273\217\027J9(iL\273d:!9\234\321\334\272v\317\202:\025l\010\272\272\026\271\271\034\003\2279\026\316T\271\370\323\202:\030\343\241\272\341\337\036\272_p\340;\234Q\2739B\230\327\273H\r\'\273\320]\031\271\332\016A\271\277\022\307;%\'P\274\251\3400\272\262\346c\272\362\267\n;\n/?\272\0202\275\271J\n\007\274`8\r<\377\231\370:s\362\377\272\030\002\211\272X\227`\273\371\246\\<\363\310\001\274a\242\335\273\377\'\221\273\\mF\2718\232\3659\236A\302<\014\246\013\271\224D\374\272\"9\276\2719*\357\273p\351\252<\na\3109@\001\221\273v\333-:sZ\272:\346\271W\272K\206\006:\033ME\271_>\265\272\004W\260\272\240e\016:\003\007E7P2S\272\252\274\366\272\317\247$:Ob\353:\020:\226\273\210\366g\272\243\342|\273n\246\357\2730\032\215\272\245\373\303\272Ey\2419@\256\240\273\357n\344\271Mhx\272\305\256\224:\216\216\357\272\340u|\271y\203\2729SX\n\271C\\!\273\231\333A:J\343n:\367\226\373\272\233\325\2758\365j\231:\320\322\374\266V\317\2649\223?\000\2713\317x:\322\275n8N\337\203\271\336\22727%v\364\271\316\206\2529\234\006\3609\241E9\271\222\\o:\230\317w8w2\001\273\375\031\223\272L\301@\271\361\354\225\272\305S\016:\223\360/;\3766\2268P\007\337\272c2\236:\320N\335\267W\2305\272\304\203\0339\"`97\206\244\234\272\332\364\031;S\363\r;\376|B\274z:A\273\301\020\254\272@`7:\366\000\331\272y\005\0138P\221\031\273\252\"\014\274\37264\273V\017\2038\3751V:\273\002\270\2726:\321\272`tS;\343I\n\274\234\004\033\272\331\263\333\273\tnd<\333\245\275;\356<\365\272\274Iz9A\244\211:\253F\020\273\224\274\0139\254\206\0219\252|\3459\245\325 \271\373K\3609\037Q4\271\352uV\272\r\267T<\t\311v\272\003\332\241=|uS\273r\265\204=\377M\036\273\366\305\251:\014Cg\273\234\tA\275\316Y^<g\017\004;\315\236Z9|\230\001\272\232\032\000\276\362\004\004;\374\316\003\274\230`5\275\030\202\221; 6\257=\001_3\275\177kH:\277\343\035\273_i\017\275H\261\035=\264\323\310\274\3415\203=\267\355\312\273\215\332#=&H\034\272\365\254\262\272\333St\271\276w\203\275\347\201`\275|\222\337:,=\226<\n\271\177\273P\312\362\271z\266\":\\\334\372\272w\021\0278\351r\230:\255B;\274\221\357#\273\357Yy8o2\032:\026\207\204\273:\016\377\272B$\242;\'0^\274\374\\\265\271z\361\222<o\021N;\0324\233;\217;\363;6\020\346\2713\256\215\273He3\273\220W\207\270[\315U91\277\205;12l\272\022Q\35394\213I\271ut\007;\034H\372\273\243\227\343:\336\314j:\354\253\206\273\350\316\201\272\365T\237:U\020d;~\212r8\206Q/\273\342\225T\272\311\275\244:\203\241\2008\262\302\";\016/#\272\233\014\222\272\nXB:\245\357\025\273\273\305\\\272\210v\273:\241\006\361\272\232x[:\353\250\277\272\274e\250\271lM\310\2720\007\203\273M4\340\272g\307\227\271te\251\267\225\324\343\272\350\350\2049Q\372\005\273s.#\272\333\315l\272\026\010I\273\272\237+>\227>\241\272>\212\205<\0039\010<\'\342\253:\210c\n\273\212\000\024\274\373D\007>RYL\273p8\2449\222K\261\271\243qV<t\215\201<\3267\213\275\351e\315<\342\356\236\273\365\025b=\030/e\275\031K\016<p\365>:\241Q\274\274\026\337\r\276@`\026\273\032\016\216<\341L\232\273\024sj:\267O&;Kr\356:\333\351Q\272\2766\223>`(\201\276\217\325\254\273\010f\261\275\037\321\031;Yc\214\275?\276;<]\177}\273B\263\333:D\221\255\274\343\260\357= \206+:!]:\273i\253\347;\213\256\314\274\272\365E\274,e\250>I\207\236\275\240\031p<\231\253\032\274\351\251\312\274\225\342\207\274\032\221\212\275=y&\274\353\317~\274UI\365\275\272r\331\275\310\215\255;iw_>\371\247\006<\376M\266;\031G\314<\354>O\276\306\266\206\2762j\354\272\204\020\001\273\301\313\303:%\222n\274\223 \326;i\001\";\032\360\004\273\240\232w\274+:\002>L4m\271\\\314\2729Jp9\271\353)\243\273!\336\203<\336cD=\014\033\033>\211\362r\274nA\335=\337a\030\276V\262\352;\246\213\275\275\007\232\027\274\370@X=^z\206\274\236}#<\3728\330\273\261)\030\274FB\321:\343\344\031;\255\374\025:4\352\016=\236J\205=\013\211\211\273\"\217\000=\024ng</\376\027<&\225\200\274\252Z\201;\226\376\344\2729J7;Z\006\027=G\t\003<\257G\2279C#\377\273@w09\323\210\277<U;9\275e(\237<\004\340\245\273Ymj<\223VO\273\231c%\2725\362\037\274\201\\\360\274)\244\257<\005~\205\273\035\265\316<9\252\221\275\351\024\207;\000J\216<\014K\200:Mi\033;\255\305\234;J\301\267;\201\tP<\003\326{\275T\272\325\2733\236n\273\354\274\204;m\270z\273\352\307>:n}O\274\200\214S\274\247\212\341\273\254\324\r:\244TK9u\n\022\274\" \242\272\300\023\030<u\275s\274\3732\207\273-\241\322\274 b\224;\334\221\202<\0220\202\274~\014\241;\327\000\216;\021\233\356\273\337\204j\273\026\266\344:=\236\216\273\232\311\036\273x;\302:\\Xe9\262\206\213\274\001\333\010=\302\301z\272Yhl\275\213q\361\2731&\251=\211\311\345\273(\305\215;i\ro\272y\247\002\275\365\272I\2759\027\004<Q-\253:#\251\343;-w\357\275\322@\206;c\300\256\275\253\322\203\275\303\210\037\274\031#\021<sq\036>o\005[\274\022+\304\275\3215\250=?\\_=\215\262\324\274jGr=5>\356\273$`\234<\021\034\206\273u`\233\273\356\362\247\273o\365[\275\217\014\354=\361\360\'<\372ZP\274\3042\027\274Y\271\027;8\036w;+\363\221\273\334\265\027:\276*@\273\225\232\305\274^S\007\274\204T\010:\237\336\001:330\274X\252\2159\224~\306\274P\017\202\274\004\374\363\271\227\356\324<\320\371k<J\322J<\212\224i\274\353\273\034<\210\251\234\274+\307\340\2734\345\330\272\006NM;\360\277\032<|)\337\273\215i\325:Q\302\3458G\360\205\274m\327\220\275\377\305A<(\210O\273\221J\224<\222\206,\273\001;\366;+\031\222<\200\215\243:\030#7\274\374.\021\274=\322\\:nT\016:\325\300x;\002\261\r\274\207f\344;\263\274\350\273,\277Q\274\221\000M\273\024\344\010\274\267\364s\274\225Fm;\357\206r\274\253\245\252;\340\327\377\273\t\301c\274\245\332#\274\036\270\211<\\\212\357\273\325\354\240\274^\352\342:\347D\345;\036\277\304\273\256ME\274\206x\2579<\006\320\275\023\263\301\273\205\250\221<P\344\006\272@Z\300:\340m*;\371Hj\274;n[\275\256\'W\273\005\02159\010\230\227\273\332\035(\274\317c\315\273\254\326\206<\264\262j\275~\030\315<\3205G\275\002\377\211>M~Q\274\360\277\315<B:>\274#\014L=\251\031\2319\332\355\322;\3463\262\273s\332\223<6}\277\272\263\301\t;fG\312:\333@\013>\366\210!\276K\250\265\273\221C\010=\020\230\016\274\344\367\031\274Fv\201\274N\216\216:\330\271\355\274#\332\370\275\r\035\235<._\215;\211\272\356;$\340\231<\275\246\227\275\237\213X;\302g\360<J\306\031\276\004\302\367=\350oG>\203\314\251=\213>\247<\220\177\000\276i\335\034=\226jl\276aRC\275\016\033Y<\353\310X<xX\316=\210@#;c\347\223;|\007\357:\336\2154\275\244tc<p\203\257\272\007\037\002\276\266\374\024\274\256\356\006=\n\254\244\271\014\225\017\272\345\325\350:\373|v=`\000\212\274=\210~\273|\323;9\205\373f\273P\004\244<\000*\226\273\322\2637=\215\276Z\275~S\316<\337\\\274\274c \242\275\223?7\274\370\005\002=5\370\243\274\256[\344:K[=<\361C\242;\260\004\314\273/\200\031<i\347 \273\027\0066;\014\t+;D\n\027>\374\350c\276dj\007;f]\200\275\203*\211\274|R\356<\365\354\236\274\361\032[<\205\251*;|]\220\273\223\373\221<p\213\014<\346\026I9\000]\200\273}\245_\274\3126n\274\273*\332\272\233q\r\275\234\350\263<\021\2077=\341\257Q\275\026,!\273Y\230\017=y\002\301\273\372\235+\274\025%\261<\216\337\004<Uf\002\275O\356P<V;\004<\336\274\245:\034\n\014<m3\\=:\322\312\274T/)<\203ia>\344Y\375:\263\307W;\006\304\235\273>\027\204:\355i\366:b\272\251\273\364\324\302\274\274\352$<\n%\3249\311\343\321;h\264%\2746\272\000;\024KA\275.\267\016=Q\013\001\273\203\267S<\257\254~\275M\033\330\273\306\215\016\273\226\225#=\316\227\311\275\211b%\272IN\210<\211T\207\272\366\327D\274}\374\221;\327\214\231\272U\2660<\314\232&\276A\312R=\016i\223\273$H\300\275\2674\262:Ln\333\275G<I\274\"\274\037:\210f3\272?N\004>\272\302\325=\023k\n\274$\207\2519\356\253\277\274u*\031>\266f\'\273U\236\001>i\253\375=\360\257\013<)\261[>\370\322\360\275l\241\227\272\255\357\377\275\250\017\311\2754\037\253;\337\224Y=%\236\245\275\377a<\271\325\210\344=$~\317;z\266~:\347\234\000<w\266\212>\370\235\363=\024\350\010<\263\001\306<\340\377\340\266BW\215<\256\3756\273\004\334\3018\222#\306:r\213\376\274\302lh\276\332\365 <\377\210\22499s\247;D\261\257\274,\033\272;li\246\275\372=\346=\360O?\273?\302\034\276\021j\302=\034\261\373\273-{L\275\224J]=\003BI<#~\334\274di-<\303\330\303\271\252\007E\275\247\224\261;)\234\315\272\364\360\r<\323\035Y;6\345\224=\261\266,<\251\261\r=4\254@\274l\307\3009!\363\271<#\024u;K$\022;\254\211\275;\304\363\275\274\271\210E=?\326\2639\270\256\227<\2514E\274~}\306;\017D\356\2742\240\325<f\350\270:2G\331\274\337\026\226<\000_?\267+\314\020\2746nV=a+\312\273\376\266W9\257%s<y\257+<79\323\274[\024\014=\3202\2425\310\014\270<o\360\314<\364\222\370<\203\204\t;>\333\310<\353u\200\273V\346w;S\002\352;\210\267\263\272\232*\2669&\375\342\273\02628\273\272\253\327\273\327J\234\266v\274A\271l\2769\274\226\0326\273Bt@\275\036,\322\274\212#\300:\330\311L\274\317{\206=;\022\261;n\327\235;\036E0\272(\354\303\274\207\316\253\273\0102\235\273\250\372Y8\274\214X<\311\340\217\272\334\326\313:\331\020\201\2734\036\275=\333\277\366\275\264\006\225\272N!\315\275\304\255\315\273\032e\034=5{\t<t5\356:\231\202\374\272\366\231\345\274\350,T=\256e\274;\212\232\235:\217b\262;\2401\316<%`\';B:3\273\320\323\344\275\203\232\022\274\330\234\004=\206:7=\241T\273<3h\304\274zW\004=\035\206\362\275,G3=\244\r\320;\377\352x\271\275`2\275\311\0353\273\377{0\274J\213j\273\273\215\203\274\376\277\376\275\2701\270:l\347\325\273S\232\347\273)Cf;\224\237\266;\207t?\273Y0\2569 \344\035<>7\010=\215\307\360\273{h\375\266mwu\271\030\307q<\276\372N\273F\305&=\312Pq\274J\263):\224\2138=I\227\301\275\223D\222;#\323\213;%\204,\273\222\305\024\275\026@B\274\037\337\220\2736m\2309\2456!=o\306)\273g\025\004;5Z1\273\036\212\207\275\245>\017\275\326\343;;:\017\355\274 \333F\273\370\304\241;\\\013b:\347\004\266:\377y\2729\234b+\2741\021\031:\000\261\034\273\337\203\2406\024\321/\272(Ki:\222{\2059\256\315\210<\277\037\266\274/\264L\272}I\277; !\256\274\246\244\3479\322\031\t<\265\253x\273\\T\257\273(\272\036\274\244\310\267\273\224\016\276:\347\371v<\004\016\373\273\370\'\234:\214\365\243\272\325\207\371\273G\254\315\273\335\374N<K\245\007>^M\337\272\223\374\326<\260\027\2569\347\273\220\273\355G\214:\331\031\006<c>\211\273\374\356\304\272\223N\206\271hl\374:\327\220\033\274\220\2212;\317\202>=\302\340D\275\317@~<bD\317<|~\347=\022\241\240\274[\\\325<Ms\024\274!\206\337\275\211\254E<\350W$\272\200\'*;\336\310\263:\022J\203;\020c\030;~\365\374;^\3667>\027\277\226\275}W\033<\322N:\276\323\240u\273\375\264\272;h\223\253<:\257\242;\313\031\244\274v:\235\275\262\304\263=\305\000U:\240\247Z\273\371\325\246\274\2643\237\2754L\306\273 \004\260=H\004\302\274h\251\256=\271p\n>\350\021g<\226\355\010=UH3\275/\231\006>\322w\230\275\215\246\030<\271W)\275q\214\250<\330\026\375\275\251\205\250;`\014\016\275\'\244\310</\314\025=\345\206\264=\314Y\017<\374\354\'\275\032\033\213\273&$\"=\013\\\2509R\275\306\273}\221e:\372\253\242=`I\344\274\236\007\214\272\0269\203\271\275\256N\271(\212!\275\237\352\365;\216=\336<\252\006\200\275G2\350;2\246\327\2713o\002\276\335\353\233\274\363)\016\276s\353#\275\355\205\240\275L\313\013=t\n`\273x7\2358|8|\275\264\307\004<\364A#;/\322\260;\221\005\252\275&\3779\274\375\345Q<K;\213<\n\351\246\271\213\3061=QN\360\274\022a\025<\001UT:\177\026*=\315\006@;\206\020l<\353\243\202\271\366\203R\273%LS\273\002b\366\273\333\326O=\206X\364;\367\347F<\372\344g<\374\367\013\275\334\231u\273\255`\335<\303\270\005\274\267\206^\274\241\302\013=\333\014e;\234;\256\274\260\205\32285\026\020=\004_.;\326\240\036:\334pE=\030\374\375\273`\235H\270\333\356*>\367^\347\273\210\320\367\273K\265\307;\314m|\273\344\307a\271\236t\265\274\030\345r=`(\010\274\214\356\3206\370\332\000\271}\342\003\274\211\336\363\273\204\277\333\275\3301\377\274p\305\010\274\377\321A\274\032g\202=\270\266\355<\024\233f\273\213\227\016\274`^H>\326\237\251\273\350|\233\273\334y\351\272)ys\274<k\307\272tV);\273B\227\273\202Z\225\275@\217\316=\330\362\225:\362\343->\307C\304\273\206}\032\275\302d\'\274$c;;\002\362u;Z\265!\275\230\275\022\276\001\033\004<?\224\337;\02462<f\2501\276\025\245\003<\2001\033\2759#\266\275\311p\216\273\023\356\227<E\3712=0H\227\273m,\273>[\206g=r\310:>oQ\301<\356\340\027=5L\203\274\266\0165\276K\347\312\272\334gI\271\261\021\014\274+\307\245\275\222\226t>\272\337\224:\3411K\274-\216\333\273\340\213\376\274AN\311;\3677J\273\232\252\3079\257\221\276\275\304\267\252=\004@\005\274;\217\226\266\260g\0048\2076A=;8\016\274X\373\206\276\250|-\276Z\031\206;\213\236%=\272&\036>&\221\330<%\353\003>\365P\343\273\227/\375\274\002\310C\275\2150\210\273\332\005\333\272\013F\007=\331}p\273>\321C;T\374\224\273 \r\022\276\255\314\177\275\026\377\026:N\272\231\274\354\324*\275\222^\200\274n\321\373;\037f\027\274\352\331\n\271B\377\035\275h\"\203;\2734B\274\030&\3276o\273\002;\265U\307\273\341\374v\274\2777\230\274\257x\346\274\206\272\006\274\335\220\034<\345L%=B\253\251;\270\336o\274\000\017]\274\'_\024\273[\273\321\273\235D\r\274A\177\235<\032\243\225\274O~\236\274\206\333\214:\373\343e<\264*z\275\341\302\301\274C\350`\273\356\267\030<\374\315\265;[AN\273Uz\347:xY\372;Z\222\3478`?\245:tT\241\273\037\030\025<\366\361\232\267y\321\232\2734\003\257\273\320\336\265;\006\205}\272\273\244\263\273H\226\030\271q\275\374:vn\250\273\367\3654\274\301\207\212\274\356Y\325\272_zw\273Ut\225;k\\\206\271\271=-9\203\2018\273H\010?\272~X\004\272u\220\244\272F\274\223\273/\330i\267\014\227\363:\036\367\002\275\005\260\214;\351\265\234<n\311\200<\334\372(\273n\363h:7\035\215<\2334\345:\2151\261\273B\025\033\272Ts3<C[\231;\204]\250\273\304\334\203<\226\356\326\274\t\277\261\273q\376\014\274<\016\353;\263\\\362\274\010\021\324<\216\225\230:\310C\214\274\305\373K<\236\210k<\2528\3518I/P<\2361\272\271O\354~;\033\371\255\272W\033\003<\004H\230\274r\031\033\273\327\220\031\273%\321\362;U\244g\274\351\340\036;\217-\004<\030+\33587]\312\274!\353\033\273\031\306\007<\341U\206\267\024\r[\273\326\324.\274\227\254\311;u\016\271;\372K\210\274\033c}9\277/\220;\237\002\375\272\222\305\025\274\360\206+\274F\200M\272\367i\255\273\353g\250\273\273\274\214\271D\364\022\270\353R\322\273\364\241\026\272\376\311\014\272\023\371y\2724\001\023\274\240\241\3658E\361/\273b0\303\273\006|6<\357\207\222\273\320\354\2749\026_\203;\330iZ8,?\224\273\344\\\032:y\205\033<\004\022\207\267]\317\354\272_\355$\274kK\021<_u9\273p\246::d?E8P\342\203\273\360;X\273\013Z\252\272|\313#\274y\211\331\272\360\300\202;@\222\331;LAa8\343\222^9\r\237\210\273\035P\307\272,\324H\271\350Y\352\270\030K\356\273|\211Q\272\027\350Z;\2529\237\276\250\001\007:&O\002\274\242\036\323\272\222Mi:\214L\020\273\230\272\233\274\335\234\241\275\362\255\240;\3504\2319d|\345:\370~\017<k\270\205\274\353\024\300=\031\034\r>\322-\037\274\271\034\340\2742\002\375=\213O5<\267vF\274-\246\210<\032D\022>w.\206\274\'\375\222\274\237]\021<\332.\221\274_\243\356\273\353_\020\273\235\010\221;\303\3667\276\202\021\262>)e\010\274s\207\343>%\0054\272#\272]\274\217Q\270\274d\310\203:\205\331\332<\2132\277=\323\273I\276\362\007)\273\336I<\272s//:K\3152\276\301*\202<q\334\273\276\375)\246>\273m\007\276p\356\337\275\r>\327\275\177)\252\274\213\341\344\274\220\254\003\276\255\326\331>\025J\365<\367^\366=\220\020`\274\215\363v\276\021U*\274\261m\037;M\333S:s\033\035>O\276\304>\311\375];+\210S=\275\372\'\272\033\336a;U\022\000\272\"\226\030\272\206\n\351\272\363\205/\274x\"(\276iOe;N\234\2369\303\244\301:W\254y=0<\233\274\210\356|\275~\310:;g\244\372\273\361i\332\275h\275\000?\201\2256<\031\245\250=\274\210\375<\237\243\224={2\350<\254Ys\274\270\3553<<\031?\275G\246\357\273\325\0301\273o\020=;\007\217\005>p\002\202=\000\300\322;\260D\013:\022\352\306\274\376\034\021;\324\253\330<EoP\274\340\216$\273\254P\017;\017\336\007\275\006\247\262\274\226\r\2039\272\347\353\272\2524%;\004m*\275\t7\225\275\227\256\213<\002\n\263\273}\221\363\274\260\314\211=2\200\233;$|\324\273)-><\377-\252<\225)\034\274\327\2145\275\026U\312=\244q\003\275\325\252\014\275\2000\27258\210\216<T9\276<\021WZ<,\311N<\226\004\254=>C\233\273\331\221\265:\002\004E;\334\301y\273\374\272T:\374D\033\274;\272\315<\276\264\363\273)\231\2769\320\202\177\270\303e9\274\266\267\n\273\345\225\223<\232\276O\274\345\332\210;\343\004\032<v\021\364=#\207O<\253\260M\274]\332\272:\324\030\232\274\211\306\255\273\273\264\240:Y\203\2008\303\250w\274d@4\272;\265/;\241\327\215:\373\0270>\231\321f<\263\303\233:L\371\204=\323\342\320\273E\302\031\275\026\032\273\272\2328\304;\242\361\024;:\226\222\274\231\026_\275\311I\t<x\177\3629\252d\352;\335\207U;t\361.;5K\214\275\370#\263<\255\240\200=r\037D\274\t\214\217\275\274\301\2139\035G\026>\0246(\274\267m\315\275Cp\210\275\202L\375:-g\002<\226\257>\273\305T\036\272~\002\201\273\234sI\273\272j\305\275\376\273\004>P\233\"<\326@\246\275M\322\350\273y\363~<\345\3563;A\370\240\273\205\355\035:\350\332j<\233\243\317<\346s\t\274\305\374\2619\312d\2509\232\275-=\247Y\307\272\2707\254\274m6\200<GZ\260;\261\357Y\274\267\325\241\275\216\3160<&\232\335\273jF\013<\243\3530\275_\257\211\274\014p\264:\266t\355:\354r\036<e*\231\273T\247?;\367\223\314:\274a\330:.\310\210\275c\313H<}\315\031\274\206~\227\273\3226\313;$.\356\271@\014\323\273V`\253:\206\304\312\272|\335\221\273\271$\265\273\347#\2639?\201\000<s\314W\274\243\344\006<es\003\274\330\345\211\274\330p\237:\250\267\301:e\333\321\274\272\\O;\320\247g\274J0\202:\334x\231\274\341\327\204\274yc\264\271\023o)<\026\222\211\274\311t\204\274\262S\036;\312\230\035=6\356o\273\354\342\271\274\030e^;3\311k\274\031?\017;\242\352\377\274\346\377\376;\016\276\331\271\3614\226:\356T\244\274e/=<\235\376\356;g\305^:\362\342\270;\3733\020\274\350\027\336;\363\033\016=?.Z\275\347\3527\2745\000\016=\006\261\322\276\177q:<Mn\256\274\037!\013=\313(\277\275\027\224!\274\234\035c\273\362k\207;\007~-\274(\230\217\272\207\335\251\273-y\201\272\232>\262\276`\270\364\2750\346\214\273\273\346\r\276\032\261H:G\212\217<\333\363\345\273N\234M;Of\303\273\364\002\322\274\355\\\033<\264\352j\273pem\272\035+\023\274x\022#>\340\215_;Jw\222<\035\247\242=8r\311\273v\274\310\274\361\226D=P\333\314\274\027\244{\276\226)H\276\230.\301=P\020*>\t\242\010=M\"Z=\366\242\025<\356P\026\273\226{\261;\375\351\035;\252\367\310\275e\273\357\274\036N\242;E\323\256=\232\017\2739o\322\331\274\244P\361;\251\360\256\272\001l\252:c\375;\276\361\374\320\275\261\354v;\177\3052:\034\363\237;\314\032\274;\306\373&<7(\355\275F!\254\274\267\377T\273\003\262\202\275\033\302\322=\320i\031<\021\223\250;\227\302^=\302\354\313<!\0305\275\356\256\025\274[\364\200;\232\301^=\021\244\365\270\374O\311\273\342ZT\273\345\2601\276\212n\247\274\350\340\034;I\366\277<\017\361f<\274\342\326\274\2409\247<\344\206\n\274\213 \265:\373\323\206\275\242M\371\272\020\006\265\274\276;J:F\236\302\272\\g\003:Bp,=\246\322b\274\001\300\242;z*b\274~\257C\275\316\027,=J\274\211;\340M\254\274\305\373.=\317\323\017\273 \'q\274\300v3\274\223\237`;V \326\273\314n\000=D\347\302\273\323A\231\274\277W;\275Ql\255<\320i\313\274\307_\216>\20799<)C\273;L\"\230\273M\256\223;|T\014\273\374\002\331<\013>\325<\025j\023<V\274\212\272 \354-7\275\t\014<`-\177<\375\220\002\276Q[\234=!\362(\274\336a\373=7\334\036<%\240\253\274=\343Q<\351\376\350\274\"{\227\274o\246:<Vz\217<\347\245\344\273\270N~\274f#\241;\226\347\036\272\2257\030\272r9*>\244\242\251=\326l\337\272]\001\230=z\304\202<\217\373n\2752\346\221<\223h \274\026?p;4k\275=\375,\250\275;\237\202\274a\376Z\273@Yv\274\210-[>\372\321\241\274HF\231<`\r\302={\002\010=\377\023l=c\301e\275\263r\250<\214\251E\275\3771\276\275\305\035Y\274\237\241\000=\276\263$\276\352\317\305\274E\177\033>\241\346\365;\354\335(<\030\016\201<7\026\333=9\221\221\274\235v\273\274\266\rL=d\315\212<\342\327\311\274d\034\242\273\244\334\334;U\035\327\272\331\365h\275\353\3635\274bHt<\214\033\203\272\337\214L\272\353\2037=\361\331\204<`e\243\275\231\243\360<\016Us\274\204\026\232<\261=$=\320\220\242\274\200\010\t;JE\347\274x\022\363=b\332\344\274\306\372\016<\300\345\'\274\017\245d\275t\214|<\000/\200\272\006\'n\272\257e\251\272!:?>\2453\342\274v\217$=\366\177\007\274\224\t*;\273#5\274\334\227\200\274\004\025\t\273\373\215\330<\272\317\244<(\240M\274\300\352\214\2723\023\305\273\306\316,;\332\274\010<&\301\241\274\022\340%=\242\2543\2738\270\211<\251\033G=\252\001\374\273\204\207\246<\250\307\021\275S\000\311<WB\245;\221#\221<Ec\000\275\203?\237\274M\324_=\312\035\022\273\274\264/\274(\331\345\272`\205\361<\037J{<\372ji\276RI\351\273\225,\237\273\177?\211;\356\356\226\273\222Y\3528\\\337Q\274\236hw\2743\307\367\273o\270\3039vg\253:C\244\377\273\361\262v\273\026-\010;\305\300\003\275T\221n\2737\037\310\274\014\032I=\374\376n<d\036E\274\031\211\346;\333/.=\'J\347\273\345\306\022\272=\331\010;\0005$\273L\306\001\273C\306e:\250\357&7d\005\213\275\260&\362<=\2502\273)\372]=\305\231 \274\370s{=h\037 \274;\t\332;\377P\213:v+#\275\236c\333\274`P\025<\364\037\030:aRX;\257a\201\275C\255\343;\377\014\370\275\327\373\214=\231\211e\274\356\251\202\273\376\n\351:\3211\"\274\366\251\205\275\276/U9\270\254\214=\177\023\242=\266K\212:GN\241\273\314\357\222\274\353\304C\273\215O\252\273\234\261\240\273\256G\254=!(\205\274\354\333V<\003\221\241\274U\023(\274\217\013F\272\016\304\200;\256\021\266\273\316T\2658\205\270P\274\351V\250\274\306:\026\274Pa\2759\377\246\243:p\014s\274]\314h\273>o\305:,I.\275`\305\026\273\347\3636\274\036\014\310=\216\267F<3q\274<\351\364\362;>\360\312\273X\277\300;\222\033&<W\2203;\222\021\035<\235\310\274\273\226\342\215:c\327E\270\363\354\312\274\025\"o\275\205oZ<\360*/\273H\221\242\273\362\r\324\273\033\024%<\037\337\216;\223Fj9\\\344\203\274M\206\330\273\203\216\002<\231\227\2729l}\330;\330\247\260\273\263\251l;_ZR\273\240.!\274\354\255\232\273\203L\252\273\020\364\004\274\354Cl;\002\261>\274\030W\364;$\245\353\273\231F?\274_w\312\271\032~\203<\343(m\273\236\266a\274\"[\214:C~\177;8c\203\273~\331$\274CY\360\273\225d\022\276\001\245\216;}{\024:\310fR\273\341b*;m\346T\272,\236\240;\207\211\260\274o\267\234;\032!\202\271\372\330\236\271\'\223\275;\036J\013\272\343\034\204;\302\027\333<\346\326\205:uY!\275 \345\300<\210<\037\2749k\006<\000\025I6\275\273\206<m\267\211;\237\207v\273\322\376B\272\332B\014;Yh\231:E]\240\272\016\266\010\272}\2750\275?tz<\270\364\3519Y\276\345=\247\010\263;\314\231\r=\247\177\205;\020Bf\273[\217d\273\270\274;\275\330\225\336\275\311H\224\273Vjs\272\302z:\273z~M=;d\217\272\245\037X\275\251\246\247\275\223O\263\274\0264\324\274#\326J\275\'v\220;smB\275K\246\225\274\223\021\004>\035\322\224\2759\271D=\323d5;ZO\244;k\216\371:u\256C;7\262\203;2\210\241=3(\000>g$\302\27334W=\010\204\306;\273|\257\273\345\3061\273toH;\247L\'\272\030\205B\271\217\371\010;j\374\241;\346\230y\271,\'\033\272\251b\270\271\252\203\234\273\373Z <1\376\026;\271LT:e\276\225;A\343M=\350\022\354\273[s\206\273\333\005|\273\\c\017<\2126\220\271\376\340\276\273/~\034\273\353\351\237\274\213\314t;\\|\264\272Q\344:\272t\034\334;\321:\003=\2550\352\273(\205?;k\225\254\273\265\303\013;9\002\025\274Rj\204\273\3362\322\272\263\006\335;\320\240p;\321X\234\274k\223y\271l\021X\274\375\273\363;#\263\023\275`\255\210<vH\021<\227\245\032;\2027\003:,\260~<\355\353\021\273\r_\017<^S\3739f\177\020<J6\365;\366@J\273\204\375\247\2741A\202;\331\003\270;\327\032\277\272\3632X\274\023\0233<\273\245d<\261/6\274\220\227B>\263\365\021;\271_\324;\356U\366\271\372\335w\272\020X\"\273\014\212\233<\364\356d=\000\353\311\273\001\362\032\272\232\334\245\273\003\355\034<\004\347\226;d\360\260=\247\016\202\274\352r#\272\\\204S\274\375\264A=r\033T:l\032\336<4\215\263\274D\344\322\2749a\237\273\311e\244<m\025\005\274:&\266<L\215\267;\212\266\341:=\355\363\273{\021\261>\205\257\310\275\377\261\007\273}\205\261\275\200-\327;\351\332\272\274\345\nw<{\222L\273\277\321\355;\264\266\325=\364\371\016=dtB:_\214\220\273\r\3167<\002\337\001<\300\363\266\273\250*^=C\t\027\276fKd=;\363\353\274\002\231\241=\000(\017<\275Mi\275<\337\300\274\310\200\306\275\304\243\215\275\270\222\255\275\336\3633<B\ro=\\\331\346;?\246M<\370\263\222\274\336\252\005\276o\025\370\275*\341\374\273\037,^<\202\266\330;\\\233\225\2746\027\251\272H\201=:\316\330\036\273\330\330\310<B\370J=\013\317I\273r\371\005\272\tXB\2736b*<\017k(;%\360\315=o\270b<J\210=\274\026?K=\241$\222\276\037\231W:\244u8\275\326%\215\274}i\272=\232\264\312\274\030v9<\024d\362\273\345\037\313:[\320\314;\270d\013;\227u\250\273bC\266=p\220V=\326\030m\274\033\030\005<\262Q\352;\203\341\010\274\304\217\n\274\217=\301\274\203\332\033\273\337) =\206P\022<\033\352\260\274\307\010\024\272\367\246\341;l\206Q;\306\307\376;X9R<y\261\234\272\344\261>:sr\016=Qnc\274\201\301\222\273\026\307;<\374\247\375\274\002\355\273\273C\372\325\274\344\306\347<>\311#\275\007\236-<\016@\337<\016S\016\272Xq\210;\362s\246\274)\300n\274\266\335\n\275\332p\006=\321\216d<+\231\326<\303\r\024\274}6\027<\271\323\304\273\024\326\340<\215\035\231\274\200\210z<\2153/\273(y\204\273:\256\365<Zp\257:r\304\347\274\263\270\223<\211\257\315:g\310\214=\336\370\\\275`\265\335\274\311\363\020=\375\2645\274\"\227(<uL\354<\323h\003;\302i\236\2733\276\010=D\320\036<jC\243\273b\337\244\273\n\213\232<\035,