node {
  name: "input"
  op: "Placeholder"
  attr {
    key: "dtype"
    value {
      type: DT_FLOAT
    }
  }
}
node {
  name: "transpose/perm"
  op: "Const"
  attr {
    key: "dtype"
    value {
      type: DT_INT32
    }
  }
  attr {
    key: "value"
    value {
      tensor {
        dtype: DT_INT32
        tensor_shape {
          dim {
            size: 3
          }
        }
        tensor_content: "\001\000\000\000\000\000\000\000\002\000\000\000"
      }
    }
  }
}
node {
  name: "transpose"
  op: "Transpose"
  input: "input"
  input: "transpose/perm"
  attr {
    key: "T"
    value {
      type: DT_FLOAT
    }
  }
  attr {
    key: "Tperm"
    value {
      type: DT_INT32
    }
  }
}
node {
  name: "reshape/shape"
  op: "Const"
  attr {
    key: "dtype"
    value {
      type: DT_INT32
    }
  }
  attr {
    key: "value"
    value {
      tensor {
        dtype: DT_INT32
        tensor_shape {
          dim {
            size: 2
          }
        }
        tensor_content: "\377\377\377\377\t\000\000\000"
      }
    }
  }
}
node {
  name: "reshape"
  op: "Reshape"
  input: "transpose"
  input: "reshape/shape"
  attr {
    key: "T"
    value {
      type: DT_FLOAT
    }
  }
  attr {
    key: "Tshape"
    value {
      type: DT_INT32
    }
  }
}
node {
  name: "w_in"
  op: "Const"
  attr {
    key: "dtype"
    value {
      type: DT_FLOAT
    }
  }
  attr {
    key: "value"
    value {
      tensor {
        dtype: DT_FLOAT
        tensor_shape {
          dim {
            size: 9
          }
          dim {
            size: 64
          }
        }
        tensor_content: "\312\320f\276\002\257\214\276\333\264j>\010\004\221=\215\020\237=\\\307\021\277\002\233\217\276x_\242>\371Y)\276*j\213\276\005\242\271\276B\036e=2,\221\276\363\261\024\275$\006R\276\3178\020?\215\311B\276\330\002j\276\210\235\252>\0035\255>/\341^>{/\r?\031\206\275>\032\341\200\276vyV>\007&W\276\314\003F\276\357y\215\275hIK\277`$#\276Q\257a>$\004\026?BbN\276\205u|?\202lv>B\025-\275\003v \2761$\021>\323\212\\\275\031]\266>\351<W\275+*t>V48\276%~\305\275<\2001\276\'2\027\277\t?\267\275\337\t\264>BS-\275:\270\207=\037Z!\276\317\350\'=\251\344\017\277m\010\361\275f:\240<\003l\001>A&\236>C\315\310>E6\224\276\325K\023\276\203\250h\2752%\205>GH\215>\216pH\277\345\207\202\275\022\331\276=\240\376W\276\377I+=\363i\352\275@\321\216=\323\236\330\274\250\305\003>\225m<\276\032\370\307>>Wi<+D\343=\3069q=\357\006\n>\206\363-\275\2434\005\276@k*\275\035;->\340\201\207\276:\256)\276\310\302\264\275pr\272\276\216\353\025\276\262%\003\275\177|\314=p\356\336=\366zI\274J\214\227\275v\030\313;\022\235A>ue\274=hI\022<\025\375d<\212b\326\275\r\2001\276\250F)=\237\"\021\273U\205\332\275{\036.\275\336\004\237\275[\315\216\275[\301%=\273\311\001=\301Y@>\321J{=\237\231A=\304\030\020\276\021\2012> P\244\276u\3710\276o\213s\275@3\302=\316d\340=\337\346\202=\220T\360\275\2129\350\275\241\027\005>*\351u\275O\371r=\274\215.=qZT;F\303\"\264f\252K\276\003^\255=\022\204t>\004\375\r>\005\014W<\373\336\337=K\252\314\274\323\354\241=F{\007>\010\224\000\273\351\322\246<\300\361$>\317\265\261;\032lH\275\321\325\212\273\224\344\240==\230\343<*\013\n=\264\323_<\333\304\260=\336\304p\275H\032?\276\371\004=\275\017n\272\275<\353\202\276\032D\213\275\350\017@\274m\241Y>\310F\017\275\252#\334\274\254\213\360=\002N\214=\034F/>\304w6\275b\t\342\274c\222\302\275\223R\023\276e\024N=\246I\222<\n\321\255=\377\224\216<\241\264\321\274\002\312\004\276Kw\372\274\264?:=\006\317\263=\252`\222<M\360\275=}V\006>\315 :>\336)\376\275\010\332\345\275f\030!\276\372\236}\275\304t,>\330\030\035=\222\201\017\276\230\243/\276o\357q\274\370\')\2778C\202=\n\312u= \257\032\273\223T)4\301\376T\276@\254\215=v\244\334\276o\226;>oU\304\276\310y\207>N\325\n\275n#\254\277\246[\205\276\371W,?H\347.\276\247\233{>\325\271\177\2768\272\032?\016\234\002\277\340\365\031?y\224\366=\345\245\245\276\234\242\231\276>4q\276\205m\022\275\201\217G\277wS\014?AY\247\274=\365\256\274\036\'\032\277\315\0325?\327\251c>\301h\260\276\265\335\322\277V+\034>\234)\263<\314\311\340>\250/\270>\275\225\021\2756[\335>xA\257>Ye\260\275\230\340\337\276A\264\362\274\334\206\024>2y\204>%\241K>nU\224>f]\025\277\330\324\344\276S\247\253=\246>+\276\325\346\277>(1q\275\276\214\231<\254\311r\274VS\013>+\005\265\276\326\005\336>O\217O\276(;\304?\202\017\351=\024\250\277\276}\260\306>\215z\336\275\345\275:\276_)\007?\266\255\021\264k\270\030\276\361\234\337>}\0317?\213\360&>\357\001\216\276\177\331\372<R\326\031>\023\375E\276v\'\027\2777#n\277\344^l?\242\277l\276\266\345\301>\200$\223<\004\330\302<\232\277n\276\334\000\272\276\024\225\302\276\355u@\276\356A\000\277\004\270E?\253\203\034\276|\274\304\275xM\235<n\223\017?\360\354m\276X$\255>\245\312\020?_$\030?|\231#>o\035\304\276?\260a?$UT>\323E\366=w\217\220\277}\235\373\275\370\027\350=\352\340\305>\"|\t>EI\246\276h\016\032>\376\0100\277\240\207\2317\206\351r\275u]\023=J\026\320\276\373\357\t>\275\212\013\277nV)\276\003Ef\275;/Y?$\313\006?\267{\333>\311\022\t?\276\227\340\276\246\3559\276W3\'>b6\251=\364\344\267>}^~=}\330\260>e\017\233\275\337\0323=\303\016\"\265\360E]>\n87?9\260\201>&\373\316=?\251\306>\277c\260>MjB\276\006b#=\362#\024=\0274\202\2755\007Y>\271\347\317\274\3179\024\274\032\323\217\272\231M\004\276\330I\037>5\373\200=\270\027\267\274VK\303\274{\321\006\275I\265\332=Z\204\260<\224H\371<n\321\243<\263[J\275\233\326\255\276U\256\356=\'\310\243>\034\367H\275\347\366\234>S\243\332<\370\026\272\276\247\370\235>\234\005\355>\216\3347\277\371\362\215\274}\252K=\215m\322=t\2753>>\272\027=\037\227-<\332\004\207\275\323\331x\275\271\030\365\275\273L\017=\352\3117\276N\251\202\276G\263\271\275N_Z\276>9.>l\002\300;\007\324\235\272\211]\031=\251\006\311<\265\270J?\354Gl\276\371\232\222\277\002p\343\275/\306\317=\344-\001\274B\365~\275\\\007\226\275\301\336\237\275\375j%5$\005\340\276\246\022\301\276\201\321\246?l2\300=<\307\313>\004\367\327?\322\367\000>y\311k\277\330\375|>\327\342\022@$.\200\277\313eV\277\032\006\362\275k\261\032?]\337\202\277\000\004\211>\246[\341\276\237\036\217?\256e\005\277\025\251\020\277q\023\037\2773\361}>\374\254\006?\331m\t\276Ou\025?\336\007\267\275\"U\240?B}>\2777[\240>r2;?1X\246=\361\360\237\276z\026\317>E\326\023?\307\310$>\272\277\206>*\253\351?\276C\335>\177\217F\276\371\324\230\276p\336\222\276\326O\210?\220\276\003?_Y\260?S!\000\276V|\260\277\037\005u\276A2\305\276\215\336\241?3\372\362\275o\264\201\276\033\n\243?\344i5>\026\343\246?5\013\351\277Iv\267\276(/\324\276\365\016(?\373\216\221>\227o\335<\020C&\277R\254\343\2757{0<\002\031\006\276\177\007O\277f\223m\277_\256=\277IV\336>o\223\213\277P\343\322>\362s\210>\3705%?0\273[\276\234;9?&zc\277Z@]?\242xF\276nc\237>jg\006>\346\031\315>!\200;\277\r\367\353=\004\240\005\277\213a\317>1\352R\276\222\"\035\277\013?Q\276\211\246\004\275\014\372\260\2752\265\334\274\210\235o?_\021\200>\314\331\017\275\353\250K\276\220 \247\276\370@\212>\334\376\215=\324_\221\277x9\240\275\242\232\322\276k\007\r\277`\305\336=\2625\250\275\252\331\202\276\024\245\224\275:k\316\276\317\236\222\276\3220\322>\201\177\244>\005\257\311?\032\035u\275(\027\344\276\034\341.?\3155L?j\202\363\2769\243\237\276l\033\224\277\230r\t>/\006\240>3\233\251\275\265\330\n=6r\271\276\300\303\020\273\213\270\336=\016\353\006\276\365\232\306>\330}\260\273\355\006\2728\247\3719?Uoy\276\030i\347=\000f\200?\223\353N\275pn\036\274\002}\344\275\rg\336\2758\312\036?\275\316\267\275\235\244\037\275\324~\316\277c\255U>,k/=_\023\342\276w\002|>\230\031\002\274\300\321\014\277\227\030\237\276F\262\035>Y\224\256\2761\326\002\277\252C%?\216*C\277x\232\210\276\\ \334\276\253\272\202?\266\207\217\276\014\373`\277\325\006V\275&\361\330\274\261\t\227\275[\315P?aN\254\276\325\323\302\274\370A\311=\310\213\361=\335\317\364:\305/\005\276\235V\025?\036Q\276\275\031\364\220=\024\367\223\277\234\267A\276\320\317*\276E\343N\277\266U\200\275\241b\361\274\003\360\320>\027w<?\321\231a\277\\\212\335\276kf \276\002\210\232\276\256\312\304>\025\010\202:\202\005\"\276h\343\004\276H\330\336\275\2068\257\276R\030\003\276\271\312\302\276\220\010\250\274E\307\'\274.$b\2771\320\354>"
      }
    }
  }
}
node {
  name: "b_in"
  op: "Const"
  attr {
    key: "dtype"
    value {
      type: DT_FLOAT
    }
  }
  attr {
    key: "value"
    value {
      tensor {
        dtype: DT_FLOAT
        tensor_shape {
          dim {
            size: 64
          }
        }
        tensor_content: "\300\265\355\275\333\326\301?\230\3409\277\362\242\305?\262\003\247\275\330u\236?\000\355\306=&\353r?^\365!?CR\212?\014\235\314?\226\351\372\276\334=\026@\203\267r>\303\033\374?:\220g?g\241\203?~\322\247?~W??;\306\373\275\327\006\233?\274\230\244\275x\363\242?\375X\250?\345\315\224?\376^\246?\271\371\215?\314\023<\277\3217\243?32\031@)\226\304?\264\371\025?\217\014\005\276\341\231e?\237\326A\277\320\332\'=YOB>\343\301\237?\t\365r>s-\311?\262\253\336?w\032\220?=\022\024@j\230-@\216\t$>\375V\361>\322\301\303?\334[\305?W\342)?q\231\"@o\350\276?\360\374\247\275\362\254O@\312\002.?\223\324\347>&\303%\276\200\276\031@AY#\276QP$?\206w\274?|\321\256\276k\226\22381+\304?\252\226\206?"
      }
    }
  }
}
node {
  name: "MatMul"
  op: "MatMul"
  input: "reshape"
  input: "w_in"
  attr {
    key: "T"
    value {
      type: DT_FLOAT
    }
  }
  attr {
    key: "transpose_a"
    value {
      b: false
    }
  }
  attr {
    key: "transpose_b"
    value {
      b: false
    }
  }
}
node {
  name: "add"
  op: "Add"
  input: "MatMul"
  input: "b_in"
  attr {
    key: "T"
    value {
      type: DT_FLOAT
    }
  }
}
node {
  name: "relu"
  op: "Relu"
  input: "add"
  attr {
    key: "T"
    value {
      type: DT_FLOAT
    }
  }
}
node {
  name: "split/split_dim"
  op: "Const"
  attr {
    key: "dtype"
    value {
      type: DT_INT32
    }
  }
  attr {
    key: "value"
    value {
      tensor {
        dtype: DT_INT32
        tensor_shape {
        }
        int_val: 0
      }
    }
  }
}
node {
  name: "split"
  op: "Split"
  input: "split/split_dim"
  input: "relu"
  attr {
    key: "T"
    value {
      type: DT_FLOAT
    }
  }
  attr {
    key: "num_split"
    value {
      i: 128
    }
  }
}
node {
  name: "rnn/Shape"
  op: "Shape"
  input: "split"
  attr {
    key: "T"
    value {
      type: DT_FLOAT
    }
  }
  attr {
    key: "out_type"
    value {
      type: DT_INT32
    }
  }
}
node {
  name: "rnn/strided_slice/stack"
  op: "Const"
  attr {
    key: "dtype"
    value {
      type: DT_INT32
    }
  }
  attr {
    key: "value"
    value {
      tensor {
        dtype: DT_INT32
        tensor_shape {
          dim {
            size: 1
          }
        }
        int_val: 0
      }
    }
  }
}
node {
  name: "rnn/strided_slice/stack_1"
  op: "Const"
  attr {
    key: "dtype"
    value {
      type: DT_INT32
    }
  }
  attr {
    key: "value"
    value {
      tensor {
        dtype: DT_INT32
        tensor_shape {
          dim {
            size: 1
          }
        }
        int_val: 1
      }
    }
  }
}
node {
  name: "rnn/strided_slice/stack_2"
  op: "Const"
  attr {
    key: "dtype"
    value {
      type: DT_INT32
    }
  }
  attr {
    key: "value"
    value {
      tensor {
        dtype: DT_INT32
        tensor_shape {
          dim {
            size: 1
          }
        }
        int_val: 1
      }
    }
  }
}
node {
  name: "rnn/strided_slice"
  op: "StridedSlice"
  input: "rnn/Shape"
  input: "rnn/strided_slice/stack"
  input: "rnn/strided_slice/stack_1"
  input: "rnn/strided_slice/stack_2"
  attr {
    key: "Index"
    value {
      type: DT_INT32
    }
  }
  attr {
    key: "T"
    value {
      type: DT_INT32
    }
  }
  attr {
    key: "begin_mask"
    value {
      i: 0
    }
  }
  attr {
    key: "ellipsis_mask"
    value {
      i: 0
    }
  }
  attr {
    key: "end_mask"
    value {
      i: 0
    }
  }
  attr {
    key: "new_axis_mask"
    value {
      i: 0
    }
  }
  attr {
    key: "shrink_axis_mask"
    value {
      i: 1
    }
  }
}
node {
  name: "rnn/MultiRNNCellZeroState/BasicLSTMCellZeroState/stack/1"
  op: "Const"
  attr {
    key: "dtype"
    value {
      type: DT_INT32
    }
  }
  attr {
    key: "value"
    value {
      tensor {
        dtype: DT_INT32
        tensor_shape {
        }
        int_val: 64
      }
    }
  }
}
node {
  name: "rnn/MultiRNNCellZeroState/BasicLSTMCellZeroState/stack"
  op: "Pack"
  input: "rnn/strided_slice"
  input: "rnn/MultiRNNCellZeroState/BasicLSTMCellZeroState/stack/1"
  attr {
    key: "N"
    value {
      i: 2
    }
  }
  attr {
    key: "T"
    value {
      type: DT_INT32
    }
  }
  attr {
    key: "axis"
    value {
      i: 0
    }
  }
}
node {
  name: "rnn/MultiRNNCellZeroState/BasicLSTMCellZeroState/zeros/Const"
  op: "Const"
  attr {
    key: "dtype"
    value {
      type: DT_FLOAT
    }
  }
  attr {
    key: "value"
    value {
      tensor {
        dtype: DT_FLOAT
        tensor_shape {
        }
        float_val: 0.0
      }
    }
  }
}
node {
  name: "rnn/MultiRNNCellZeroState/BasicLSTMCellZeroState/zeros"
  op: "Fill"
  input: "rnn/MultiRNNCellZeroState/BasicLSTMCellZeroState/stack"
  input: "rnn/MultiRNNCellZeroState/BasicLSTMCellZeroState/zeros/Const"
  attr {
    key: "T"
    value {
      type: DT_FLOAT
    }
  }
}
node {
  name: "rnn/MultiRNNCellZeroState/BasicLSTMCellZeroState/stack_1/1"
  op: "Const"
  attr {
    key: "dtype"
    value {
      type: DT_INT32
    }
  }
  attr {
    key: "value"
    value {
      tensor {
        dtype: DT_INT32
        tensor_shape {
        }
        int_val: 64
      }
    }
  }
}
node {
  name: "rnn/MultiRNNCellZeroState/BasicLSTMCellZeroState/stack_1"
  op: "Pack"
  input: "rnn/strided_slice"
  input: "rnn/MultiRNNCellZeroState/BasicLSTMCellZeroState/stack_1/1"
  attr {
    key: "N"
    value {
      i: 2
    }
  }
  attr {
    key: "T"
    value {
      type: DT_INT32
    }
  }
  attr {
    key: "axis"
    value {
      i: 0
    }
  }
}
node {
  name: "rnn/MultiRNNCellZeroState/BasicLSTMCellZeroState/zeros_1/Const"
  op: "Const"
  attr {
    key: "dtype"
    value {
      type: DT_FLOAT
    }
  }
  attr {
    key: "value"
    value {
      tensor {
        dtype: DT_FLOAT
        tensor_shape {
        }
        float_val: 0.0
      }
    }
  }
}
node {
  name: "rnn/MultiRNNCellZeroState/BasicLSTMCellZeroState/zeros_1"
  op: "Fill"
  input: "rnn/MultiRNNCellZeroState/BasicLSTMCellZeroState/stack_1"
  input: "rnn/MultiRNNCellZeroState/BasicLSTMCellZeroState/zeros_1/Const"
  attr {
    key: "T"
    value {
      type: DT_FLOAT
    }
  }
}
node {
  name: "rnn/MultiRNNCellZeroState/BasicLSTMCellZeroState_1/stack/1"
  op: "Const"
  attr {
    key: "dtype"
    value {
      type: DT_INT32
    }
  }
  attr {
    key: "value"
    value {
      tensor {
        dtype: DT_INT32
        tensor_shape {
        }
        int_val: 64
      }
    }
  }
}
node {
  name: "rnn/MultiRNNCellZeroState/BasicLSTMCellZeroState_1/stack"
  op: "Pack"
  input: "rnn/strided_slice"
  input: "rnn/MultiRNNCellZeroState/BasicLSTMCellZeroState_1/stack/1"
  attr {
    key: "N"
    value {
      i: 2
    }
  }
  attr {
    key: "T"
    value {
      type: DT_INT32
    }
  }
  attr {
    key: "axis"
    value {
      i: 0
    }
  }
}
node {
  name: "rnn/MultiRNNCellZeroState/BasicLSTMCellZeroState_1/zeros/Const"
  op: "Const"
  attr {
    key: "dtype"
    value {
      type: DT_FLOAT
    }
  }
  attr {
    key: "value"
    value {
      tensor {
        dtype: DT_FLOAT
        tensor_shape {
        }
        float_val: 0.0
      }
    }
  }
}
node {
  name: "rnn/MultiRNNCellZeroState/BasicLSTMCellZeroState_1/zeros"
  op: "Fill"
  input: "rnn/MultiRNNCellZeroState/BasicLSTMCellZeroState_1/stack"
  input: "rnn/MultiRNNCellZeroState/BasicLSTMCellZeroState_1/zeros/Const"
  attr {
    key: "T"
    value {
      type: DT_FLOAT
    }
  }
}
node {
  name: "rnn/MultiRNNCellZeroState/BasicLSTMCellZeroState_1/stack_1/1"
  op: "Const"
  attr {
    key: "dtype"
    value {
      type: DT_INT32
    }
  }
  attr {
    key: "value"
    value {
      tensor {
        dtype: DT_INT32
        tensor_shape {
        }
        int_val: 64
      }
    }
  }
}
node {
  name: "rnn/MultiRNNCellZeroState/BasicLSTMCellZeroState_1/stack_1"
  op: "Pack"
  input: "rnn/strided_slice"
  input: "rnn/MultiRNNCellZeroState/BasicLSTMCellZeroState_1/stack_1/1"
  attr {
    key: "N"
    value {
      i: 2
    }
  }
  attr {
    key: "T"
    value {
      type: DT_INT32
    }
  }
  attr {
    key: "axis"
    value {
      i: 0
    }
  }
}
node {
  name: "rnn/MultiRNNCellZeroState/BasicLSTMCellZeroState_1/zeros_1/Const"
  op: "Const"
  attr {
    key: "dtype"
    value {
      type: DT_FLOAT
    }
  }
  attr {
    key: "value"
    value {
      tensor {
        dtype: DT_FLOAT
        tensor_shape {
        }
        float_val: 0.0
      }
    }
  }
}
node {
  name: "rnn/MultiRNNCellZeroState/BasicLSTMCellZeroState_1/zeros_1"
  op: "Fill"
  input: "rnn/MultiRNNCellZeroState/BasicLSTMCellZeroState_1/stack_1"
  input: "rnn/MultiRNNCellZeroState/BasicLSTMCellZeroState_1/zeros_1/Const"
  attr {
    key: "T"
    value {
      type: DT_FLOAT
    }
  }
}
node {
  name: "rnn/MultiRNNCellZeroState/BasicLSTMCellZeroState_2/stack/1"
  op: "Const"
  attr {
    key: "dtype"
    value {
      type: DT_INT32
    }
  }
  attr {
    key: "value"
    value {
      tensor {
        dtype: DT_INT32
        tensor_shape {
        }
        int_val: 64
      }
    }
  }
}
node {
  name: "rnn/MultiRNNCellZeroState/BasicLSTMCellZeroState_2/stack"
  op: "Pack"
  input: "rnn/strided_slice"
  input: "rnn/MultiRNNCellZeroState/BasicLSTMCellZeroState_2/stack/1"
  attr {
    key: "N"
    value {
      i: 2
    }
  }
  attr {
    key: "T"
    value {
      type: DT_INT32
    }
  }
  attr {
    key: "axis"
    value {
      i: 0
    }
  }
}
node {
  name: "rnn/MultiRNNCellZeroState/BasicLSTMCellZeroState_2/zeros/Const"
  op: "Const"
  attr {
    key: "dtype"
    value {
      type: DT_FLOAT
    }
  }
  attr {
    key: "value"
    value {
      tensor {
        dtype: DT_FLOAT
        tensor_shape {
        }
        float_val: 0.0
      }
    }
  }
}
node {
  name: "rnn/MultiRNNCellZeroState/BasicLSTMCellZeroState_2/zeros"
  op: "Fill"
  input: "rnn/MultiRNNCellZeroState/BasicLSTMCellZeroState_2/stack"
  input: "rnn/MultiRNNCellZeroState/BasicLSTMCellZeroState_2/zeros/Const"
  attr {
    key: "T"
    value {
      type: DT_FLOAT
    }
  }
}
node {
  name: "rnn/MultiRNNCellZeroState/BasicLSTMCellZeroState_2/stack_1/1"
  op: "Const"
  attr {
    key: "dtype"
    value {
      type: DT_INT32
    }
  }
  attr {
    key: "value"
    value {
      tensor {
        dtype: DT_INT32
        tensor_shape {
        }
        int_val: 64
      }
    }
  }
}
node {
  name: "rnn/MultiRNNCellZeroState/BasicLSTMCellZeroState_2/stack_1"
  op: "Pack"
  input: "rnn/strided_slice"
  input: "rnn/MultiRNNCellZeroState/BasicLSTMCellZeroState_2/stack_1/1"
  attr {
    key: "N"
    value {
      i: 2
    }
  }
  attr {
    key: "T"
    value {
      type: DT_INT32
    }
  }
  attr {
    key: "axis"
    value {
      i: 0
    }
  }
}
node {
  name: "rnn/MultiRNNCellZeroState/BasicLSTMCellZeroState_2/zeros_1/Const"
  op: "Const"
  attr {
    key: "dtype"
    value {
      type: DT_FLOAT
    }
  }
  attr {
    key: "value"
    value {
      tensor {
        dtype: DT_FLOAT
        tensor_shape {
        }
        float_val: 0.0
      }
    }
  }
}
node {
  name: "rnn/MultiRNNCellZeroState/BasicLSTMCellZeroState_2/zeros_1"
  op: "Fill"
  input: "rnn/MultiRNNCellZeroState/BasicLSTMCellZeroState_2/stack_1"
  input: "rnn/MultiRNNCellZeroState/BasicLSTMCellZeroState_2/zeros_1/Const"
  attr {
    key: "T"
    value {
      type: DT_FLOAT
    }
  }
}
node {
  name: "rnn/multi_rnn_cell/cell_0/basic_lstm_cell/weights"
  op: "Const"
  attr {
    key: "dtype"
    value {
      type: DT_FLOAT
    }
  }
  attr {
    key: "value"
    value {
      tensor {
        dtype: DT_FLOAT
        tensor_shape {
          dim {
            size: 128
          }
          dim {
            size: 256
          }
        }
        tensor_content: "h\022\226\275\351\035\205<\321\262\246<\337\020Q\274\366y\234\274\236\322\260\275\"q\311;\n}\001=\256h\351<\236i\314;A\275\024;\t\237\017\274\276\302\206=\r\001\'\275sO\'\275\320=5;\225=\027;\010_\313\273\037B\213<\030\316%\274\337d\022<\031D\377\272k\244\007;e\327P\274\353@<\274E\267k:<\355\037\276I\000!\274\213\330(\274rY\236;\226\226C\274\371$g\274\254\320\230\273\242\301\306=IH.\274\246\332\226;9\324a\274^\000\205\274\014\262d\275\373\203\320;\270\356\033<\002\316d\275\026\320*\274h\376\027\274,\217\362;\226\027\276<N\230\215=J\"\250:\376\310:9\017\277\001\276\270?\025;\322D\263\270kG\245=}#\233;\351tK=\035wq\273\000\247\343\272\352f\244\275$\2379= us;(1\351\272\357\257G\274\222a\205<\235\221\235;\214Gi\275Fz\220\275@\025\225<\316\203\270\274\310\024\212\275\023\022\013>\374\204S\275y\211\005>\270#e=\354!\002\275\2757\243\274\261\014n\274\244\322\353=\323\300\213=v^\">\260\016\343;\027\346}\274\256\224C;u\220T=\202\326\356\273/N\036\275QP/:\'\307\006\275C\332O;\320\034\233;\357\274?=oP\207;\320\340\036\274\300\247\031\275B\315G<Y\002!<\244\334\242=\232)e;\257\333\260=5E\302\274\003\357\253\275\027\323\211:\227(\257\2747 \260\275\311\257\220<\252\2067\274\311\234\216\275@\243\2757\207\344\354<\362\216#<o\256\365\275\370\230\312<\343\222m\274\334\272\244\272a\226\235\273B\272N\273GF\025\273\032w\177\275\300}\177\275Q\267\315=\201\306x\273\320_\0069\327\337\274<|\233\010>s]\014<\023\301\316;\306\357\324;\364C\r=k\261c;\250\265F>\353\242\345<\356~N:A\026\375\273\255k\t\274\320\306g\273\003J\200=Z\377r\273\354q ;]`\346;\010\026\211;\202\371\030\274\201\343!\275)%\261\274\265\233\373\273|\017\256;\206\365z\275\264`=\273\231<F=\363\014\324\273\376\344\340;{__\273\366XN\273r~o\273\206\321\n:\233P\253\273\031Gz=\t\267w\273\236\005\372\274M\263!<\363._\273\313\324M\275\t\270\224\273H\273\274=&\346\363;\356\331\356:1\300\277\273\226q\245\273\217\366d=j\262\317;SA\232\273\272MA\275y\200\337\273t,\203\273\250\006\361;!+i\275S\267\211=\315\351\177; \264\2217\346\311\266=B\024\227;\213\213\037\272\327\335\035\2754\t\225\274\025\006_<[v\317\273\245\377\334\272\312\013\370\274-\260\200=\326\274\276;\370sZ\273\210\200\021\274\217^\035\274Z\220\237;\335K4=\345\253\233=\016\210\305<\301\003<\274\201\214\007\275>\201\353<\023\201,=8\323\335<I\212\224:\0178\305\275\342@\226\2740v\224\274\275\310t=\ts\231\273\303\325\237<W\202\200\275\344T\005=RGE\274\007\342*\274\376x-\274B\021\216<0\257\315\274ip\261\274\036\374\356\273\370\031\022\275\205;\006\274&\035z\274\177\324\002\274\305\024;\274\370,\362\274\261\366\251\273\001\017*=^\222\260\274\304|R\275\206\016\305<W\224\020\275R\224w\274P.o=g\010\022\275\326d\255\275\000\200\005\2750xd\275\360;6\274\271\023&\274#\210Z\275\237>:\275\3143\372;~\266\341;\027\253k\275\251l\027=\326l\\\274\360=W\270\347\354\257<?\034\014\274\302ZA\274\205\306\320\275\235W\357\275\034+R\274:\347\202\275\316\261s=\252#,\274\274\025W\274\303/@=\177=\327\273j*\013>\234\230\216\275|L\211<8Rj\274K\356\235\274gC2=\2253*<{\302\037=w\223p=x\334]<zb*;v&5\274\022\221\231<\344\262\306\273\355\374\217<IDT;\215\030\335<*{\000\274\356(9=z\344t\274\'\030u:Jn6\273\022[k\274\177\317\267\274\274\010A\275F\2444\274\272\224Q\276+\210)\274\341\206\362\273\342n\313;\350+\310\274E\023\007=\333\300\331\273\262D+<\362\207\277\274C\334q:V\351\177\274\343k\034\275_\020\362\274\230\327\265;B\017(\275.\327\307<\352\263W\274\366:O\274\\\354\356;\226Q\312<t\310\343\275\002\0160\272\370`\350\272a\347\203\275\237k\256;\304\315%\2730>\233<\t\234\251\273J\347d\274\0057\032\274*\376\304;y\013_\274\304)\336\274\325l\205;\003\362\036\275^v/\274\315\234S=\244\227\301;b\320\201\275D\346]\275M\235\261;\360\324G\275}Df\275\341u\201\275\307\t\201\275k\221\311<+\003\221\275\327\257\300<\2429\254\2743\023\264<\276.\327=x\334\247\274\022\320o\275\037S4<N\006\365\275\316<m<w\3176<>*\322\273\272\376\000=u\2732\274o\345\313=\255\237\246\274\220\325\324\274\3643\345\274\032\365X=3M\177\274i<5=R\235w<\261\246/\274\334\326\245\275\312\360\307;\rT\247\275\334e\201<\177\347L\275*\204%;\000c/\275\nc\001\276`l\216<v\035\211\273|Sx\274\251]\247;)d4<\234\350J<\323\037\333=\343f\314\275-\372\334</\344o\274\225\353a\275\027\375\361<;B0;\244\311Y\275V\304O=\034\001c<\270\310h<<(\267<\360\351v\275\263\252\256;\255m\033<\014V\332\272\233\303\313<\3148V=E\215\035\275\365\216\261=\273\'\033\276\300\263\035\275\032T\'\274x3\201\274d[\202=\037\342\232=6\321\221=\274\271b=\214\201p<\364\263%;\245\306\260\273\0352\204\274\371q.<\036\242\216=C\321\000<d\037\310=p\002r\2733\371\031=\215\367\t\274\331\246y\274\304\363\205\273\010,,\275\300\320\206\2721\331F;\264+\223\274\254\210\320=\2070\242\273\031\235\033\275t\377N<\351\325\003\275>\266\213=\255R\310\273\233T\200<\305\262\030\274\2505\345:I)\372\273\367\367\312\274Ef\214=\274\'\342;K\357d\274w[\316:\271g\026\274\257\010\277\273\270c\372;\364\270\215\2744\362\241\275[q\010\273k\007\222<yF\224=\326I.<\246?B\273Pb\024\275\017+\231\274\264\261\207\274\030\017N\274\005\304\211;c\205\003\275\357\377\320=\204a\306;\340\342*\274P6\366\273\313f\033=\202k\n<\272J\257\274\350\236x\275\302\254\213<\2054w\274\242\342S\275\031\344\252<\231\301\334<\244\364q\2752N\276=\276\206C=P\355\373\274M\025\014<\347v\212\275\275\263\356;6\336\026=\203\307\366<\236\264\370<\247\014m\274\005+\254=\025bv\274\360\210\277\274\252g*\274\323\036\225<StZ;L \007\275\t\231\035\275{\266\236<4H&\274\250\221\270\274)\346\030\275\336=6\275\037\354\244<\'\036\237\274;\312\274\274\211\010\324<\245\035\253\275I%\235\274\252\036\243=v\360\325\274J\026\376<\376k\260\274|{\304<l\030\213\274\236\021v\274o&n\275\314\345@\2746\221p\274V\331\313\274\276\225\004=\212zN=\345e\215<\247\0139\275\374\315\247<\2620\307\274\367+\243\274\223\002\261\274\016\350F\274\240\250\024\275\005X\233=\243\337K\275=\252\223\274\236\355>\274\333\257\325\273\026\260;=S\311\214\275W\253\242=wU\2209t+t8\232\013\212\271\303z3\276&\026\3618}1A\274z\204\033\271\324%\02054\035\025\267P\236[7\250\256\245>\232\002\007\272\232\214K\274|\210\3378\246\016?=TAq8\251A\263\272\211\222\2117\332\311l\271\314\244L8\250HG\271j\351K7\224\257\331\270v{~9gG\305=y\343\2638\372T\272\270\273\016\335\267\350\361\030\270({\250\267\037H\005:\327.\212\273\277U\252\271.\224\026\271\0003\331\267\352\255\240\271d\255\035\272\312-m9Z\376R\271\273Xe9(2\365\2676\363L9\267\324\3408\212\004\221;]\334\3329\232\202P\270\212\n\030:\354\234\025\273\260\004\032\271\360\\\002\271\343\036b;RM\035:_e\261:\266P\2719\020\275\0377\255l\027:\322A1\275\276\300\206:P\004*8\034rz\270^.\342\273\350\272\013\271\0276\274=\342\345\330=!v\3569\257\246\225\270\231\202x\272&7\203=\304\357\215<\224\206\213=\244\032\213;7\332\2565q\332\0026\256\242\246\267\246\333\356=P=P\272\207\215\327\274l\260r9aD\241=\326\r,8\263\347\254=\202\365\032\271\365\234\220\271rs\3439\"`\235\273E\245\256\273\276\324!9Fj\3439\032\323\216\276\350z\354\271\205\232\274\274`\021>8\206\305\310\273_\217Y;H\020::\322\360\273;\354#\256;\370f6;\204kZ8\037M\3339s\335R;}|(:\006<#8\322\033\254\272\347\\\234\270J\300\265\267,\tB9\232\370\347\275Lo\306:p1\0236h\230`\271W\363\367=H\334X9:g\002\271T}\210\276\217\022 ;MQ)\275Py\2639Rw9\270\336\' 9\256\351\314\274\234\202\221:?Q\2179\340IP9-\000h\275\002\211\2418\324\365\230<\333`+=]\370\3678d\034\3567\324\357\005\271*\r\251\2745\224U;.\n&\275F\377\22186S\2776!Q\230\267\034\216\2536\213\226\217<[\r\324\271\n\036D\274\352Jd\2703,&\272\334\200\016\271\026\306\206\275\274T\2636\233*:\271\364;38J\3039\271;\337m\270\004\3571\270F \0049\351\005\014\275\230\030\2538\275[B\270x\245K\270l)\217\267\2447\365\271f\214\3219\360g\203\273\2648q\2710\234\311\271P\013\302\267\323Q\275\271\337\232\213\272\236\255\0029:\360\013\271\346|~8_>\217\266+\302\0259\032\341]9\2022e=\034\253\\\271\200\004m5Z\304\014:O\317 8\252\263W\271-\177\026\271>\341C\276\367\311\014:\272S\371\273\020\217k9\032\275\2446`\000s\266\005s\337\275\355\235v:\333\345\0038k\3657\270\370C\262=\236\"a\271j\345\313\274W\266-<;\264\005:\020l\2118Fu\036\271Z\263p;\212.#=H\3502\275\261\353\235<\2713\226\273\3413\240\272\212\353Z8ar\003\272\220\222\226\271\016zk\271\210\250\275\2734P\220\271A\324\377\271\270\r\001\274\204\300\2267pX\216\270\357\365X\270[-\3627\276`\213\267:p\364\270\244\21399\357\337\2518\243<\3618{\2233\271\223\276C=\264\376\213\270\030\213\212\273z\230\2339\232\332\214\273\207-\214\272H\351\230\273Z\275\027\270\001\3454\272:\037\322\273g\351[8TQ\266\271\265\260\2259\0131\345\267\275,v9\255\302\t\272\231v[<w\177+\272$\230,\273Og\242\274e\223\3478\362uF\273\363\316\304\266\240\243\236\274\217Tr;\325C\211\273\372{\006\273\306\002\257\273|@\2038\200\363\230\273+\302\031;~\203+\270\263\347\234\270Ut\232:\226j\325\272\237 2\275\304\220\332\274Ge\201\275\335\367\024\275\331\351\327\274q\004\226<\376\224\276<\200\333\r=\304e\233=\306\317\257<\214!-<\003-\240\274\250Q5\274I\257\210\275B,\340\275\343\214\351;\030\020\235=\253\353\374\274\343S\221=\244\034\374\274\226\330U\274 \353\005\274\"\366M\273\030S%\275\331\253w\274\215\270\274\274R\245\340\274\240$\007\275>_\211\273\207\202p<\343\276}\275\010\305C\2740\335\245\274fG\253\275U\030\\\275~\203>;K\247\327\274\202\266\\\275\222\374\t=P\030\345;5\266I\275\3145\341;\347m\024\275;\254*\275l\333\026<u\235\027=\237\211\310\274\257\365\371:\301\260D<\r\0375\276\237\216\207;u,\320\273\002\243\232=\241\261\222<T\237\207\275\032\245\223\274Y\021\007<\023\312\324\275\372\261\335\275\016\256\371;\373\3574\275zC\364\274\376\342.<F\206\017<\252\202\253\275]\337\274=\006j\263\273\017\360\203\274\217\271\304=\364<@\275uo\233\274\2557\352=\014\244G=\247\024\210\273\310*s\274\326\275\337=\261N\277=\203\220\210\274I3\025;\350\005\213<#+\230=v!\221<\314+|\274\356\261?<\000\212l\275\037\306\'\274\360\210\201\275\367B-=\t\304\350\274\214U]\275Ti\264=\254\335\033\274@\nc<n\244\003=W\241\323\275y\366\r>\024\300\216<\t{\376=\0015o=vI\232=x\246\264;l\310\277=\273\346\370\275\213\231\306<\373\215\250\274\205\034\203=\035\375\177<\216y\367\273\307\313\241<\324E\265\274\240@h=\242>[\275\363w\216\274\005\3458\275#\252\203\275\310u\3538\267\332\310;p\335\245\275\334Y\320\275\315\344\220<R%\367<\340\312\013=\010I\350\275\177P\241<%VO;\020S\373\274!\275\032=\321\373T\275\324\311\255<\202\324\000\276w\025A\275\234\332\271\274\216\340\010\274\003\3108\275\341\333t=\251\334\272\274\006\202\243=`\337\210<\304\n\302<\022\321\014\275\230\244\275=\205\376\221\275+\n,\274\216\232\203<@|\234\275\332P\223\274\254^\020\275x\221\264\274\303\1771\275\317\020\374\273\3719L\275\225ZT\272\226\021\235\273\231\360.\2757\250\225=\030\244\243\274\tK,\275\242\020\344<\275S\223\275\211\217\256\275\263e\232\274\251\t\035\273l\353\262\275xsx<\352\024\260\274\201\376S=\372\255\250\274\330L1<qF\037\275\311\365\313\275\026\250\262\274\346\352\247\274\244\024D<@9\275\275g\255a<\364\251\010<EI\266<U0\374;\260C\206<\277\305\355\273\355y\030\276\t\332\324<\344.I\274!\276u\274n\235\253:\337\313 =\350}\321;V\323P<}^a\273\001\027\254\274Tz\003<\351\342;<T\301e\2753sm\274\031\005\262\273\215\256\033\275\245\322\257<\315\204\314\274\r,~=i\215::B\372\226\274\255\036\337<Q\000\217\275\224\023\204\275\275\215\323\274DU~<\241yP=\000\033\255\275\350J\217=\025\207\033\275\274aR<\236\357\006\275\010\374?\275\177\035\271\275\305\220\361\274,rG\275B\311\251\272iV\024\275\035\n\033\275.\335\370\274s \n\275\331\217J\274=)\227\275P@\306=\232\322c\275\236\310\227\275\211\345\006\276\235\312\310<O7$\275\001N\324\275\033\273E\275\026@\317\274\333pf\275\356J\241<\272\216\345\274\321\246\'\275.\\\001=>W\353=\363\007p=\222\325\310\274\315\010.\274-\342\222=\217cZ\2756\347\251\275\262+\251=QT\251\2741\304\207=6\010\374\275k\262r=\307$4=\3329\201=\214\000\264\275\237\016Q\275\322\211\375\274U\364Q<\314\244\022\274Wx\321\272\004J\t\275\nr\251\271&x\2539\202#\036\272\222Y\335<9\037\2409/\330\006<\016Zo\271\363\350\223\270\250I\3515\364\273Z7\334\3630=w\345\006;\305\214\000\273\016\231c:\2473\006;N\347~\273\207_\230:u\340j9\003\257H:\272\224n\270\335\223\2579\355\373\3168\350\322\264\270*7\2719;6\244= V\266\267\255\363{\272 YC87[h\271|\'\363\272>O\221\272\256X\027\272\331\304\326\271\\\002\3109\264k\2148\234\000\3149\353A{\270-K<9\272\"\016\272\022\203\276\270\033\302\2067\310Vk7\345\225\200::\321\353\272sP\357:\t\227\203\271\332\002R9\255|H\275G\034\2717\010\207\n\271|\327+\271f\036$\272\233\242\r;\036\373\242:\217a\014\271\304\n\2119\335\206;=\236A\305\270\266\360\016\272 \226\315\2673\030.:e[\335\271\017\342\t>\311b\371=\337\247\230\271R{Q\271\302p\214\271XUJ\275\214m\210\2701\222\035\275\220\315\227<U\250\2157tx\310\265\n\277h9\025\003\016\276\004S\215;\023\334\'\273\255\231\3659bBZ\276\260,k\270\3428*<\325\037\243\272\302\205#8\177\211\225:_\032\330;\301Ic\273\210@\245:\010\360\3009\375\361\275\275v\254\225\272[\331\237\270\205~\233\267xT\300\272\227\206Q\273<\315\365\270\014F\r\272\222\305\034;\224o\025\272C\306\245:\036\267\0349\000\353\2475\034,P9\235h\0209&H\303\273\245\2355\272\204cm8\032r\216\272/\241\345=\243\211\246\273\242\343\245\265r\273\013\272\365&\352\274\303\371\0068\335M\034:\377Ay=\336<:\271\244\313\032\275\212\230w9\342\222\214\271\236Ki\271\213\230\177\275\310\027\265\272\001q\014\273\274\267\":\236\021\002;\006\261\210\272\316\355\210\271h\277(<f\277!\271\265\31779v\351z\271^\314%<\235\202\3529\217\203\270<\247\343G9nF-\270>!\3756\256\361i8\024!<=Y\302\304:\312d~\272\034\023{:#\007\372<E(?\273L\250S<c5\0069\036\367\2429\352\302\222\270s]\3578_\177\2308\324E\237\270(\210\0079\244\262\010<\203\r\231\271Q\352\352\270\333R}\267\374%\365\270\374\375\230\273#a\216\272\016\372\334\271\245\220@\271P\016V:\350\242\2627\334\220\0329,\211\214\270/\305r9\037r5\271\346\030\251\271_\273 7j\244\203\267\264\311[\272\342+\021\273$IU:5\374\235\271I\330\2679\334\356k;O\036\3168\274<\017\271\203\002\376<n\207O\272s:\234:\357\261\260\270]\236\200\271\366\005H9\017\274\002\275\031\017\2379=n\262\271\370S`\270]\375\212\274\314#\n\272\2610\267\274\241:\354;\026\217{\271c\370\2459\010\317\365\270\370\"\236;\3733\201\273\236\333\266<\223+.\274C\023\177\273\270c\261\267\r\263C9\236w\277;Hh\t;4\212\003\271\337=\002<\206v\344:|I\037\273\334\235\370:\277\232\2009H\014\2527\250\021\2725L\034\3019\004\002\3108\026-x\271J\237\3218N0D\272\302\215\277\270Q\177.\271\374\234\211\273\377\355\231\271\260\204\317\273&su8C\326\026\272\212\242\025\272\325\240\334:)\220\3508\256\307\3119\200hP;\366\365\2729\2743-\272\t:\2449\322\317c7\254\227\0217\303e\231\272\264\375\010\273\256\366\3449\000\315\306\272\363\003\252;\211&\033;3\266\255:\271H\024\271\027V^<\244\260O\272\375\342\275:\202\031\221\265\331\2165;n\345\2358a,\322\272\260\312\002\272E\254\177\271x\030\306\270t%h8\034j\024\273\032\267O\276\350!\'\275,\013\306\273\242\226\253\273b\222\001\274\"q\027<\213\033[\272B\223\335<\213\242 <\242\254\017\270\360\210\300\267\032J\007\273h\027=<6\363\235:2}\003\275A\332x:\030T\344\275\242\260\350:\025Hv:\376E\271\273\220\326a\273\324R\347\270\367\251K\274`m\372:!\240\003\273L\256\233:\216\014\347\275\237$C\273\007T\270:\225V\322\270\\\353\224\2724\202\205<\007\367\256:\037\337\362;\207\235\212\274@<j:{!}\273n?\2079\253\267\207\273r\344\304:\355q\024\273[\255\004;\025\373)\273\266\246\017\273\332f\251:\260\244j\274\366\222\026\275>E :\261v\231;,\223\221>\211_\000;\312+&\270^\307\335\273>v[\273\357\006\020\274_\263\267\271\310\233{:\310\000\273;^\242\341=?\316\313:I\366\257\273\203\333\203\273$#\034\275\237\021\2649\234\377r\274R\r\366\275\224\027\234\273\007V`<s\232H\274\260\322P>\204_\030\275|\260\203=\241\'H\275\353\002\017\274gJ\007\273o\330\313\273?$\002\276\017\262%=\373\346\006\276\006\251O;\0276\242\275\006\254h9\303\271\017>\031\264m;b|\231\274w_\033\273\364q\345<\213\0143\275\301\3256\274[\313\340\273,\346\340<*\272\201;\247.\214=/\344O:\227F\201=l\021|<\323{\014\271\220\017\326=\342\234\314<$\307\344\274\024\261{\272\036\265\336=\204\007\251\275\271\001M;\342u)\274Z\034!=\374T\366:\305\262\202\273\340\234\370:\236\004\352=X\241(\275\370z\367\273\253]\002\273F\005<>\336\221\214<\215\037h;\351{ \275\242\332\277\275\236\326\237\274\'\033\203;\005\025\215;Q<\253<Z\337\243\274\032\254f;\252\352\002:\313\322h\273\204^?>\006\305/<\346H\311\274[\030z=\364\365\266\273AUR\273\301\302\221\273PP\213=1\024\212;f\220\337=\351\221\313<\"\301\3259\370\250\373\267\261\336J\273\362\341f=K\260\301\271t\020\304\275\337&\320:\302G\331=8?\200:\336\264\231<\343\300=\273\211\305X\274\356\252\2236\215\226\271\274H\0145\272\260\030\355\272\034o\276\271\025cg\275`B=\2724\353\350:@\205\0318\003\035\330\272\016\272\302<\267\236\216:X\225\325\273\356\360^\274C\347\361:\334\220\273\271k\224<\273\240\013\231\274B$\177:9\'-\273cJ9<\230\021\310\272~\326\020\272X\305\213:&s\315\275\332\231I\275FI\002;Aj\350:{\024\336\272\330X\272;\323yO\2710aU>\231\276\010\273\030\322#\274\002\210\277\272\202\344\314:\021h\261;s\004\033\275\322\230\034;\005q(\273+\235\360\272\270\341t<LM\270\270\3106H;\303\326\341<4O\273\273&\366\340\273i\030T\274\236\275\021>\241\030\335;\233\001\351=\365g\t=\266\005\263\274\021\312\006\275\334\242\007\274\265k\250\274@\"\336\267\263\355q\272\372\263V=)\356\200;\260}[9\035Jk=\342Y\250\273\324\251\232\274!w\004\274\016>\212\274\r-,:p\027\327\273\251j\003\274h\343\301\274\270\013)\2734\214\013;\225\232\310\275\327\274\271\272\265q\243<4\306/\274\366\256\363\274&\377\260\273\300\223\256<\210\230\351\273z\370l<H\350\204<S6+<\342\306(;\t\261\013<\352\236:\273\317l\315\272Tw\017\2753\366M\273.\223N\274\352-\020=\323\372\004<\037f\231<\335\177\234=\020Q\257\273L\250\'>\264\256\000\274\005$\311\272\301\307\241;\223X\223\274\025\'b\273p\207\000=\355.\346<$+B\273\231Rx\273\246\336\211<6\364\025\274\366\225\374\275uf\266\274\014,\243\273k}\306\272\212A\234\273\250\r\007\276\023\203E8\234\374\254\274\312\233c:C\343Y9\324\t\213\266_\375\237\272\201%r>\035\271\300\273\371G\321=\254\025\252:v\355\233\275\200{\2009\006X\356;0h\273\272_\357\213\273\371,\222\270\326\341\341\273\215\2120\273\320\213&\273\0141\r:\240\372\334=\222k\355\271\2021\027\274\300z\3039&\353\220\273]\323w<\342\251\302:+\227\000=\207\274\241\273\345\355\372\272AY\263\272\252d\003\274\303\355u\273\260\323\273;\330\274\352\273\304\014\271\274o^#\273\366f6\272\031\243\321;\371\376n\273d\211\272\274\355\214\007:\213P`\272K7\361=\002U\3349\244X\2369\274g\221\274\341y\2018\312\226\321\273\354:\305\271\r\244\322:\377\2309\2749\340\353={<\346:\025\224m\273\2020\3039KY\362:\373\332e;E\177\257<\017\345\344\275\226\254\227;!\243\222\272VV\216;\202>y\274^\223\267=\324@\224=+\251\337\275]\371\241\273a\016\351\2723\366-\274\341G\356\270\204I#<\246qm\275\016\336\347:mI\227\274N\341t:\345/M\275\372X\237:!M\231<\200f\343\272\341\367\316;3b\227:\255\214n\273m\210,;\270\365\266=\010s\212\271\221\341\200=-\200V:\222a\356:!\233\006=\216\311c:\312\357\366<@\267]\275g\003\253<\014\032P:]\224^=\317\301\232=F\262l<\327\263\234\273\210\376!\275\303\001G;|k\257\272\n!\211;^5\260<hD\024<\330;\270\273&)\014;L\254D>\005h\352\273\277^\211\273\010Y\010\276]\356\207\275\312\206\221\274;`u:Z\330\202;0\300\004<r<\034\276\376[h;K#G\271\366\321K9\316R=\275%?U\273\361\204V\274\014\206\316\275u{\200\272\304J.\272\376\361\"\273\034#\026<W-\205\273:\223\214\274YG\257<\034u\236:\006g\245\267\t\346\001\273\201\035_\273N\020Q\273\217\260R\274\377|\215:Wj\236\275\376\362\002\273,;Y\275d\274\007\272\330\177\335\273\364\\\021\271\200|^\274\300z\002\273z@\254\273\230\207\2068\367w\331= l\2059\333\367\322\273\203#\300:\360;\035\273\326\277\264<\202i|:s\026\001=\350?9<&\242\241\272 @\217\270\253\370.\273\3732\213<k\253\250;>\365\202\273\250j\357\273k\017\300\272\246f(\271\025\204\201;_\035\002\275\350\017\336;\312v\256:b\240\261\272N\303\322<\353 \247:\360\266\2529\230\234q\275.}h\273\020]\240:\3066\004\272\331\231E;rv\210\274\025\217B<}O4;n\311\374\272T\221x\270xx\200\275\\\027\224;\357\274\367<O)\031\275Jml\272/\035G\273\010\007!\274o\246\205=kF\223<\206\352\233\275<t\222=I~3\273\252\000M\274j\007\313\273\363\202\354\272j\330\211\273\032\376\211\273=\330\014\275;\013b\272\216\376/\272\003\372\365\272\322\027f\272\332\241\"\274?\227\037\273Tpr\274\372\177\025\273\315\302\017\274*;\211\273\241W\276<\316\013L\271\333\377i\274\350\234$\275\003f\253\273\003[\017=\317!\216\273\257\223\200\273\276\275\207\274\356\t\013\275\n\250B\273\344\242\346\274ry\374\274\274jb\274\212U\010\274\3217\026\274g\0358\273\'Y0\272\241\334\221;\214U\313<\016\256\227\273\314p\026\274\267\240O\275\313~\321;O\253\313\274\266\014{\273^L\311=\201,X\274m\225\207;\254~+\273\261\363E\274P\316b\274\362h\232=\306\371\000=\304!#\273\032\234\270\270\276\031\213;?)\261\274\232b\326=C\317\244\275\371\237\\\275B\353\370\274\337\315\306\274\024\354\225<!\317E9L\3370\275\313\3032\275\346\353\257<\202\257\326;\"\205\216\274\374P\264\274\322D\033=\355\3009\275\375)\311;\256\210\036=\345\205\361\274wut=\252\320\354\274\2040$\275\034\245\000\274\200\331\252\273r\316s\275\304\3604\275X\312\356\274V\326\315=\246w\355\274\273e\215\274@\203s<\202\361Z\275\0168e=>[\230\274\232\326\230\275\323\210M=lP\003;\231n\020\2759\325\250\275\3203\031<\223N\317;:\341\264;\336\327\001\275\375b\324\274\360\235\276\274<\272\024<\256\006\246=u\221\366<\2407\024;\351J\365;s\017\227\275G[\222;\246\220\267\273N\302\034\275Uj[;L\3076=\206\236z\274\270\227\361\273\025\325\031=\356nJ\276\200\256\366;!\224\206\275<\002\366\2749\304\263<\003\276\031<\370\3346\276\214\347\014>\364\324\370<\200\230f\275\275\260\252=\3546\024=%\371\210\275g\226!;=9\265=\345<\221\274\231N)\274\373V\337=\'4\363\275\230\"\030;\305l\370\273\201Q\234<>v\206\273\263^\326;\014\3425\275\031\207\243<\340*\035\271\000(\375:^6\201<G\024\035\275\213\271\275\274h\3214=t\320A<\347\345\364<\254`+\275m=\345<ZAF\275\325\220\335=\234\254\024<i\t\302=\020\337\266\274G\330\240=\027\007\"<<\254\200\273e%\340=\262Q\273<\232G!<\304\233\253<w:\220\274\222!\014<\033;\235<\202d\204\273,\301\371\274\343\202\325:\211\376G\274u\262\210=\360\370f\275^\214\226\273\300X\321=\252(:\275\3414\263\274\277F\260<\241i\214<\014&\353<Y\014\251\275uh\235<cY\211;\247\236\206=\010\361\343\275 \276?\272\007>\236\275\036Vk\275\034\302\224\275x\336\274\274\254\370\002\275?n\370\274\233\301\251\274\301\215\273\274~\331\266=\315\'y<\326\\\360;M\317\312\274.\360\215=\3273\027=\231qu=\352\364k<\036\266\263\275\361\274\216\274\341b\254=W8\234\274\254\362W\275q0\362\273\234\0376\275\033A2\2753\265\005\275\223\005A\275\312\353\026>N\307\230\274\022\rS\275V\204\325<0\260n\274\316Y\r<\260\252\214\274\373G]\274\tG\350\275\220\371U\272\306?\236\274\263:H\273\356 \203=f=\036<k\201\317\274\372U\220\275\r\332\247\2744a\204\274`J@<\311 \370;;f\224=\245>\345;\232\363^<:1\021>\254\232[<\177\373\315\273,\311\311\275\256V\250\275\212g\236=\370\305=\274\221\365+\273F`[\275(\001,<\254\246Q<;4=\274\035\205\310\274\326sM\275\217,d<,\360\033\275u\202\363:T@7<9\2653\275\017\tW\275\030\025\216=\022o\002\273GB:\275]\317\276\275\030\353X=7\270\246\275X\250f\275n\375\263=\273\214\225\274\362p\253<R!\002\276\376U\245=F\370\026\275\357\216u\275y\253\005\275G\006\014\275N\367d\275\304\251S<\255\323s\274\230\342\225\274\264lc\275u\372\t>A\343\377\274\3405,\274\372l\336=\351\333\013\274\215\351\203<\231\354y\275\026\224\240\275Q\251%\275\214\213\362\275\034\264&\275\311\360H:\022\2528=\363\020\225\275\274x{\275\2542@\274\333\333\364\274\307h\363\274z\'\222\275\036%\026>)\005\211<\230\214\210\275HgR=7\255\266=\376\236\035\276\371Wk\275+wO=0\376[\275\244\303\025=\t+\232\274\025\217\014:\224C\014\275K\357\030=?s;\275\'[L\274P\357\003\275\261\223\026=\221+\247\274D\037\n\276\200l\257\275,c\254\272\"X|7~\336\032\271b#\213\275\276\242\315;\240J\023=\241\033\026<\360P\036\267k\260\210\267/\274\0339\'\035\271=4j\030\271\240WY>\340Z:\271\216\211\350;\n\030m9\024\323\243\271\2148\234\270\267\302\205:`\330}\266\346\023O8\315\202\203\272\342\001\2209\024\360\3218\277\3425\276m\31798Oy\3229W\351,\270G\t\027\272j\001\023<g\355\3019N\323\212<\033\204\365\271\347q\3659nt\232\270\004v;\271\206\007I\272`\346\2759\245(\351:#\021\253:\230\315R\270\207SB8\234\250\2469\230G\002;<g\333\273+%\2419\000\244)\267\325\220\254\273\220A\2578\300Tk6\272|\343<\241\000\301:\237\273g\274X(\274\270\310\243\0367,]\276:=\032%>\016\237c9\\\036\025\272\020}69\324\214\003\275\300\252\3448\366a*>P\264\206\275\234\242\272\271\361r\3639\215i\204\273\251D\374\274\220$\022>\340\2546>\257l\237<\244\203\215\270\3652\3506\003dU\273\306\212\267<\207\230\"<A\257\265\274\3524\242\271(\001\005>h\227\23396~d>\253%\2069\212\340\246\273*\370=:\204\276\221<\214v\200;wKm\272\355C\340:\250\312\350<\357\345\217:\3157\355\273bl.9\256\224T\273$k\352\274x\010^:\2104\231=\277\352\003=\006\003\206\273\020I\'\271\205.K\274\261\234L=\362PH:\223\345P\271/\004^\2726z\3479\217}\302\272\365c]9W\325\263\273\036n\225\273C\021\217\270tP\3079R~t>\203\347e\271\271Ef\272!\323\376=e\013\024=1\273\022=R\375\2479\230\242\3537L\271\373:&\273\250=\005\252\021\272\202\350\2439\344S\231\272xY\'\276\326\2278:\300p\021\271\013\340\002>A\177#\272\274+\017\270\010\310\330\267\026(h=\300\306&\273\343\265\230=`\215X;\n\"\3745\014`\014\270\237\214\3428X}\223=\025ur\272Y]\204\273~<2\271\004\357\206=\200\235\377\26640\375<\024J\305\266{\371\34788\360\3407Wu\355\270\004\017\023\272\007-\0369\350\037\2118\265\345\004=;\244\0167d\373\3628\217\360\353\267\222\363?\271\272\274h<I\027\2279K\232\344<-\261F\271\226\233\337\2711^Z\270\272?\2109\026\256L\272\211:\2249\023\024\2139\243j9;\321\233\2347\345\245\0208\230\366_9jC3\2750\224O\27447\3159\200\202\014\2722\276\2018\2138L90>\2537\003\023\001=Y\001\227;\372\026\257\274\226\226a9\275\320\2568\024\310\273:olI=(\310\234\271\3630$\271\030\331\3318dQA> B\2519Z\305\236\274K\376\306<\223\205$\272\'\3519\271\276G\r\272\276\005\300=\263\347\003=\215\215\273=\02094=\323\336\224\274\036\377\030\274\253\335\200\272j\202\344;\240\273\323\271\272\032\344;\204uN\274\0278\014;:I\2579\027\377\312;\314\211\214\270\010\276\276:L\265\022\273\213\374\t:\337|\001\272]\351\2249\274\016i9\316{\007<v\031~\2675x\021:_iW\275\242\353l\271B\223\022=.b\0348\002\364\016<\r9*\272\204\342\253;\\i\003\270\340\371t;nX\032\274y\306\266\272\301\026#;q\274);1\350\037\270av\2368,\342\205\272\331\312\266\274\335\326B\273\360\030x;\343\\\014\273\006E\274\270\315<\2339\305\024\005\272\314|\200\275\341\343)<B\214\215\274090\274\363\257\202\274\227P\t;\204@\037=\207^t;\014\r,\272Q\016 9\342\203H<\003\220\037\274<c|>\035\007\372=\327\326\005\274Z\330\275\272|\333\253\273\0011\262=w\374\223:O\314\367<\226\201\327\273\264\022\n\271\342\177\24170\254s\270\240\343#\276\304\035\212\272L\234\263=\372\r\3429\266\260g=_w\003\274\234)w<0\271\253\272\262\331\211\273\223\236C9\240\'3;\016}\003\273\027\355\003<r\r\3519\036jK\276\217)\224\272\317\363\316;\214\270\2449\354\303\026:\240\265\242\274:\360 \273\207U?\274\320d\277\273\341\3068\271.\233\000\273As\272:T\233=97\234)\273v\365\002;\030\305C<L_\262\272\215\023\366\272\020\"S\273\277\360O=\245`]\275H\243w\272w\267\025;\220\327;>g.\024\272O,i\272\002\020\245\275?c|;\257\327h\273B\314i\272\366\243\006\272\361\323b\274yO\241=\324\034\234:P\277~\273j,\004\273F\204.\275\363\261\210\273\215`\360=\020\"\274=\337\001n\273\245\271\330\273\270P\301\267\263a\260\274\370\'\027</\317\203\276\000r\326\274U\315\000\273_j\271\272\226\014s<\002u\305\2769\276\025\274B\206D\276M5Y;\237\301a\276\002O\210\273\232=&=k\313\273;\302\334\254:\353x\"<_\247\253<\355\207G<\332r\010\2743b?\272RT\334\275eH\032;\311E\376<:\0204;\215\325\270<y\353\017\276v\0371\273\316-\253<,\2404\275\337\232\007<\253\315\217\2737\027+\274\320\207;;\206\201Z\272\"\320\334\273\003@W\275\377xd9\327\336q\274&\236\276\2734\341d>\202\372#\275\010\222\315:\213\027\240\273O\017\262=X\246\241\272\032\275\272;\267\2566>Js\330\274\342\353\317\275\275\257\361:\'\251\001\272\257\277\331<E\360j\276\316!C;X$\227\27132<;\023$_>UZ\341\273\375\202D\275>\001!>W\355}\273\275\2104\272NlR\273\215\0228\275\240\306\302\273\"\325$=U\376\336:,\374\3308\227\337\3448\320]\344\271;\267w=\306\021\246\272Q\014\234<\347\361\255:|/1>\377\244\"\274\260)\322<\357&W\272\343T\301\272\303\204\2659-\022\212\273\357r\325\272\376=\327:\023\207\3368\353\3571\276\347\317Q\272\342\014\234\271\264b\3779\365\014n\270Y\370L\275\007\354\027\273\305\246\266\274\010E4\273\272,\034\271\260\356\235\272T\036\021\272\020eJ\274mu;\273\334\234\016:\256\267\022<\300d\346\271\314\016w\272\216\341\221\273\320I\371<.b\254\274\006\000\221\2722K\215;/\250G=:l\2279C\005\200\272hfK>b\001\212;,\007\355\272\320?\235\267\014\305\225\267\366@A\272%m\252=\235\204\334:_V\274\272C\366\267\272\017Y0\275\n\317\225\273\243\032\262\275*\037\236=;\266\322\273\035$=\273X\321\277\273\222\260\273\274\203\304\212\275\226\340\264=\031\023\000\276\352\026\021<+\260\221\274\207`\272\272\324/\210<\360\215\236\272\261\024d<`w\254=\324\241\312<\033l\037\274*\230\202=\244\305\254\272\252i\360\274\020\242L\274\306\353S;>\204\265\272\324\224\241;\202V\371\273\201\003\003\275A\233\217\272\212\336.<\251\303w\275\325\253\3209X\335\014\275F\216\202\273\325\021\205\274\306\001\253\274IK\006\274N8-\273\021\033\223<T\257!\2743f\265<\240`\216:f\347\361;\270\354\353\272\270|\345\272\3571\017\274]\026\004<\240\372T;\331\234\270\274\027\213\025<G\267\303<\332\243\031=\321\001>\273\027Z\267\274\314\240\220;\211\327A;i\200%<\017\272T\274\245\254$<\364\237u=\032iz\275\013D\236\273\325\256\014\273\017cE\273l +\273\274\302\201\275\206\211\230\275\215\340V\275\322\202\206\274 \246H\274\007\362;\273\340\210\024<^\034\306<\231\311Q=\022\2376< \350O;/\020C\274D\"b\275\031{\326;\3631\227=N2v;h\277\262\273\262\217(\274\244\200\022=z\275}\274\247\217\274;1\373A\273)\214\271\273\361\300\323\274\255\276\206<1\232\264\273a\203\233\275\321\264I\274\312X?\274\305\234\274;\202Q\022\275<\263\315\274Or\371\273\320}\005<\226A\260\274\310\317\026;\313X\211\274(\251\301\2749\266\367<\341\274\256;\264\204\007\274\006\201\264\274\340\374w\274\304Eb\274|\027\330;Z\201{<\230\305l\275NBb:E\215\263;\352iK<\016\217\211;\276b\004\273x\224\031=\274\327\010<\271\233\3329\303,\003\274\246<\307;K\030C=\347\326\027<\331\r\203;\255\212\254\274\200\322W\274\212(\365:X\252\226;\220YM=e\254l<\236@\"<2h;\275\275PA=~\220\014>\035\024\227=xI\274=B4^=\376\201\035<Z\r\235\274N\265K\275\260\033G\275\202\213\244\274\244\010\311\275\261/6<[]\233=\022\3327<\321.\241={QU\273*\027\211\275\335\376\t\274\274\305\034=\345\326j=\374\200\216\274\223]\361\274\223^$=\307\205`\273\264\213\236<\3054r<,\007\233=p\026\262<q\317\261;\273\260\232\275zA\037=\267\220b=c\233\031;\023\3074<\356\030\310\275\260\330\210<\354\326\317\274=\360P=\341\356\\;\326=\004;:/?<\335\236\214=}\352G=\026\373\337\274O>\021\274B\006\343\274\214J\3469\005n=\272[):=\256w\003\275\304\253\336\274\177l\370;\226\000J<{\004\310\274\022\311\315=\213\263\035<\206\307\365;\030\262\026<98\007>\377\267o\274#\216!\2747\306\300=\334C\320\272?1.\274\222\212\233\274\335\220\267\274)6f=^\202#=gp7=X\354?<\311<\222;\225NO\274\004\317\236=\214\213\240<\000W\204=\270+\013<7oi=\357\340\240\273/\356V<\221\256\030\274\312\272A\274y\302\225\273\340!\347\274\247\210\372\273\025\\\006<\271XR\274\3449/=\326\345\302\273\r?\371\274i\273H<.\241\000\275\253\213\201\275\033U\350\273\335\356v\275\004\247q\274\325H\";\260\377\013\274\315\375\037=(-\006=;\203\322;\024(H\274\265\265\'\275f\244\027\274\212\004\320\273\347V\340;\261\237G<\327\347\236\275\356]\247:\223\304\354;9}\325<l\360\r<\367\342&\273\237\256\206<5\204\206\273&\260u\275\320\204=\274`.\274;\026\000\234<\217k\374=\233\030\313;\266\321\244\273\312\374\034\2740\313\334</&\271;3\275\017\275J#j<\322\232\352;z%\204\274{\255\003\275\276W1\275o\243\017<\242\260\201=\377\245^\275\264\350\226< \306*\275\031T\307\2747\227\016<\234\335A9\225\036\030=\366\026<\274\"\241c=\365\355\207\274\202A\315=\331a\202\274\345\321\337:\327\333\003\273\343\214*<\347&\005<\235\333%\275\211\342\006\275\335\344\252\273$\024C\274\322\024\314\274\311\204\221\273\300\333\016\275A*Y=B\323\261\274\354>\201\275\000\353\031=\366\207)\275\272\300\233\274\024\225\276\274\344\214\r\275.\305_\274\342\023\207<\'\014\327\274\354Nz\274=<z\274&.H\275\370\211\035\275\017{~<(\032\254\274dm\324\275\350\356B=7t7\274X\005\217\274\032\343\236=\027\272m\273r:\375\273\2151\202\275\365\256\231\274)@\367</\236\265=\021\n\301<<|\234\274\0247j\274\302\275\203=\271r\320\275\341\376\001>\371\273\360\275\371:\031\273\000\215\0179\214\342_\272\'Y\245=PR>;\000\365r<\232\227\240\270\266,\024\271\225h\2107\333\306+\272\362]\003\276H\342\236\272\225Z\253\274\335\207\260\271{\346\027\274#O\223\273\003|b;\254\356\304\271\231\\i\271\313\022$\270UzE\271\360]H\270H\354\003\273\377\267+:\363n\360\273\247\234~\271b\316\013\273\013+\23192\242\337\271\001\337\221\272\030\262\027\2721X\277\273,\310\274\272\265\3214\270h\327\024\272\236\204\305\272\324f\2348z\027\026:_\220\013\272\357>\300\273V\21508\027\270{9\301\3072:d\207\315:\326.\342:\274\023S\271\016\351e8+\340\327\275L\240\005\271\276\257\010\271F\227\034=g\220\362\271\355\345\200<\216\013\264\272L\345\000\272\376\267\377\273\336t?\276\031+x:+\302D\271RBu\272\216S\307<\006-\362\271\354\357\r=\213\236\240\275OY\217\272\331B\277\272\304N(\272\347qt\276\206KC=\256\214\033=\257\276\315<\240\340M9\220\307\030\266\245\367\377\271\270\205\247\275\271*s\272qH\247=f\022\201\271\034\037E\275\\^\276\272F\333\031\276R?5\271\203\234\003;\213l\014;\033\312\226:\230\213\024:\177\265\364:\306(\3359>%\214\275\303\371\3309{\204.<p\34009\303wc\273\207\203R=\034\032\"\271\r\005&=k\316P<\266\365\3029\370\177\212\272\301~\231\273\247\257+\275rU\203:>\326\2609\355\257t\274#\236\3129\316\177\225\272\225\355\177:>\310\271=c\242]\275`\210\206\272\237\345\202\271\031 \376=\362st\272~%\26291\350c=\006\315\201;E&\321\274D\306\201\272\236\n\007\272\342\345\030\271\262\227E=V\024\037;[n\271\271Ga\200\272\337\214\275\2755\375\264:\240\037\220=\223\316\302\275\356\247y\272\004\034)8J|\366\271o\025\n=\1776\004<\004\274\204<XV\203;\256Tk\270\226\334\2047\033\322\304\271\304\265\t=<<Q\272P+\034<\222\351\316\271\023\222\010\276\310A\264\273\022+\234<\323\372\233\2711\217\3048E\206\2577j\354\363\270%&{\2715\341y\272\343w\2169\270\325\\=\371 \334\271\245?8\272Q\222\0319F\274a\271\376\241\n\274\372\246V\272\002\353\276\272\257`%\272\0044\013\271>\314\"\272<\3274\272\037\355\376\270G\271\2139k\367\362\271\375=\205\273F\343\346\267\247\226[9M\232A:\212\353.\274\236[\206\272\2462}\271)z\33696\"5<\345b\255\2702\273\"\271:\007w;.\246\3508 M0<\232\216\215\272l\210A\272%\211^\273\355\302~\275G\254\315:\263)\363\270\244\241?\272y\030D<\366\314\215\272\006\206\237\274\300\335\263\274\236~\262\272\237S\0319\0073\010\273\245mB\273eP\272<\267\277,=\311\254r<N\275\023\2744\034\232\273\267c.\272\017\202\232<\016\344\233\272\273J\355:\244D\327\273\362\034\";\237k\240\273\231\312\201<\334A\252\271\216n\222\273&\332\267\272\266\366_9=\006X\271%\320\325\272\3101E9z\212\"<2j\307\271\037}!\273\273SY\274\221i?\272\302\272\025\274`\254]\271\272\256\265\272\303YS\273\367\305\016\274NZ\001\272\205\301\032\272\363\253#\274m\027\324\273`\316r\272\2358[\273\257\227?8\331\360\2139\001\354\025\273hd};=\025\252:\331\363\3548T\204q\274\302\237\344:\235!\020\274\256\373\205\271u\024U=\264\325\302\272E\035=<\247\010\261\273\202\263y\273.\000\225\273+\340\370;@\332\226\274\325\254\203\272 j\214\272\217\007\033\272\204\034\316:J\256<\275\210\361 >,\313\276\273\232\272\202\274T\355\231\274\341\276U\273\226\022o;\033\2134=0$y<\243\272\t<\241y+;F\0324\274N\245>\275t\032I\274\3202\257\274\370\310i;SD\024\275y)2\274\234k\017=\205p\204\274\243OI;B*\371\272\023\337\370\273y\034S\274\010L\220<\367\227\334\273\345gl:#\025H\274+1\n\274D+\202;\340\375\230\274\322\302K\272\335\330\357\273\261\t^\274S\257\006<\020@\313:\337Q\201\274\354\001\300\274S<\270<\250\315{;\353,\255\274jQ\302\274\307TG\274\345\334n\274\306\371\243;>\377\311\273r9t\275\223|\3009\334\317\262;\225^\r>,\351\212;\276\032\356\272\002\0257\2757^\"<\036\346X\275\030E\361\273\240%\245;\3515\037;\326\265\273=\264\210u;\337E\376\273\230\372J\274\216`\200\274D\340);9\312\000\272F~\210=y\364\255\273+\307\312:(\225E=O\3222\274\235\037\314\274O\337\331\274\304\207\316\274\013u\035\275\nS\263\274;\346{<\320s\363\275\326\027\344<\250\305\367=\275\356C<\031\t\206\271\327\306[;o<\032>\245x\344;\022\271\272\273\217\323\022<\246\364\237=XNv<\314(\233\274\206\231\021=t\230%>\353]\320;6O\251<\\08<\256\234==>\355\322\2757\002|;#\366\350=R!+=\247\330\212=\363y\235:\224Xg=\251\276D\275\373\016S<\255\321\031\275\022\332:=\303\203\264:~\2412<S{\036<n\254\256\274\271\036?=\033(\016\274\023nD\274\031\227\006<\372=X\275\223\373\212: \022\250\274UN\225\275\307\276\371\274\224\"\031<qM;<\327<$=\034\0276=\244Y\017<|\342?;,\252\360<\264\361\020>\033\030\375\274O\370\000=\0071\234=S\310\356\273\001\036*\274.{\035\274\344\340\236=G\035\331<\260G\253<<\026c; \237)<\345\014\263;\002j\013\274\013\2405\275\321\007\314:\215\230\031=\230{\007<\255W)>\247N\272\273\001\216X=\242\030\037\274\342X\263\274bT\205\273<\324\321\274-\231\371\273*)\300\274\266b[\274\273R<=\2722\311\273 \034\316\274\353\335\023<\346c ;\365R\001\275\215\303\322\273%R@<nT\336<\3527\207;o\307\010\274\200\336\351\273\023\325\271<v\033\237;\021\236\3779`\335m\274\017\306\n\274\206\231\275\273PR\272;\032f\231\274\271a\223\275\261\372F9\322\347\312;\320a\241\272\201)\017<\221\222\027\273\007O\321=]\307\307<\375\273E\275\316\2567\274\374`F<2\346\314<1\240\357\273\351\376\271;\273\235\032\274\252u\022\274\177H\301=\016\205@;\025VC=\276\360\222=\261\010\023\275\211\341\210\274\356\030\'\275\361\320\267=.\206\007=\364lq=-\302\013=\025q\307\275\247\300><\3359:\275.b6=\'\340<\273R\037\276<K\"\313\273\361\3565=\311\023\213\274Dp\005=>\357\207\274\001\373<\274\177\367f\2748\354\267;\330-\260\274\211\021\372\272\215\270\016\275n\245\230;\373\213E\274\360{a\274\345y\252\275K\366\374:\274\261K=\363i\337\274\013\270\206\275W\002\252;\365q\025\275\202_\244\274x\276\212<\300\361\327\274\333\275O\275\203\214\363;\335\365\264\274\366\276F\274Ssr\274(\3615\275Z%\037\275\226\001B\274N\222\260\275\351\221\022=%\344_=\326&\237\274:\340\031\275\371!\224<\336^\366\273_ \202<R_\225<\341\336\357\275\376g\322\274\210V\246<\223\307%=\364\235k\273y%]\274R\275\013=\\b~\2756]!>\270\325\225\275h\300\240\273\221V\342\272{\252\236\273%\353\230=\36757;\260\r\016\273A\267\237:N\016\2009\347\233\0108\\\324\263\272\330\353\241\274\266V;\273\246\025\255\274\300\270[:\255F.\273\240\227\201\273\204\236\236<Qw\246\272\266\"\007\274\\\344\376\270E\306\330\273@\223+\273\351=\305\273\344\306\004\272\021\270\223\275\006Y7\272Q|\262\273}w\3579\215\374\304\273\360\353\305;<.(9\367\315\204\275\201\316\333\273\006ui\272\016\317\261\2722\210\324\273\326/\237:R\234n;%\020\036\274\017\373\177\273\210\0036\273 \032a\272\2729\254;v\316\256<;[o\275&\330\214\2718\001\3129\354+T\275\205\255\2649 \367;\266\237\241}<\347^\"\272\361\317\232<\034\226\306\272<U\376:\226\226\363\274`u\302\275\251\364\031;\211\351\221\273\251\274\235\271\343\3264=\006T\264:xJ\372\275\375f\255\274\222c$\272\334\030\210\273\336\301\220<\360K\025\276\311oT\274t\225\200\275e\275\215\275\324S\005\2746\230\002\273\000\345\323<\242\313\341\274\335\2535\274\256\372\203<\303\370\354:\305b\221=\002\305D\272\331%\036\276\022J\272:\374Kw<\313\212>;\357\t6\275r\024\334<;\\\270\272\201\240\033\273\361\322\007=\0379u\272b\000\254<eZ\360:\203\361\336<V\272\265<p\235\2207\002\327\217\275.\212\230<\224G\301\274\326m\3559{9u=\326\306\213=3S\356;r\250\035\2733+\035=\310]\017:AX\247\272&p\213;~\241I=#\252\230\275`\267\023\274\242\203x\272\030\013\370<jI\007\274=\274]\272>\250%>N\234\214\275;\210\022\275\232\221!;a\372\266;\361y5\274\0046\007=\373\000\236;\024\2417\272\354h=;E\306C=\273\321e:C2\305\274\206\234\373\275\320\223\273\273\270\275\231\272\374aL\273\324\227\027\275\216&_9\014\177\027\274m\032\240<\026\003\270:6\360\2118\311\234\321\272\331\035\026\274/^T\273\204J\303<\304\220q:\224\031$;\243\002\337\273\222\266>=T\250\027\272\010\356L\274\240\364\213\267!^\216\2740k\010\273-\n\227\273\343\013z\272@y\242=P\231a\271\264c\005\274 \001\370:\'\003X\273k1\336\272H\210\n\271\2748\363\273\3155\362:\376\211r\272\372\031\017\272Q\337d:M\323\367;\202^B;\321\232\227\273\006\322\201\273\033`\304\272{\215\320\270\034-y;&\332\220\273<B\r\275,\367P\2715\307\237:Zr\301<@T\310:*h\r\270\377\026\017\275Tn\346\272\201\236\353;\347-\210\272Y\\w;\"\006):\271 \305<;Zg;G/\370\272\241\366\244\271\327\022 \275\3658\023;\236\224\023\275\210C1\275\031\314\326\2739\267H\273\300\327 \274\234\3415<hP-;\271\034\350\2736\027\264<c\233\255;+\241\236\274zk\207\273\362\235\245<\216aw\273\351Y\234;\034\022\237\274\332\245\"<\032w\243\273\355\261\022=X{{\272\315\315\312\274t\255\326\273\255\232\224\274O0\025\273X<\352\273\202D@\274\240\006Q;\200\213\010\272\014\343\367\273sU\014=\214\257\250\273\036\271\261\27381j\273\374\323\021\274 \311\315;WC!\275\253\202\013\273\202\215\346\273\335&\237\274Td\224\274\367nK\274\361\002@\273\322\023M\273\374\271f\272\230`\205\272K\306,=cm%;\211.-\274\332\365g<\306@E<t\214\032=\314J,\273\221\032\226\273\221\325\027\274\333\244c<\222.\010\274^KU<\305\202\200\274\3145\233=j\256\204\275\246\022\232\273Gk\030\272\327\203\022;=\362\205<,\203\245\275J\206v=\021\017\213\275\270A\216\274e7\235\274\214\237\312\275\360\312\220<<\350\000=J\027\267\274\005DH<B\301Z;\305PP\274\236\004\326<\026\272\317\273\002\212\241=D\272Z;\371\330t\275\366%Y\274\027\252\"=\021e\206\2749L\216\273\363\333\205\273\0276\365\273\322P\271\274\n\n\n<\254\036\342\273\322\335]\275\201\262}\274\343\'\350\274\253\342\007<e\2759\275\342\246\210\274\252\350\002\274e\304\201<\333D\211\275\310\210\203:\357\274\222\2746\3536<:\0075=\365\225\247;\257\267:\274\002\370\217;$\274]\274\217=\212\2744\246\354;<\024,=\3500+\275\345\017%:\025\261^;>\016\227=\306\010d;\267R\366\272\346\204c:\337\205D<Vx\255\274$\335\010\274a\262\210;\262\353\037\275\031\350\255;\254\232\211;\235:\034;\276\205~\274\300\311@=\332p\217;q\000\347<%n\243=\376\371\324;\307\354d<\366E\305\2749*\200\275\034\276\034\275\322\306Z=\027\002\216\275,\345\003=\307\266\002\275\323D\205\274\351\244\247=m0\334\274\224\336\264<\247\025?<Q\003\317=\030&R<\315\253,=d\364C\272\212T\341<\332B\016:ND\312=\24158\275\3618+\274\221\221$=\212\\\220=\261\037\266\273\307\333g<\260N\227<&B\311\274<-f:\360\r\352;t\334g\274g\255\207\275\260%\327<U\030a;\n\223\202=\267Q\310\275!V\212<9\3003\274\376\264(\274\254\344\262;\230n\n\275C\245E<\264P\335\274\273\024\330\274\262\037\333\274i\352\353\273#\231\005>\004(\315<\332\202O\273x\250\273<7\010\301=\317\343\340\274\023\033\031<\223\0074<\273|M=\215\355\222\275\337\306*<@\230\026<\362?=:\237\312\023\274\361#v<\"E\345\275\235\212\323=$\352\372\274bQ8\274L\275\376\2735\022&=fh9=\345U#\274\217h\211=\246c.<\215Q\201;(\211M\274\262\351\213=\306\261\374<B\345\t=Y9\017<\\\t\276=%i\372\273\366\232\231\275h?(\274d!\226\274\220\354\257\273&\022\255\274T\037\022\274wkW;\277\325u\274\033\2530=\336,\360\273l\004)\275\206\200y<\261\210\333\274\255A\205\272*O\376\273g\310\004=\304\300\267<|m\203;\344\341&\274YB\177\275=Rx=\036{\320;\035J}\274\215\033\207<:.,\274\006\\\347\273y\265\000<@1:\275\035\2734=\315\376\203:X\376\334;U\016\271=\344\310\370;\356Q\022\273-\207^=\251\266\374;\"\305\273<3\2521\274\020\024\033<7\274\230\273\220\216\207=G\006\350; \315#9\320lC\274e\363\265;KB\250;\365E\021\275\025\361j= \355\254\274\020\177\252\274\327Y\013\275\310\2044=\250;H=o\376S\275\210\021M=\225\235\324\275\007\351\301<`\006V\275\214\341\215=\252\201\254\274Q\376\354<\365\r\231\275\320\266S=\020\237\237\274S\033\250=\321\232\214\274\257\237\364\274\323\246+\275D\372\363\272D\203\253\274\231\253I;\355\364\003\275p,\211=+\215s\274uO\250\274\021Q\221=\257\261&\274\034\324\217\274\002\004\335\274\364\3209;V\262\223\275\355\266d\275\215\334\247\274\225KF=EzI\273\357F\014<i?\025\275\220\254\t\275m\215\212\274*\033\212\274\210\242\274<\243h.\275M.\236\274\341\035\327\274S\347\014\275\363\033f==\340\"\275|\375K\275\033\350\256\275x~/\275\250e:\274\364\361\270\275\235\317\351\275[\236 \274\211\347\022>Li\016=uO1\275\376\254\216\274!\332\206=+\241\243\274\301D\222\274\233C\214\275\002r\231\275Z\r\235\274\305\020[\274J\306\242\274\251\352\301<6\t\362<\327T\r\275\216)_<\266\206\246;\236\rT\274l\253\265=Q8?<\372\313)\276t\337x;\351\321\262;\305\271\220\274\301\331+=b\315\253\274e\377C\274@.\245\273k9\005\274\375\203\347\274\374\262\225\275=\225=\274\312)|=}\310\242\274)C\361\273\020\265\020<\336\373{<G\376\007\275\313\3612\274\210\253\217\275\272\304V\275\351\177\351:Ya\232\274D\230i\275\301Mq<\360\034\231;Y\243\013\275q\225\324\275Q:\221\274r\375\224\274\267\367\324;r\216\340<\\\305z\275\302\"\025;\026\325G;\215\307\323\275j\032[;z\246\001\273\373J\276\274\220K\207;\202\366*=\336\302\034\274\017\031G<\002E\355\275[\357\247\275*\256\254;Xp\030\274\020\252\252\274s\334\267\2744\202\231;\220\257\332<rt\361\273j\266\243<\364\264\021\2756\260\210;\245\236;\274\311L[\275\n-\256=\371\203\226=\330\213=\275\350\014\246\274k\252\316\271x\220\242\275\177a\031\275\244\373\022>\351\204:<\324\300V\275\222\265\266\272\214\267\300\274\323<\333;\310~\016\275~\336\334;lg\353\274\267\355\374;\223\327\240\273&\014p<\356R\366\275\327\223y\274\310\343\255=J\217\221<N\215\244=G\265\322=\373\002\334;9\226\240=\245\270;\275\207\300\207\273\020\372\202;yU\373\273}t]=\001\273\205<\372\376\216\273\342\341\207=A\217\010;\377\262<\275\031\205X<\224\331\376=\005\323N=\375d\017\275\320\033\003\2744 \373\274ZdW\274\231\320\216\273\025r\277\275\352\211%=\320~\232\275\376\022)<M\017s<\335\376\'=cv\005>*aS<N\352\324\273Gu(\275\n7B\2756]4\275\353\265\251=H8\320=\266\314\242<mto\274\361\017u\2745\357\361\274=C\026=Y\3757<z^\214<\030\305:<\272^9<\302\003*\2745)\014=\352B\220:\342\013\375\273\035\177\013<\342\366\204\275\3017&\274P\345e<\341\010X\274\017\030\001\275G\005\314\273\355-\213\2749v\004\275\233\353\035\275\2262\311\274$\276\254=\227\276%\274\353\002\005\275\300\341{<\214\034Z<\274\220\375<\320\"\'\274If\210\275\270\377\221\272\r)\365;E\034X\274\304U\253\274\220\226\211\275RG\277;\262\243\272\274\364m\223\272\337\007C\274\332\330$\274\332\256\002<\306\366\376;U\370\025\274\300\344\257;\222$\306;r\336\036>\333\251\361;\262A-\273m\272c\275\312\273s\275\213\204X\274\361\321$\274&Fg<\016X\237\275\376\374<:\275\365\r<\260\207\004\275e\267|\274\202\321\221\2753\021\315;\346\2534<\027\377X=TrE\275\0373\326\274\357t0\275\310\2467\273@\270\026\275\240\336\356;\177\357\305\274\261\242\247\275\373\\\013\274!\332-\275a7\t=\253|g<d\035O<\270\302\261\275\372\322\206=`\'\312\274H~\271\274Cp\243\274o\005l\275\376\032t\275\2240\201\274\004\252\024\275\353\314\201\275\305@\t\275\313n\005\275\305q\233\274\352V\255\274\327\274\267\275\276Ws<\014I\200=\035\250\r\275\343\351\030=\330\263\305<\031\250\215\274\034\361\216\274\373\231\256\275G\215\r=\355\014\245\275\334\223\210\275\024n\356\274\037\007\237\274\214w\242\274\223k$\275\270>o=\273\337\2369@\373B\275\0349\236\274e\357\234=\240\320|\2752(b\275\007CI\274\223\273i\274\257\004<\273#\256:\275\377Y\301<>\331&\274(\337\327\273\270Y\361\274\014-\010\275\235\254\271\274\0375\244<.\325\325\274\316\010#\276\364X\246=\371\312\002\273N\363\261\273k@\034\274R$\246\275\243r\337:\361\014\353;>=\001<K\212\005:\r\272\2079\276\255F\273qx_=F \"\274Xq2\274%\237\231:\014\024\312\274\352\'7\273vU@<`\303\226\273\220\177\t:\245o\3477\272\226\2339\212w\351\273\004\257\211\274\352xm:x@\254<&\314k\273\026X\r\274\327\202\265:\2218F\273\311\344V\273\210\341\323\271\026\242\314\274\277\241\344\274\201\013\007\272(\367\270\273\360I\252\273\350\230U\274\t\230f;ep\324\272\301, \273]\231\250\273*\207=\273O\350\206;7\026W<\002\007Y=\256\321-99\201\023:D\212.>;R!:\034\254\333\270xU\303\274\022O\257;\265\343\244<&I\013\272z~\341\271\326\271\027<B\324\277=t\275\010;\376\365\225\273\233s\225\273\"\206\350\274\014\210\020;\037.\001\276\003\376\232\275wP\361;\203\007\376:\343$\213\274ZB\201=\220\263\356<\2451p\275J\000\033\275\365\253\302\272\253\207\371\273y\354F\274\036e\256=\367\352\2118\342c:;\266\220c;\213IF=90g;\272&a;\ty\332\271\277=k\275\304\375\262:!\250*=\037\252<;X\355\001\273\306o\364<\210,\304=\233\321\246;m\030\022=&\362\306;\315\377O=\000\256E\275\216j\2229\213\225]<R\350$=\335\370\350:\336\314\247\272U\371C\274\362\211\317=F}/<\030\212\234\274F4q<\006\025\343:\037\265\252\273Wb\251;\372Z\021\276\220\245i<@!\305\272n\301\306\272$\237\362;:\0204\2730\244\023\272c\025\336\275\t@a\275\344\254\006=6|6:\365\253*:\200\034\365<\032\204,\273\253\"\215;\010\310\232;\276\357s\273\001\016_=\323\020\004\273\3634\2619X\t)>\312\021\004\274w\215\002\273\314\263\302\273vI\223\274\332\347\304\273\247\254d\2745\366\034=@e\t;+\301_:\373\302\220\273\257t\017=\032\236\234;l\327\362\273Q\016.;~\201\260\2737v~\273\334\236g\2751e0\273\345\222\031\273\236\006\033\272jc\002\274\223I\241\273\272\250\204\273|\213\000\272\366b\206<\005#h\272\275\255@\274\257\236\206;\313\226\322\271\377\255\006\275\361\t\n\272\344Fk=\262\361\233:^\256\243:.3\003\273;$\263; <\013\275\205\205V;0\n\275\272\343C\234;\006\263X\273\0000y\272\211\211\212;\006\275\353\274\372\250\037\273\327\032G:x\300I:G\364s=\nU\003;\034{\264\270\020\220\255=\035\264J:\362\363\277\274-G\330\272Z.\254\272=\340#<\345u\210=\004\034O;\003\035\032\273*\322[\273\266\250\241=\332\237\375:8\257\n=\332\351\245=H\031Z\273\306\177\003\274\206\311F\274\262&\206=>\267\016\273\373\224\\<]\210\326;\300$\014\275\217z\200\274\202z{\274\351),=\225C\026\274\004\225w<\354\377\030=\r\220\303<\270^\274\273mxO=<t\217\273`\377\027\274aPE\274]Q\200;\n\224\305\273RD\253\273\025\"\336\273t\371\344<\007\234E\273\321\3060\274&N\271\275\371\316\200\273\311K\210<\246I%\274\351\347q<c\245\007=}\222\315<\255\010\376\273s\241\224\275\305\311}\275\010\003\024\274Gs\031<\323d\030\274\351\350\263\273\352\0013\273)\336\364\274<\325\025<\362\004\205\272^\030\277\2747\250\231\275j\316\304<J\026|;\021\321\242\271\352\364\025\275]\035\367:\351\212+\273\3537\r\273\300}\026\275\201\226\251:\277f\220<dg=\275#m>\271\363\032\242\273\234\337\356<\310\005\235\275\340\310O\275iT\204=[\244+\273\215\320\350\273\232Y-\274y\354o<\354e\336\273\230%\247;o\272\027=\275\002\005;|\310\25593;\215\273Bq_=\372d\003\274OD1;\252\262\252:\215:\250\275\374\337\037\273%\276\256<\020\231\360\273\3272(\274\303\363\000\270v&T\274$#8\273\'j\237\274\207$9\273\357V\202\274\335\255\207\273!y\005\274kg\242:\013e\301\273\010\331r<\010\302(\272\257\330\261<\311\372/\274\200\360]6Z\213\341\273\364$\207\274#\340\225<\376?b;k3%\274\365\301\206\273\331\312\302\273\022&\207\273\004y\244;\227~H;\273\347\365\274RT\3759\211X\202;\006\206)>\315\300\014;a\237\244\271\346\313\247\274\024G-\273\345\246\342\274\367\365\346\272\367\271y;\235\362\247\274L\357v=\340\226E;\357\010:\274\001}\227\273VMW;\031J\005;\324\252\006\276\313$c\275\212\242\227\273\332\n\202\272\245\235\006=?\333\370\274\236\232\177\275\252p\244\275\2139*=\211\236\347\274\215\255\351\273\026\371\207\274\351um\274\352,\010<\032\232\310\274q\035\244;.\234\016\276\323(=;\314z!=(e[;\303\234\036=N\205H;ws\313\273\014i\364<\335\213]\274\027\376w\274U\222F>\373x\356\271\241\271\261=l$\263;\301_5\274\007$\003\273l\311w9\010\030\330\275\217\3209<\235\271\005\275\235\376\222\272\352k\264=\025\312\303\274\265\355\014<\221\013f\2748\\\203\275y\346\026;\004\306\214\273@%\304;\307\256\020>Ad\204\275\372f\205\274O$T\273\220\321\017>\203\001\367<\320V\307\270\257\212\212<\346\334\205<F\210\375;n\376\026<\343\224\037<\370\037$<l\3564\274U\335\272;O\365\267\272^\312\335;\032\200:\273\032\r\303\274\205<\025<\017l\230\275\035\223x\274\337\346\212\273\361\346\344\273\313\367G\274.\236/<\2647\312<%\t\005<\327\314\230;0?O:T>\235\273\\\315@=\277\0327\2749\254\202\275\337u6;\301tk<\275\025i\273\023V\023<o\373[\2736\231\247\274\000\276%\272\206C\350\274f\315\025\273O\356\r\2735\331\232\273#_M<(=\253\272\013J-\274}\340a;\t<d\273,6o<\322&*\272\357\235\230\274\251h\303\273PZ\2319\310\326*\273\261\342d\274z\023\205\273gi4;\276\334\324\273\377\267b\2733\277|\273/\256\211\272\263;\205;\370\366\254\275\013\n\347:\326\305*9;\004\020;\276\031r=\275\225\264;\310:\344\271\323\361\227=\320fE\274;\000\340\273\344\262{\273\\\237\235;\347\364\267\273\303\367\0318\361\315\210;b\221\246\273\'\032F\273\232\346<\275\202a);]m\302\274;\037B<\nOV\274\272\224\034\274\214\004\200\274\330\026=\275W\245\033\274Z\246~\274\222\203\254<\231\343\246\273\201\234\021\275H\341\217\273G-\270<\016^\251:\337\371X;\247\322\r=\310\343\214<\217\353\306\273\204\021\356<[:\324\273\345\212\005\275\220|_\274F\276\254\273:\327\221\273\217t\266\272\366i\300\274\034\257p=\271e\177\273\252\350D\274\030zm\274/\356\304\273R\033\204=W\376Q\274\354;\202<7\222\220:+\236|\275\301\356\030\274|\315\277<\345\033\362\274\372d\036\273\233\202\232\274\252x\030\2722\002\317\273\331\276}\273\214\375\331\272r?d=\356*\276\273\316\000\234\274\364\024\264<H\231\314<\353t\247\275=z=\274\262`\260=\276\363\247\274!\363\027\272\273\020 \273\360LL\275[~\261;W\277\014=u\002\244:x\373\035;\013\346\255\273\343\204\204<\377\314t<\373?\274\275\277\324\240\274C\252+\272Vf(\272\003\345\002\273\033\270+\275K#\302:\337\233:=v3\010=G\2005\270\000\007\203\265\252\302\2019\3227z\275-\306b:#N\271={\n,:{\365}=F\242)\272\034v\267:?\231\336\270a\242+;\355\027\320\270\212\"\247\271\270v\027\273\322S\3159\202\255\2559\244^\315\275\240\366\034\271\203d\033;mb\261\270\355}6\273\2134#;\370L\022:<~\210<D\310\016\273w\336{:\r\352\017\272\300\246\212\272\372\325\2078\352\270\241:\340\023\212:\020\327K<[\374\256\272\232Q\212\272{\247\3359)\303\225<\336\221\200<\312Xw\271\245R,:+*\t\276Ml\2159\371\r\020\271\324\261\211=\235\243\030;\320\264\201;\\\t\024\270\211R-\272\301\355\234\271\004\033\n=\263q\021:5\331;\273R\344\2319\220\260\036\275\306\244\3649}_\266=\266!\253\275\330\246S\272\\\262\016:X\232\211\274v\305\203;\323\247)>W\254F=\365t\246=\225\002@\272\263\255\217\272\342G4\271\212\256/\275\020\275\266<S\211.=\225l\307:\352\213\024>`\226Y\270\267sR>\032\336l\273V\263\025\275\254Q\014;\273\322\'<!\267?\273\212\024%\273\214\013\330;\333KA\276[\326\021\272f]\342\274!\221\303:\276\373\021\273Tk\271\275\372\302\247:pT\344=;t\222=(\0270\274\355g\317:\275\376[\274\336\324\245\275~\245s;\355\374%\273\363c\026\275~Mh\272\'\275j\271\337\320\3059\312\310\177=\273\364`;\252\355\3329\230X\301\272\374\370]=\350(\377\272\201\030+:\202\354\003>#\252\246<\017\206\214\275\252J\002:\364\2376\272\311\210@<\003\322\323=\016\304X:v{\303\271\326ZG;\376l\020=\367\312!\273\363\316\220<+.\">\3058\244\272\\\240\3128<\n\261\2726\'Y=\r<k\275\007j\215=\357\035\307;W\275\333\267m\37037\206r\006\272\324)\"=\334\336\013\273\367\177g<\323y\311:]\377h=\360\230\331\272\316\242\215<~\261\314\271\361\237\2529%\244\213\270l\3120\273\263\216\336\272\265\033\3729\211\245\0059HXK\273\004\250\3047\317s.\273\202\030\t:0Gt\272\017\351\016\274H\351\3229\300;\035=3D\300\272]\275\002:|\203\317\267Vm\315;\177e\267;.\354\312:\242\352\005:\366N(<\276|)\272\031\037F\271\300b\2529#\301x\274\321\"\352\272b[\233\271\031c\212:\273\214x<\004\344Y:\311\343\010\271\244\312H=\252\014\310;\243\241\251\273 \032\3358aO\350\272B\r\3739y\001\017=,\021\2659\315\325\207\272\307Z\3058\013/#>\250\361#7\247v(\275Ew\201=\322\236\007\273\326;\311\272\3033\225\273\347\321\032=u\304\303<\247\212\375=\335\377\360\271uz8\275\320\036\311\271\206([\273\346w\301<dd46G\317-<\022\215\\<\205\271J<\310n$\272\230\326\324<\252\254(\271\331#\341\272\222\276\375\273\242\226\343\272+q\311\272\177\216s:>\257Y8Wmv;v\rB9~\"6;\366\026b\275\026\223\272\272\315\004\004\273\357\330\223\272\372\277e:\317V%\274\233\231\221\274\346q\212\272\200\347\t;\001e\215;\376\277\357;\242\tI9z\261E<\'\334\253\272\031\214\"\272\317\r\025\274T&\235;\013\241\356:7N0<y\346&\275 s\000<\037\261\202<\"\0307\273\314\317\344\274\351R\255\271\252\324\221\274Z\300\226\274\310d\003\275?\207c\272\036\003\000\275\262_\304\2748\"\214\273\355\334\2729\346t\257<\275\331!\274\277\002g\276]\025\350=f\006B:\375d\367\272&#\213\273\215s\013\276\024\350&;\020?\251;%}\037:F\244d\270\0053\0177:\332\316\271A\223\013>\301^\001\273x\336?<2\333\":\256\236D\272\005/\233\272\316C\014:\224\251\203\272}\007\205;\202\317\211\270\363\350\177:\272re\273#\323\006\274:\212\215:\331\312\227>c\204W\272\356\261,\274\270\242\317\270~\017\004\273\261\224b;\020\343\004:\031j\365:y0j\273\272\2118\271\266\372\310\272\344\335q\273\rw\241\273f\2409:\273bQ\273\r\363\240\273\341\253\353\272[\007\277\271\000\237\366\265\312|\030<\335\377P=\306?\274\270>\312\210:\tY&\274d\256@8\337<\024\271\222X\363\274\222\361\211;\010\tr<\266f\001\272\205\222G\272\202\027@;\335&\242<\212\375a:\263Ne\273\261\024\234\272X\345\026\275\260aY8\322n}=\031o\037>\312\251\333;\n^1;\253:\016<\n\244\005\274\020\314{=\214J3=<\036\016=Ii\014\272\354\200\330\272\334F\177\274y\346\276<|y\003<w\331%=\224\034\005;\327\207i>\234\202I\271q\215T=up\001\272/i\220\275\246\311\231\271\257\001\231;\205r\331\273\031\255\253;y\305\222<\214\213~\275\311\035/;\372\005\003\275\205%\202:2\262\343<!3\301<\304\017#:C\267\237=\243\345\212<0H!\275\376>:\271\000\313\312<[r\210=\330/Q;x\362\272\273\206\351\373\271\r&\2447\\\004F\273\200\010\330\271\225\244\357\275\217\262\247=b\356\243\270\333!\350\272\263\246\031=\013\343E\272\014\0304\271Rq\016\275\252\334\301=\343 \023\275\206\371\330\270\220\247\020\272\035H\205<\342\371\212>p\325\331:0\316\177:\314\250\223\273\366\362\334\274D\225\211:\023\010\216=\032\217G>\227\347]:\037\"\225\2719?\026\273\377Z\255=4\237T\274\023}5\275\327k\3509\226\363\226\2677!\r8b*\247\272\360\207<=S\222\227\273P[\276\275a(*:\321\263\305;z\370&\273\337\013,\275\223\';\272\234\3325:\3565\217\267\332\337\3269\030:B\273\2574N\273\322\242\3159\337\024\032=f\2741\270\331\234\330\273(\t\3169\207C\371\272\354\332\240\273\301\351\2669E_1<\303N\026\2739\243\3619*\246V\271\021\250{\274G8\312\274\31554:\013\022\002\273\333\366\340\273\021Ux\272\360\362K\2672\221E\271t\255\3179\227\\\271<\250f\'8\206\t\213:j3\235<\344\377\2249\310\242!\271+\252\177<\2774B; \'\263\273\251\366\201\271\361D\373\2721/%\272\205I\t\276\236\034\231:\246\357\330\272v\324\\\272}v\262<\302\365W\271\010\364,\274\254\234\247=D\036\023:\322\322C\273/`\363\273*\277\254=\342b\271<\271\236d\273+3\223<\002E@\275g\352\014\274\024\214\364\273\221\341{<]\022\222\272;\213T;i\316\326\274?\227\351;\n\235\007\273\372pk;\034\216^\272}\020\006;t\311\014\274\325\313U9\221\203L\273(W\317\273\271\300=;7\213\230<\024\365\"\271\375BZ\274\223\265\337\274\227\307\007\273B\020\256\274\257\344P\273\036\033\264\273\251\321\322;\210\2521<\327H:\273\342\"\t\275\215#Q\275\2633h\274\364a\306\273E\326U\273\303\352\002\273\000\177y\271\366C}\274\217\322_\273\265<\033;\301\246\016\274\344\271\221\274jT\034<\020!;\2737\002\331\272\304\256\213\275E\007\034\273\366\260\263\272\276\240h\274j\374\010\275\245\233\205\273u\262\027=\371\0040:\n,\027\273?\252\265\272\r\303\215<\306\222\022\275Sg\014>G\215\207\275\300\342\205;\301\n\215\274\310s\250\274\\\264\276\274\226?8<\035b\223<\004\364\036<\007\351l<\254\371~;\312\023@\274\227\234\025\275\310x\320<\326\353\372:\277nT;\010iJ=)\253+\274\\\266-=G,o\274\034\235\265:D\002\210\273C\026:\274\301-\347\274\246\335\342\274\344 )\274w\013\214\275\\\310Q\2740M\336\274Y\342\026<\340\312\013\273r\207^= w\343\273\200\200\270\275\275\023\013\275R\2631:Z\325\211\274]\202`\275\244i\363\274y4\302;\203\274\323\274A\302\372\274\275\204\202\274\277\013E\274k\365\002<\370n\351<\307F:\275\324\001j9W\031S;\277\343)\276\366\227\201;\330\005\026\273\225\000\243=\363\334p\274#\313\330<v<\r\274\177\021+<\000\264\317<\354\006\300\275\213\366\220;\343\276\333\273\342\346Q\274\005\346\256<j\223\316;p>a=)\371r=\377w\207<\033\360\244\274\375\n\330\274\337\374\034\275\032\222\243=<\372\330\274\000\213\021\276L\211\325\274\373f\257\274\255\177;=A\315\227\275g`\027\275\313\317\210\275`\'3<\322jf<\016\0320<\274\204\003\276\350\3731\274\001\264Y=8\302\230:`\257\241\275\3436\023=\025<c\274\004\022\t;\023\370\320\275\254\003N\273b\347\206\275\274\251\247<\300J\t<.8\217;\243\252\376;;\246\252\274\260\2652<1N\030\275\212\270\222;/\371l<\2359\362<\213\324\231<e\270\335\273\374\307z\275j\370E;\313m\310<\000?a<*<\032\275W\034\234\275\25202\274\331\300\336\273!I\323<>T\227<\002@\235\273\263\332\342\274\016\254~\275J=\251=\\\371I<E\000C<\302\271\203=\333\350\266=\230\335.<\323\353M:\000\177 =\034\2625;\374\357\356<\337\326\364\274b\016\366\274K\333\334;?\2101\274r\034q\274\372]\020=\334O\265=\323\031\260\274\330\307\010=\262zP<ZZ\301;\032\024\213\274\277\374`=\037k\215<d\355\246=E\236\006<\240\352\203\275BH\302\273)|*\275\256!\017\274\000\026\237\274Zx\252\273\371\233\354\274?o\206\274\360,@\274\006\362\231\274\357\337\275<\266\002\300\273\030i\'\275\373\024\213<U\027\t\275^\216\271<\026w\333\273\202\035\t\275\373\363_\275\304\263\231\271\327\003\022\274\2138\242\274i\337\215=\371Q\352;\365`\375\273\230I\213<\303n(\274o)\343\273\006(\006<\327\nn\275\312\335\227\275\300\316\365\271G\344\033<e2\245=d\272\002<v\234,\273\246\022\353\275\276\3240\275\\\334\372\2748N4\274\t\020\260\273\034\030X\275CAK=\366a\352;o\231\326\273\306\036\"\274\314\240\315<\014\363\n<\227\204\027\275G\323\270\275\2177\032\275a\003\253\274X\225o\274\363U\311:H#\304<\372\373\326\275\324B\212=\034<D\275W\227\241\275\265\307\361;\304I\304=\205yC\2753\352\260<\233\223\267\275\037\346z=<U\211\274\343\2557=\261\210r\274\312\321\026\275-$A\275T&\215\274t\216\'\274\"x\005\275\201\031%\275\031\010\333=G\336H\274\324\314\306\274\337\274\377;\326#7\275\031<\257\275\327\264\244\274\312\300\203\274\277Z@\274\206U\212\274\370\350\230\274\r\205V<\262Y\'\275\261e\270\274\355\312\341\273\271\215\357;\216\001z\2746\300\211\274\227\027\235\2758^\323=\210\365\200;u\202\006\275\351#\330\275\0030U=\352\233\270\275\273\377\262\272\273\330\021=\230\235\323\274A\227\344<B*\r=\t\203\326\275\224D\007=.\022\006\275\245\310\207;\257\230[\275\332\221n\274\302\347\003\273OF\223\275\221/\256\275\260\366\242\274\340\272\341\271\324!\3409\313H\0319\263:\233\275C\306\2029\225\266T:\207~\"\272|\017\217\266+\177\251\267M\366\002:\037\301.=\337\374;\272[\227\231\274\'#\2019\021HH=\210\226\215:8\266\364:\362\201\2419\026\275U\272\353\000\2508\274\034_\2712\010W9Tw]:\307\027\0169{\341U>\234\270I9%?z:\354a\2228\232s\2616\247\254t\273{y^:\367\266O\273;7\n\272\275\010\277\271\222\345I9\210\346\230:\203^\270\270ys\3259\016\363R\271\323g+:\205\207\0257\244#\005\271\226r\241\270AR};jc\252;`> 9\260\323\"\2717:\014\275^\222U8\214j\3228\255\016H<\324V\214:\203MG<.\007\363\271j*-9\271\216~:\233\252\357\274@\365\270\270\245\265\017\271\264\014\2619\212\016G\274\21190:c<\357<\025}K>m\374Z\272\244\005V\272&\326\337\271\255\231\327=\003Da<\220?\232\275hnv\271\256s}5\237\t\0267\210g\r:\252L\306<D\\\211\273X\036B=\036\"\257:\313\351r\276\214\377\223:\336\014\214=Qtp\272\032;\2377\217\265\003;I\371\232:\367\352\261\272g;\250\272_\315\310\266\261pv\276b7\305\272\301\205*\274\n\300\2217\204\007\206\273\023\006-\274\323\230\270:\301-\230;\203\223\323;\3341\030\272\244\323\211:\210\017\2149\266c\211\271\356\331$:.\221\2777\371x\201\272\203\032\213\271>\025j\272\352/\r\272\227{\344\275\370\240\2059\002\201\313\270d\221\305:\206]V\275&\217\205\2708\245\\\272\240\211\242=\200\223\241;\3177\216\275\212R#:\3525T9\226\242\2209\311\355R\274\203\263\200\272>\330Q\271\006\344\301:\266j\006\276\347\325d\272g=\274\272\257J\336<(K\204\271\024\23479\272\252\2228\010\035Z<\347\020h;axR\274\233*\3048\274\014n\267<\\3\270\037\030\3219\263\026C\274\033\022\023\272\220C\206\274\355-\3329p\200p=\212\037\026:E\235\341\274\327169\262@\320\271u\245\2248\257\034\000\271\364A\0169\321\n\2609\034\325\3358\022B]\275\233\354\0179\346\362\20090\270}8\354\034\301\2660/\346\273C2C:\2745\363\272\241\215B\271\306\265/\271\031\224\3408\343`\3758\353m\237\271\336\321\3129\177{3\271\377\212\2479Z\'\240\266\324\005\253\270\272p\023\271(oV=R\320a:\017\333\2269\246\212}\272\036\260\025\272t\215\0109\360\204\3668\322\262\027\274\"X^:S\nw;\210\020\2039\3422\3019Be\1779\312\215\t\275\024\243\320\271\247=\343\270\216\221`95\223\216<\374\357\207:Q\307<\275pR@<\270=\260\271\023\032\007:u\320\2519\226\n\331\274\215\002\037<\210\323\264\272\345\263\246\274x\\\002\274\207\010|\271\304\323;:\351x\314\272?\231l\272\263w\210\272\306K\216;\000\037\000;\355g\212:c\351\255\271+M\2119\023\345\205\272W\265\3348LCe\270G\252%9\243\3374:\373\214\2608c\003\2159\334\371B9T\n\235:\256\004}<yV\315\270\332\211\334\274<\n>:z\\&\273.\277\n\272_*\231\272\340^89M\321\3449\257|7\272\350\337\002:J\363\270\270\373y-:\340-\2017\357\275\374\270~\031\\\272\r\024\023<V\227:\271\246Xy\273W\215\004\273sD!\271\021!\254\271\211\255\'8<\217}\274\266\273 ;\327\230\225;0\315u9<\201|\272\355\032\021:\373\200\234\273O#h\273<.u\270V\212\2249\246\332\252\273\230\006\235:(\266J\276*\240\202\275\364\031\311\274a\263\231\274:cm\274\246\036g\2733G\205<\301^\210=+\240\306<\204\213G<+\210\200;\315JQ\274S]\345\275*\210\001=H\327\257\275~\032\220;\217\361\274=\217$`\274A\325+=\177\352\205\274N>};\254/\216\273\252\231\246\273\000\371\017\275\003|\213\275H\345\003\274\037\341\263=\010\310\210\274\256\030\344\274\360\013\376;\275\354\24194\244\323\274+\212\023\274\267\365\211\275\027\304T\275\354be;\275U\233\2741\024\252\274\205\206\031\275\254\372\261;2b\257;\'!\207\275\025\323y\274F\232y\274.>\334;k\177\201=\002Nq=\317!u:\321y\225;\251h\271\275G\023\202;\033\027\005\273\237\333\217=\0327h\274\342\207?\275\313\233\031\274\271\376\274;\227\033\376\274\225\372y\273\235\331\232;\321\007\320\274\3171~\274=\030\014=\370\004\241;\266\036\314=\270{\245=\000c;<\014\214L;\"%\237\275\006\237\245\275jm\215=\021\327v=\215p\277=y\241:\275v\301\255\274\004\200I=\246\350r\274?\277,=\353\230=\275?\301E<s9B=\351\003y<\376\217\343=H\344\360\274L\371\212\274\376o8;\234\364\013;\306\'\271\274\256p\":\033\023\305;\212\277\341\275U\212j<\006\n\021=\342\022\211<j\344\220\275=R\354\274\000J\347;\304\335\235\275W\0162\274\335\206\241\274\305d\234;)\017\021=o\364I=\256\220\216<\304=\250\274\343\3334=y\203V\272w\024\361\274\366\217F<\0244\236=\276\277\330\274\320\305\264\274\255\367\n\274I\332\351\275\307\205P\274\207S6\273\226D\266:\304\274g=T`\236\275NR\336;S\020\002<\252s\207=\304\022\277\275\027\366;<<A\276;\2475\274<\211\003@\275\236+\204\274\230\242\231=6@\021\274J\376\007\275h\257L\274\247\323K\274\377]\020=e\202\363\2740\360G=E7\234=\307\340+<\234\204\352;\245R/\274\224\216K=S6A:\256\275\201<\306X\030<?\034_\275\345\327\364\273j&1=\303\007-\274z\333\272\274\320\356\301\273\r]\236\274\301w\036\274\233\301\377\274\024\310\223\274\214.\305;\004\307\006\274?\3379\275j\327x<\365\027\271;\367\256%\275.P\n\274\370\225\233<\007#\206\275#\364\235;\0042,\274@X\244\275\364\274T\275Y\343\334;\305\312\214\274K\360\230<^\"5\274\020M\027\274Z\024\374;\ttN<S+\r\274~\377\371:\315\261\375;\202\300\355=\007L\002<.n1\273Tm\001<\374-\217\274\236\270\313\274\353\313A\274\t> \274\020\300\315<a\204I\275\257\021\365;A\353\260\274\3166E\274*\325\311=\303\200\320;]\"\271<\357\217$=n\224\010\275+.\223\274\231<\022\275\342\206\262=@\307\014=,J\341<\326\277\362\274\037\265\341\275\373\254\364<\231v~\275\315\264\320=l\312\000;\353\243\304<q3\320\271\256\263\222=g\372\244\274\016\331\237=np\212\274\303\037\000\275\334\354\242\274R\340\031\275?Vz\273\377~d\275|N\376\274\321\254\371=\224Ju\274z1\317\274F\031\314<\2444\257\274v\225\351\274\247b\003\275\316\225\272\275gS\236\275&\375\217<\021\002\224\274\341\250\217\275\207\372\013<\301\"\263\275\354\037^\274\310\317\356\274\005\205\216\274%\021\253\274\026\343\241<\314\243^<\333\241\271:\350\220\265\275E#\277\275\232\001R=\264\264\242\275\247!\220\273\027\306\213\274\005\323b\274FG*\275x\216\261\275\026\226|<\003\222\226\275H6x=ui8\275\202X\227\274N\025\210\274\244\\S=\247\201<\274\204\205\002\276\361()=\222\262q\275\350vn\274\326_>\274\370m\220\274\031\023\027<\371\325\367\273\271\002\016=\331X\001<\241\236+;\370\332\036\274\223\023\224<J\374\200<\016}\275\275\355\204K;\210!\315\274&\370\'\274D\014\342<;_e\274\375r\207\273\350\244 \273\022\021F\273\323\353\202\272\2720\n<\313m\211\273\311\253\273=\213\340D\274=\327\300\274\320\316\216;\271\331k<\214yq<\225n\332\273\322!\202\274\004L\252\274\212\272\307:\316\245f\274\336\2419<\303\0350=\233:m;)1\022\274\333\272k\274\007mL\274\316vU\274\263\210\236;\r\236\274\274m\217\t<\253\377\242:\310\004\340:\210\211\320=\340\366<;?\007=\272|s\320\274\016X\224;\232m\352\274L\004\265\273|6];x\031X\275@\021}<t e;\026\250P\273`F^\274\274#\267\274H\3513;Ljv<<\203\006>\334\201K<\031\227\315<\306\034\202=\232\203I=:Ll\274r\241\021=\363\2333;\t\216\331\2731TX\274\356\237\302:\343lk\275\370\261*;{\0271\275Z\362\022<\214\007\341\275\230\374\215<zm\024=/2\342;\024G\371\275\367\334y;\r_\021\275>0\000=w\020\005\273\220!\005=F\346\310=\000\260\273<\214y\350\274djd<\003kg\275\232\274\273<\3454\227;Ak5;\241p8\275\021\364F\275\207\035\001;Uy\245\273\023j\356=IxN<n4\220\274\300p#\275\ry\230\273\343Y\250\274\206N\n<\306Z\223\275\247\216\317\273o|P\274\335\034\252\273j\334\374<\234\227\025\274g\364\200\271j\366\220\275\030y\202\2757\334\270\275\250O\371;\201A\323;\2100\221=\007\364\236\275\312\315\t<\017\260\240;\3570\217\274+\003\250\273J\274\221\274\021\371\010=\016\\\335=\211X{\274\342\253\034\274\006\260*\274\216\364\267=S\035w=%_\241<8\026\306<\203\213\035<\030\314\336;\270\362<\274\226\021\375=\256`\370\274\254\256D\274\356\204\342;\215\207\331\274L2\272\273\363\335\206\275\345\316\022\274B\030;\274!\002\202\273\350\335k\274\247\305\002\274\274\026\274\2747\225,\274H\214\236\275\347l\275\273{m\024\275\310\375 <\n\007:\273\321\023\324\274\367\003\326\273\242\013\236=\'\260\013\274\323\355H;P\266\014\274V\005u\274\234\262\020=\000r\206;\344\027\010\274\026\337\244:\247i\006\274h\211\265\273\354d\256;N\357\323\275|tR=\017\013B;\"\304B;<?\036:u4\322;\007\212\214\272hl\275=\034\343G\274|\344\204\275\262P\006\274\265\026\324\273z\201\351<\220\360[=\255\200\266;9\334s\272\370\236,\274\326\213t=\360\200N;_\010i\273!Y\003>\245\227\324\274K\216\240\2744W\211:\341\014\206=\366\177\234;\013e\211<\363\264\210\275\016\373\316\275\246\254i\275\337\331;\275Y\324B\274O\005\255\274\367Fr<\364\246[=\247\002Z=\332\276\205\274\315k\240\274\0161o\274\372\'$\2743\221\374;\216H\264\274\212P\367\273\334S\313;.\r\322\274tQ\242=\212\031E\274\261\377\252\274v0\257\275h\004\003\275\3704a\275c\334\255\274\270\311\"\274!\036\237\275\265\013\277<WE\262\274\341\217\262\275\312\275\":\236%\220\275\3173\330<\230\2621\271\217*\\\274U\362U\274\233\240\005\2758\272@=\026T\274\273\320\3218\275\307#\236\275\311\027\034=\267\327\251<\3602p\275\006\305\362=\262\t\006=G\252\030\275\031\207\250\275\364\241i\275\340$@\2757\241\223;2\312\211\274\215\247w\273?bu\274\257\362K=T\002\207\2756\023\225=G\336V\275N\250\210\275\263$\261\274G\275\340\274\352\212\213=\256y\333<\343S\220=\033\335`<\235\241\244<8\343\017;\241\003\\\274\274\231\016\276\247\306?\274\373x\t\276\255\005\225;\324\326\223=\023\027m\274\304\327]=\301L\263\274Y\322\250\274\336Y\250\273zO\220\274\272\021\373\274T\202\226\275u\024\274\274\212\n\336\275=\343\211\274F4\273\274\004\032)<\243Fh\275\353\215\346\273\371\2566\274\342\316g\275\016g9<\304\025o:!\316\247\274\364\215\n<\270h\033\273\244\346\316;\215\302-\275\367\022\244\275.F\240\274\325\352\256\274+\206\014<\237Dq=\031\217\032;\0162\222\272\306h\372\270\232\334\366\275T\237\356;\034\003\205\273\017\341{=x\250R\274k4\276\274\306\265c\274\225\353\277;\2541\030\275\n\014\345\275\225\331\257;\001y_\275(\216\200\274\301\247\263=\336\332\n<\227\273\031\276Ru\257<LO\316:\327\233\"=_\017%=\263\320\216\2758\274\210= \375\007\275\361d\242\274F\357N\274\025\231\340\274X\025K<\234l#=o\022\323\274qu\013=\037IT<m\211\016\276\353\247o<\224A:<\315\267o<\333\201\211=\350\262\367;\013\323\360\274\027&|<\357\204\336\274\037\215\376\274b\245\226\275\336O\002\274\3335\367=jc\277<\247\356\255=Z\036\310;\277?&<\270\035`;\363L\203\275\222\037\222\275\\\213\266;\222:V\275G\031\013\2760\262\255<\2103-\274_=\317\275b\033\226\273I\035\032=\032ye<\227K\250=F\000\027\276J\037O\273\256\313\031\274\326Y\330\275gX\255\2750*\3719KM\005>7\264\200=z\277\316\274B7\223<\215\231\026<\034FI=\214\003\210<!WZ<~\2742\274\215\341\233<s\010\312\275\276\326\030\275\321\375\261=\263Y\334\275\262\220\264<s9i\274<\264\211\273:eE=*\240\022\275\352n\312\274`\207\003\275(2z<I\365\314;7,\217\274\371.^=\214\345\000\275\026h\256=\203A,<$\250\361\274\237g\365\273Qq\263<\1773K\274\307^\002\275\247>\307\273\327\255\\\275G\244Z\274\303w\262\273\022\327\003\275\201 >><\312\017\2742?\014\275%Y\241<\331\363\300\274c\205\235\274\214\001%\274\240\3418\275\350v~\275\312\206\026;\3129>\274\032e\032=c\3544\274%\301\021<c\206\003\275\027\230-\275\323j_\274\324G%\274\3519\037<\321\234\240=\035~\220\2746\353@\272\267/\241<^\322\313=J*-<x,\227\273\327O-<Ibf\274`\273\366\274\0007w\274\306\233\005=\204\365\302\2756\313c=/I\n<fY=\274\017?;\274z\330\003\276-\336C<\006\007\272;\235\213Z\275#P\305\274|\003\261\274\020\365\025\274\222\353o\275d5\236=\0078\342\274\275\017W=\330\207\306\275\030\304L\274.\ni\275\344\236\226=\376\372\342<\267\200\300<T\220\231\275@\374\202=\242\030\261\274}\264\000>\2202\257\274\350\t$\274xnJ\275\245\221\205\275\245,\315\274\003~?\275\306\033\177\275\374\215\r<\373?\203\2743\020\201\274\337\333w\274\007\357\231\274\210\264\036=\357\r\360\274\231\321\262\275BVn\272f\'\371\275\261\034\264\274\2032~<\247\326a\274W\364\216<\250\3715\275r%\024\275\373\252\311\274wH\253\274\'\351S\275\256&\303;\302h\344<\374\356\304\275\342e\241\275\tM\232=R\335+=[{J\275\367%\r>\231\254\253\274\265\nb=\274?\272\274\365=&\275\324\201\343;\240\311\014>\314\262\302\275\250w\211\275k\232\211\274\340kZ=\305\235}= &\205\273\266]\001=v\204\241\273\270\276o\273{?\333\273\2402\220\273\260^\242;\322%[=\274\306\177<\232\202\2419\212\325M9Ij\033\273\226}\035\276U\243;;\235\263\036<\201?\224:sv\236<\3356/\273\375<V<\260(0\273\232sO\273\310Dc\270\247E\345\273\t\252\220\273\233\347\037\274\302\343\354\271\367\\\264\276Dc\017\273\254%6;9\002\006:!y}\273vU\324:\3604\220\267Lb\033<\037\340\225:\236\034\234: e_\273(\261\003\271\030\237\023\274\367\3234;\370~\210\273\346:\335;\367\355\211\273lM6\273y\tK;\276\331\350<%c\"\275\327D\376\271\2277\025;\0248\';\000\254\224:j\244\r\271\316\315\271<\022v\2369\216\036\207\274l\256\314\271v\356\2419\267\014\235\274K\213\275<-\001\031;V\202\266\273}&\336\272\356\220\n\273\334yV:\031\271\211\274eZ\305\275\226\221\225\273\367a\216:\317\360\311\274\235e\223<%\363\321=\361\241?\274\265R\300<\264\374v\274\207r\223\273\206>\375;=x\255\275J(3<\034=\253=\247\257\214;\t\227\234\275+\327\017:\320&\356=\304\032\010;`\206\237\273c\2162;\264\002\256=1-n<\017]\014\274q%$:\002\241\275\274\214\207\3568p\317.=\004\017\230;\031\244<\273 \353\013\276\030F\250\271l\242\255;\204\211\206=\333X\274;x\227\3558i^\306\274\243\265\373;\307\256\324;\033\216\025\274\330\320c\275\232Y[\271t\334%\274)\033\201;cx\316=f\270\227\273\2712\305\273L)\204\273gsy=^\003\300\274\t\343\033;g\021\200>\250\371K=\313NB\275Ug\276:cv<;@\233\302<\330\352\243\275E\272\226;\245\223,;\370g\017<\ts\033>e\352i<Y\013\337=\007\177\005\274dY\017\273\r\375\355\272\013J\226\273\361G9\275=V\035=E\367\252=\234\t\342\271\036\307\234:\321[\3679\345s\\\273E6\010={\233\263:\347\234\373<\033\367:;\351X >(\307\245\273k\242\224=\263>\270\272:0\"\274\353\033\330\270\233\205\243\274\367\374\034\273v0\360\272\360\342\215\272[\336\010>\032\303\025\272(M\331\273C\2433;P\361B\272\253t\345\274P8\033\270\226\307\037\274\177\250\243\274\034\307\265:\222~\204\272\342_\361\273F\226\323\274\305j%;\277\016\013\273j\367><\245b&\273i\026U\272T\2654;\023>\002\2753;9\275C\250d\272\346\304o;\250\277!<H\200X;\311\243_\271\327f\326\273\031\356\213;\016\241\235\274\313)\303\272.\336\3019\263\222@;?\353\001>1\232T;\220\377\"\2732\217\222\272\331\031\320=\306;H:*\255\265\274W\364\313;$n\343\273\207\264\271\273\230\356\017\274g\tD\275\033\247\036;\322\222\331=\036oa\275\250\235\276\274\372w\024\275&9P\274\246\303\240\274q\330\234\273\025\207\300<\313#\340<\303)\335<6\313\240\273\325\266v=\005\252<\273\004\202\263\274\033\037/\274D\013t\274\201tH\273\010\361`\272\000\225]\274\257\254(=\244\345\342\272\327wq;)\221\273\275\0063\272\273-l)=\0101\001\274\335\267A;\244\266G\274\031O$\275\021\334\225\273\376\343a\274\316\270w\271\356\243\350;.KZ\273\003\272\206<\354\270\220\273~\002+\273%|\000\275\222_\227\274\313\030M\273c\217c\275\226\020\235<=2\262<\303\343\220\275\334\275\020\274\267\277\213\275\340\271\314\273>\327\214\274\262\353)\273\033\237\205\275<\224\242\272\372\2745=\271\242\223\275\27094\274\345\371\364\272\024\242\321<wm \275\r\246L\276\336\261\215= \262\007\275\'\177c\274\240|;\2747y%\275\352y\222<j\323\207=[\030^=\014\001\366;e\025\211;~\005,\274\226\031\263\275\356\207Y\275l\t\336<\030\216y;VK]:\000BC\274\260\351\354<\275Xk\274\027\301(;:C?\273\000\270a;p\232!:\204\310\354:\326%\236\273Q4\366\2741\230h\274\"\360h\273\213\376\245;s\025\346\274s`1=/\312\365\273\251rH=ZH@<\007\235`;D\241\203\274g\373n\274\234\3120\275\260P\200;\201\317]\274c\335\224\275\242\335S\274\237+_\274\364\312\212;/cU=\211D\"=\251\272d:\271\"1;C\271\340\275}\035*;q\021h\272\261\212\014=\006\261\242\272+\345z=2*\327\273\260\250\211:\215\366\226\275\207\316\035<\226\240{;l\n\246\273\221Qa\274*\261\340\273Y>\031;S\243\350\273\373@#\275\003\356\207<\362\021\226<\030%\034\275Y\305\256=\306\364\331=\355\235\256=\035\226\354=A\2528\275\300t\325\2744\226\246\273aV\305\275\024\335J<\327u\312=\205\027#<\332\027I<\214\367+<\253\331\304=f\003\027;\234\014\237\275\266V\346;K\375@\274Pi\347\273\205\3342;+\206\265<\313EF=\032\206\356<\275a*\271q\204f<\217\007\307\275\355\247\363<\t]\216;l\301\222=&\342\027=\'\366k\275~\350\370:\035\202\213=V\343\264\275\356\032X<\265\274\031\275v\302\014=\260\357c\273\321\3100\275\316\003\010<\273\002N<\034\371s<+V\205\274$\020\336\273\356\350\370\274\241\025\345\273\016\320W:\222\232\207=\354\364\217\275\352E\207\275<\340\304:\230\327\201;Qf\354\274\354\340\326=\007\233\026<9\"9<\221\371$\273\300C\207=\336\177x<b\211\014>\213\320\265=k\252\325<\024c+\274\010\261E\274\331\360\227=\026y\t=\346\333\221\274\030Bo=\261^\374;\361\241\002<\313\255=\274\016\003\260=\247\274\025=\241\223M=\006\215\001<\010~\n>\365\361\337\273\217\035\336<\t\300\027\274G|F\274\334\243\236\273\312)\006\274\2203\236\274\244\306;;|\354V\274\247M\004\2752?\347\273q\305\013\275\224f0<\035y\001\275\220}\251\275_\324\337\273Fme\275\2354\037\275\235\224\260;<\365\016\274_\265l\274\260p\027\275\357\221\227;\332\r\017\274\303\303e<uK\r\274?L\347\273~\364\243;2\376\346\274\025#\210=\305\3339;\"\375\221;F\221%=L\241\262;K\177\305\272\231\034\271=w\023\335\274\316\027Z\271\331\263\031\274\275\305F\273\214\237\"\275\017}7\275\201V\305;\353\320*\2740],\274\377\316\250=E\000:;u\033\317<h5\257=\245\204u<\036S\222\274H\316\330\266IJ\310\272\024\345\004=\302\036\257=(\212\214\275\346i\031\274Q\324\020\273^\336\016\275\260\326(=\364U\355<\366]\r=;E,=\017\310\212=\305<\223\274\373W\000;\243ww\274\306\330H\275)\215\235\273W\252\361\274A\202]\274\300\020r\273O\321\315\274\234Q\241<\256\362Y\274\300\353\261\273\320f\000\274\345\206\005<)\034\312\275\261\342\370\274\340\252==g\026\231;\354\324\260\275\335\364\250\274!\357\253\275\265\007\235\275\251&A\272\310N\357\274\214OV\275\256\212`\274s\277\202\274]c\227\275\305\014l=\366\213\317:\360\210\226\275\324E\321\275Z\367\201=\321\370\322\275\300\337+9\263\377P=\255Z&\274y\034\n=\010\336;\275! \017<\027\032\014=\206\371\266<\000\3730\274I+D\2748Os\274\022\327?=W\274\002\275\215\030\365\275~3\023=g\211\373\272\246D\373\272U\222\035\273\261@S\275\315\304\210;_\300\233<P\304\227<\025*\256\270n\254(\270\305\201\021\272T\271\002>\255\260b:\330d\276<\372\216\0279y\016\303\275G\010\247;\322\311\334\273pg\347\272\304\214\322;\242\311\343\267\r\3229\272#w\017\273bS;\273\020\201\030;?E\262=S@~\272\313@\265\272\315\354\352\270\036\322\263\271Dw\n\271Hl\';_\031\210\274\222{\000\273\336wU:{\353\005\272\353-\230:Hc\023\274#\307\020:\016\322\030\273\034F\366\273\016\177\213\272x\214\271\271w\273\2058\031\336g\273!\211\226<\240\22119\216\001\035\272\033\233E\273\324\262J9\330\340\2059\370\004K;\036\033\203;\261\307\250\272\000\013\260\272;s\224\272\007<\253\273\205.\030=,\t\r:H\332R\273 ~\371\272\257\273\232\275j\376\3629\336\017p\275C\332Y\273o\340\003\273\030\360\240;\2765\377\273\305\237N=\031\301\216=.mU>R\364}=\0337U\271J\266\254\272\272K\344\2731\023{;D*\010=\267\024\006\275#\035\037:\014\234\305=\265`\310:\233\231K>\021\214\270\2728\267\203\275\221`L\273\n\275\304<\021\203\324\273\213\211\323\271\3420x<\222\216\225\275\035\265\024;w\211\372\274\265]L\270,