node {
  name: "input"
  op: "Placeholder"
  attr {
    key: "dtype"
    value {
      type: DT_FLOAT
    }
  }
  attr {
    key: "shape"
    value {
      shape {
      }
    }
  }
}
node {
  name: "label"
  op: "Placeholder"
  attr {
    key: "dtype"
    value {
      type: DT_FLOAT
    }
  }
  attr {
    key: "shape"
    value {
      shape {
      }
    }
  }
}
node {
  name: "transpose/perm"
  op: "Const"
  attr {
    key: "dtype"
    value {
      type: DT_INT32
    }
  }
  attr {
    key: "value"
    value {
      tensor {
        dtype: DT_INT32
        tensor_shape {
          dim {
            size: 3
          }
        }
        tensor_content: "\001\000\000\000\000\000\000\000\002\000\000\000"
      }
    }
  }
}
node {
  name: "transpose"
  op: "Transpose"
  input: "input"
  input: "transpose/perm"
  attr {
    key: "T"
    value {
      type: DT_FLOAT
    }
  }
  attr {
    key: "Tperm"
    value {
      type: DT_INT32
    }
  }
}
node {
  name: "reshape/shape"
  op: "Const"
  attr {
    key: "dtype"
    value {
      type: DT_INT32
    }
  }
  attr {
    key: "value"
    value {
      tensor {
        dtype: DT_INT32
        tensor_shape {
          dim {
            size: 2
          }
        }
        tensor_content: "\377\377\377\377\t\000\000\000"
      }
    }
  }
}
node {
  name: "reshape"
  op: "Reshape"
  input: "transpose"
  input: "reshape/shape"
  attr {
    key: "T"
    value {
      type: DT_FLOAT
    }
  }
  attr {
    key: "Tshape"
    value {
      type: DT_INT32
    }
  }
}
node {
  name: "w_in"
  op: "Const"
  attr {
    key: "dtype"
    value {
      type: DT_FLOAT
    }
  }
  attr {
    key: "value"
    value {
      tensor {
        dtype: DT_FLOAT
        tensor_shape {
          dim {
            size: 9
          }
          dim {
            size: 32
          }
        }
        tensor_content: "\0249\004>\320\262/?B\026\022@\307\225\221?\307\255\235>\226\266[?k\306\273>{Q,>\013\3616>\217\277\020\277\365\225\231\275z0\321>\235\305\342>\220,W\277\317\235\023>\251 \254\276\275\360\016\277;\326\205\274\363\352\205\275#\375\005?\225\251\232?\014\204n\276\271\331\250\277\3566P>\251Q\200\276~\2069\277j\365\255\277\213\264S?\360^\274>d\005\017>`\317\211?\364\256I>m-\206?\\\2617=\277(O?\003\034b?C\200\316\276\tM\'\276\340O\007=v\325U\275\374\373\352?\021q\306=\221\267\272=\351_\260\277p\024\004\277Z\270\323>\326f\310>\353\273\336>\021?\307=\346\277\252\277\010\000\306=\025\376\t\277rc\020>k\273\234\276\2727@>P2\037?j\366y?1\201\014?T3\324\276\356\256\002>\355\035\002?YAw\277\371@f?\364\r\205\276\231_\351=\007\034\204=4\206}>\250\320\332\276f[\267\277Y\265\200\276z\261\220\275\004z\335\275\356\253%?5\002\005=\177K\343>\177R5<\365\027\211>\202IV?\262\247\023<\341\332\3028\223\202\206=8%\230\274S\036\275=q\352\364>\014~\311\276\016(\341\276\343\225r>\323+\037?\'\274\266\277r\3124>%u\030\277\r1\234\275l\006\010?\002\326B>\326\205D\276\013\376D>t\361\033\277\346\327\332>\311*\021\277\330I\002<Ne\317\276iP\311?:#\376\276LR7\300\031\265\002@\256>\206\277\272w\255\277\247\330\210\276c\326\244\276\272\0055\277(\307t?\325\t\232<l\3759>\303KU\277\374|\006\300\246\353\264\276\324U\350?\016\375m\277\316\030\215?\3352\201\2762iF>\215-c\276\323\372\000\277\257\332\014?ol3\277\350\312\201\277\255o\021\277M\022\010\277\2379\207\276\363\327C?\337EA?:y\222?\211\006%>\302\021z=\320\352V\277\336\300\031\277\360\276\003=B^\016\275\355\261\232\277w\260\325=Y\340\"?\216Sg>\335\222\376=\316\255\347\275\235\016\213\276P\254}?\232T\217\277\367\270\362\277\225\332\244\277\006\220P>\0230\300>mUi\277\221\027\005>\340DR?Z\247\315\273\306<\255?\217\370`\277\310A\003?\014\256\312\277%>3>io\032\277v\n\317?\330\306]\277-\251\271\276EuB\275\231>\252\2777\363\304>\232I\245\277\253\345\212?\311\261\272=\t\304\017=)\204\314\277UYC\276\311s\201\276\350e\202\276\305\321\325=\227\362p?\355\373\200?\220\020\t\277E\"\327=\201\003D>\327\211\310>\342P6\277\210\302\333\276\360\375\250\274\016\301\373\276.\267H\276\2458\014\300\005\243\031?`@#?7\361\256?\3553\360\276\212\235c?<\244\251\276\254\"\n\275H\253\317\276\376\327O?K\217\231\276\252C6\277\335\215\006\277j\356\262?\241v\342\27775$\276\303\211\241?9\225$@\035\034\231\2775\356L?\267*\204\277\243tG?\264\346\241\275\370\372\200\277\307\250\314\276\024\376=\277_a\322?\021<\325\277\2423\372>\250\313m>\305\037\231\277\007\220{\275?J\033\277\302\300\004\277\371\254\277?d\256\202>\3721V\277U\364\253>\n/\007\277\320\305\345>\313\313\013?[kQ\276\235\277\255=m\307\031?\220]\017\300\2323\010\277j=\225>\020\353\235?\325k7\277\212\362\214\277\241c\006\300\"\274y>Ow\271>C\033\365\275\256=\n\276@\227\245?\006\355b?\017\373\021\300y\013\343\275\223\030(\277\265XO\275\002%\224>Z)\231>\274%%?2\377S\277\224\253[\277\345\222h\275R\037\"?)\241b\277\324V\353>,(\331\276z\254\301=\036\\\t?T\233\313?\312i\023?\177c\323=\367\231\211\276\0343\247>\2465F?>Y\321\275\241\353\336\276\325\263#\277\275\242\344\276f|\232\277\343^\027?\311\257\"\277(CR>\236\306\036@a\327\364<\212\372\232> \337\212>\222\177\247?\265&\375\276\232J\"?\345\340\365>uz|>=G&?\261p\323?N\037\227?\037c\207\277u\254\337>"
      }
    }
  }
}
node {
  name: "w_in/read"
  op: "Identity"
  input: "w_in"
  attr {
    key: "T"
    value {
      type: DT_FLOAT
    }
  }
  attr {
    key: "_class"
    value {
      list {
        s: "loc:@w_in"
      }
    }
  }
}
node {
  name: "b_in"
  op: "Const"
  attr {
    key: "dtype"
    value {
      type: DT_FLOAT
    }
  }
  attr {
    key: "value"
    value {
      tensor {
        dtype: DT_FLOAT
        tensor_shape {
          dim {
            size: 32
          }
        }
        tensor_content: "\242\216$\276\317eC@\250\320\274?\376\303x\277\3373\246?\2715l?\260\207\261?G\244\205\276\030GQ\276u\t\205?\216d\353?\302nT?\203\244\243\277j\024\223?e\350\r@\341\375\006\276\337\203\331?\022T\251=\211\344\023@=yR?\025\242\034@\332\200\301?\354|\211?\317\201\014\277\214\204_??N\n@\037\271\357>wv\010?\003\251\034?O?F\276\202\306\263<\033C\250?"
      }
    }
  }
}
node {
  name: "b_in/read"
  op: "Identity"
  input: "b_in"
  attr {
    key: "T"
    value {
      type: DT_FLOAT
    }
  }
  attr {
    key: "_class"
    value {
      list {
        s: "loc:@b_in"
      }
    }
  }
}
node {
  name: "MatMul"
  op: "MatMul"
  input: "reshape"
  input: "w_in/read"
  attr {
    key: "T"
    value {
      type: DT_FLOAT
    }
  }
  attr {
    key: "transpose_a"
    value {
      b: false
    }
  }
  attr {
    key: "transpose_b"
    value {
      b: false
    }
  }
}
node {
  name: "add"
  op: "Add"
  input: "MatMul"
  input: "b_in/read"
  attr {
    key: "T"
    value {
      type: DT_FLOAT
    }
  }
}
node {
  name: "relu"
  op: "Relu"
  input: "add"
  attr {
    key: "T"
    value {
      type: DT_FLOAT
    }
  }
}
node {
  name: "split/split_dim"
  op: "Const"
  attr {
    key: "dtype"
    value {
      type: DT_INT32
    }
  }
  attr {
    key: "value"
    value {
      tensor {
        dtype: DT_INT32
        tensor_shape {
        }
        int_val: 0
      }
    }
  }
}
node {
  name: "split"
  op: "Split"
  input: "split/split_dim"
  input: "relu"
  attr {
    key: "T"
    value {
      type: DT_FLOAT
    }
  }
  attr {
    key: "num_split"
    value {
      i: 128
    }
  }
}
node {
  name: "rnn/Shape"
  op: "Shape"
  input: "split"
  attr {
    key: "T"
    value {
      type: DT_FLOAT
    }
  }
  attr {
    key: "out_type"
    value {
      type: DT_INT32
    }
  }
}
node {
  name: "rnn/strided_slice/stack"
  op: "Const"
  attr {
    key: "dtype"
    value {
      type: DT_INT32
    }
  }
  attr {
    key: "value"
    value {
      tensor {
        dtype: DT_INT32
        tensor_shape {
          dim {
            size: 1
          }
        }
        int_val: 0
      }
    }
  }
}
node {
  name: "rnn/strided_slice/stack_1"
  op: "Const"
  attr {
    key: "dtype"
    value {
      type: DT_INT32
    }
  }
  attr {
    key: "value"
    value {
      tensor {
        dtype: DT_INT32
        tensor_shape {
          dim {
            size: 1
          }
        }
        int_val: 1
      }
    }
  }
}
node {
  name: "rnn/strided_slice/stack_2"
  op: "Const"
  attr {
    key: "dtype"
    value {
      type: DT_INT32
    }
  }
  attr {
    key: "value"
    value {
      tensor {
        dtype: DT_INT32
        tensor_shape {
          dim {
            size: 1
          }
        }
        int_val: 1
      }
    }
  }
}
node {
  name: "rnn/strided_slice"
  op: "StridedSlice"
  input: "rnn/Shape"
  input: "rnn/strided_slice/stack"
  input: "rnn/strided_slice/stack_1"
  input: "rnn/strided_slice/stack_2"
  attr {
    key: "Index"
    value {
      type: DT_INT32
    }
  }
  attr {
    key: "T"
    value {
      type: DT_INT32
    }
  }
  attr {
    key: "begin_mask"
    value {
      i: 0
    }
  }
  attr {
    key: "ellipsis_mask"
    value {
      i: 0
    }
  }
  attr {
    key: "end_mask"
    value {
      i: 0
    }
  }
  attr {
    key: "new_axis_mask"
    value {
      i: 0
    }
  }
  attr {
    key: "shrink_axis_mask"
    value {
      i: 1
    }
  }
}
node {
  name: "rnn/MultiRNNCellZeroState/BasicLSTMCellZeroState/stack/1"
  op: "Const"
  attr {
    key: "dtype"
    value {
      type: DT_INT32
    }
  }
  attr {
    key: "value"
    value {
      tensor {
        dtype: DT_INT32
        tensor_shape {
        }
        int_val: 32
      }
    }
  }
}
node {
  name: "rnn/MultiRNNCellZeroState/BasicLSTMCellZeroState/stack"
  op: "Pack"
  input: "rnn/strided_slice"
  input: "rnn/MultiRNNCellZeroState/BasicLSTMCellZeroState/stack/1"
  attr {
    key: "N"
    value {
      i: 2
    }
  }
  attr {
    key: "T"
    value {
      type: DT_INT32
    }
  }
  attr {
    key: "axis"
    value {
      i: 0
    }
  }
}
node {
  name: "rnn/MultiRNNCellZeroState/BasicLSTMCellZeroState/zeros/Const"
  op: "Const"
  attr {
    key: "dtype"
    value {
      type: DT_FLOAT
    }
  }
  attr {
    key: "value"
    value {
      tensor {
        dtype: DT_FLOAT
        tensor_shape {
        }
        float_val: 0.0
      }
    }
  }
}
node {
  name: "rnn/MultiRNNCellZeroState/BasicLSTMCellZeroState/zeros"
  op: "Fill"
  input: "rnn/MultiRNNCellZeroState/BasicLSTMCellZeroState/stack"
  input: "rnn/MultiRNNCellZeroState/BasicLSTMCellZeroState/zeros/Const"
  attr {
    key: "T"
    value {
      type: DT_FLOAT
    }
  }
}
node {
  name: "rnn/MultiRNNCellZeroState/BasicLSTMCellZeroState/stack_1/1"
  op: "Const"
  attr {
    key: "dtype"
    value {
      type: DT_INT32
    }
  }
  attr {
    key: "value"
    value {
      tensor {
        dtype: DT_INT32
        tensor_shape {
        }
        int_val: 32
      }
    }
  }
}
node {
  name: "rnn/MultiRNNCellZeroState/BasicLSTMCellZeroState/stack_1"
  op: "Pack"
  input: "rnn/strided_slice"
  input: "rnn/MultiRNNCellZeroState/BasicLSTMCellZeroState/stack_1/1"
  attr {
    key: "N"
    value {
      i: 2
    }
  }
  attr {
    key: "T"
    value {
      type: DT_INT32
    }
  }
  attr {
    key: "axis"
    value {
      i: 0
    }
  }
}
node {
  name: "rnn/MultiRNNCellZeroState/BasicLSTMCellZeroState/zeros_1/Const"
  op: "Const"
  attr {
    key: "dtype"
    value {
      type: DT_FLOAT
    }
  }
  attr {
    key: "value"
    value {
      tensor {
        dtype: DT_FLOAT
        tensor_shape {
        }
        float_val: 0.0
      }
    }
  }
}
node {
  name: "rnn/MultiRNNCellZeroState/BasicLSTMCellZeroState/zeros_1"
  op: "Fill"
  input: "rnn/MultiRNNCellZeroState/BasicLSTMCellZeroState/stack_1"
  input: "rnn/MultiRNNCellZeroState/BasicLSTMCellZeroState/zeros_1/Const"
  attr {
    key: "T"
    value {
      type: DT_FLOAT
    }
  }
}
node {
  name: "rnn/MultiRNNCellZeroState/BasicLSTMCellZeroState_1/stack/1"
  op: "Const"
  attr {
    key: "dtype"
    value {
      type: DT_INT32
    }
  }
  attr {
    key: "value"
    value {
      tensor {
        dtype: DT_INT32
        tensor_shape {
        }
        int_val: 32
      }
    }
  }
}
node {
  name: "rnn/MultiRNNCellZeroState/BasicLSTMCellZeroState_1/stack"
  op: "Pack"
  input: "rnn/strided_slice"
  input: "rnn/MultiRNNCellZeroState/BasicLSTMCellZeroState_1/stack/1"
  attr {
    key: "N"
    value {
      i: 2
    }
  }
  attr {
    key: "T"
    value {
      type: DT_INT32
    }
  }
  attr {
    key: "axis"
    value {
      i: 0
    }
  }
}
node {
  name: "rnn/MultiRNNCellZeroState/BasicLSTMCellZeroState_1/zeros/Const"
  op: "Const"
  attr {
    key: "dtype"
    value {
      type: DT_FLOAT
    }
  }
  attr {
    key: "value"
    value {
      tensor {
        dtype: DT_FLOAT
        tensor_shape {
        }
        float_val: 0.0
      }
    }
  }
}
node {
  name: "rnn/MultiRNNCellZeroState/BasicLSTMCellZeroState_1/zeros"
  op: "Fill"
  input: "rnn/MultiRNNCellZeroState/BasicLSTMCellZeroState_1/stack"
  input: "rnn/MultiRNNCellZeroState/BasicLSTMCellZeroState_1/zeros/Const"
  attr {
    key: "T"
    value {
      type: DT_FLOAT
    }
  }
}
node {
  name: "rnn/MultiRNNCellZeroState/BasicLSTMCellZeroState_1/stack_1/1"
  op: "Const"
  attr {
    key: "dtype"
    value {
      type: DT_INT32
    }
  }
  attr {
    key: "value"
    value {
      tensor {
        dtype: DT_INT32
        tensor_shape {
        }
        int_val: 32
      }
    }
  }
}
node {
  name: "rnn/MultiRNNCellZeroState/BasicLSTMCellZeroState_1/stack_1"
  op: "Pack"
  input: "rnn/strided_slice"
  input: "rnn/MultiRNNCellZeroState/BasicLSTMCellZeroState_1/stack_1/1"
  attr {
    key: "N"
    value {
      i: 2
    }
  }
  attr {
    key: "T"
    value {
      type: DT_INT32
    }
  }
  attr {
    key: "axis"
    value {
      i: 0
    }
  }
}
node {
  name: "rnn/MultiRNNCellZeroState/BasicLSTMCellZeroState_1/zeros_1/Const"
  op: "Const"
  attr {
    key: "dtype"
    value {
      type: DT_FLOAT
    }
  }
  attr {
    key: "value"
    value {
      tensor {
        dtype: DT_FLOAT
        tensor_shape {
        }
        float_val: 0.0
      }
    }
  }
}
node {
  name: "rnn/MultiRNNCellZeroState/BasicLSTMCellZeroState_1/zeros_1"
  op: "Fill"
  input: "rnn/MultiRNNCellZeroState/BasicLSTMCellZeroState_1/stack_1"
  input: "rnn/MultiRNNCellZeroState/BasicLSTMCellZeroState_1/zeros_1/Const"
  attr {
    key: "T"
    value {
      type: DT_FLOAT
    }
  }
}
node {
  name: "rnn/multi_rnn_cell/cell_0/basic_lstm_cell/weights"
  op: "Const"
  attr {
    key: "dtype"
    value {
      type: DT_FLOAT
    }
  }
  attr {
    key: "value"
    value {
      tensor {
        dtype: DT_FLOAT
        tensor_shape {
          dim {
            size: 64
          }
          dim {
            size: 128
          }
        }
        tensor_content: "\022UH\275\030\273m:\201N\251\275\200\3076\274\273|\372\274\251\221\264\275\005\365\273\275X\333-=\307*\334=\353P\r;M\205\213\2743\215D=\330\221\341=L\n5<\320p3;\243\313\303=\360\364\340\275\005\030\222<\300\374\373<\276\244\007<\261\221\336=\345d\025\275\304\271\204:K/\321\271\003\235\227=\360j =\323%%\275\335\204\320<w,\037<z\203p\274\006|\356\275\234q\276=\341\211\302\275\267\207u\273B\223\036\276\230sH\273\341\220X\275\326\240\360\275\206\363\023>\2559\316\275x\271/\275\016j\037\274P\371\250==\352\224=\351\217\030=\225Y~<?]\354\274\355f{<\235_\254\275\2134\300\2754\0059<\n#\266<\361w\272\2746\252\217\275\r\353\202\274F\035;\274\343\230\034=1\216\322\274\303Sf\275\327\221/\2755\247:>\2520\000>\322\370\201=\240\323\325\275\357\275\334\274\234\252\274;\225\212\037>L\276V\275\016\006\364\275\231\033\266<-\204)\276P\213\223\275\255\301a;}\224U>\241\303L>Z;\313=)\241\345\275j\334\\=)\026\023=\252\"j\275xY\252\275\372\202L;-\016\246<\264\210u;[k\270=n\230\307=\363\336\230<\364\367H\275>Jh=b\361\243<8\277\221\2757\367\367<>9\203=\026\267\013>\244D\251\275\242\263\030\275;\247\007=\201u2<\216\\\024>\237\202\215\275\252*\307=\340\317\242=\240\260\006\276\366\350\256\274N\344\356=\341\316\345<\370\277O\275\300\247\023>\232\374\203\274vm+\275|9\363=\230\207*\273\317B\322=\370|\322\2752\303\256\275\273\351*=\323/\335\274AX\366=\345f7\276?\030\341\275Fs\230=.\277g\275\350\365\225<#%\224\275\354\204\231\275\256\0101>\214\321\332\275\337xi=\340\334\257\274\270#\016=\267\306==\027\305|\2755U*=C\226\277\273Mb\177=\020P\341\275\272\314`<o\023\247\275\257\030\271=[\270\252=\021\207\315\275f\251\235<\246\005\215\273\337\245\210\276\327S\035\274\221+\214\275\245\350\276\275\271$\336=\3418\232\275r\201\213=\322\377\321\272\220\355\306<\262\322o\273\\\271k\275\345\251\364=\310\220\300<9\200%>\316^H\275\232\377\031\276\310\256\351\275\374\031\003>\206\247\265\275\251\213\351\275M-)\276&v\223\274\343s\272=\314e\260<|\312\214=B\224\017\276X\302\022>H\225\007>\236\246\227=\246\316\025>\331\341\024==\362\010\276X\026j\275\340\233c\274\371\232:>\222\350\334=\215\266{\271\371\213j=\330A\037\276\366\272\244\275\253#\332\2758q\271\273g\365\t>\272%\360<\316}\221=\350\354\211=\373Q\322\275\350\003\241=p\370^<Q\030\216\275\274uG=\204\030\371=\"\327\020\275\2117\273\275\227\241\350\275\211t\275\275\326O\260\275\335p\034\276\222\303\255=\226X\374\275Y\243\314<W\262\350\273~?\302\274\266\230\004> \343?>\323\266\207=\006\031X=\274\355\343<\356q\037\274\254\273n\275\000\307\\\275\337\213\246\274\221d\364=\0237\235\275\032S%=\005\253\204<\343\341\n>\372\312\002\276\002\200\222\275\224\273\233\275=\305\340\275\346~]=\206\366\216=<\356T\274\337\202\000\276\334\263)\275\021\273}=W\032\300\275\335\207I>\262\243)=\003\301\344\275\356\033&>\364\372\273\274\344\005\204\275\020\217~=\234\214\036\276|}?=\t\367\'\276~PQ\2755\200\251<\035\376^=\340\223\270\275\033\232]\274\241\377$\276\227\370\233\272\310*E\275\005\261\374=\326-\202\270\344\341\373<\250\226\357=V\2061\275\247v\216=\2349\235\274\027\372.\276\037\201\010<5\253O>\230=x=0H\264<\342\231\364\2753\023{=\362\027\251;\335\332\302\274\202&\t=\262\343C\275pyr\275\301q\247=\242lb<\326\364\373\273\217\320\\\276\2020\252=b\010Q=\250$\201=\335\226\034<\311(#>\025\360\331=\361\271\032\274_[?<\2538J\275z\021\212\275\025a\341\275\376\277\241\275\215;%\276\237f\027\276\177p\241=D\3602=(4 \273x\313\001\275\221\n\031=\237\032*> \326A\275B\262\357=\330\357\330\274\274f\010\276\236\274:\275\231\212\373\275n\236j=\334c\323\275\000/\003>dj\343\273\275\357\t\276\212\235\324;\211\372\022\276\237\304\r>\376\271\235\275e\220\373=\037s\227=\325\004\014>\354\347\213\275\211i\032>\026`5=\"\342\355=\375\335p\275_\004g=9\223+\275\246hA\275\345\031\373\274\010/V=\302\240\032\276sV\364<\327)\346\274\301&\037<s\356\335\275\227\276\203=\326{\242=\2368\204=\342\376\312\275d\032\023\276\252\226>=\261\\\330\273\271%\204=\307n\367<\036C\261=Y\200\270=i\261\344\275}\246|\2753\004y\275x\250\317\275\314d0>\216\335\247<\306\254\337<\324\366 =u\036\326\275[q\274=\366\373 >\177\321\312=\374P4=\224\212N\274/\306{\275T\\\313=Q\3675=\324\326\r>\226|\n>vF\333\274Uo#\275\206\362%=\214\235\215\275{\245>=\036\007\007>\373\302\210<M\372\361<\2129\010\275\306\231\346<\3039M=<\204k=\024\303?\275\263\301\013>\275\264\007>d\335V\275vv\371\274\221K\235<\250\016\242=[\243e\275z3\270=>\244\240\275\347\266+\276\215\t/\276\237p\360\275uZ\220<\337\255\252\274\365\316\254<\232\263\277=\247\274\037\272Vm\3637\355fA:\346\356x\271\325\373=:\353\347)\272\243@~\274\200\342[\273\"6\3769N\242\244;\210\217\214\273\262~\346\2722\224\3368\007\035\0308$Y\23085\305\010\274\220\307\274;\367\314n7\r\264\335\272\n\335\335\270\247\323\3067\003\372\3519\005\3003\266X>\333\270\2555V:@\207\307\267\014\020\002\274Q\013<:k\307\335\273\360\234C;\323\337\265:\242\223\203;\355\000?9e:r\271\370\227\2259\274;D\274cy\201\271M\252\321\270\365\324\272\272\031\302I\275\330\t\226:\353|\254\275{\250;=\214\370L\275\313\210\307:1\023\02475%\264\270\371\035\035\272\372\304S\272\246\266\2448\000XH\275\307-\222\274h\332\231\274\3535\345=\207\304\024\2671\337w:\007-8:a\2037;\321\245Y<\207d\007:\323ls\274p\376\353<\024\225\212:\352\303\203\273\263)\364\272\362P\013\271\265\267\0339\030pA:\337\002\002:?\232\230\271\310$\264\273)dW=*i\221\270\370\313\373\274\335\205\233\274\037\035\212;\332\252S\271\2108\342\270\357\032\202\266\371\257J;\377\017\222;\240\307O8\344e\"\274\374\314\034\273\030\031\3638\235\211\371\272\300\005\323\266Ui_\272.\272\37791\215]\272Nl\215;\266D_:\007]C\273\330p\271\272\302a\024:\355\301A;4\r\367\271L[\317\273\320\303\256\271\307\234\331;t\0370:\251\232p\271\244\246\274\273Z\311\3369\335\217\016\270Y\262<\271\342\351\374\271\257c\255\272\031\362\2568S\277 ;z\341\243;)l);\376\307F;\2161\000;\354my\273U\330\036\274\020\235z\273\330o\027\274z;\2029]H<\271\340\265\252;M\031E\274\317  ;a&\222;E\356\266\272\236X\362:\366%\211:\022\344\202:N\030\326=cw\031<\277p1>55\230=\341b@\276\177A\251<\347\335;\276#\267\205=C\227\370\275\302M\034>\327/\t=\343K\312=\035\366\245<\245\304\021=\207\306o\274hZ\226\275\355\013\236=X\235\356\274)\310*\275BX\245\275\200\020\237\273\36459>\304\353;<\205\316\216<\316\2251=\253\340\302;\226\260\310\275\014\212\275\275\025<^;\276\253B=\177\237\036\276\234\351\247\275\005\374$=\201$\024\275\241\230A=tI\201=\211\003\361\275\021\377$>n\030\r>\347O\246\275\333C@\276?\355\355\274\026$\031\276\373\224@>\243\3733=\261\002\221=)<.\276y\231\262\275\344\005t\275A\321\344\274\216)\">\020eC\276\013E\273\273\333r[=W\333\222\273\034L3\276\357\232\340=_\314\237\275\260@\272\275M\230\262\274\334\366\"\275\336\217\t\275n\305\330\274\204\354\300=\272p\006><\226\'=dY\375=|n\210=F5\201\274O\256~=q\036\253=.\250\311\273`\270>=BS%>\325\3347>t\304\240\273\227\301.=0\273\002>3-\034\274\227\257\301=!\'\375\275\303^\237\271;\340\000\276\300K\236\274\320\000)>42|<\266\200\311\274\347\206\026\275\007\211\326\274\013\205\242\275\324\271\240\275\21029\275\202Z\200\275w\022\367\275\303\005>=o\267\027\276~\310\201\275\016\365\316=\274\253\266\275\r\004K=\201\256\225\275f\224\270\275\265 \025>\"|3>%\276\356\275\347U\350= $9\275\207?*\275E\375/>\347\031\335\273\370\357\227=\323\243\024>3F\204\275\260\035^\274\360\r}\274\255|\366\274t\257[=m\207\264\275s\237\230\275d\351M>\262\302\265=y\3722=~(7\275\227\227\327=y$K\275\357\302\035>\273\232\332=3\211\030>m-\215\275+r\343;\356]1>\261\222\203\275\r5\277=Rm\020=\320\305\"\276z\204\220=\225\272\271\275\023\217#>\216\376\275=\354\357q=\300\024\277\275\372\000\"\274r039\310.\230=)\202\301=\276|0<L\020\303\275\233i\024\275\262b\016=\030?\327\2752-\304<NM\027\275y9\022>sX\337:W\210-=\033\371a=\374y\346\274\010\217\332=N\314h\275\004/!\276\204<\014>\373\032E<\022R\000<\355\262\036>\315\242\212\274/\212_\273\204\030\002\276\311X\307\275\347\230\004\276\356\216\025\276\262\266\253=\022\025\035>l\276\365=t\276\201\275:F*>A*\030;d4|\274p\272\020\276L\255;\276g\204\375\274\020\225\027>\033\366.>\"\316O\275\353f%\274j\333&\274O\361\037\276w+\256\275%\356\003\274\211h\031>\201\225:<\026\334\355\275\017\240\010\276b\337\264=\345\306\323<\243J\020>\303\313\351\275\373\004?\274\242}c\274\035\311\333\275\256!$>\026\203G=u\346_\275\261g\017\276\220\261\251\274zS\322=\221\376\326<\244\261C\275\307\306I>\022Ro\273\365\277\006=P\341:\276\231\222\271\274\002V\356=f\372\004>\372\306 =\272;\320\2757\272U=\255\262\365<\001\262 \273\030\263\227\275\274\363\013\276z;\'>\342?\362\274w5\002<\'\014\375=F\216j=\245\300\362=W;\323\275\344\242\233\275\371\227.=\205\256\023\276DH\336<\373\254\232=\266\3453>\273\036\316\2755Q5>\212u\244\275`\024\321\275\037\311\006\275A\007y\275\276\215\257\272?f(\276p\255\366\2754\031\007>\212\210\233=\330\030}\275\366\333h=\204\032\001>\037\374\335=\212=\325\273\035n\004>]\312\247\275\n\305O\275X\305\325=O\367\347;Co\361\275\325\232Y=\253\370\366;\204\242b\276bVe=\356\313\314=\'\343\270<\212F\351=\316\323\262\274X\302\323=L/\006\274A\217\026\276x\371\'>\253v\312\275 ^H;\002$m\273\n\254\t\276fvO=\364j <\023+\302\275\335\237u=\003\333\335\275\266\365\032\275\037ld<\302\272J9\340-\023\274\330\322\353=\225\024\312=1U\272\274\341u\324:Y=V\275\357\025\273=\313\034\016\276p\022\374\275\344kg\274V\320\263\275\034T\356=\224@\334\275\031\317M\274\026\223\201=\207\211\313<m\316\">\016\263\346\275\302{\322=\362\204&\275E\000y=\357\240\241=%\216\367=<>\230=\334\276\362\274\034p\202=\274\270\253\275a?\002\275\372\257\357\275\205\3406\276\211\\g\273]\027%>\022\353\301\275\347\367\303\274p+a=uz\342<\010C\363<i\3028\275\347?\247=\223Q\300\275\321X\326\274n\236:;/\320(>\014\022\033\275\206W\341\274\331(\225\274Q\371\007>_\340)>\324\365\313=\374g;\274\367\245\255=\347\266\250\275\203\246\234\275^[\364\275\336m&\272\205(C>\273<\333<z\304#\275\345\311\036\275\255P\223\275Y\342\016\275\336\254\001\276\210\327\340\270\377\315\311\274\331\244\337=\214\345\350=\236\034\003>\236\330G=s\373\211\274Bd:\275\260b\315=\033G\224\275\010\202\230;\304R\'=+\237\325=\343F\366\275\301\031\324=\217\376v\275\215\177\r\276\267\326\247\275\344\031\010>\235\210\267\275&c\235\275\217\222\210\275\'\036\007>\210\336L\273\031U\023>\223\341\371\275\027\356\201= \317;=]\221\376;\301.\006=E\320\025>l\340\255=X\027\003\275\331\006J\275\377\217\235=\231!\001\276\275\365\371=\244\253b\275\376]\r\276\360hi=u\335E\273\237y\310=F\211\275=\332\253\222\273?\230\362\274j\361\245<o\'k<n\032S\275b9\252=j\342K<\003\344]\275\253\362\261=|\207\202\276j=\361\275d\377\371=\362\213\211\273\212\260l\274k\236\357=\362\343\316=\247c\215:\325\273\316=\311FL\275\230\245\242< *I\273\235&(<LN\357:jU\340\274\003\372 >Q\273\353\274\007)\200;\3127\003\276\251\344\023\275!p\275\275\211\341\221\275\345\204\203\274F|\301;9\356\272\274\324AO=\225\025\247\274\001[\376=\367\203V>7\227\230<hm\207=\017\323\024=0i\223\275\313A\275;n\362\336;x\377\n=\304B\214\273K\026\034>\344EH\275`\256L\274J\014m\275\326\342\334\273\325\310x\275\212G\232\274\265,\313:PU_\275\373\202\210=Z\344K\275l\227\200=\253\030\225<\265\306@>\376\340\317\274i\033\267<\021\021\212\274c\373\244\275\363\016<\273\224\177\253\275\365\232\004=O\222\235<\177\2347\274\314<(>\204d+\276i\335C<\025@\357\275>T\245\275\004/7>\014j\035>\221\253\247<\234\351\303\274G\362\337\274\327\3200>\311L\212\273\322\331R>\325\336\031\273\247\007\221\275\333&\000\276\274\251y\273l\213\376=\362\r\232=\212\375\207\274\326<\004\275\260Q{<L L=\235\200\022\276rQ\026=\305\253\274\274\335\262\205=\245\275\210=b\205:<\325\224\031>\243B\006>\210\037)=\025\037\227\275\256\036\204=c=\225=\0138,<\307\304\372\275\375\0237=M \266<\260F\037=\247\256\302=\360\272\361;\022\214A>\322\357\207\275|;\246=\000\265\273\2757h]\275D\247\341\275\337\307\302=\351\334\264=\3758i<\301\341\215\275\022\322l\275\020+\022>\20585\276\202\246\374\275\244\324\022\275\277\275\242=\3107)>s5\207;h\240\243\274\340\177\005\275\343V\006\275\353\367\262\275\254p\r\2767T(>k:\341\275\213-\226=\234=\321=\036_\225=\212\224G=>\036\260;\240B\257<\260V\037\276\031R:=\333\321\246<\035\023)\276%\270\257\270\2718\205\274\316\375\036\275\273\226\252;\236\020,;\n\215\240\273\037\351\302\274\237$\013>\271\207\321=;\232\272=\032\302\311\275\273\225\005\276\245\272\224=\252l\001;r\221\242\274\337_{\275\327l/\274\"\232l<\354O\251\2756\200\271=\224\330\277\274\275\3124>\r\366\346<\013\241\341=R\272\246=p\351\233\275Y\306+\2745#\023\276d\311\266;\020{\035>\026\307s=J\225\n>\257w\332=l\\\223\275\357\027\010\275d*C\274|??\276\177B\371\274(\341\275\275?\223\013>\006\220\236<\235\337\236\275>$\'\276\250S\247\275\354\003\021>X\341\254\274\325Y\205:Cl3=\2415\024=\033\260\231\275n\305\215\275\323\264\305\273\326\360\312\273\3066>>m\3002\275\352\223e\276+3$=\232\331!\276\315%\272:\006q}\273\254{\336\273\215Qy\275\022/\230<\323<\250\273\243\255\352=\336\305N>\262Vu=\027\303\002<\272+\023=\242h\261=\277\031\207=mt-=\207\306_\275\273\206\362=]\203\302=2\210\017\276\360\245\331\275\252\225P=|\0363\276\232\363\243\275Br\240\275MH\224=Ou\354\275K\366\353=\354Ap>\205pq=\226\204E>\364\363`\275\317\213c;\234\355}=\341w\006=fY\324=\350uw=\323\265\367<\300\322\311\275\343\350\276<a\333K>\213l8>\363\352\n>\t-\303\275\270\254v=\034.\003=\211W\001>\371!\371=[\000\215<\007\'\325\274\036\244\260\275\203\343\221=;\224\242=D\304\210\275$\233J;\262\036\303\274\365\024o\273)\026s\275p\264\021\275\305\251\344\274\0318\316\274\3762\250=}\032\347\2745\243\032\275@\264\203\275\016\001\337=\360\331G\273\243z\315\2734V\367\275\262\252Z\275\344\240\245:\357`\211<h\275!:\366fx\274\256\346\375=\365\003\236:\007\\U<hq\227\275\347_\321<\302\276\317=X\177\252\272\315M\263\275E\311\212=\"\335=\275\331S\261\274W\367\253=\216W\314\273\251\203\177=\315\244\301\275j<8\275Pw\210<\227,\374\275\007\322\264\275?\327 \276q|\253\275L\270\r;rF@\276\177z\244=\353\311,<TM\311=7\366\370\275\234\356\306\274\010(\370\275\375\237J=\373Sb\275rO\234=<\000\225\275?\375\363<G\243E>^f\356\274\004\371&\275\267!\261\275\034I]\274\250\024\250\275\213\322G\275\302]\225;\000*\271\274E\355a\275\306A\244;\264\244\223\275\004\217\002=}3\306\272w`m=\376\205s;\262\246z>7%B=#\346\307\274>e\367=Qpf\275!\371\253=\3416\327\275?\237\244\273\300%4>*\276\207<C\004J\275\370\261f=CD\002=\\\324\221\275N!\347\275\020\261\216<\314\210<=,\351\353<\274\026\253<\314\253\014>\366@O\272\2736o\274\355q\023>:\303\337<;\320\331=\333\234\205=\361\205\331=q\342==K\034\334<@\264\307=\250_===\357\232<II\316\2739\213z<1\265\350\275\333\247\254\275F\327r\275\264\263\037\275^\254\000\276\243!\300=.\250\224=\270\271\331=u\202\217\2759v2;H=\346<?|a\275\376\362\004\276\260\213h\275\256\332\346<\237\361\377<vTu=\247\245\203;\304\330\230\275\243&\315\275\360\352\343<\240\357\255\274(\221x=\205\252\335=\"\313E<\001k\200\276\014\351\t>T4I\275\000\262^\274y\224\245=R\311\202<\3072\224\274\200\264\347=\025g\034\275\021\220\">\006\230\360\275\342AO=M=\357;\275\257\010>0\247\246=9\353\030=\361|\350\275\340\010\032<\325\312\357\275:[\253<\251\366)\274}\324X<\317w\364\275\302\255\212=\"w\246;|\326\314\274\263rE>\252\315R>\235\310!>\263\272;\273\266\227\005\276\243\375F\272\361\317\330= \177\024\274\270\325\216\275\345\334}=\377|\266\275\230\313\355\275JI\215\274\271\203\025>\255\222\235\275\375\027#>h\001\300\275\004\307\342\275\246\264\234=W\033\263\273\221\232\324\275\3300\233=\366\210\334\275\216?7\276\211\365F=\316B\213<_\207\036=\312\2114\273\203$\333=\204q\306=\313\n\235=\273d\240\274\013\026$\2757\023_=\007\337\010>\315d\230\275W\033\005\275\220D\213=Wu,>e\250\007>\'\266\260<\007\301\231\275l\274\277\274c\227M>\367\344\024<\217\234[\2753\037~=Z\362\010>!Y*\275\305S\231\274}\202 >\301\344\277\275-\273\311=\2053\276;\036\315\215=\251\"\276=\266,i\275\272g*>\3007F=\023@\022>S\250\013\27628\236\273*\341\020>7G\351=\\\221d\2755\0312\276\211\037\r>\021\"\275=t\221\276;\211\274\275=\020\017\363=\314eg=O\0038\275\301\331\202=\323\224c\275\013\376\025>\314\215\216=\245\334\021\276\272\'\022>Z\236t=\335t\030\275\342\n<\274\017\321\333<Z\232,;\023\266\303\275\016\250e\275=b\023\276.\306\276\275\234\323!>VdB>\27520=x\261\246\275G\224\312=\237\036,>\207X6>k\333\240=X\002\277\274\003\255\374\275\322QQ=\235\247*\276\275\272\206\275;\257\'<\242\205\316\275_\226\0079\033\315\326\274\020@\232=\244\241\232\275B5\003\275\001\267\002\275\203\376\n=\361 \355=\230C\251\275\3302\277\275\326\363\261;\376y\253<9\305\272=<\324\206\275\302\334\005=\006`\210\275\324\227\327=\305\3515>\276\307\224=%\234\024<3ST\2753\372$\273\005\031f=5\3400\276\325\223\214\275\316\262\032=\310e\014\276\206\313i=\350\036\t=;\005\306<\372\023-\275UM>\276xE->\3230\t=\332\035\274;\271\333f=\325\300 \276\263\272\013>\0240\215=\303\002\201=5\217G>Q\360 =3q\257\275\314Y\220=\365u}\275\264\362B=:x\306=\037\221\313\275;\267\017>\232\205\263\275;\236\031=s\373\374\274lC\'\276\302\253\270:!\226\244;\277\215|\275\252dj<W\034\032>\010c\220=\360\005{=\003oa\275\323\373+=\241\227K=\317\223\314\273\376t\243=\335\306\026\276B\232\234\275\227\031\320\275\377\014\234=\330\343\020=\317\203d:\243\003|\275(\310y=\t\312\027=\360:1\274\026\202\265<\324\\\360=\270u?\27547\307=\010K\365=(\301\345=\370P\">H\370\353\275~U\213\274\234\307\235\275\267\326\261=\214\207F=s\t\373\275\342u\353<\001\303*>\034\2155\275\216\251\"\276\354_\262=W\274\000>\333\'/\2767{z\275\035\200\373=\352A\010>i\357\302\275\200\202\253=lX\350=\024\321\324<7\341Q>$?\375=o\364\3179\302\266\r>\242\007\270=\251\375\324\275\374^\013\275\327P\217=\243d\037\275r\363\360\275\203a\252=\2758\273\275\277k\216\275\\\032\330=\323\324\357;\242\345\312\274\322\016+\275z\360\332\275N\225\302\275\366\222\231<\233I@>\251\357N\276i9\374=\033\033+=PQ\306;\326\272\215=\256*\237\275\"$\371\275\231l\336\275`\343\350\2733\320E=\310~w\275=F\304=5\204R\274w\323G\276*\007\302\275\223!@<9\233\336</w)\274\2237\253\275H=\276\274\362\034\371=}\021\021\275z4\231<O\3568>\353l\254;\334\350\217;/\205\222\275\277\025\271\275s\334\224\275\366\352\245=\003\362\273\275\236\035\320\274\267\\$\276W\235.>*\262_=\245e\207\272\264\215\345\275r\002\026\276?\262\357;E\260r\275\260\3503>\014\232\275=\177\005\344\2748\216\327\275\346,\326=\312\271\333\274\001\224\t\276ftQ=\364\320H=\351\262\034>\315zY\275H\026\360\274\210P%\276u\304\357=\014D\006\276\377\032\334\274\252Pv\274k\311\266<$\263\023=\362\264F>x\363\341\274\201\010\\\274\373\352\035>o\370\r=1S\245<c\217\362\275\322\360\344<,\025\277<\342O\373<\206\014\332=\300\372\000\2754R\225\275\007t\035\276\272\222\033\276\206\0277=\365\000\001>6\032\r\275\035\014\372:m\353W\274\355mS<\311N\005>9\244\304\273\316\\\207=\366\2640\275\207Ep\274\231\032\313=\030\256\202=r,\326\274\272\004t\2742u\264=\207K\273=6\353\261\272\275\003\241=\207\237\243\275\367\302\240\275@k\273=\336\253\244=f\277\243\275\245\276\344\274\305.\363\275\204C#=\330\360\205=\n\265\020\276b\203\177=\247\335Z\275v\364\002\275\000Y\242=\200\242\t>C\273\302\275\362\254\203\275oA\027>9\371\267\275\266\032\006=: G\275\264`\006\273\247\317E\275Cq\242=\351\256\002\276\2366,>\373\221\302\275}\027\355\275\210N\321=} \n>\351\265o=h`\370<{\216\307\274\337\016\300=\226\332\352=\307\365\000\276\002A\233:\030\350\263=\037\310\025\273\014\rB\276\217z\020=\'A]=J\341\263\274\314h\005\275U\324\206=\003@j\275\344a\210=\243\357\242=\325d?\276\302\242\204\271B\3507\273\017W\267\2729\025\006>\020\215\333=`\344O<\207V\362<#\313s\275\237\320\032>\367Qq\275\2556\025<a2\214\274<@4=\330\323\344\274\255\315\212\275\232\334\245<:\341\317\275B\266\254\274\351\247\033=d\336\243=o]\265=\236\306\333:%p\347\275[\002N\273H\035\215=^\237\362\275H\305\340=\273\221)>\327\005\317=\330\"\250=x\335\353\275\366\342\206\276\230\365 \276\265i\215\275\221\355\r\276f{8</\317B<\3417_=\365YS=\250 h=\365\014\240=T\314\314\275\335\020p\274_\337\220\275J\222\204<\035\206\263\275\213\027\330\275\n\353\004<\322\213\025\275E\305\r\275\301\331\256\275\250l\"\275\311\320\347=|\002(;\207rk=\334\372\275=h\305\256=\230,P\274:\237\341=\347W\013;\336\030\337=\005\t\334=$\244\365=\336:b<y.p\273\263J\017=\321I\n=\260\252\242=l\322\315\275\007\244\001\275\031?\372\274\nn\351\275\362\366\376\273FW\330;\235=\255<\260R\\=mz\214\275\273|J=E\216\305\274G\234\230<\263-\242\274X=\325\275Z(\214\275@\250\203\275\255\241\004\275\370j\211=.\254u;\033a\214=\346y\332=\2173\273\275\370\030+>\260\317\305;\216EU\275\364\353\255\274\236\210x>Jz-\275*`\376=\034\010\221\275E\212\034=|\301\373=\250\307?>+\202\"\274\361j\254=\231\234\370=\325I\206\275\006\021\277\275f\334\263=K\032&\275\261X\213\275\267x\341\275\013\000\022>\257\356\244={\377#\276\365?A;~C\006=\274\306\'\275<\330\222\275B\376\031=\264\025\016>\333\217\033\275\0108\270\275<x\352=\271\224\374<\000\nM\275\236\367)> \2741=\2679\017\275\204\235\332=\253h\005>\267\005E=D\366\246=\301\242\330\275(\\\376<\"\205\177;]c#\276\261\311>=\215?\017=\0138/\276\357\r\232<T\322\256\274\202\252\246\275\300JQ=\244\353\306\275\031F\341\274E\316\353<Z\253\003\274:\246\263;\210ON\275\013\302\325\274\336\356#=\261\032\242=\342+5\275\272\237\014\276\035\357\025<p4k=\272\220\343\275\000\260)>\003T,\274\200i\315=\262\355\212\275*\2201\275D\001\262=\246\301\271\275\313\332\005>\205\356\335=\222\020\301\275\356(&=\265\344\216=r\200f;\342\237\361=\327\230\342\275\243\372\020>\356\002\355\275\352\216\020\275\225\004\020>t\336r=\271\030\r\276?\350\021>\037\277\343<\223\353\r\276\032\221\036\276\017\t\002<\017\346l\275\031\233\364=\t\312\207<\324*\254\274\232\341\332<)\246@=D.\014\276\212\336\374\274R\212\230=\007\020\252=\354\321\r\2768\241\204=S\010\035>-\275Z>wW\307\275D\251\242=\220\322\024>{}\222=\333\366\223\2751\263b>f\264\302=\206\234\017\276\323\345\010;\337\363/=\361\240}=\326\256\342\275\211\037\223=\343\254\323=@\375R=,\342\220=\224\360\274\275\340\014\216\275\221\267\n>\003\357\235<U;\n\275ghh\275\321\342Z=\203<\037=\253\351\334=\3521W\274\362.\352<=#U>^\276\261\275\031\261\274;\\ma\273s^\346=\274\232\335\274i\027\273\274\374\341q\275\016\351s\274J\254\340\275\311\035u=\003k-\274\372\213\267\274\270Q\037>e\360\375=\354\\\373\275\275\344\025>@\273\346=\322\327\260=)\300(:\265>)\276\372i\245\274\264\254\3749Z\241\2048\264\300k7$48;\247\340*\272G\215\356:S8\247\2702W\035:\314\263\260\270\351\010\230\270\305\370\3319*u\205\273\313\374\366\270&6\204\2711\226\033<\301\204\225;?p\2618\002\274\233\271a\017\0268Qr`\272\332?\2628\231\272l9\036%\350\271\261L\002\274\033\006\0068h\346\001;%\304^6\353h\245\271m)-\270\262\324\230\267\320z\302<\361\n3=<B\206\272\330\322\240\275\355;o\271\264\361\204\272\216\321S;)\242\206;\357q\206\2744\237\314=.\032!\271\220\346\314\272\334\223\354\275\362:\300;\"\210\213\274U\000X=\323hb\274\371\340\312\271\211\360\236=\004We:^^\341\272\000\242\355\274\356\243\235\275\260k\n\271\232\223\261=Ju};\222\013\216\272\231J\035<\330L(71 \"=\305\204\t=\314W\313\270E\305\0259\253\220\323\274\317\275\204:f\342\2617\032\022!9x94;A\237\227:\342\367#:\252\010k\267\320\332\242:}\361\372\270\337\t\000\271\316}\252;&\231K:\216\023\343\272\270\213\263\271\242\r&9\213\300\300;/8\204\271\321\310\243\271S\025\0349\001E\005\27300\326\267\347\"\3049\224ct\273O\033\206:QqG9\003\244\217;D\37077@\'f\272\204\317\350\273\201R\245\270;\271\341<\247\213\270\274\374aL=\202\006M\271$c\234\272\367w\214;\342\227\021;\003\007\250:#]\331\274E8\006\270\261H\214\273DZ\027=\026\036W;\244\2219<\340YT\275\034\244\332;\232\346\220\274\375`%<\242\276\372\270sd\r\272@}\027;\262\2614\273*\210l\273$o\036<XX\374\274}5\303\271\235W%;#T\020<\330\235Q<\247\327\201\273\316\373\243<(\\\017;\373*\214\272\255\233\251\273\341\013\"\273\016\032\037\276\257\3770=\227\260A=gY\025\276\334ON;\036V\021>\306\243x==\276\324=\352D\014\276\t\010\307\275\r\242\t=\372.\364<\325\312\n=SV~\275\307\376\325\2753T\362<\207:F\275Wo==\232\256\023\275\302t\036\276j\213\225=\336%\241\273f%\037\275G@\306=\251<\256\275{h\275=\227g\277=\244[A>F\372\316\274\372\343\236\275.\323\341\275v\002\255\275FW\355\272\253\020\357\275\3143\006\276s\351\017\274+2\010=\256P\007=!\334\032\276Y\354\034>Ij#\276\342\212\242\275\277f\t=\\\236$\272/\277x\275\200K\237=\237\177&\276W\373\236\274\311\373\271\275\204\253\037\274\032\327\n\273\0229|\275\332\322\300\275H>\t\274\007\321\014=\026\320\250<K|\276;\023\021\210\273\247a}=\3075\320<\272t\216=A\215&>\355\236\014\276yew\274g`r=\t\016z=.\372\007\275{\217\353\275\334\001\207<\333x\215=f\202z=\t\260&\275\025)\201\275\004\203\274=\034\215\344\275\210\266\315=\250\266\301==\205r=q\325h\273m\tP<\344\252\235=~\315\002\276A\016\230\275A\217\362<\352\215]=\362\022\030>\276\233\265=i\246K>\311\036\021\276\257`\233\274W \364\273\027\332\276=\230\371\247=l\373?=\200\234\360=\343\302\354<\275\371\337\275\217Id\272\355\023\343\275\377\202\305\275\2059\265=\034\224<\275$c\375\275\014\365\025>5\201\234:\367\r>>\210\256\335\274\t&\032\274c\261\375\275\036\303\302=\3232h=\346\025\024=.\207\234=\3349\300=j\377\236\275\374\221H=\000\216\350<\225\310\306\275{\367\257\275\303\272\272<\200\377\004=\030c\277=\247f\221\275\3602!\273\361|\272= \373\t>Q\341\020<\355\345\210\273P\324`\274=\367,\274\357\375\202=\274t>\274[t#>\315M!\276\350^9\275\364\244s\275\205\t\226\275^4m\276\320\265[>8\344\037\273z\035\240;\351\223i\275\327&\353\275\220\023\177;:\215U>\257\276\377<\221\023M<\365l\004>\304\247\376\272\325jZ;V\210\371<\373}\356\275f\033\244=g\225\341\274\247\177\371\275\242w<\276\274\271\360<z\023O=\377Dx>\205\271\002<\177=f\275w~\037\275\203#u=\014\302p=\216D\344=f\251F>J\241W>\221\'\230\275W\334+\275W\025\353\272\273\214t>w\037K\275\273/\024\276\257\354\006\276\375\203^\275\225\032\306<S\030\276\275\345\262\010\276\344\255\013\276E>\257\275z\013b9\017\365\\=\350\234\017=\345\330z\276h\317\300\274\"\030\036\275\r\025\254=\034\211>\276\273\006\212\275\200\000\204=\243\264\317\275?M\212\273\325\\3;>xb<\367\r\010<-\320%\273u\306\213=8X\217\275\313\232\242\275\225\250h\274Cj\243\27324\254=\035j\">\262\3476<\317AY;\356\247\377=\215\316\341=CJ \274X\300\221=\237c\337=\300%\005\275\264\223\024>\271\324>\273\246\r\203=\033\376\023=\3051U=\262\017&\275+\236\244\274\257\004\302\275G\246]=u\371I\275\323\303\263:\212\000\';\346\013$=\212\332X=\233\\\005>o\227\347=\341\375\313<\002R\344=P.\362<\315S\265\274\350\224\332\275(\031\273=\\J><\026\3639>X\320\307\275b\234\275=\277\344%>j\024&>\214\254\307\275\365\327\200=\276K\223\275\200\302\243<\334#\"<\235\231T=\302\321P>\203\347\003\2756\272\230=9\330\273\274Z\003\242<\316,Z\276{\326\274\275\303L\255=\205\201\206<\272\022\304=4Q\255;&\233\266=i\235\261<vi\250\274\026\302P\275\261\0143\276\240\263 \275\344\274\320=\253\2036;\337\017\222\275n\220\257=\222\204\277\275\250\021\224=O&\355;\344\037\203=\264\214B\276\215P!=\033P7\276qI\356=\304\356\306=_\237\242\275\374)A\275\231\266~\274\345l\301\275\217\216k>t8\245\275 \233\335=\363&E=\231\271,>\340\361\244=%\300\017\275\257<\213=\332\016\275\274\221\344;>H7\375=\344|\233\273\031\221\200=\235o\010\276\240\\\267\275\232\351\225=\202\227\347=\362\227\225\275\301n\276\275\316\211\344;\354\036\345\275u\270\307=Wb3\276\302\224\007\276\001\342\317\275V:=\275\350\305\366\275\250l\002\276\262d\312\2732F\260\2752\344\272;F\312\200=\220\363\006\276\020J\013>U\325\003=9\367};UE\000>\027\206\213=\215\007\027\276Qu\362\275\366\304\034=\237x\212<A\212\202\275\255\370\276\275\364\027\334\275\215\022\372\273\245\311\270=\336<#=\034\312\256=)\261\034<0$J\275\024\334\327=\024\276\364\2756\321\321\275%\347\263\275 \'+\274\t\221\270=uo\372=\340\303\037>\207\005\003>\361{\207<\007d\030\273\017\236;=\235\243\325\274X;\222\275\005\354A\272\020n\210=pY\022\275I\025\024=\243\247\021=\n\211\317<C\363|=S\322b=\332nR>\222C\"\275^c\224<\027\375\332\275\000\024\032>\314\r\362<\016\232\320\275S\240\344\275\014H9=\223\310\365=\n\201?=\0331\014\275l:,<+B\250\275\332\226\264=\320]\001>\3117B;\033/\363;\003\001\250=\315E\344\274BE\233=\212m\304\275\031\370K>\037\211\035>\203\231\314;\335t\227\275\005\323\315\275\273\356\365\275\324Q\306=V\274\014\275\330\270/\274\314\341\332;\221@=\276\345\257\215=\235.\330=N\273\376\274`\2263>\234c\377=psG\275!iF\275_\037\265=[W\032>\n\343\232\274\377[.\273\037\301\233\273\332\031\001>\346\254\315\273\321\366\236:2b\002=yqZ;\335\277\302\275\343\302&\275\013\035m;\224n\010<\367P\326=\017\021\320=R\'`\275\317<\341\272\n\263\236=\371\377\025>\264\337\027\275\001\262 \276\016\013\207=\035\245\232\274\030\3054=W\343\263\275\006\270,=?\202\362<\274~\032\276\n\251?\276\276?\036>\330y3\275\366\375~\276\025S\331=Q\222\260\275\032=b=\353=\375=\250\006\302\275\363\2559\275u*\r>e\0217<\262h\031=2}\017>\251\010\245\275\226h\220<\2417I=\320\337\036\274\264\203\035=\037\013&>}\261\237=\036@\001\276\261\t\310=\326?\363=O\216\304<*\337\'\275<\t\3677F?\234=\276FE\275\347)\006\275]\305B<\315\217\r<\373p\017>\230f\346=\267~\374=\306\255%\276\243\256\014<\355\236\032>\233\300\037<}+^\275\374n\010=X\334\004=\236k\030\275\2243\207==\326&=\302|\265\275\210\010\261\274Y\344M=\231\017(<\306\300\214\275\033*7>\233\254l\275r\016\234=\225\214\221=\031a\\\275\363\nK\274\235Y\020\276\005H\036=\r\202\367=\302\215\025<\303\005\374;\337\341&<\202(\275<X\'\250<d\367\006>\207\232\347=M\310\007\276\213\227\222\273\343\353R\275\355\324\276=\251`_\274b-\333=h\021\343<\371R\361=\000\021\321\275H\003\023\276G\3646=d\301\230=\251\371\346=E\253\036=\211\211\275\273\361\232J=S\2551=\251\016\353=\335\321\366\275\t\007>\276\201S\267;3+\330<1?\344\274\327I\021>)\317M<\303\030\234\275/e\244=P\325\022\276\007\307>\275\274dG\276V\211\350=\332\227\004\275\016-I>\311q\201=()\033=\024\3647\276\323\371G\272L<\014<Jx\343\275z\375\377=;\376`\275\316$\264=\206\303\016>\307\374\332\275\025M\253=\0238\300<vo\035=V\025\004\275\340\330\"=\316\034\321=\251V\n>3Z\003\276D\344$\275\350\334\234=#7\374=\210\2322>\\\376\036\275\006*d=\313\255\200=P\201\332\275s\204\034\275\373T\035\276r\017.\274\261\235\302\274\336\333m\2753\014\013\276\320\251\203\275\016\307\016\276\341\200K;:j\235\275\313\221E\275E[\261\275Um\023=>-\342=\2510\342\274\361A\'\276\372\315\033>\034\020\004<a~\363\275Si\272=\304[\245\275\320\201&=\223\\\244;jj%\276d\025\t\276\2126\235\275\220\202B\275\2558a=\272\020]=\212*\021>\221n\330\275A\025\233\275\305^+=\353\237\236\275\313A\224;\340\025\210\275\302\225\035=\254\')\275\327\310\262\275\366\342\t\276\234\t@<PW\216\275\332\233\026=\364\360~\275\361V\244=\361<\017>#\307\231=M[K>\312\005\302\273\2653\202=vO\247=ysY=\000W\370=\206AS=Bn\272\275\001\204\277=\354\344\371\275\020f\334\275\3138\373\275\243\376\027>\306\214\013\273j\240\243=\275\317\r\276\016E\016\275e]{=\n\246\n\276\265\305\314\275=\021\330=\234$\177<\364\356)>\272U\371\274C%\215\275\024J\354=\016\017;\275\2177\001\275\354k\275=v\371\205\275\217\262\272=\211)I\274z\351\035>(\250%=?\231I>\364}\373=\237\373\034\276\206\013#\276\266N\260=\342^\263=\221:\270=<\271\014=\230\236\022\276N\355!\276M0\365;\221i\312<\220\335\266\275\301P\352<L\337\031\276\313\236\232;(~\326=\014\215T=\256M\251\275\245j\251\2747\006g=\305V$\276l\337#>|)\017=\365Q?<\257\237\007\276\247\006\307\275\254$\224\274n\330\363\275\241\210$=z\013=>\201X\004>\326\371\234=+\270l=\342\260\324=7\253\250;UM\026>\025\202\250\275\363\243\323\273\244\222\337\275\364\211\032\275\237\220\016>\331\330\330\275We9\274\331\026\205\275\036\3073\274(\243\274\275\354\352\236\2758\364\025>\3317\251\275R-\345\274o\020\n<0\2317>=\036\031\276P\330\372\274\224\261\016>\265\225\330=\277i\304\275\326\227\361\2743\306\014>\351\022\010>\377\253\374\275\336>^\275 \2327\276\364 \017\274\007\243\341\275\223\272\203=\031+\260\275]\333C\275>\321\256=n\027\215\2756s\314\275\376\"0\275\030s\332\275X\312\261\275\205?$=\346G~=.\260\263=y\303u=Y\247\005\276O\315\223\275m\246\275<[k\271=\021\007\n=\334\371\275=;p\363\275\263%\010>Y\215 >\242S\330;g\035\360\274/\343j\275\"+\271=\343,\244=w\365\273\275\301\302\302=c\376\235\2749\331r=.rH<\t\027\363\273\363\364\202=\022\005\006>\032\334\200\274p\236\245=t\352\230=\347=\372\275_\036\254\275y\256\370\275\320hI=6hI>\352m\303\275\257\275\035\276tt\333\273\003\337.>\235;v\275Ip#>\256<\023>\326\263\221\275\311\002\325=\304\030\307\275\332\032#>\361b\265=\241\316#>\\\253\023\275\366\026l=P\227\001>>\000\327=\340\014\306\275o3\314=\277z/\276\377\342*>\333\317\255\275:^\266\275\300\006\013\276\'\202\"\276\035t\021>e\231\242\275\313\362\256\275\231\0055=\364\254V=\322\335\021:\374q\001=\014\375?=\037\350\242=D6\001\275\013p7=\"a\315=q<\000;\247\025\332:\3571\004>\261\013\027>\034-\357=U\235k\274T-\024\274~R\373<\007\267\342=\t\033#:\025\255@=My\232\271\010\252\221\274\306\376\345:\020%9\273\206;Z\274\344\036\200=4|d\275\207\243{\275\363\206\205;KN\367;\217\227\207\274\0059\267<\310\222{\275\374s\021=\311\340\320;\264h\365\275\031\352$\275\357U|\274D\324\307\275L2Q\274\354\022\210>\223\273\256=+\321\177>4\350y\276:{-\276p\377D=\372,\304\275X\364g=\271;2\276o^\271\274\312?\317=\2248\330=+\371\376=\201R+\275Om\216\274\233{\307\274m\210\364\2754\266\250<_\342)\275\354\335K=\2216\016=\226\363u=\010\235\336=\233\032\007\275\317)\241=\306\2325\275\333hs;\211}V=^R\203=\027\250\231=\374\361F\274J\336\021=g\233\263=(\010\344\274\3768\313\274\212\276\214\275\304\013#>?\223\254<S\240r\275e\307\210\274S\246\024\275$\252%<*\315\037=\370\026g\272\370\'H\275\320\323R\275Y\267\213;h\'\022=\037\317\311\275xU\216\275\362\025\032\276\270\226u\275\223}/\274Pg\211=\203fl<\351X\\<\030F\274\275\314\237!=\356\202(>\331\301\276=\247\242\013\275\324\034\215=\n\2731<\037\201\264\274>_O;d\021\232;\340\0278\276\240\336F=\257\005d=Q\333\224\274\213\225\010\275[\267\365=\337~:\275\024Y%>3\223\355\272\000\035)\276\3055\321\274\264\253\332=z7\020>i\240_=\210\221/\275N\215\232=\305iy\275pd\016=\211\215X=\222\030\330\275rk!><\274\247=u\2362\274\004YH\274\t\371\035;\343t\216\274~\016u\274\314\365\353<h\356\213;\221\233w=d\351?=\001\246.=\246\276\027=\363O\347\275\226\241\347=3\254\256\275\255\032\207;\340&\027\272\275\253\240<`;\036\275\250\342|:9\276(\275UDy<=\342\353<\220\365\220\275\010\263\3647]J\211\273\315\005\353\272\250Z8=\375k\251=\205EJ:\264\352y\2759N\213=\245\266\036;\037\300%=\313\377B=\355\325-\273\243\262\026\2768W\314\275\214l\204\273EQw;\034A\311=\353\3300\276\314d\r=5\207\307<.\271f9c=\211>\334!\254\275m\245\230\271\010O?<\307\336\002>\215\234\206=M\365\263:\315\364,=P\212\3479\240$\r\275\2330\221\275-HB\273\236\321\024\2754+\370<\340\035\355\275\310\351\276=\352ip<*\336-=0\317\220=\352\266j;\201\353\250=\231\007C\274\267cr;\303\252]\275s\371\364\274\037&\323<\373S7:}3\217=\302j.=Fwp=\032\257\202<s\333\026\276\277\235(=\206N\330\273\035\021\274:\361\270\026<\354\211\013>\316U\017>qV\214:\225,\304=\031\333\230=p\324\243\270+\361\216<\213\014\352:\266\262\370<*\320\017\275\212_\023<c98\275\030.B<\256,\024=7&\001\276\021a\322<@0o<v\350\007\275\374\372\236\275.\206\205\273N$\223=\233\2448\273\217v\024;\316\255\337=\317\026.\275\213\013\221=\332\351D\275\375\314\372\275Fw\277=\222Tw\275\302v\260\274\230>\344;\273\273\306<b0\263;4\367\372\274h\217\270<c\362\330<\3245\306=\306#\217=\320n\314=\247\366\371=\006\203\001<\200\323\037>\033\303\021={\241\314=\314\027\025\276>\330\314\272aM\233\275\203\332\017=\331\311\\\275~\263\210;\250\235\272=\255\274[=\003\306\376\274\205\306;=\221g\324\275\275\235\215\273\3406\211=\034_\002\274\377\3613\275\232\341\336=\3355\373\275\035\221T<\367\277\t\274\335Y\371\273Aw\237\275\361\030\321\273\n\326\t\276\237>\032=\320\361\021>\273\246\026\276\335\207\035=o\272\006<\226\200\211=`\004x\275+\220\376<\370\234\205<\t:\224\275\354\317D>\'\007\r=\306\3465\276\217@>\275S=%\274\355,\304<|r\325\275p\203\313\271\025\t\331\275\207`\270<\226\243\210=\324\3313\276\331`\335=k\234\311\275\3679\335\273Q8\341\275\330\240\236=D\235\025\276\335\3030\274\000\201\333;\327\243\034\275\r\220z\275\343c\036\276\032\"\">\305\"4=\273D\033<\264\033\306\275\263}\016=\245(\030>\332_\"\276\305\355\376<\016\361\226<\037s6<,\313$= \n\360\275B?\033>\020\215\344<\025I\325\274,\237\001>\371\014\024=\361\030\260<[fU\275\327\'\026\275\035\017\033=)*\211\275\222\231`<Q\2754=@\204\267<\336TH\275>\000@\2755\313\007>;\222\264\27593;\275\355\377\244\275\372\351\r>\333\343\030;\"}h=\000\014.\275\n\257B\274\252\276\205<2\0319=v\005\334\275z%\202=4\237\275<\304{\310<9[\206=\021\014\005\276\353\024|=\227\243E<\201\321\206=I/y\275\000\354\r> \3549=\2146\031=a\026b\275\313\275\023\275\023\"\303\275Lg\220=\362\373\233=\366\030\006>\305e\267={\315\007>\006\'\332<\216\336\017=\035\212\274\275\023L\005\276?s\317=!\333\366\275\200\3744>\300\0222\275*\233\366=P\371>=W\262\013\275d\270\027>\315\342\031\276\351q\310\274cR\306<B\203\233;\214f\256\274\204\261\262\275\'\211\263;\357\256\250\274H\026O\272ia\255\275\364\265`=l\034\025<\312\237\001>*\026\010>\270\205\n\276\330jx=}?\010>\233\203\275=\014\313\014=\266\243\341\273\306\246k=^!\206=~i\"=\023\212\027\2769\r\237=+Bt\275\306_\233\275}\023\003\275y\337;<a%\014\275\330;\207\274C\241\256\274\245Fg=\207~K=t\233,\275\204\340\313<-\034\312\275\303Y\307=1\3624\275\332\345\263=b;\322\275\354\223\262<P\245\325=CX\337\275\272v@>\342g\210\275\313=y>\224|\230\275\214\320\341\2753i\273=\037Y\242=E\363<>p\307/\276hh\256\275\224\365\343\275\242K\000>\363_\022>\305\377i=iR\025\276yB\227\274U\354$>p\223\321=\360+\255<\263\375\001;V\234\\=\rA\237=\036:\246<\245\274(>\035\237\r\276\250+\353\274\365ua<_M\210\274\236C\303=\245\034\231\274\'\336\347\274\224\227\203=\274\2520=8\333V\275\035\252\273<f(7>\260\334\326=\311m\377=\350\241\017\276M\330\217=tp\365=\352\323\017=\0014N\275\350\257\251=.u\"=[h2\275L\351\026>\216\203\237\273\205N\341\275\217\216{\275\025m\235\275\221qI>\320[\244=\273t\331<\261\202\036>+\207\036>|\307\303\275\247\303/;\247g\010\276\315\247\301=Z\240\241\273\237\334\255\274rX\263=\214\213\233\275\273p\240\275\263\272\262=\007&\364\275\255\3360\275x\371\332=\244\207\217\274\302\236\373<\252\254\005\276\017\357\315=L\321=\274\034\036.=\2671@\275\265E\372\275\365O\325=O\254\t\276\361\276\036>2\354\036\276\214\266\313;\340\\\007\276\030\214\326=\222\333\235=<f\022=\203\021\217=@wR\275Q\243\005=oS\334\2753<\226:\211\202;\273U\223\364=\321\275\215=\205\255%=d\'x=hs>\274x)`\275\214\254-=\330z\231\275\326.\376\275\026\242C\275fde\273\273^\201\272\336\t\340=\246&\330=\277\331V:9D\202\274>\221\302<\237\237k\275\213WT\275\217\005\027\274\201\266w\273z~\233\275[Ov<\230U\r\273\375 \220\274\365\300c<\231V!>\274V\227=\353\207\263\275Y\234\333\275\365\230\r\273\'\341*>\366\205\310= \237\233=\351|\007\276\032[i\275\014\010\230\275\026C\000\276\355U\245\2753\026S\275\275\255T\275\203\334\302\273X\231\340=\212\217\355=y\323\246\275\214z\201\274\010*N=\n\365{\275kF\355=\356r\362=n\230\003>\007\202\203\274c\305\315=\253\370\377<\362})\275\360\217.<^{\017=.\314\256\275\374aj;\374\036\262=\316!\240\275*5q\275\006O\302;\316\345q=\264\177\265=-\240r=\212\243\315<\347&\373\274Y\267\030>7\351\343;18\244<\014\354\035=F-\022=\237\351\255\272\354\231\003<$N\226=\026\261\">@\215\230=\324\376\215\273\341\251\005\276\030X\036\274^\362\017\276\245\275\213\275\330WJ\274\207\177#;\032\376\212\275\240H\204\275\237Q}\274iDN=\027\213R=U\342w\275Z\361\250<?\356\267<n^\257\273\367]9\276\376\272\035\275P\326\364=9\005\246=V\0055=\376\336\001\276\023\211s\275\256u\270=v\023\275\275q\315*>\313+\210=\231n\223=\250K\357=p\345j\275\265/!\275I\004o\275q\272\264\275\354 \233\275\360\271\335=(\tu\274\r\360\265\275\032\037\312;\260\242\366\275\324\316\320=2F\304;\342\243\252=\223\321\014>\002eT=\025\030:=\177\335\020>5\347b=\263\233\237<\241\025w\271\370d1>\375)f\275\237Y\327\274t\234X<\260r\027>\346\r4=\3409\365\274\232 \324=\333\240\332=\301\332\027\274st\350=\210;e:\016\240?:\022\315E\272\tS\014>b\226M;qU\313=\257\026\201\274\202\220\215=d\317\356=\366\334\3449v\375?\275\237\217\251<\232\372\352\275\324\377e=\262\362O=\360\357\032\276\246.+\275\2022F=w\254f\275B\303\242\275k\316\213\273F\262\241= b\257=\210f\236\274*\254\326=qj7<\241\236\020=\330\252*<JN\007\276\3009\t\276-\006.=\332\241E>\364\\;:rd\236\275\320\346\003>\240I\376\275\277\236\236<\022\006\265<$0\250<I\324q\275\247\220:>\001,\005\274ep\n>\241Gm=\266J\227\275\351{\374<\345\314\311\274As\323=Gv^\276\267\325M=\300\271c\275p*\n\276!\035\270;\214,\347\274\006]\376=\245\267\352<\317\037\326\273\240\317\036>M\310\214\275\276b\226\275f\013\374\273\013\310\371\2752\364=>\232\n\241=\022\010\\\274\'\275\t;avp<\303\214\033=\232\016\004\2737\327W=\346x%>\030\303\267<OU\376=\331\314*\274\005\332!\275\347\376\212\274\243Q\335;2\325\254=\310T/\275\266\306$\276\357!\030>f\031\215\273\327\361\031=\240\007\020=\207\027\010\274\260t\257=\306\036\202=w\321\244=0|W\275AyI=\220\301$\275\003#\r=\300P\220\275[\246-=V\210a>fX\350=\240]\323\275\n|!>\276#\231=\022\025<\273\035\327\322\275\305\272\005\276\253\214\227<\026v\355\272wK\261\275\016\364H\275\231\234\332<\347\217\366\275H\352\006\273\274\343\211=\002\222v=\221\261\360;\226\332\314\273\2302\022;\032\363\205=\245O\200=DL\242;\363\237\231\275Tg\232<E\254\201=\322}l=\317\232\035\276\210,\325\275*\244\314\275\013gF\275\277\004g\275\353\211\031\274Q\274\000\275\304\261\027\270t8\025\274&\r\261=\2208\017>5\234\2529\312\361\n\273\037_\n<\213$6=\305\245_\275M\226#;\263\005\035<\371\350\277=LS\242=wZN=+\003\256<\001\221P=~\371W\275\234\332_\275}\356{\2758\353\016=\270\216\020\274\0021\"\276\257I\300\275\010\314\240\274\236\"\231\275\343\320\313\274\020w\224\274\005\204R=\245\035]=-E\013=Q\263\302=6..\275r@\257\274Oj\034\2748h\245\275\212Z&;\372\224\306\275\0040\256<~\244\343=\3565<\276\366\020\336=w\307\273<\330P<<\312\301\303=\364\tu\276\362\355\304=>c\360<\335$->.\317\024=\353\315\233=\334\267b=_\250\335<\260\021\002<\326_0>\3076,=\331:\266<N\351\321\273\305\327\014\276\210\246[\275\234C\220=j\251\201>\241\357\005>\272<{\276\302\217\r<\271@\325;\177\3742=\351\276\334<:\247W>!3\302\274\202Q\257<Of\230<\'\357\207=\351\370b\275\267!\347\274v|\344<\244X\222=F\"\204=\004\210\236\275a\322==\016>\324=\302\352\001> \305q=\366c\340=x\351\213<\240;\224=\220\010\305\274\330\341\240:{\312\206=\242\351_\275\036\021\271<\227\353N\274\207\275\246=\325\367\025\272EQ\232<?\006\275\275\354+\311\274\345\241\037=\343<\245=\351\217{=\310\251>>\013+)\276P\336\223\275O\333\224\274\255\226\274\275\310\357\006=\371\326\215<wM\005>J\213\"\275Z9\n=\200\024\345=6^\325\275I\320\325\275f:\024>\nG\306\275\346\255\247\274.j\271\274\334vd8\277#\004\275\332t\001=c\260\330<k\304\243=A\267%\2762\315\251\275\323\205V=C\306\273\274E\243\302\2747@$\276\237\365V\275\327\001\217<6U\034<v\302x\276:\215\017\276\302\243\030\274\350E:\275\022\311\n<4\001\245\274\372\033\017>\346L\260\273\221a\013=\021\374\203=j\222\202=(\007\005\276\037\2544=\267\024\332\275\346\2066=\343\2219\275\020:,=\346\346\241\275\036%\016\273X\264u\271~\226\231\274M\277\356=$:\340<\206\356\"=\025\237z<\361Q\342=\360\254%\276\\\2613<70\215<O\002z=\250&\253<\263!\233=\024E4>\006:_\275IQg;{j\001\276d\177\224\275\302\021\352=v\003H\276\334x\356\274\351\2072\276zQU=\273\330\000>\346\304\367\273g\315\003\274\031\262\032\276*\033->\236\006\036=]\374\262=<\272\277=\302\377\005<k\335a=Z\262E=\t\334\r\275\371\021O=\200\307\302=\374b\354\275\224\244\364\274Q\265\030\276\273*\310\275\332\330\017\276\345\230\260\275!\3529;\020\334\263<\247\031r\275,\025\014>\016%n\275\310Ev<\357Y\260\275\355\274\344\274II\353=\370\021\022:?z^\275o\243\352=\337P\232=\014\2412\276\266\266\006=i\353\264=\016\303\001>o\240\354\274\317\005C=\360\272\204\272\235\3156=\265\364V>\212\3075>\204N/\276\362\236\214\275~D\002\276\3705\214=C\260\203\275\365?\035=Cz\263=i\002\363\275\264\007\r>\325c\305=\231\246\020=\265\006H\275{v\221\274\221\014\027\275\217^J\274\207>\007>\362\017\350\275\013\036\365\274i\270\237\275\337\0316\274/\215\002>\014\335\300\275GA =5\337\004\276<f\320\275]\276\251=\244\000*\276\340\303\016>\271WM=F\241\346;m\021\007\276v\031N=Z\021\026>\242\345\327<x\254\360=S,\227<%\351\202=\305\010\267=\217\324\225\274\007\006B\275\355\"\354\275\020\332\223;Vk\365\271\246\210\022>\30483={8\363:V\321\t\276\326\2676=\004\244\262\275+^\035;{f\331;Jn\021;\367K\311\275)\263\020>B2Q<\250\r\007=d\307\355=\026p\345<\347\370i\274\2324\306\274\006\214\376;m;\237\274p@#>6\333?<\315\266\025\275\307\261\223=M:\364=\336\374H\276\266a\324<\353\313\022\276\023\346\214\276\006\217\">\030\242(\276\013\035\223=F\235\330<\202\241\314\275\220o\214\275\324\t\244=n\3234=k~7\273\020H\344<T|\031>n\210{\274\326\303\305<\322\215\313\275Sme<\002\201w=\354\242#=\262\273O>\003=\034\276\220\275?=\177/\207;,\273\300;\003\321z<\206\234\273\275\336`\353\275\020\356\270<%*\361;^\366s=bE\251\274\277\022\323\275\260v/\274\203\006\331=K`\024\276\273gU=I\221K\273\266\375\255\274o\236^>\271U!>\014-\275;\356\177\252\2751@\226<t\234\025\275\200I\252=~\360\024<>nq;1B\226;\342\254\256=\016\251\254=\227\207\205=\225\352;\276\3266h=\257\331\206=\2128\304\274f\365\305\275\351\025\356=\265\271\3379\3124\316=B\222p=R3\211=\312Z\024>5-\231=\336|\223\274\301\257N\274:\227\214=\333j\211\275\340s\232\274\261\333\217\275E\242\r>\374\350\332=\241\224\017>\377\26199\341\314\r>\344\305^\276\350\254\227\274c{\257<\262U\"=\027\244\233\2756\'\020>\0055\250\275\031\352\235=\036\002~=\201\336I=\317w\200\275\017+\366\274\344\r\222\275X\177\306\275\023\367\274:\203\363\000\273\357\366\305\272PY\243=w\376d\275.\254\005\276\344\213<<\213\262_\275\221\010\253=\353\305r=\321\321\315\275tc\360=\323\327\211;\334$\250\272\310\241\242\275*\\\210\275\007C`<Adk>g\037\213<rS\323=\370\345W\275(8u<\273B\t\274\020\361M\275j\231Y=\013E\375=\203[\342<\232\364D=\3265\224\275\375\245[<?B\211=f-;<\207o\277\273_\270E=\366\322\0259H\026\005\273!\257\361\275/\376\302;tv\323=+\335\264=\035\361h\275\010x\361\275\3156\323\275\272\036\372;d\327\205=\336\016\244\274\324\217\306=\374\222\r=\240z\034>\214\221\320\275\3577\004=K[\342\275\030?$=r\236w\274\260\266\270<t\375L=\327\350.\276\352Zg\276\027<\341\274`=\302=;5\016><\250\"\272$\007\213=\370\224\327=\017\200\351;u\"\234=\205>\234=\272;\223=\024\241\237\274\272\324\017\275\246\346\001\276\240\355\254\273\357{\354\275ut\315=\036\2008=Hv\213\273\370\255h=\263\364\211<T\360\273\275G\241\373;\037Y\006\274,\t\272= 2\212\275\205 \376<\374\317\004>-\372\326\274\367\376S=@f5\275r\021\313=\307\021\312\275\306\2143\275\255\370\"\274\026T\321\275\346\002Y\273\231\240\232\275\305-\204\2743\241\257<&\237\376=\250\3672\275\376\003\225=c\023\344\274\270{y=\201\366\237<HO-=B\006\374;$Xa>\252?\353<\327q\332=\205\326\010\276S\257\361=V\025\026>\325\275\320=\223\230\030\275tu\241=\240\231\363\275\236g\375\274h\016\362\274\001Dk<\"n\373=\250\205!\276\0254 =E\247\004>\300\3049=A\317\266=\245>\035<#}\336\2751\310x<\375\177==\007\234\3139\257\373\242=\020\250@<\237r(\275_\332\306\274\260#\335\275\261\007h\272`\305\240\275\032_\210=\375K\310=\016\304\003\276\371\220\215=\350p\013:\3055\236\273r\263\006\276\013/^=\352\334|:y\207\252=\222\020\n\274xBn\273\301\247\262\274\376\213\3448\327\277\277:\313\273\035=\347\376\227\274T\236\255=\253\031\263\273\340\307:\275\034\243\370\274!:\030=g\200\252=]\275\006\276`9\026\273\221\303\321\272T\357\310\274\344v\363;\3065\243\275\033;l\275\rF:>\365\2700=\214\245A=*\356a\275!\001\342=\247\224\236\275\272\262X\275q\205w=\246h\232\275\273G\222<-h\310\275\365\263\253=\364\223\363=\366\263\000\274\352_<>\001\016D;\256\n\r=A\313\364\273\303\003\221\274\035\017\251\274!\020\361\273\335\037\264<\264\351\320=\264\3118\275\361\022h\275\312J\344=9\223\031;\351\315\325=\221\260A=\361\275\005=\322+H9\312/\244=D\211\260\274zT\014<\223=\320\275\031qm;\010D\003\275jo;=\274\022\224;>:\010<%\352\017\275\260\'\306<?\233\247;)\342(\274Z\364\373\274\312D\205\274\206x)\275\251\211\225\2723WA\275\315&\255<\003M\253\273\242uV\274-\307\245\274\202v\020=\220\365\205\275\2219\000=\244\355\344=\325A=\274L\346z;\247\034\225<\351\244\256=I\365\234\274\341\324R\274d\203\320\275\330\032\226\274c\362B\275\331\261\257=o\"\265\275o\264W<\326\354\342<\022\"\207\275\250N\310\275}\363\241=\376\000\010=\260`\371<Gvg=`_\206\275\227\022\322;Z\007\272\275A\305\223\275\327\334\235\275\213\243W\275\237\317\232\275D\0041\273\000\334\004=N\366\223;\216\006\"\276\326\t\267<B\3778\275fu\323\275\355\005\224\273\343\323\202\273\355\206\036\275\214\223\257\275M{\337<\235\'6\275\375\235\344;u\304\206=\033\026\226=0\036\203=\314)\201\274\"Q\030;\272\233\r\272 w\346:\000(D>-\321\364\275\230\377s9\037\313M=\230s\200\274\216wI=\361\204E=:\356\224\273\317\336\214:\177/U=qy\307<\376\376p\274_\262\026<\323w_=\'\313\254\275\237\226c=vZ/=.uE\276\305?\035<IlM=\314\276\\;N\2100\275\375\271\203\275a\266\270\274~\254\005>$\002\236<\331\322)\275bJ\253=\236\201\n>\225:\031=_6\254=\033\371s\275E\345\373\274\252\236:=\251\260\201= \371\305\275ZY9\275o\300\202\273\307f\027>7\204\252\273\234\303\021>v\372\242\274\303r\000>4\355\020\276\374y\032<\305\265\322\274\245\374\036\276\371.\343\274#\315\325=\212\006S\274[i\033\274\264\032A\276\217\200\322\275\203.\027\275\030\263\237<\321GR\275\254`\266\274\337\337D\275\030\252\005>\224\315<\276\345\217\235\275\343N\275\2748\370\237\274i?j\275\022*w=\342\204\031\276<\"\247\274\267o\006\275\307r\324\275\206V\375\275:~n;\267\274G\274\030b\\\275\225\343\266\275Ex\324\275\225\335\235\275\225\374\371<\357\332\177\275\320\353\307\2757\330Z=\240q\241<>\003\377\275\372U\002\276\265\242(\275\3637\217=\024\316\302\274\313\244\235=\310~\247=\'J!\276\243\023\201\275\353#\225;NL\252=l\374\346\274\256\372/=\302\260\306=\271\032\226=q\t\277=\302\210\270=\200dJ\272\026]V\275\324\327\217=#\353\243\275\277\3718\276]\347=<\3115\327\275\n\213\266\274\327\220.=\034\235M\275~p\021>S\214\000;\365\004\324;\035y \274\276\317l=\307\263\253<?\353%\2733\336>>\233\332i\275ev\243=\262\250f=\000\233]<\374\000T\275\355g\224=D2\277\274\255\371\321=\245#\276\275\033\323_\275\036\357\311\272\325?\021\274\363\022\361=\323\322\364\2736\2174:A\021\311\275}.J\275\326m#<\354\250\214=R\237z\273\205\317\233<l\352\240\275xGZ\273\344k(\276(\324\031<\030\277\302<\257a|\275\276\237\345\274\237t8\274\365r\350=a\257\314;QN6\275\263#\361\275\344DN<\346n`\275\301\276 >s\340\204\275\r\303\302\275\347\342\237<u\366\340\275l\310\222=5W\262\275EGH=\346\366b=\252\375\246\275t2\252=\345G\223\275\226\340\245\275\020V\221\275\025\020\016>\343\346\316\275\'M\251\272a\363\206=\335\014\273\275|\2036\276\221\305\355=\177qk<\222\211$=O\007D>e\207t=aD\252\275\2724\254\275\260\321\347\273\226\260x\275\247\223\034=&\343\002\275\370La\274K\362\000\276\344\0313\2768\362\210:X$L=\"0\313\275;\000\364\275dA\273\275\213\235\030\275\262\211\343\274\034\n\356\275\327f\025\276\351\241\226<\210t5\276\222\"i=n\221\227=\337\204\245=\263\357\303\274\036E\340\274wz\302\275\027I^=\n\035\275\275\037\330\377<\032\210F=\271\032\007>\004M\314\275\320\013\233\275^(}=\334\305\265=\353*\314=T\337\371\275\335\210\003\274\226K\325<\017-\363\274\025\314\034\276z]\320\273\235\010/\276\026,u=?A\017<\014\240z=\005\217e\275\324\262 \275r\"\234\275\314[\001\276\211\370\010>W\350\376\274T\374\326=\205\205Q=x\272\034>\304\361\025\275\360\3148\275\233`\004\276\n2[: a\226=\312\266\270\275\200\013\202\274\033\365\332=\007z\243\275\242P\003=\362\267\023<\372\343{\273P\241\330=\376d\030\274f\022L\275&\341\230<\235U\024>\204\034\032;B\002\315=\365\330m<\220\265;\2746\350\271<\361\022\250\273B\372\302:#\304\031\272w\303\005>r\362\250\275o\034\217\272s\362j\275\033\324\265;\250\013\241\275FK\217=\352\357\210\272{\232i\274k4\211\273\307\177\376<\342\235\336=\203\364\203\274D\016\242\275\200\006\364<g\027a\2757\367\215=\220x^=_D\360;\262u*>\213\320>=ZJ\377<\315\267o=[:\314=\200\334C\275\370\324\261=\204N\250\275\027\236\266<\301&\324;\376\005\n>\371\230+\275\326z\372\273!\232X=\274W;\274h\2119<\362g\200=\224gI>\n\370K=\206\230\256;|[M;qi\025<\241D\020=O4\001\275#*\263\274\251\217\253;\236\272S\274A/&>\001\300f\275\245|\366=}\374\\=\315\304\303\273k\t\355\2754\016{=\250\\h\275\250\025\272\273\216B\255\275\271\251\302=\023\200\323=\320P\277=\251\334p=\314\301(=`\322\251\275\204\022W;\342\316,<\253f\215\274/\006\267\275\000&\372\273\223X\202=\272?\213<\253\336\222\275N\244\322<\367-\353\272i\307\310\274\350\017\277\274\020\273\t\275\314o5<\267\376O;rRn\274\177\263\005>\246f\241<\"\370\017\275KEn=\016\326\321\275 \365\241\275p\025\027>\272KR\274\316%:=\233\007(\275\303h\r\275PH\204=\215h\265=7b2\276\365\373V=MA;=\223\3457\273f&\203<Q\355[=|\363\020=*\305\311=\320\002\304\275\003\304\325=A\351&=\357:\350=n0\333<\246\023\346=\244\266/<H\212T\274\023~\316=P\334\227\274\260\346\'=HW\215<\014\231\356=L\002\257=.&\325:\267\203C\273\234\3573=w_x\274\3511\251\274\317\274\243\272\007\330\363;\377\326\252;\230h_\274\211Y\224;a\230#=grk\275XIC<Q\302\3619\3130u;+U.<\277-\"<qSE\272Ut\223<\217\013\247:\336:\333\272_6,=s\364\014\272\332\001\306;6QF\271\037\244\210\273\034\264\223<h\332^:\362\317\215<6\2408\275r\002V\274\202\270\372\274\032\244\200\274\326\321\317;\231\022\t\275\004pA\274\006a\335;\316\335}\273\322\253\215=E\027\032=\370!\264\274D\332\276\275\357\215)>\317\\\331=\366\257\360\274-sg<\036\324\"<%!\375=X\305=\274q=\221<\014\301\220=.|\261\275!U\n\276h\357\330=\264(*:\320\267\305=\362\233k<\310\277\226\275x\006\270<\332>y\274\321\236\307\275\313\364p=\332z\013\275v\356&=\262\021\000\275\275\202\263\273}\254\237\274ub\342\274_\007\304\274w\201G\272\304\312\252\275\n\306\204\275\266\237\303\273\352\027T\273@\t\367\274~5\030\275 xw\274\263\020i;\0142\3619d\244\251\275\314e\233\273]\005\304\272\300\306[;A\005};\003\315\036\274\320\217\337\274\301\213\305\272\373\233<<S\023\230:=}\240<hP\000\272\300\254\2479\230g\267\275U\340\255\274\031\246\265\274\260\001\010<\201\006\270\274\312\252\203=`\"\377\272\030\300\271;\260n~\275\355,A\273\030X\035\275\253/\254;E<\272\274$\373\355=&\260\205<\235\236\033\274o)\326\274Y\346~=?w\273<y\016\340<\306\244t\275Fm\r=\337\020\034\275\311\202\256\273\341\313\232\2752\013C=)8\006=\332G\212=\2542\274\275\346\220\352:X\027\230\2751\271I=!\356\326<\301\023{<\255\367\201\274\367\244\n\274 \t\022;\202Xe:\231\362\036\273%?\275;\216X\314;\'\357\2359\237D\234\273\213F0\274\257$\203\274\332\017\345\273\325\370e\2740\224\274\274\334W\362:\243~N\271\014e\010\273\24477\275*\215!\273/\366;:zm\237\274c\035\r:I\254\035\273\220\240\237\274\010@\2069\213\037\350\273\303y\035\273\356\267\267;5 \023;\302\352\201;\021\316\367;\271\353v<\331m\177;\360\247\017\274z\245\365=\357\227\376\272\355\367\265<\204\246(=\303\333\017\273\370!\307\272\024R\227\275!U\336\275\213\020J\275\237\364\254\275\334\312\212<~\312\340\274\036\262\014\274\207?\3008\274\266\225\274\235\252\232=\226~\033\274o\334\267\275J\341\236<M\017I\275\334\t\271=C\360\217<\271\240 \2717p\257\275ju\224\274\344/\233\275\221\004\273\274\n\364\317;\334\354\206=\2175\026=h-d;\376x\330<\005\334Y;\212g\237:.\255\373<9\272\"<>#O;\376\355^:\303\302\363\273.\036\326\274\005;s\272\306\260\275\274y\026\251=\371\177%<X~\r<{\203\244\271\"9\240:d<l<\335\241\324<T\330\201:\023\257\312\274\n\217\226\273\313\350\030\274I/\325:J\303\2149\034\221\006;\200\300\177;F\323\023\274Z\355\361\273\376\352\302;\200\225g=W\270\212=\257\225i;\3160\006;\225\026\020\274o\0173=)b\245<\322\026\320=\334j\201<\023\200\236:\232\024\322;\201\224%=.\367\231<~\270\201\273\366]\014=CB\323:m\360\332;\272\261\221\275\363\214\n<\035\004P<\321\001\006\275\335\240\362\274\221\217^\275\237,4\274\352\245\023\274\023\340\257=j<\306;\235c\207=\366d\314<\301\013\331\274\317\274\335<\232)\340;\236\002\244;\'\376\026=0\020%<\255\007\360\272[\361\331\274\321\305v::\241\007\276\225\240\337<\245sY=\336\336\027\275\321\304\r>#[d\275\007`\300=\266Q\257<e\031\244\275\177w\336\275\311\252\037=bs\273:\261\335\353:\225\356\004\276M\321\360\275e\022\225:\334c\272=uJ\213:\n\236R=\307u\r\275\221\367\357:Px<\274d\373\345\274\257\3360\274\207\177\017<S\274[:/C\237\275\275\245\312=z\034t\275\324\305\362\274\3324\006\276@I9\273[7->\223\265k=sX9=g;^\275\271\341e=y\362\246<\377*Z\275\022\223\350\275\035\367\220\275\266\253\021;_\232\343\274\021\225\271\2749\372`\274&S(=\r2\251\274&\241)9\262j\007>\373\351\200\275@\312\">\036\357A\276/\234\233\273[\021\217=\337\257\201\275\217\0019\275\242c\343=\303\253c\274\226\030\377=H(u=\"%E=\325,T\275\312:\020\273\"8K;\371\204\251\274T\354B=\303\272\224\274\307\250\316\272\263\"\n>\303\231\341=\010\330\264=\317\331\304=\266\2326>\271\2201=\002L\243=\022B0<\242\233(<\351\"\003>#\372\365<d\353\206;\276\004\367\274\335\354\271\275\353C\002=M\377\256\274u\203g;\021\034\323<n\236\230\274d\3064=\311\033c=]q\370\274\200\302\004>\246\030w=\026/\034\275\001\251\323<h\245f<\202\224\334\274\357\334f=\226D\354\2759\232\207=Tu\336\273\214Z\350=\336\352\332=\022f6=q-\312<\244\266\360\274\202\331\230\273c0\244=c\'\321\275\230\254\246<\031\225\213=2w\306\275\214\232\321=\306\3212>U(\206\275v\016K=\337\231\004\276\035\326\320=kn\302\275T\207\224=\310\003\227=\374\"-\275\262m\002\275\362\364\277<\274F\230=\345\354\223\275I*-=hB0\275\330\344\017\274\031n\'=\345\364\236<b8\002\276;&M\275\303\014\004\276\317u\261<\257\030\246\275\204$\014\275:S\216=t:\035\276\220h^\275\355\373\356\273\320\343_\273\321\230\027>\025&\364\272G\304\207\273\333(\177=\317w\177\274\325\316\317\274AK\223=\267E)\274\024\370\030<\rm\231\275\023\'\032\274\t\203\201\275f2\360:\264ZS<\341\336\271\2757Z\326\274\211\240\006>\270\267\212=\245d\202<\307\017\211\275*GF\275F\332\232=\361\306\362=f\337*>\235\244\243<\022\211$\276\210*s=\n|\335\275\362\n\303=\315W\017\275IF\312\275\"D\007>\354\253p\275\254{\025\275\364\275\367\275\3230\357\275\320\217\206>\357\202\350=\2426\237\274=\320\020<\270l\336=\362q =\201\325\350\275\244s\365<5\274Z;\351!\212<\350\265\006\275Q\2673=&\025@<\003-\272<\025\236k\274\311\214#=\365\3148\275\367\024\257\275\222\205\257<\336\345\365\275\037\320I\274<Y\261<d\000\314=\250\026\336\2757\305S\275\207\005\266\275\034}\303<\272\357\267\273\211\241\013=\207/&>\2060 < \373\t>\2755M=/\277/=\032\207\200\2769dZ\274\247\264\010=\001j\330<\023\001N<L[\\\275Z\351\022\275\264\2626\275\320\311\005>\367\314T=\217\'\201\275\300,\300\274\304#1>&\263\337\275\316V\230\274\355\036\326\275f\275\260=c\000\026>0\270c=\261\250\242=\272d\r>F\243>=\2055\010\276/\377\316\275Pu\311\275f\326n=k\266C\275\3306$\275\016\213\227=\263\016\255\275u\277\365\275\001\220o\275q\250\204=\335A\212=f\224\004\276\'D\213\275\312\210\027\276\250\335\036\276\260N\360;o\np=(\262/\276\355\002\300=R\"Q\275\004\233)\274R\276r:\231\371I=>\337\303\274\224%\027\274J\213\247\273\2112\014>\004\324\256<<\306!\273\214\024\000\275Sp\036=\007\033\234=\335+#;\277\262\t\271Y\241W;\207P\\>\303\2612=kq\201\271\245\270\237\273\313\037!\274\034\214\014\275>,\237\274@\004n:\220\225\222\273~N\\=\243\265\225\275\307s\211\274R\016\234;\002\231\343\275]\246\301\275\342\277\207\274U\213\247\275CC$\276\207\223\006\273\331yp=T\013\243\272\247\245\250\274\203\265K=a\222\010\276\314x.\275j\024\302=3\177\317=\266\376\372=\232q\300\275\373\014\177\275\027\201\377<\244\2731\275\316t\352\275\332\334\303<\257p \276\002\316.=n<\r\276\2730\205=s\213#\274@I\027\273V\327\014\276\024\036.=\224M\033\274\224\000\022=\265zW<LU\002>\300a\013=\022\377\202=\313Z\242\274v\311\010=\203\357D:\002\333\240;\0071\277\274{\355W=\250wD\274\322+\376=\215\321\004<\226\341\037=\356yl=\321\312\037\276L\n\362\274B\334\032=\244\033\277\273g.Y\274\344{\364<\340\226\350=\365\315M\272\2018\274=\264\313\342<P2C\275\363P\336\274S\014W;\322\013Z\275%\272\241\274\303\2732\275\302\372\211=^\324\030;\322\223\222\275\t\035\025=3\030\027\275\340\274\t\275\346\2406=\014\2130>v\306\336\275@\332\r\276.\260\026\275\265t\341<\014\245\365=?*\032=\255\3537=y\240\224\275\262\002\212=\264\300\234\273\305n\236\272Z\353\214\274\013\004m=\247\305\214\271^\204H=z0\227\2758\007\313\273\307\252\302\274F,\314=Q\202\223<\270\237\362<\240=\007<6(\220=\222\010\274\274\207\270\245=\314\370\343=E\317,\276F$\245\275\334e\230<+\313\311\274g\266\306<I\177\242;)\371\020>\376\264\212=\366\372\241=7R\037=\255K\000\276_5f\27513\'\275G\255\303=\366\200\272\275/\025h>\027\001\314\273\234nU;U\243\330:\274\025\346=:\216\025\273DA\247\2723\206\360=\345\004\232\274y\357\250\273\221\2173\275\374\320@;\270\307a\274\002M\323\274\036{$\275\251\256\315\275[|\351\274g\330\025=S\304\202<$\254\246\275$`O=\315\320P\274n\336\036\274T&\355\274y\333\207\274\321I\301<\334\020\255\275\312*\016=0\t\216\274\251*\010\276\311\222r<\3719\007\276\332 \023\276!\357\202\275\2000\213;\013\031_\275v\257(>\263c\223\275/\001}=\237Kw=6\343\277=-\312\351=\305\0060<\033=\325\273IO\'\276>\264\024\273\222\322d\273(\265\266=L&\r\275\240\211\027>\241\t9\274\233\273\030=\003\214\255\275\301/i\275\321\252%<&\t\234=\350\371\253<\000\371\326<#\207\233<_\222\026>\323\224\247=_\366w=N\006\347\275&\002N=\230\343B>\323\026\333\275\354H0<\3321\200<\031\207e\275\037\212\026\276l\260\017<\244$\226\275=\334\t>k\333\001>Hj\302=x\274\214;M\345\030=*\030\255;\274Y\212=\203\271\036\274/\353\361\274@\333\326;4\216\334\275\037\257\272=\215\334\371\275\314>\273\275\033\232^\273\207\316x\275\352\355\247\275\036\330\340\275\273\2061\275\270r2\275\375\023\202=\271\234o\275\030\227\312\275v\263\261\275\n\264\026>\026\255I\275\256\3379=d\306\311<\332\256\001=.\216\016\275\320\337\367=y\265\353=\273\254\304\274\236H\014>\001\322\t>\177\346\033\276 \222\341\275I0\016\276[ \202\275]\256\006>mD\000\274\275!\317\275=\231\202=\203\232\003<\030p\014\276%\374\233\275\350\303\367;2\324*<B\272\341=\341q\234=I\362\334<i\346\347\275of\233\275\324\032\243=>\236M=\361\314\214\275Y!\362\275ew<\273\232\234^:{M <\250\374|=\275m$=f\252\235\273\317\334\232<a6(\273\326f\006=\203\244\221=\350\3433:\265\3452\274P\031\000<C\357g=H\334\337\274\025\225+\275\2308\014>\307\251\202<K\205\322\275)\313\257\275\332\255\366;M\353\\\274\356^\245=H\\\206=\346\246\265\274\325\3438\2747\234\033<\310n\352=I\240\350:\326\203\260\275]\3147>\n^\033\27633\032\275\316Z\243=/\324\235=\321\023T>\271\356\030\275.\324x\275\254\002\271<\032%\305\275\324\376\225=P\315\232=,\026\214\273\021d\030\276\206\0305\274\003*\307=q2T\276\330{F\275\367\326#\276\343\014\017>\327>%\276\030\320\017\276\350K^\275\004T@<\216\025\302\274\323Jc=\216\020\300\274M\332\247\274\301\366j\275\200\237\004\276\361\035\331:;\031G=xh\020\276Z\317\177\275-\324\237\275\251&1\275W\034\316;\020~\004>[E\256\275,\032\3479&x\234\275fD^\275KhC\275\246;\004>\235Z\262;\004yZ=q\372\031\275\267]\276<\037\367\310\275U`\310\275\333\312]\275\334F\230\275\262|\003\276!\301\017\274\200-\\\273m%\352\275\373Z\361\2756\225\000>\317\001\355<^{\201;\001\266\332\274_\0318=5a0\273%.\253=\0240\357=\005\213\021\276%\211\272\275.\0132\275\316\237\355\274\253P\354\275\227!\253:\017\250\255<JO0\275r\222.>\352\262\201=\313\223\210\275`\246v=\352[\334\274$\307\251\275\344\017C>\241\352q\275\323\351\'\276\034\'8\275~&\324\275\224E\360\275\030\177\331\274{\361K=64\234\273\250\272)>/?^=\374\2318\275\355\010\212<\312\234\252=\257\370\006\275\305LZ\275\224\342\036=!\0275\273aH\212\275G;\335\274ia\376;H\214V\271\n\361\177<\311\275\016\274\'\311\210:\000\216\250\274\350\374\303:\033\000\027\275\3229\212=\207\366m\272,\307\273:\356\331\244:5(_\274\r\373>=\361q\356\273\240\355\177=P\300\372<\037\375\333\274\254>/=\023\315C\272\325X\032<\030\275\330\273\266x1>\236\363N<2\372\227<!Kf=\020\317\240\275f\205\202\275\273\033\303=\240C\205=\352\023$<\004s\306<\244\246b=\\a\251\275\330\344h>\216\201\221=\247\240d\275\351\240H>\224\3154\276\210\260j\275\032\276\034>\353{T:\376\261}\2741\236\361\274\254\001t\275\266\036\023>\305\356\023\275\224\357m\275\'0F=\300x\206\274\227\205o\275Y]\243<.c\367\273\317_\022>\373L\371\275\340\313\231\274\336\003\271:\335-W\2745h\005>@\223\212=\251\0274>we@\275\022\203v\275S8\311\275\200\017\300<B\037\272\273\304Bp\272md-\275\222K\275:d^\247=\357=/=\026\300~=\031\270V\273\310\223\262\272\300\r\306<\272\374\227<\2574g>\275\244:\275\341\320\324\274\2375e<\200\303\024=\271\203\023\275\353[j=87Z=B\025#=P@\327<7\241r=j\311\377\274\372\350\270<\321^\373<\324\246O=\365a6<ob:;\230\210{=g)\n\275sHI\275<\242|\275r\207\030\2756th<D\013\261\274[\264 =\330\213\'<\017\327V\275ns\236<`\374\236=\266\340\003\276\026\266W\274X\277\251<d\321\357=\001\\^\274\356\332\212<}\317Z\274\025#\004=aV\307\274:Rq=&\233\320\272\325-L\273\001a\004\272\342\236\362;\360~4\275\022\312M\274\325\020\376=GNE\275\376Us<d4\331<\037\377==\205V\250\275p\360\217<n\372R:\347Q\251\273\322\345a\276k\305\236\275\226\332\243\271v)\234=4\333\017<\266\362\216<\354\n&<\003^\316\270\356\234\327\272*Q\213\274\rx\023\275\202\211\n;\262\211\273\271h\325\240\275\'N\216\275\277\351\327\273\312\343x\275\314i\014>\371\376\303;\254o\274=\240r\370<-WG\271\334@\310<\327\355\010><i\016>P\013\316\275\301\273\357\275H\312T\275\357\244\323=d\244\211=\200\033\000=VEJ\275S9\302\273)4\204\274&\361\263<\374W)\276e\021\261\275\002\354\303=Hl\305=\232Qc9f\246E;&\010\\<\026O\315=[\271\267\2754uK;\002#o=\020\263W\275\363V\373\273\261\257\342\274\367\264>\274\242\206C\273\354\223\314\2740g\306<\320\262\210<\344;*\272j%\364\274T\220\301\274\333\033\"\275R\017<\275\351?R\275\336[\206<\3256\365\2743\032\010\271\335\026\245;\327y\222=\005Rx\275-\030\3759\361;\005\275\341\351n\274#\022+\275]tV=\303%\372\272\313\316\362\274\370\237\027<\025\344=\2753\242\307\275\023\314\302;\311\302O=:\303\257\275\357\232M<A\023\313\274s\032\026\274\2209\334\275D\231\200=\016S\245=\020\037\007\275\310y\367\273\276O\000\275|Q\234=\241\367&\275\r\312\342\275\232\306G\275\204B4<\247\254\266\274cG\245<M\033t=Bi\300<\230\370\016=Ui\201=X/\335=,\343\232<\351\005\025\275\027g\303=\240i\004\2750X\225=L6]\275r\375\344\275u6\022<\361#\237=\013a\207=`#\215\275\347\351\355\274\035\225\336\273\247\024\254\275r\370\246;{^o\275b\227\245;\262wE\275\024\203\004\275\230\013[\274\316#U=\367\2049\275_\351\216<\036Ky\275\031\221Z\274b\345\225=\260.w;\037M\t;\271\014/\276\001;\363=\003\322\205\271\333c\246\274\315\215\264<`6\355=\346!\340\275[X\256;\014<G\274$\377\262=\334^\343\273\0346\357=\304Jk\274\016\020\216\275\257\336\247<\035\367\262\275\334W\022\276\206g\305=-G\021\274\336Z\016\276\037Q\376=6)L=}\207\377=\037\366\t>v@\031>[@\001<x0(\276\236u\213\275<A\250=\305\240v=l\267c\273V\270\201\275\367\253F\275il\346=\263\241\340<\370\224\t\273.3p\275=`.>^\226\256=\347\324U\274\353G(\276a\361\026\275K\366$\275\245\232\210=\313\212\317<\236\266\204=\3136\204<\347\'\304\275\020\276\260\275Vp#=\177\357P<UJ\270\275\365*o\274\010\276\243\275\225\203\326\273o\330\202\275\345f\320\274\'\327b\275\322\311\340\275O\033\t<\\\203\207=R\"\343=~6&\274\231.\215;\020\306\032>\353\220\037=\234R\016<\036I\345=\235x\351\275\370\036\264\274\237\030Q\275\356\213\222<u\031\243\275\260\037\322;\3326\266=\245\267\234=\024F\016\275\2618F>=>\241=;\262\226\275\251\023\236=\024!\305\275\363\031.\275K\231\253\275\375\216\365<\234^\226\275\336+\326\275\374\257\367\275N\250z\275-g\222\275/\261\252<k\261m<\242C\210\273\'LT\273\357d_=\203\335\301\274\210\262)\273cQL\275h\227$\275\001\273@\275\205&\275<\310\376\001>\026\'\325=\251\251~=\276\277->\311\314\177=w\272\342=X\213k=\355\005\226=\360\'\353\274\213<\223\275\215_\377<\030.\346=}vb=\365\260S\271\006\203\354<\35493\275d\346v=s\244\324\2738o&>\246\317\316<$1\r\276\024\224\230\275\202K\005<\026\367\\\275\027\345\276<\351A\026:\306\320S\273\024\367@>}E\226=\004\241\234\272TH\325\275\372\222\004\275\310\341M\274C\035\314=y0b\273h\026\262<\204V\355\274\207 5\275\0078\301;\216y]\273\220\335\002=J\364\036;\353\237\275\275I\223%\275\220\323\025>\305\005\036:\225\266x\275\251;\277=\345\363\031;\370\226\235\2759f\374<\2525j<;\321O\275\215X\356<t\225\341=\350}>\275S\023\252<\211\013\200=\223\244\264=\37444<\343\211\205\275\333:n\274X\036\252\275\023\'\340=\014\335v=\264(\260=\\6h;6\321\235=\036\333\330;p\256\234\275\035t}<30\006\2713\210\265\275h\325[=\001\310\226\275B!\304\275\244k\372\275\034\320\t\273\033\272\351\275\363\231E\275Ua\207\275\250;\003;\204L\026<\274^\350\275J\261\213\275\252\252|\274\027\202\216=\364)\303\275/Y\317\275\334K#\275U\235.\274\202\265\236\274\216t^\274\026*\336\272([~=\311\316%\275\003\3422=\202)\017\274\336&4\274\235 \221=\300sX=\007\307l\274\"\\\333\275!\366~<\325\"\351\275\014y\342\273\006\307\212=\335\016\247=\371\315C=\000D\272\274\306%@\275\271\321u\275GF\200\275@\225r\274\223b\336\275KV\256=Dw\227=\266\364\203=j/t\275\345\263F\2756\357t=\\\246)<\037\343\300\2738\306m\275\023z%=\344]\023>\306.\252\274\206\305\335\274\3675\252\2755\016\226\275\230\253\264\275$x\253\274\030\272\275\275\006\025\035\275X\373\035\275\376\205\002\276\274\020\024\276z1\214\273\257\341\315\275\225\301\227\274\030!\241\275kS\342;\367\036\214\275\335\314\030=1N\034\274\256c\315\274\234\010\264=\226\031\266\274:\344\324\274t\027H\275\013\016\201<\002\035\t\276\277k\034==Gd;\350\'\265;~e\234<$\223[\275\223\022\032\271\337\222\027>\347\346><\302*\225=\242\217\326=N\361\'\272\225`\202\274q\326\364\274\017\262P\274{p\\=\204\331\036\275\372\217$=^\270F\275?F\210\275\361+*<\272h\007\276\251\2662\274:\245\247\275\257\345)=\265\"i<\032yz\275)\226\036>!\027t=\025D;=a\0107=~\261\017>\335\0354=\266D\272=+\017E\274\270\035\216\275l\346`=\312a\022\275\037\376\311\271_\366\275=;\230\013\275\257\374?=\007\245%=}\\\237:t\361\274\275bf\334:\265Z\340\274\377\344\324\274^\206X\275~\211\010>\307\r\013>a^\374\275E\231\300\273\356\031\314;\261B\033<\007D$\276\243\241\205;\375\242/=\316\342\236;\234\235]<v[\305=\351\374\236=a\220k\275szO\276\311o\233<\311@\317\274Fgr<\370/$\273\036X\212=\267\312\231<\310UV\274\013\r\344=\346\230U=\031\376\213\274OM\202=\310)\2319S,\260<\350d\245<1\276\240\272\3760e<x!\213\275\007\360\203=i\3062\275&\301\360\274LC\005=oR\026=Ej\023>-\227\237<=\002\016=x[4<\273\033U<8\335\025>\"(\025\274\003N\035=-!\317\274\367\014\365=\300\031]\2757\345+<\216\\\003\275&\251\335=\365\341\030\276.\277\311\2752\277\345=o\256\3509\360\242\275<h\020\330<o.5>3,?\275\031\353,\276\205\372\025\275N[\201\274\001\3209\2753\3601=\242v|=v\001\027=a\3648=\032\034\r=\323k\024=,\253\221\273\331,R=\3224)\275\250x\033\275;\2065\275\247l \275\325\354\315\273\244oa\275t\362\200=*\226\315=\242\275\030=\276\257#\275\266\036\2079\346[6;$\221\226\273d\355\206\275\354\245\223\272A\252\201\275;\"\221\274{I\301<\016\n\256<I9\331\272\034\311\000<a\264\265\275\335\257\304;<{\220\2728~\243;\007c%\275\345\200\354\274G\223\177\275[\263~\275\233\"\277\275\320.\016<\027a\034\275\226yj=\021\330\312\273\262\206\204=D}\363=\222n\320<\3465\213\275\225\327\001=\177\244B=\211Q\323=\010\203W=s\367\204\273=\220\354=\217\t+=$\372\233=\3710\016\274\3432\003\276\320\321 >\312\020\251=:\377,>\212^\330;\316\024M\275`\0321\274\331\203<=V\000k\275\201\225\246<\010\325\005>\221\343:\275$:\311\274!\226\325=/r \275\037\322\t\274M%\303<Be\241\274*%\364<Z\236Z<iH\256=\246\321\016\276\261\222\267=\216pa=\230\205\227\275\235\314B\275\026V5<A\360\250;\255\340\372\2738_6\275\202\366\256=>\0275;-\t\000\276\254\261\225\275\215\306\273\273\0256\024\276-3\004\274\025\t]\275\241\336\371\274j\221>=-\0257\272g\255\022=B:#=\253I\220\275\274\321\240=H\013^\275\241\236\255\275\303\362\364=\213\346\251\275\241\354\247=\361\342\261\274<\340<=$\222\356\275x\036\306\274\264K\354\274\362nq=_\022\201<\201\224\316\275\363k\341\275<\034{\273*t\025\275\035\267\211\2753k\323\275\010\362\001\275\016\207\007>\202\307!\275\033z\336\274\371\241\\\275\211w\033\276\245m4=\003\006\225\2753\256\373\275X:\330\274b\372T\275|\000\202=\322\274\000>%g\356;\003\375z\275\001\234\020\275\027\245c;e\016\343\274\365\256\306:i\337\352<\256\245\007=p\217\322\275\324\273&\273\235\021r=\326&z\275\000U\212\274\2329j<\354d~\275\232\220-:\214\351\355\271\217\327\324<\034\2567;\013H\016:S\201>=\334\271\232:+\274$\274\363\362\303\274\004\233\201:\337[\313\273\364\010\025\274\231\0324\273\310\356\204\275\274\017:\272\033\023\242=\0352\311=$\375S<\025G\224=\344\374\257\275\244\303\365\273\366s\367<\034D\367\274\305\213P\275\025\375\260\274Q*\007=\252]\323\275\367\231M<m\370\345\275\224\325Z\274\322\370\277\275\3154\227<\326\270\010\275[\302\375\275\3245\350=\352\310m\275n\213\344\274\302\005\305=\222]\211\275\373u\277=\016V\252<,b\273\272\256\206\322;\261\344 \275\031{\317\275\033r\t\276\277\324$<\\ba\273\202 \263\272:_\310=&\232\255=\026\323\357=\356\224\341;\273:\203\275\375\214\235<p\013\035\275\202\210\367<t\0200\275\342\306\266<\2575\246=~<\377\275\014\026\340\2743U\267=\326x\213\275\274 -<{\210\032<\260l\251=(\321\231=F\325G<\372\336\037=\347\251\207=WS\330=6\243\225<\233\315G;\037\371,\273\013g\270<X3\317;\354.\014\275/\321\262\274H\341\345\272h\362o\274i8\231\274\274\200\007\275\031k\271=\374\035]<\250\257\224=\332f\033>K\026\215=7\020#=Y\317\254\273\357\374\311<\245\3639\272<W\230=\034\222\374<\326t\014\275\237\266\200<+\246\035\275T\272\274\275_\033f\275\250w\035\2755\200\371=\377\235b\275\303XS\273\246\241\027\274\001r\312=\210\366\332\275\301+>=\305,\237\275\317\362<\274\312\220&=<\303\006>\243\034,\274\272M\275=\233?\327\275\004%\017<\230\310\217\273\031P\235;6 \256=\341\212\253<\037=\312<\246.V\273n\250\277=\330-\023;\343\374\237\275~}\366<\367\270z<\225\256\337\274\300\222\214\275(`\230:\370V\355\266\244\035=\276\341\300\305<\t\220\310:\272w\250\275I\357w<\2651\346<\3607\311<\344\375\0009\367\360\252\273&\'\017\274\275\202\264\274\006\324\215=\030\267\304\273G\250\216;\2449\326=\013Z&\275gz\226\274U\346\016=\327+\320\273g\t\240\274\272E\265=\002\265\222<h\223\237<\202\346\227<\272\273\374<\272\\V\275\3540T\275_9\256\275q\335\367=o\206\270=\244\351\370;i\373S=\nq\365<9\017A<\341\306\333\275\272\341\215\273_\300\253=W8\270\275\376i9=\210c\013\271\266\212^\275\324\306\235<6\005\315\275\000\237\037\276\356\300\211\274\260\'\341;d\215\267=\234\331\200<\253cj=\327z\347\272H\351\000<\362i\233=!\203X\275Z\2736;\325\273 <\325\332\207=3\347Z;A\0041\275\316T\313<C\027\375=\003\017z=L\261\243\274&\364\243;O:\210<\232}\231=rT\236=^\360\225\273H\231\213<@z<\275\251\017`\275\004m\364\274\326\324\023:m\003\003;\032\315p\274d3\260<G\352M:\323\354\253\274\247c\325=\361\346\267<\353\207\305\274K\243{\275\034O\334<\362\031}<\\\302\202\275\257z\206\274~\324u\275r\210\271\272JBf=\014r\000\275\241s\222=\0321\370=@\206\225=\266y\371<dw.\275V\271\264\275\007S\022\276H%f\275\364\256\013<\251K\324\275H\214\251<\303\372\005\275\",\026>\224\345\225=y\320p\275\270\nr\275]P\275\274\255+\221=T5\321\275\255\303\304\275\016 Q=\'X\265\275oL\356\272\270\245\223\274q\204J\274_\342\200\273\2406%>t\025\001\275\352\"\270=\033n\356\274\021k#>o\322^;\316.\233=\323~\271<T\250\247=\320\250j\2755\013\222=\373`^\273Y8\022;\260\2462\276\257j\341\274u\033&<\315\327\275\275\337n\372\274\310SI=\221\3457=\225\254\221\273\340\000V;\363\257n\274w@7\275\216\004}\275`\315\020\274x\256\342\274\330\221\330<\002Q\036\275B\244\310=\323!\202\274\333\025\n<69\201=\357\364\006;\350QB=\366\271q=\rX\277\275\321\2770\275w\362\347\275\3069\261\275i\305\363\275\262>\240\275\333t_\275D\211K\275\313/\"\2752\360\r=+\"\264\275\003\033\024\276\272@\340\275\275\341&\275\34405\276\002Q =\355\022C<O=\270\273D\343\341<6\261b<\204\2167<O\005\373;\251\021\302=\223\244\327=G~~\275\322q+\275\344Z_\275\301I\354\273\306<\330\275\264Q\355\2741!\216\275\352\275\014\274y\242\377\275\216\246\331\274x\241\346<\264\246\210\275B\227)=\322\001\323\274\370V\001\276H\320V\274|\270\310\273\270\315\347\2753\223\003>8F\252\274S\325\221\275uvn=\227\001\335\273\250\211I>\317\342\265\273Z9\r\274\371\013\026=\310s\016\276\224^\"\274W\206\226=&\002O\276\312\300\354\274\016\006\342\275\350\300\020>1\303\275=\303r/=X\372\233=\261UD\276Z\033Z=|-\325<\216\301\354\275\346\362\274\275\031\320t\275\323\'\342\274T\365H\2752\347\215\275\270f1\275\004\262\010>\264V\334=\020\003\335\274\346Y\267=Z@\374=\002\003\223=\366\225|\275\356j\344\275\277O\216;*\224C\273\272\017\324=P\327\231=\"\217<\275\2226\250=\266\036\246\275\'o\330\275\337\207\025\276\tF\r\276\001d\224\275\337\310\214\275*\030\265\273\337\333r=\235\t\262\274\364f=\275+\204\3249.\304\350=k`\353\274{\356\300=\331}X\275\214\264Y\275\322\265\314\275\251\201\340<\362\3260:\366\312\2558\245\207X\275W\\G=\317i\224:_N\251=$6g:P\257\032\275w\023\341<\'\003\267\273\375\300:<%\263\301\275\350\215\036=\326\205\261\274&4\330;\333\232\202\275\323%\036\275\267\007v\274\341\212%=p\366\326=\325N\321;w\221\n\276{\272O\275F\204s<\327{m=\246\270\024>M\202\347\275\346\345\334\275\245b\357\2753p\025\275\211\363\240=m\262Y=\311\340\245;\250\">=&E\177\275[-\n=\343\364~\2759\345\347\274\327H\222\275\224,\222\275n\030\302<)\nH<\342d\231\275\250\3149\276\243j5>\014\034\300\273\277W$=\213\213\304<\036J\330\275\206V\207=\014k\237\272\252\024\256<b\231\375\273g\250\272\275\027^\274<\013\231\204\274\234\312c<\377+\213=J\211\325\275\347\211\230=\324\246\372\275\016\252\370\275rq\035=\236\010\265<F\312>\274N\344\350\273,\230P=\016Am=_\234\266;\221\327\334=\013\331<\274\247I|<\231\331N\275~\200-\274\035\233D\275&\375\216\275\374\273/\275\3321\276\275\324r\004;=M\304\275j\250\023\275\314\':=}\344\276=\346A[=\324-\357<\272s\343\275Y\241\025\275\231}\203\275\233\030\007=Y\354\222\274\013\325&\276\232\253\316\274$\360/<M\3451\275\303\226\311\275\\\r\233=\256\031\216=\357\255\207=\000\362\355\275\253\236)\274\225z\266=\232\336V=\2162\036\2755}\262\274C\264\231\275\277\333\311\275\234\236\362=\227y);\321C\267\275\303\252\034\276\320h\354\2743\231\216\275\3275\216\275d\\\240=\207\"]=%\313\235\275)\024\207\273\242d\362=\355\247\342\274\212\363\375<2h1\275\343\271T\274V\376\223<-OR\274Y\310\351\274+F\216\275-\334\232\273\303\346\275\275\310\301\027\273B\256\r;^\200\007>((\363=M^D\274Q\"\242\275%\323\310\274\201\300\363;?\033\237=\204\374x\273.\251\212\274e\205\257<#-z\275\367\373\003\276\276\221u<\350\273\035\275\377\031\256\2752\247\325\2748\2744<\274E\220<;\241,<c\030\322\275\035\241\031>2-\202=mq\007\275\200v=\275\342\206\016\275\3209\317=\003\271\372=\252\315\034>0h\022\276\372\300\006\276K!y=\364\341]=\373\270\317\275Mg\326\274Z\325\261\275\226W\035>D\010\016=\215)0\276|\304\010>,\001\014;\275\374\324=\305|<=\032\376\277=;\212\t\276\226.q\274>>\370=\253q\347\275\365\022\364=\306\333\373=\352\340\202=\264\373\031\274\372\034\345\275\032\272/\274\361\203\271\274woA\274\207\256\326=\2517\335\273\223\034\210\275\354\273\362<`\217\374\275\346\326\365\274\237\312Y=p\"\324\274\235R\341\273\340\343\022\275V`\016>J\317%\274\304\0264\275I\337P\275\\E\205=\255\342\201\275\347w\264\273~P\022\275\253\003L=.\350R\275w2\241;\"\274\377\274\303f\253\275\026A\030\276.\353\230=vP\246\273\2441_\273\364G\205=\333]*=\360\033\346=\201~\376<yd\300<C\273\232=\351\2752=u\007\274\275\262\340\260\275@u6\276\315,\240\275Ro\331\274\030\363\272=\3303\332\275\3775\312\275\365\342\251=\247\237\377\274D\313H<|\267\364=\257\264\014\276\231\244e\275\243^\324=W\321\0179C\025x=\354V\250:\257\213\300=\364\334\360\274\371)\003\276\232\003*=\014\345\224=\370\n\321<P`\220<9\336\222\273\345\2228\275\030*\224\274\304\221N\275\327\240\367<+\356\253\275\357l\273\274\014 \333\275\310\230\022=K\264\337<.\366\031\275\004\222M\274\216!\254\270\376W\037;6t7;\313\214*\275O\255\177\2720]\266=\213G\240\273\365\226\363<\240\200\333=] \004\273\261mB<\316\'a\275\344\234g\274\352\036\327\275B\267\217<\270\346\201=\014\364\340\275)\0130=\022E\027>\362d9=\357\365\"<c%\024>_\212I\275\243\260\245\274/\231b\275\207\307\211\274\032\344\361\275\316b\214\275W\017\310\275\364V\376=\036\316\032>e\312\215<\0064\271\274\326d\357\275\'Z\273=M\330\232=\270\231\234=\374b\246<\342\345~\275\206\213\n\276t\235\254\275\r\321\303;M\274\005>{M4\274\022\362\374\275B\222\321=,\270\314\273\330\331\254=%\276\263\275#-\305<\342\330\316\275\341\365\204\272\016\360\006\274\277\327\035\276\331\257\224<m\241\255<IT\275\273\317H\351\275Ps{=\357X\250\273\353\"\265=\233\r|\274\001DO<z4\207=\250\367\275;\227\343\267\274O9\360\275\035\272\371\273L\275\020;\251\272\236\274,\200\307\274\034H\370\274\266\374Y=\250\262\306\273\257\360\356<;\274\324;\275K\222<\005n\'\275\023\277\313\2740\323\317;iaV\275`h\252\275{j\247<5\315I=y\326\331\275\304\350\336\275K$\322\275\224\363?=\367\037B=r\255\251\275\021\271W\275\037/\251\275SF\002\276\211\247(=\223\240p\275\370\335\031=\370U\016>\354)\247<\250\337\230=\262\303\003=\271*\207<\205\242\227=\341\347E=\346\307\272=\345\3642=\272\200\331=F2\255=AU\2468\234\033\025\274]\343\344;\210\241i=\241\376\342\2758#\333=\2728\311\274\2279\207=\226\030\244;\3142\323\272\252P\276=\273n6\274\370\204\347=\205\335\232=\014r\n>\257\334H=,H\007\276\372\010\232<N\360\312= u\253=M\315\242\275o>\255\273V\367\301\271\273\211_\274\037\302\013>\323\254\'\274g\217j=\273\352\333<\003\207N=\2401\305=Q\276L\273\207\251\217<T\2147\274*\273J<\021u\222=\205\277\327<\024Z\t\276\334\207\221\275 \003\345=\347O\006=(,\033\276\236F\241;3\320a<\277c\272=\335f==z\232\035<&\317\236=\010\262\377\266\304\032D=Y\304\251<\024h\n\276\277\316\333\275]r<>\312B\201\275>b\214=\337\265)\276\263E\264=\272\272\002\275\344\310\n\276\211X\001>\332\302\035>i\"\305\273\223\347\364;B\210\">y\2602<\342\014&<\226\343\263=Z\260\254\274\340r\366\274<\n\036<\224\276\271=s\354\024\276=\277\225\275+U\266\273\333\220/\276\236\205~;\351\225\247\275;mu<\332F\226\275\346J/\276\013\245\270\275\177f\265\275\350\376\007\2765\373\252<&B\005\276<\\E<\002\212\334\274-d\270\274\036N\005\275\1776\207<\351#!;0\354\275=\255\316\362\275\305\'\036\275)\"\031\274G\373\263<|\0312\275\264\032\205\275\225\346t=\320\024\222\274l\250\035\276v@R=T\037\320=_\331\t\275\236\225\037<\204\325\014>\3715K\276\223\000\327\2754P\221\275\333\353?=8\023\275\275\033\024\301\275\240\215d\274\337\311\316<\004\214\322\275\301;\341\274\266\347\206\274+\312\010\276\004\ra=\270\337\212\275\002D\\<e\024\017>\026\315\005\276\332D\027\2743d \276)\361\337\275rM\320\275\270\000X\274\323\"\271\275l\013\306\275\333v\237=p\035\340\275\235\347\215<r\371\035\276d\2723\275\003\254\316\274\241\376\221\274h6\321:\025\r\243\275\2366T\273\272\203\205<a\376\270\274\233G\207\27531c<\262\232\366=\263l\335=\n\225\261\275\377\371 \275\246\245\320\275\301\2333;\247x\217\272\222%\025\276\273\322!\276\rY[;\037\356V\275\326\270;<i\223\307=\377\014V\275\251C\235;\356\263w\2747\226\016<g\265\356<m\002\202=\'_-<\2264><\260\000<==57\274\362\302\006\276\333.Y\274\235\021\252\273+?\222=\0219\237\2754N\237\274\230l\242=\231\225\002\276Q\206\017>\253\224w<\2362\016\276H\032\375\27515\341=\310x\002\276\245$\331\274I\022\035\275Z\203H\275\224\337C=e\361p=\222OR\275\224y\022\276\322\026\312\274\345\350\006\276\204m\030\274Z\343=\276E\350\216\274\212\333\201\275\364\027\224=-\275\256<\264\260\333=\273\261~\273W\366\003\275\302\3620=^\213\340=\030{\245;\3249$>\204\t7<\345\367\347\273\266a\322\274\372l\271\275\351j\037>\221\351\272\275\302v\307=\0064\006>\301b\320<#^\341<\321\350\306<\266,J=\23232;\241\304\350\275J\310=<\333\356\275\2751D\252\273\343\341\307\275\246\330\177\274\022MK<J\246\t\273Q0R<\"*\355<\370R6\275W}%=83z=p\230\241\2754/\325=#c\022\276\204\253\307<\354\367\210<\314\254\n\273tm\010>\016\350\310;\000\332\307\275\277\373\335\275\330\305\223=s\225m=]\335\253<<\\\n>\036k\262\2746OF=\177\211\244<q\256\255=\027\246\204\275\237\013\027\275\321N\010\276\267\367&\276i\346\367=\2348\207\275\020]\271\274\272H\003=\000$\034>\315\340\333<;\024\002\276\230t\224\275\277\323m=B\231\031>\037\335\224=h\263\346\275EF\326\275\022\344\2059\310Yl\272\245\366\"\276\220\242\241<w\027\246\275\344\014\016\274\273A\232=\253z\333<\207v\202<\340\002\216\275\316\177\'=\310\347\302=\247\030\034\273\271\227\003\273\250\001\266;\020\247\262\274\030\335I=\243c\366\272)\375!;\312\251o<3\355\025\274j\367\355;\017?\003\273\000I\022\272A\276\375\274\244X\215<\302\274\320\275\246\366\343<\322P\235;{\"\331\275\223\235g<rn]=\361#\305\275\263\n;\273\314\034b<\371=\017>\365=W\274\353\203\331=B\000 \274\275\2432<\337I5\275\330(_\276Cd\336\274\"~\367<]\325`=D\236X\273\254\374\322=<Z\321\275\202\014\010\276~-\347<yE4\276\r\232\364=O\226\025=M\217\\=E!\276;e\313\002\276\252.\344\275Z\311\255\274\357\352q=\310\223\372<\354\314\t<\177m\005>_\340\247=:a\031\275\367$\342\275\311\031\327:\376.\r\276S\355G=\035\375\204<^dz\274MLw=\330F{\276\233\t\330\275\270/\256\275\275\3278\276\362\022t\275\201\202\332\275(\332><\326\254\204\273\312\001/\275\352\006\260<\251\205\025\274\364\263\003\275D\2401\275&\337\211\273\310K\007\276\213\016\014\274Z\357\220\275\216\177\376\275\3047D\275\275wV\274^\034\367<\231\305g\275\301\026\035>\242\247\235=\204\253\362;\353\016\200=\0227%=\303\310\212\275\241\013\000>\373\305\024\275\347,o<*(\001>\353U\270\274\240\312\236\273\304R\245\275O\316\010\276\314p\371\272\266\230\007=\352\310\035=\337w\215=\211\372\r=H\tB\275\337s\214\275-\205\326\275\205\023)\276(e(=\321\377r=\256\022\256\275wqX\274\374\035f<\200\337\367<{\t\221=\2608\324\274\334\330\034=\351\377\301=\270\266\002>s\243\233=\364\353/\275l\211E;^lB<\'o\020<&D\252=\225\r\257<\204\354\201\275a7D<\266\224\221\273\320*<\275Z\322%\275%\373\023>^\220r<p\236\2148\225\273\035\273\330C\\>\320\013\222<t\316\245:j\202\260\275\310\214#\273\205\252\315;#X\213\275?zY;\303\342\220;\226b\240\275\031\371\205\275ZO7\275\034\3566<\305\301B\274j\007\007>\322m(=\332\224\310\275\310\331U\275\336$\346\273\t&\241=\177\0035\275NC\017\275\022\003\324=\013\037\201=u\201b\275\347V*>l\237C>&Fn=\243\033\321\273\3220\245:\370Q\266<\r!\006\275\355\243\025\275\236g\215\275\216n\025>\003\007\354=wZe=\'\271\203<\330w->J(c\274\214;\370=\204v\277\274\240\222\220=\362\307\206<)I\363<\340!\t>60\361\275R\3021\273\036pu=Y\302\203=Z\261\326;]\205?=\256\323?= @.;\360\024\006<\221\242\026\276k\3559>\352\262\264\275\2331\363=\240R\205\273\336\315\006\275Q\223\027\275F4\274<\240\347\215\274\315\026%=X\201\255=\334\3168;\232j\230=\362\277\177<\"H\225<\222\263c=V\350L<F4\342\274\262D\335<\327v\366=\351\202\264<?\253\261<\256\007\037=W\016\235\275v\312\301<\2722\023=B\245\254=\353w\334<\311\314\034=i\234K\275\343\214\235;\205z`\274\254\266\241=i\225\214=<f\005\274\024\224\"\276\340`\227<\321\2549=o\220\222\274@r\276\274U\213\360=\257\3026=\353\330S=,\315\313\274\320E\337<\002.\225\2756\216\231=qt\252=\325\016\346\275$\"\007\275iI\314=\251\032\214\275m\271\300\274\211\363\271\274\274\370\"\275\277s\315;\177\216\'<\003\'d=f&\324\275\230\363w;x\267\311<]\300\036\275g\372\177\275\242N[=\341\330p\275K3\364\273\022\352\204=\030\200\334\273\241\246\222=_\364;<\177\222\366\274\350\255\33588\317\265\271\020\016\215\275\303,