node {
  name: "input"
  op: "Placeholder"
  attr {
    key: "dtype"
    value {
      type: DT_FLOAT
    }
  }
  attr {
    key: "shape"
    value {
      shape {
      }
    }
  }
}
node {
  name: "transpose/perm"
  op: "Const"
  attr {
    key: "dtype"
    value {
      type: DT_INT32
    }
  }
  attr {
    key: "value"
    value {
      tensor {
        dtype: DT_INT32
        tensor_shape {
          dim {
            size: 3
          }
        }
        tensor_content: "\001\000\000\000\000\000\000\000\002\000\000\000"
      }
    }
  }
}
node {
  name: "transpose"
  op: "Transpose"
  input: "input"
  input: "transpose/perm"
  attr {
    key: "T"
    value {
      type: DT_FLOAT
    }
  }
  attr {
    key: "Tperm"
    value {
      type: DT_INT32
    }
  }
}
node {
  name: "reshape/shape"
  op: "Const"
  attr {
    key: "dtype"
    value {
      type: DT_INT32
    }
  }
  attr {
    key: "value"
    value {
      tensor {
        dtype: DT_INT32
        tensor_shape {
          dim {
            size: 2
          }
        }
        tensor_content: "\377\377\377\377\t\000\000\000"
      }
    }
  }
}
node {
  name: "reshape"
  op: "Reshape"
  input: "transpose"
  input: "reshape/shape"
  attr {
    key: "T"
    value {
      type: DT_FLOAT
    }
  }
  attr {
    key: "Tshape"
    value {
      type: DT_INT32
    }
  }
}
node {
  name: "w_in"
  op: "Const"
  attr {
    key: "dtype"
    value {
      type: DT_FLOAT
    }
  }
  attr {
    key: "value"
    value {
      tensor {
        dtype: DT_FLOAT
        tensor_shape {
          dim {
            size: 9
          }
          dim {
            size: 32
          }
        }
        tensor_content: "\302\\\005>6\325\267=\334J\367\274m\206\247>\3367\314\275\\Hn>py\003\277\371\201k=]\267->D\200\354\275O\2509\275Ye\366=\256\326\314\275\004Ge\276\214.\221<\304\033u\275\257X\007>g\307\243\275\267\267\034\276\370\207\376\275*P\035>\307\261\335<h\333[>\260\364\336\276}Y\223\274%h\016>\t\277\211>\226j\356>X\001\230>&\020\211\276\273\"\241\276\222\215\032\276\252\242Q\274\0162\305\275?`\344=\0042\030\275S\342F>\345\331\207<3\"\251=\010T\202;(s\333\275l\362\310\274\n\000d=\367\226\277\2755r\024=\037\355\242=F\316\311\274\002\236\274<\233B\240\275f\247l\274\370\234Q\274\360\257\242=0?\r\276\336A\301;\\}\372\275y\203\r>\243\243\325\275\020\346\365\275\320)\341\273\333\324j\276\375(F\276\233V]=\211\345o>\265$\342\275\242(\002\276r\366\231\275\334\215\242=\310\266z=\304.6>\'3,\274{\342k\276)T\177=\374aa\275\203O\264\275\370\024:>\345\303\346\2756\361\020=g.\235\275\331\177\354\274\246?\273=ax`\276%\005M>\222\353\216=(g\235<\225\037\260\2769\377j=\273\016C\272\224\206\335=\200\352\316\275\241R(\276\342\007->h<\306\275a\247>\276\3104-\274\353\345{=\343\252\221\275\277q\250>\3430\214\275\217\024|?\177]V=\'\354\224\276\301\036\270>\034\274\034\276\327m\261\276\030t\240>\362\356\230\276\371\t\367=\352w\210\276\025\301H>\030\226\304\276\200\340\002?x\035>=|MK\276r\321\017\277\221(\265\276i\335\351<]D\237>\262::\276\223\\7\275\246\2551>}\333\003?Lt\351>\330\264a=\024\2462\276\310N>>\313\357\214>\017m\366>0!!=\'\022A>\270\275\"\277\027Q\230\274#{\273\274_\347]>\251+\246\274C\275\006=\017V&=Z\027j\275\263\357\251\276\032s\225\276\2710\264=d\364\253\275\t\374\367>H\263\331<\020\345\267\276\030\324\035\275|\364w>\334e\300\276\271\265\302\275\223\260[>\303\362->\362m\372<\310\0162\276u5\273\276\013+->\024<\013\274-\224H=\335(\007?6\233,=r\347a\275U=\013?\237\002\233=\273\010\227\276\264\377\200>g\027X>\007\214z\275\366b\364=F.C\277\334#N\275\347\323\027>\314=l\276(\270\">\371\333\202\275M\026\241=\25419\276\303\227\313=\310,\373=g\035\206\276H\317>>\032`\270;4\2306\275b\'\264\276\236}j=\032*)>}\212\210<\306\321\003\274]+\230>\242\223\253>\335\314\215\275W\030+\276\360\204G?bj\326\273J\254\251>\214\264:\275\314\365j\276\220\301A\276\216\371\334>0@\022?5\006\027?\343\243+\276)\2273\275l\252\254?\332{F=\316-\005\276H\252\013><\272\001\276\\\236\r>\315\022\364>\235\373\177\275A\236\334>\0337\243?\025\272g\2774\333 \277\345\215\305>\227\275=?\267\"v?b_.\277\000\356\311=N\232X\277u/#\275\037r\353?\006\377\225\275\315\230\202\277IEs\277&a(\276\357\302W=/\356H\276\253XK=\273x\241\276\224\300\213?o\'\257>\265\023\333\2766\001\317\274\254\277\335>\204l:\277\032\303f>*n\316>\324\205\r\275a\3520\276\223q\030>\343\204i\275lL\341\275\177\211\253>sWS?\344\352\234>\316\334\302>\227\336$\277\"\301\363\274\263\315y\276)\0260\275Q\367j\277\327\335\342\276r\241\216\276J\327\005\274`\030\245>\217\005N\277Z\220\377\275 \361@>S;7\276\230\036\260=\343\345\221>\237\003e=L\016\270?\214S\345\276\302\240a=\023\225\211\276\341\237\300>F\231\237>\013\262\020\277\020\250\343<l\357!>B*\024=\017\340c\2748;=\277}x@\274\026\257\033>\007y#?^c\347\276\230\363\250>\203U\004\275+Q\302\276\321\016`\275g9\'\276\214\"1?\0365\350>\025E\313\275\237\364\023\277s\255\235\275\374G+="
      }
    }
  }
}
node {
  name: "w_in/read"
  op: "Identity"
  input: "w_in"
  attr {
    key: "T"
    value {
      type: DT_FLOAT
    }
  }
  attr {
    key: "_class"
    value {
      list {
        s: "loc:@w_in"
      }
    }
  }
}
node {
  name: "b_in"
  op: "Const"
  attr {
    key: "dtype"
    value {
      type: DT_FLOAT
    }
  }
  attr {
    key: "value"
    value {
      tensor {
        dtype: DT_FLOAT
        tensor_shape {
          dim {
            size: 32
          }
        }
        tensor_content: "\017\242$?V\263\021>\2417\371?H\320F\276f\320\277?\253\364\301>\254\010:?-\354\320\275P\311\003??\267z?\023c\362?\364\263 ?\020\316\306=\272\204\213?\035\234\025>\021(E=Hl\355\275\371\242\356>(\t\213?\023\263(?N16?\344\264\203?\013s&=\270\004\217?\261\267\237\275\201s\234?.[ ?\356\2561\276\376\010}=AQk?\274\226\232?\0258\022>"
      }
    }
  }
}
node {
  name: "b_in/read"
  op: "Identity"
  input: "b_in"
  attr {
    key: "T"
    value {
      type: DT_FLOAT
    }
  }
  attr {
    key: "_class"
    value {
      list {
        s: "loc:@b_in"
      }
    }
  }
}
node {
  name: "MatMul"
  op: "MatMul"
  input: "reshape"
  input: "w_in/read"
  attr {
    key: "T"
    value {
      type: DT_FLOAT
    }
  }
  attr {
    key: "transpose_a"
    value {
      b: false
    }
  }
  attr {
    key: "transpose_b"
    value {
      b: false
    }
  }
}
node {
  name: "add"
  op: "Add"
  input: "MatMul"
  input: "b_in/read"
  attr {
    key: "T"
    value {
      type: DT_FLOAT
    }
  }
}
node {
  name: "relu"
  op: "Relu"
  input: "add"
  attr {
    key: "T"
    value {
      type: DT_FLOAT
    }
  }
}
node {
  name: "split/split_dim"
  op: "Const"
  attr {
    key: "dtype"
    value {
      type: DT_INT32
    }
  }
  attr {
    key: "value"
    value {
      tensor {
        dtype: DT_INT32
        tensor_shape {
        }
        int_val: 0
      }
    }
  }
}
node {
  name: "split"
  op: "Split"
  input: "split/split_dim"
  input: "relu"
  attr {
    key: "T"
    value {
      type: DT_FLOAT
    }
  }
  attr {
    key: "num_split"
    value {
      i: 128
    }
  }
}
node {
  name: "rnn/Shape"
  op: "Shape"
  input: "split"
  attr {
    key: "T"
    value {
      type: DT_FLOAT
    }
  }
  attr {
    key: "out_type"
    value {
      type: DT_INT32
    }
  }
}
node {
  name: "rnn/strided_slice/stack"
  op: "Const"
  attr {
    key: "dtype"
    value {
      type: DT_INT32
    }
  }
  attr {
    key: "value"
    value {
      tensor {
        dtype: DT_INT32
        tensor_shape {
          dim {
            size: 1
          }
        }
        int_val: 0
      }
    }
  }
}
node {
  name: "rnn/strided_slice/stack_1"
  op: "Const"
  attr {
    key: "dtype"
    value {
      type: DT_INT32
    }
  }
  attr {
    key: "value"
    value {
      tensor {
        dtype: DT_INT32
        tensor_shape {
          dim {
            size: 1
          }
        }
        int_val: 1
      }
    }
  }
}
node {
  name: "rnn/strided_slice/stack_2"
  op: "Const"
  attr {
    key: "dtype"
    value {
      type: DT_INT32
    }
  }
  attr {
    key: "value"
    value {
      tensor {
        dtype: DT_INT32
        tensor_shape {
          dim {
            size: 1
          }
        }
        int_val: 1
      }
    }
  }
}
node {
  name: "rnn/strided_slice"
  op: "StridedSlice"
  input: "rnn/Shape"
  input: "rnn/strided_slice/stack"
  input: "rnn/strided_slice/stack_1"
  input: "rnn/strided_slice/stack_2"
  attr {
    key: "Index"
    value {
      type: DT_INT32
    }
  }
  attr {
    key: "T"
    value {
      type: DT_INT32
    }
  }
  attr {
    key: "begin_mask"
    value {
      i: 0
    }
  }
  attr {
    key: "ellipsis_mask"
    value {
      i: 0
    }
  }
  attr {
    key: "end_mask"
    value {
      i: 0
    }
  }
  attr {
    key: "new_axis_mask"
    value {
      i: 0
    }
  }
  attr {
    key: "shrink_axis_mask"
    value {
      i: 1
    }
  }
}
node {
  name: "rnn/MultiRNNCellZeroState/BasicLSTMCellZeroState/stack/1"
  op: "Const"
  attr {
    key: "dtype"
    value {
      type: DT_INT32
    }
  }
  attr {
    key: "value"
    value {
      tensor {
        dtype: DT_INT32
        tensor_shape {
        }
        int_val: 32
      }
    }
  }
}
node {
  name: "rnn/MultiRNNCellZeroState/BasicLSTMCellZeroState/stack"
  op: "Pack"
  input: "rnn/strided_slice"
  input: "rnn/MultiRNNCellZeroState/BasicLSTMCellZeroState/stack/1"
  attr {
    key: "N"
    value {
      i: 2
    }
  }
  attr {
    key: "T"
    value {
      type: DT_INT32
    }
  }
  attr {
    key: "axis"
    value {
      i: 0
    }
  }
}
node {
  name: "rnn/MultiRNNCellZeroState/BasicLSTMCellZeroState/zeros/Const"
  op: "Const"
  attr {
    key: "dtype"
    value {
      type: DT_FLOAT
    }
  }
  attr {
    key: "value"
    value {
      tensor {
        dtype: DT_FLOAT
        tensor_shape {
        }
        float_val: 0.0
      }
    }
  }
}
node {
  name: "rnn/MultiRNNCellZeroState/BasicLSTMCellZeroState/zeros"
  op: "Fill"
  input: "rnn/MultiRNNCellZeroState/BasicLSTMCellZeroState/stack"
  input: "rnn/MultiRNNCellZeroState/BasicLSTMCellZeroState/zeros/Const"
  attr {
    key: "T"
    value {
      type: DT_FLOAT
    }
  }
}
node {
  name: "rnn/MultiRNNCellZeroState/BasicLSTMCellZeroState/stack_1/1"
  op: "Const"
  attr {
    key: "dtype"
    value {
      type: DT_INT32
    }
  }
  attr {
    key: "value"
    value {
      tensor {
        dtype: DT_INT32
        tensor_shape {
        }
        int_val: 32
      }
    }
  }
}
node {
  name: "rnn/MultiRNNCellZeroState/BasicLSTMCellZeroState/stack_1"
  op: "Pack"
  input: "rnn/strided_slice"
  input: "rnn/MultiRNNCellZeroState/BasicLSTMCellZeroState/stack_1/1"
  attr {
    key: "N"
    value {
      i: 2
    }
  }
  attr {
    key: "T"
    value {
      type: DT_INT32
    }
  }
  attr {
    key: "axis"
    value {
      i: 0
    }
  }
}
node {
  name: "rnn/MultiRNNCellZeroState/BasicLSTMCellZeroState/zeros_1/Const"
  op: "Const"
  attr {
    key: "dtype"
    value {
      type: DT_FLOAT
    }
  }
  attr {
    key: "value"
    value {
      tensor {
        dtype: DT_FLOAT
        tensor_shape {
        }
        float_val: 0.0
      }
    }
  }
}
node {
  name: "rnn/MultiRNNCellZeroState/BasicLSTMCellZeroState/zeros_1"
  op: "Fill"
  input: "rnn/MultiRNNCellZeroState/BasicLSTMCellZeroState/stack_1"
  input: "rnn/MultiRNNCellZeroState/BasicLSTMCellZeroState/zeros_1/Const"
  attr {
    key: "T"
    value {
      type: DT_FLOAT
    }
  }
}
node {
  name: "rnn/MultiRNNCellZeroState/BasicLSTMCellZeroState_1/stack/1"
  op: "Const"
  attr {
    key: "dtype"
    value {
      type: DT_INT32
    }
  }
  attr {
    key: "value"
    value {
      tensor {
        dtype: DT_INT32
        tensor_shape {
        }
        int_val: 32
      }
    }
  }
}
node {
  name: "rnn/MultiRNNCellZeroState/BasicLSTMCellZeroState_1/stack"
  op: "Pack"
  input: "rnn/strided_slice"
  input: "rnn/MultiRNNCellZeroState/BasicLSTMCellZeroState_1/stack/1"
  attr {
    key: "N"
    value {
      i: 2
    }
  }
  attr {
    key: "T"
    value {
      type: DT_INT32
    }
  }
  attr {
    key: "axis"
    value {
      i: 0
    }
  }
}
node {
  name: "rnn/MultiRNNCellZeroState/BasicLSTMCellZeroState_1/zeros/Const"
  op: "Const"
  attr {
    key: "dtype"
    value {
      type: DT_FLOAT
    }
  }
  attr {
    key: "value"
    value {
      tensor {
        dtype: DT_FLOAT
        tensor_shape {
        }
        float_val: 0.0
      }
    }
  }
}
node {
  name: "rnn/MultiRNNCellZeroState/BasicLSTMCellZeroState_1/zeros"
  op: "Fill"
  input: "rnn/MultiRNNCellZeroState/BasicLSTMCellZeroState_1/stack"
  input: "rnn/MultiRNNCellZeroState/BasicLSTMCellZeroState_1/zeros/Const"
  attr {
    key: "T"
    value {
      type: DT_FLOAT
    }
  }
}
node {
  name: "rnn/MultiRNNCellZeroState/BasicLSTMCellZeroState_1/stack_1/1"
  op: "Const"
  attr {
    key: "dtype"
    value {
      type: DT_INT32
    }
  }
  attr {
    key: "value"
    value {
      tensor {
        dtype: DT_INT32
        tensor_shape {
        }
        int_val: 32
      }
    }
  }
}
node {
  name: "rnn/MultiRNNCellZeroState/BasicLSTMCellZeroState_1/stack_1"
  op: "Pack"
  input: "rnn/strided_slice"
  input: "rnn/MultiRNNCellZeroState/BasicLSTMCellZeroState_1/stack_1/1"
  attr {
    key: "N"
    value {
      i: 2
    }
  }
  attr {
    key: "T"
    value {
      type: DT_INT32
    }
  }
  attr {
    key: "axis"
    value {
      i: 0
    }
  }
}
node {
  name: "rnn/MultiRNNCellZeroState/BasicLSTMCellZeroState_1/zeros_1/Const"
  op: "Const"
  attr {
    key: "dtype"
    value {
      type: DT_FLOAT
    }
  }
  attr {
    key: "value"
    value {
      tensor {
        dtype: DT_FLOAT
        tensor_shape {
        }
        float_val: 0.0
      }
    }
  }
}
node {
  name: "rnn/MultiRNNCellZeroState/BasicLSTMCellZeroState_1/zeros_1"
  op: "Fill"
  input: "rnn/MultiRNNCellZeroState/BasicLSTMCellZeroState_1/stack_1"
  input: "rnn/MultiRNNCellZeroState/BasicLSTMCellZeroState_1/zeros_1/Const"
  attr {
    key: "T"
    value {
      type: DT_FLOAT
    }
  }
}
node {
  name: "rnn/multi_rnn_cell/cell_0/basic_lstm_cell/weights"
  op: "Const"
  attr {
    key: "dtype"
    value {
      type: DT_FLOAT
    }
  }
  attr {
    key: "value"
    value {
      tensor {
        dtype: DT_FLOAT
        tensor_shape {
          dim {
            size: 64
          }
          dim {
            size: 128
          }
        }
        tensor_content: "\320\317\350=u\333\002<\332 U\274_m\223<b\2027=\'\027r\274\237\010\276=\017\206\263\274\267\324\256\273\2748\031<\371\034\200;O\022\361:\003\375n<\2768\206<\357<\275\274r\272\260\275\271\260C=\355\266\306;\303\345\305<H@H\274T\311\016\274\200\223\226\274 f\212\274LO\264;|\333\271\274i\262\020\276\032S\236;\357\007\234\274jh\252<{Xh\274\001\340\337<\371\264\032\274&\243\200\275\335\204\315<\376\252\231=\014\230U<W\223\200=\230\363\023:T#\233<\212\260\237<,.\010=p\265l\273\346\236\227=\202\331\317<\207f\324\274\201\325P=O^)\274u9\006\276\313\247\005\275\036\024\232<\265u~\274#e@=\344\0176<\357Y\376=\010\024v<a\226\263\275\362\213\340\274\343\3270>+r\332<\373\212w\274\205\310\202;L\215g\274\354m\000=7\034\243\273\306!\037=\356\274\222:\360]\223\275\201\352\265<o\206\207<]\352\274\273\327P#\272g\211\224\274\203\330\303\273\213\304d<\371\267E\273Yj\250;rO\237<[\3051\275A(\374\274i\237\265<XT\343\274\210\303\255<\232\230\006=\017\355n=\302Z\n\274/\003U=\226\n\207\274\324\340\265<\232b\t\275;`\002>\\\263\010\275x\342\301\2749R\000=\254\211\000\2741O\014\274\202\010\362\273|h\263=\274\007\327<S\354s=]\331\247<Lu\027\275\260%B\274h\263p=P\350#\274\262S*\274\254\247\227\275\"\304\271<\372_;=y\330e\275\265\227\021=\225\027\320\274\361\337Q=[\274\200=I\224\341\274\301O\240\274\3718\303\274\002\035\342\273.=(=K\027\204\274\004\247\207<\254\004\320\274\001\362i=@\312\204=\027\345\353\274\220,\035<W\341P\274\237\034\360<^\325\236\273\353(+<\312\\o<\362\361\367\275\360\372\237;}:\303\274h\230\362\272\346\037z=\272Z\2419\330\374\246\272\237\304\366\274@N\350<\336J\373<h7\023\270l\324&=\267\024\334\273R\002\264<+\373\032\274rC(:\255\303\005<\340\214\034;\020\325\370\273\254\304\203\275\335\306\232\273gKz<\360\204\353\273\377uI>\262\206V\274&\210\327\273@\327#=\210\332\302\272[W\302\274\374i\305;\246\305\222\276w\305\360\274U(\301=/\311\277<\221-\036\276\277F|<05\021>\252k\220\274B\230\242\274\225\257\321\275(\320\246=\270\213U\275(\331\203\271\254\033}\276\004\373\035\274\313\256\215\275/E\300\274Z\306\t;%Z\224\275W[*\275\351\0074\274\031\0174\275P\325:\274E\215,\274dt\345;\224\215\254\276]\253\256\276\371v\277;\237\333\342;\221\235\220;5\250\321\275\016h\337\274\375Y\247;oT\204<\236\255\r=\355\266%<\214\177\273\275T\223(\273\031\260\035=\001\210\037\272\365\2717\272~L2<e\352\241<\326\353B=ztO9\206\\\033>\023\342\242\273\255]\240=\312\026,\274W\250\230;\345(%=\315\\\225\274\220\376B\273\223\206\362\274\231\024\271\273j&\031=li\237\2730\004\003\275(K\026\275x\320\274\273?}Q=\006\030D\272\300\367\007\274\337\226\346;\267\243\004\274\310\317 <\306\366Y=\255\031\211;\203\3174\275\335\317\032\273U\356\023=\345\334*8\350w:\272\3603$\274\002\360K<\335\317\306<\217\354w\272\360\304\234=x\341\373\273\004\362+=5\035\213\274\207\376\235;\245=\2209\001a\005\275\030\244\002\274\304v;\273E\311\001\274\367\002\000=\2361\005\274\377p\376:\2771}<( \004\274\367\305\356<\230\212\266\272\340\002\n=\030\364\272;v\343{>\030jU=\206\016\305\275uq\032=2\252\\=|\036\236\274\271u\312;\341\r\241<\t\273\244\274\257\341\211\274b\010\337;\027o\240<)\226\000=\203>\257=s )\2751i\236=\377\'\002>H\271\257<\214\3470=\364D\354<+\335\326\274\252\222\312\275\245\276\022\274\243q^\275\"\3263\275\303\026z\276\326G\003=WA\036\275~\005\002=\001*\377\274nqh=\301\206\345\2749-\220\275\305z\216=\231Y$>\237\247*\275\270\202\256<\033\023\362<\374\211\341\275\000\026}\275)\205x=1\201=>\275\020\332=\220\260\021=\372\310z\275Of\307=\005\205\022=~ I=~\3265>\213\341^=\322o\205=\t\323\031\275\267\226\326<=\317\264=J\275\274<\236\353\n>\305\236\001\275\261xS>/\341T=\276\202\272\273\361/\000>;\270\027\275\263\330\225\275s\300S\275(\242\022>.\3571\273\265\221<\275\343\366\207=\3055\363\275\214\374\205\274\005@n>\226\030\213\274@\017z\274M\347L=\302\021\323<D9\010=\025(9=\000\005E<\202\025P\275\002\347\215\275\372D\234<\241\326e=\002\265\215=\327N.=\307\250\353\274:Z\213=u\246\r\275\227G#\274Gdn\275:\261i>\212g\223=\212\342:\275\220\314\221=\023\317\027\275\021\361\256=a\252\276\274\242\307\017>\302{\367<\325\371\013>\271\006\353\273\200q\217\275\221\177\002\274\254\023\">\334\303@=I\351\366\274\260\277\355\2757\245\210=\343\370\372<1\0102\275\017P#=\310\3724\275\215Ds=\020E\336=yY\014>\254\256\225\274lJ\037=l;\324\274D\264\354=\214\225\365\274\232\315\314\275\305\347B\275\331\t\361=S\2706\2754?Y\275\177\321\310=J\350`\275\316\306\303=b\260l<=O:\274\254\237]<?qf\275L\211\355;L=\'\273\021\266\207\273\301\347M\275\350\375\335\273\224\270\352\272\300Y\215<\247\272/\274t\251\315<\355\232:;\367\207\"<\034\270\306\273\024\361j\276\234\031\350<<5\213\272~\340h<\025\274\245\274\234$^\274\311i\213=\375n\016\274\205\233\n<)\221\327\273r\030\226\276Ej!\274\212\311\215\274n\276\212\273\365F\203\273eW\t=4\031\004\273\205\306\331\275\366HV=f\3531>\207F\n=\260#\366=\372\365\347:et\010\275Q\300\332;\317\242f\274\345\237L\275g>\311<\365\247\317\274yM\261\273\323o\027\276\002<\234;\343/\022\275M\202\026\276\213t\235;\204\374\033\275\234\262\010\276\353\322\254\272\274\237\347\272\244yE\274\253v\321\275g\315\313\272\033\347\270\274\356\274\323<\001\201l\273b\325C;X\0200\274\\\325\254<l\237\217\273\266~\260;)Gf<\177]\004\275J\027X;g(\207\2752\033\202\273\242\317\024\274\006\032\216\273\361\320\003\273\001\324k<\210\234\204\274\264G\t=\324SG;\374\013\320<\272G\304\273\"`q\276\223N\210\274\313\222\307;\322\276\253<\266\035\314<\315\353s\274\244\301\014={Ml\274&\001\005;\340\216\376\273\017\310y=\361j,\275\201\253\216\2744f\223<\205U\231\273$\211\262\274\331\235\r\273\263\245\006=\017*\247<0\350\203<[w.\273\371\034\367\274\312\203\207\273\374H\354<N\273\262\273\352\331\016\273\"\000\251\273V%&\274\345\205;<c\r\'<\202|r=\231m\312\273e\312o\274\2260\033=\374\234\006=j\317>\275\221h\232\274.\315j\274\266\261\316<vQ\203\274p>\n<\257\016\355\273\350\213\211<\217L\226=\364\262\267\274\315\005\351\273[\231\224\273\007E\241<\3500\010\273\275\022\300\275\030`\266\274\372e\223\275G\0374=\030\202\317=\272J\021\275co\276<\005\316\272\274\247\312\236\274pEP=\326\250\032\274j\216\257<\200\351\005=A\357\256=^G9\275R\'.<e|\n>\033P\325<6\235A=\360\260A\275d\024\301\274\220\264a=\3642~\274C\032e=\021\220L\275!\033\017\275\n\031\014=?\324I\275K\300\213\273\252\275\311\274\301\326\277=\037\3626\275\274 V>\005+\231\275\304\251x;~\260\032\2763\223\007<H\345}<\274N\213=\324\321\211<C\225\312\2738\3526\275\337\017\231\275\200\001\236\275\016Q\204\275\370\344?>\330\357\202\275\304\3041>l\201\333\275\324\023{=\364\313`=\t\264\022>VE[\274\367\036f<\0161\343\274A\'\314\275\006i\220<\252:\214=\263\343R>[s\263\274\224\246\016=_4\353<\247\364U\276\006\317D=\177f8>h\265\235\275\352\000\205\275\014|\221=\211%\004>\370\n:\275H\207(>\276g\036\275\274\216v\274\3135\314=\374,:\274\005\025\027=1a==\360\353\317<\361le\275\375l\005>5\200\356<amn=}C\230=\215\007@>\214\376\306\274\3215\r=\013\353 \275C\016\006>\333\245\206\275\336^\026>0\304x=!.Z\275\203\213+=h\214\336\274oc;=\233\312\372\274FP\326=5u$=\227\307M=\241\317\226=\363\214\'=|\236=\274I\337\004>\327.\266\275\356*\007\275g\034\037<\316\2730=\r\371\223=m\332 \276\305\226\204\274\367\230D\275L)\032>n\3639>x\366\364=\200}\321<\213^\263\274\370\354\251\274U\031\332=f\202\032\275\2365\330<\243\222_\275+8D=\374v\n\276\267gs\275\003\037\034=\325\036\250\274\361\221\256=\374\244T\274Nj\245<\r\277X\274\r\276\223\275\305`\312<\301\322 =\234\352c\274 \347\243<\347\326\222\274\241\240\314\273\253z\304<9\300\004<\234\265b;u#\305<\330\370\232<+\023\031\275d\361\221\276\353\350\224=[\255+<\'E\351<\224\017\231<\2364\302;\276\220\263=\357\345}\274\347\025\025=\323\257#\275\037B\215\276\203\365\361;NT\333\274\367\247i;QjS\274\247?G=\270E#\2744\2662\276\270oO;@Y\016>\324\215\254;\241\226!>B\n\346\274H\305\270\274\3446\030=\251\t(\275\022._>\254,\353<\254R\273=\3547$\275\224\322t\276A[\033=IK\253\274{\266\242\276N\232\342<\256V\314=n^!>\035\304 =?\"=>\00106\275#E\234\275L\236\026\275\345C\t>S\257\024\276\310\224\247\274\220\255\341=@\240X\273yx8\276\247\2064\274\350\273\243=i\232~\275\220\322\323\275\334\\\007=\202\3724=@ Z\274BrL<\230\355\261\274|\340\345\273\352AZ\274\335y\025\274x\211\014<2,\014=\345\230g\275#dI\275\357E\257\276;\024\032\275\366j\345<\260\216\n=\336{\333={\024K<>]\004=w`\327\274\201\003\027\275\177\347C\275DZ\273=3\352\245\275\300\002\007\275\326\037\322<\215,L\274-\311y\274E\347\310\273[j\253=\374\2572<\302\232\336<\247[\253\275(\366o=\331\035I\274\355H\205={\033\241\274\237e\335\273\214\205\322\273\211\233\020=\212X\343<\322\017\302\274\357\310\t>Ml%\275\273A\361;\255\014\313=\320S\305<%[\266;\260\252l\275\031\035\212<\314j\375<K\365\361\274]\241\'=k\317(\275<\313\210<\305\353\244\275 \304\025\275\357e\035=\356\257d\274\314\223M=\373]\356\273\331\262\236\275\004\336\341<\t\306\355=F\332\217<\020\233k=Ie\031\274\331\347\341=\r\243b\274k\347\263\273b\037\006=\237\030\022\272\343\201\005=\376q-<d\002\347;\316\365\223\274\211Z\016>Q@-=\367u\266;\347X\332<\267 \372\274\346\315\365\274wB$\276j=\205\274\277\260\242<\025m\272\274\247\372\336>\212\213\013;}\367\023\275X\000\020=\030 \350\273\275N,\272,Q\005\274\323\3019\273\334S\275\275w\322\177\276\226$|=r\313\330\275\251\307\263;\251\244f\276ck6\274\221t\004<\243Z\353\275)Eh=!d\004\275F\362\242\274u\326\335=\244\201\263\274Gq.\276\031\356\206>\266;\232<\214\263$\274\262C*\276E\2374\274\304\274\344=\255\230\210<kJ\202\274\212\314\351<\331O\032>\316\262/\275\227(=\273jm\211<\220>Y=\312\255\340\275\254\252~\273\202\303\327<\256\231\352;\264m\351=\025]\240<JdG=\003\213\033\274`\303\014>\355O(\274%\021\300\273\002\007H=`\242M\274\261\317)=\341PG<\267n\206=\312{\233\274r5x>k%G=\371t\263<\326\362B=\215\035\270<\360\277&\275\323\004;<\000+\314\274\004\003\243=q\245\347\274\274\267\247\274I=\325=\222\005\033\275O\314P=\\\374\306\273\023\362\256:\242\325\373\273\271\350n=mX\302<\357=\016>p\t\246=\007\002u<\212\267\366\273\201\235\246=\272\367\241\273>\202\357\273\251C9=\236\"\\;\303\244\204=\333\t\242;\376\361p=\021S\234\274\221\324\327=\031\321;=$]\350\273\023,\221=\366\276B;\315\314\030\275\313\254Y=\230\357\321\274\247\031\326=\221\316\310\274\024\3210=\241`$\275\207\376;\275\234G\245:\"\323\362\272\016&\365<\245@\356\273n\022w\273\031\357\033<\323\267\353;\376\254\3128\037d\260<b\315\321\267\211V5\274\243\236\200\2722io\270%Jk\273\323\360`\274\342\201|\273zQ7\271\013_\225;~\244,\272\013\200\255;\320\333P:\371\252\"9\217\336\302\272\302\252j:\374\335\003;\257\3704\274\036\340f\273\025\210L<\311\255u\272\211O\013\275\342zE\271\220H\234\271\247_\014;\205\345\207\272\275<\203;\313\322\005\273\264\310\033\273\254\tg<\320>\315\274\301\021_\271!&\202<v p;\201\034\227<\304\202]\274\303k\016\274\205\351s\274\225\241\004=\241\313\010\273\337\326\201\270i\260B\274mSl\274\022\265<>\331%\256=/4\312:\251)\001\274\224\001\006<*\274\206\2744\037N;\227\226\203\274\002\342\020\275j\277\226:y`\204=8\212\235:\001&+<_\202s\274bv\330:\272\017T;(\312\276;g6\030:\377\"\023<\255y\250<\037^\3179\306q\272<!R\263\270\3160^\271\373\361!\272\327\337\257\270\252\220\366<]6\206\274\277\316Z\2733Y\210:\010\253\027\274\334E=:\376\177\246=\216\021\002\275\315x\027\272\275\016\213:6a\000;\3632L;,\337\300\274\225\322\375\272\032p\335<\316\314j\272\"\366\000\275?5\303:\017\311\020;\241`x;\354\203C\272HPD\272\252\306\371\272\000K\363\272{\'R<1\353m<\305\237\331<\304\026\320<\036\017\025\270\234\032\3319\244\257\201\272k\264\344\270\035\262\224<\350\253\017\274\337\364\216;y\263\214\274l\362\373;\3106\036\2702eG<\330\305\252<\204Z:\273\001\222\345\273\313\3605<|\2369;l\260=\2747\033\247\272\373h\016=\010K\230\272\221\327+\2742/\331;\3040\352:\204\371\264\273\267\307\223\272\270\036$<\315},\273\254\237\213\275\243E\213=-T\210=,\372!=m\247V=\234\006:\275\206&\355=\335\212\263\275\2444\221\274\021\336\222=\324\035\250\274\206!\016=\374K\303<\231\002\256=\023\036\003\275d\205\346<t\216\010>\252\003\204<\303 \037=\336\036c\274\347,\004\275\267\3005<\276\231\277\274\356\004\250=\227\327\027\275: \"\276\260\221\r=AaC\275$\256J;\204\370X\275\035u\005=X\203\321\274\324\267-\276!\376\275;Z\005\314=\240\262:>x\r%\274{\251w\272v@K>>X\350\274b2\205\275\353C`:\021\226\014\275\030 .\276\274\327M\275\210xd\275\271\3278<H\031\307\275\317D\222=\212Y,=LR\354\275\273 !>}j\360\274\265&\007\275\314\250f=\301W\251=\331b\004\275):s=]\245\261\275ER\217<\231\233t\275\235\203o<\330\217\016>\332\334\201<\252\220\237<\030R5=\202\024D\275\351\271_=\233h\373<\342\263\276\274\352\272\257=*\377\016\275\205\235h\274\005\230j\275\336\2531\275J\337l=\035\204\005=\322\252\013>\202\264\034\275\242\276\017\276\264/\021\273\332\352A=\227&r=\245\037\021>@-\026\275\014\300I=\376Q\034\275B\210\245<\203[J\275z\311a>\213\2443\275z\014W\275\375\344]=T\212\'\275\315\303\231=\372\206\261\2746\270&>\014\301\257==L\200=n\343E<\2374_=\304AQ\275\313\177\357=W\036U\273\364\017\020\275\327I\353\274\236\370-<9va=\310B\243\275\200 \372\274N,\n\275\243\331\320=\364\315\356=\315\027\222\274#)\021=\350\207\027\275\311P\010\275\t\375\230=\350\257\007\275a\212\275=\025\227%\275\005I^=e\224\275\274\263\340x\275m\240\340<3\271p\275!\276J=\260\274\340\274\030\230\022\2766\304\026\273\000g\343=\356\332\310<uh\230<;\021\351\274=\000\321\275\226HE\275\343\n\035\274\326\354!=^$\205\273\263\246\207<\310\302\243<\222^O=\352\340\347\274\302\317{\2757\230\245=\233\2048<-o\036=\013D\022\275\020#\304\274\221\333\234\273\307\214\317\274A\305\234\274\264i\373\274J@\322=\334c\276<!\024\031\275\346,\253<\310t.\274\221\326\245:\235$\257\272\375\324\324\274\212\245u\274#\242D\276\221\001\250=\212\322\254\2756y\330\2746\262#\276\300\002\376\273\357\200\307<\377\234\014\276 u\347=\231\237\254\274^U\032\275o\010\326\275\273Y\030=\321^$\275\322U$\275\202\013\005=(F\177\275\331(\202\275=\222\024=\352\0139=\345P\262\274\304\220\374\274IS\246\274g!C\275\311\365D\276\377\370x\274\375\223\306\275\315#\t={\r\205\275Y\023;\275\3376\311\273%\"\213=\347\312\003>\213\013\000=v/\017\275\001\312Q\274\375v\017\275\024>\311\274\225\3451\274\367\231\"=\334\203\306\274\010+\313<_|\336<#+\243<)n\014\275\\\217\232\275\232\331\242<\343\262\005=\244 j=\177\226\247=\221\317\362\274\031\203\323<\331\257\002\275\257\237\244\273\364>)\275\231\224\270=*\216\351\271\005@%\275\177\177i=\000\267\004\272k\274\026\275\303 1\274\264\274\225=\361~\277<q\2473>\026\331\314=\376q\266<\005\262\016\275\220\377\355=\352\037a\275\342\235\260\273\2038\332=G\342{<\002\343\333=\205\r\204=h\243\226=\005\256\371\274\375\357\300=?I\317= Av=#\346u\275\240L\022<\267\314\324\274Ft\253=\313\367\000\275\373{\322<\031\212\013\275+Z\350=JN\305=~wA\275\004\340\262\275\262\352\013;S\274t=\317\000\002\274\365\354R\275\262P\030=X2\373<\323B\026=6\203!=\217\221L\274\344\352\245\275-\266\245\275SSj\274\246\t6=\2062\273<\364\365\210<\'5\005=\260\356\275=\336\2010\275\347Z\007>\2161\003>\231\230\303<!\234<=2\'\306\274\246_\274\274r\201\021<\303\377\016\275W\017d\275\222\242;\275k\t8\276\347\211\013=\265c-\275\303\020\217<\213\247$\275\216\235\215=U\224\022\275\371-\273\273\nE\350=\271qC\275\212z\022\2751u\265\275=\331[;\200\232\255=\210\263\312\274\244\327\251;\344\237\272=\334\241\027=\365\234\375\273j\373\201\275\203Ot\275\243\377k\2752M\032>\302[\201=;\370a=\267\021\204\275<V\263=\206j\331\274\177\347]=$\207k<(\315\346=\304N\000<\331o\342\274N\262\200\275\255\311\206\274\300*;=\255\274l\274<\316\311\275op\316\274\364\013:>T\355\030\275\006Z\023>\247cf=F9\227<s\210\t\275\253\211\233=\0268\023\275\213\t\260\274\276C\226=\372\"\r<\261\301\320<\036\013A=\206\017\241\274\203SZ\275\210\375\374\275:0\255=*Qc=\344\016\225=\211\347\364=\304\214\306\274?\357b=@u\031\275\215\217Y=\325)w\275\014\313_>\275YF\275\nA?\275\002\220\262=M\302q\2741~\215=\233\246\264\274\2528\017>\'\205Q<\364q\2119\227\212\202=\177\360\356=\212\364\200\275\234\215\257=\346\367\360\274:\250-\275\212\351\272;\004_\177=\331\0356=\254Q\324\275\376\033\265=;\300<\275\\\021\244=\242\212\021>\225B\276=\031\235\030=\203\256\324\273\242\024\255\274\362\n\267=\372P\n\275VX\n=$\007M\275W\332\374=\037\306\177=\030\327Y\275\202a\241=\216\'-\274\223r\314=m\022\235\272Y\2768\276h\2242=o\362\227\275 \352\257<_\025\022=\032\344\200\274\354\016\024\274\375?\210\274\375u\333\273\336t\025=\237\202\343\273P0\210<6OT<\224\302\010=z\265\270\274\334\303#=\246\364z=\035\037\007<\377B\351<Q\014`\275\321\024\264\274b7\267<\304ax\274\372\206\371<\210/\324\274\023\202|:\3144\000<\307\206\t\275\021D\273;r\237j\274\243\251\303<\241\r.\274So\202= \2109:\326\353\336=\006B\226;+u\312\275\303\035z<\000\"\000>\2474\236:O\325\326\274\211\263/\276(\372\336\275o\212D\275\3476\313\274I\345\226=\211\033\023;\"n\016\276\376-0>\374\315\275<\205o\323<l\252$>\003\234\320;V\027:\276vU\204\274]\242\201\275Q\342O9\262\255\257=K\314b=\267\225\245\274\022p\334\2757\237\343\274\301\037\031<\315\355\210<T\3001=\367\023\203=\244\206\">\314\363\271<o=\200<\215\0217\274\323M\351=P\302\214\274\3057\367\273\246\\L=z\220\223\274IC\234</cw<Z\000\236=\323\r\342\274J\327\n>\2450I=R\311\320<\375r.=\374\200/=s\221\322\274\373\3319=Gy\321\274\026\276\373=Q\247\030\275NC\231=\341\3435=\rb\020\275|\034\007=\213yw\274\256\313\005=\303\245\'\274\344\353^=\375Ii=6\305-=Q\004\245=\351\016\373<\345K\244\274\\b%=m.\006\275\"\001\016\274\265Kw=.%\004<\026\031\037=}0\006\274T\215g\274_\326\305\274\352\235\223=\234\352\233=\007\300\230=X\207&=\376\254\004=+D\275\274s\204<=\252\025\331\274\n\336/=r+\355\274*FY=\177J\201=\324C-\275\005\360\327\275\277\003X\274\216\256\256<f\242U\274\331\2010=\314\327\";\376:\033=P\206\211:E\343\212\274\232N\005\272\026vX=\321\300\217\272\337\003h\272ZH\000=@\271c<\264\315[<\312Hf:2\272\251;\273\231\020\273\310/E=\320w\330\273\344\373\0168\334\006\352:\367TK\274\243\010#;.\001\271\271\327\370$\273\014^\250:\355@\254\273\005\350\370\274\256%\230\274\232\372\2218\340\366M=\225|U\272\374co<\201B#;@/\023\276\001\267\356\274]\347\214\275~_\000<X\265\004\275\350\301\350:\277\204j\273^5\246\273\265vc\274\233\342\234\274\347\370\003=\352\370\215;\334\005\030;8\201\023\275\300f\331;Q~\357=\23404;\237\356\3629m\264\002=Yd\237\274\311\317\305:1|\026=\232|[\273\030\016T\275\342\213\000\274\374U\310=\036\006\204\275tF\211:1\007g=F\013\036;\346\360\352\274\2732\311\274\327\2701\273a\"\024\273\263\337\221;\217\021r;\010r=\275\256X\013\272\325_\265<h\207\336\271\302\017\'\272C/\014<3\243\221<\340\233L\272\214\032%\271\273c.=d\347\332\272D42=mn\000\275x\0043;\257\304\252<$\2342\274B\013\003:\222m\030\275\350\030\r8\361-5\274\342\337\243\273S\347\236\274]\031\032\275,\255\007;\371l-=\007D\222\272\365J!=!+,;>\225N<\347?r<\240f\330<\022\310|<\316\227M\275\233-\355\271{&\207<\216\030\266\272\275\3665\272T]\206\273DJ\202<~\013=\274\267\302\t<\225e\221<w\361\004\273\343\235\301<\335H\275\273\251\315\243\273=\3622\274\245^\362\274\023)\025;&\341J\273\212\326{\272\002\273\177\273\307\312\t\273-U\325<d\025\023\272\3726&;*(\211=\r*\247\272\030\345\262<\366\263#;\023\334\030\276\245\2446<\321\203$>\037$\347<\3773\343=\003\004\376\274\035\030\254\275\3666\213\275\253\2435\274v/\222=\307\372\206\274\275\336b<\234\026\266<\257\301-=(@\004\275\032\231\227\275\247\021\301=B\027\200<K$\032=\252\220C\275]+\305\274\362\202\003\275\355\257\261\274\361xr<Z^\016\275\207\260t>\273<\305<\256\000\037\275\356R*<K=\251\274\013\006\007=v\033\306\274\302\275\307\274\270\021\366\275\225r<\276^-\342=\236k\000>\353\210\223\273$\215\333\275\312\255G<\262\356\032\275\\\312\360\274\332(w=\367\305\010\275\265;,\275\321\025\320=e\3720\274 \255\351;\330\321\237\275t\327\"=!,;\275\205\007H\273\273\313\331<\211\017\263\275\320\231\032=`tF\276b\331\226<\244\001\312=\323\326U>\202-\333<\240\234!=\252B\002\275+8\010>\340\311\271<\331\306\322=\203\344\325<\034\341\033>\340Z\030=i\022\310=\343\277\226\274u$\261=\325\350?\274n\276%\274\354\351\331;9R\366\274\031\'\274<\236\350\363<\031\306\217\275\300Q#\275\037\256E>1\261\251=\2442 =m\014`=\261\371\346=\321\365\337\274\360o\320<\013U\005\275\232\033\316=ouC\275\370\031\016>\351\205\226=\321\210.\275\316\024\304<\244\231\224\273\345Lb=5\261\234\274\361\302\342=,Co=\001\202\260=\013\017\203<\263\321\242=5\360u\274\346N\212=\231\250\257;nZ\000\274\032\246\355=\\\331\205<\"u\321=\3350\301\275v\330\234=\271`\r\275\260\304/>\347n\004>\2309\021>\030\257\201;\252\031\203\274\256\237\306\274.\031\234=b\340\375\274I\253\237=\212\327\035\275\244\363\005>\341\226P\275\340IH\275\210\307\315;a\376\257\274>\021\230=\016\352\t\275\311\030\t>(di\274>\t\313=2\230\225<\271X\261<\250\234Q\274\002b>\273\350E\254:\343\315\254\273\231\203\313<^s\214:\314Co<t;%<\371\020\211<}C\216\274 \237\317\275\313\322O=d\347!;\010{\235<\027`i\273\324\207c\274J*\335\2744\\+\274\2415\326;F\352\246\274\346\231X\276\r\376C\272\3521\251\274\247\364\227<\301\221G\274*\n==\016\013\205\273?\006(\276\026\322\232=\362mn\273\343\272\331;3p\301<}\007\335\273J\231q=\372\324R<\024,l\274\211\366!>\025!K=\332\301\271\275\331\027\235\274\375{\322=\206\033\215:\337}\213\275\240\321\001>\324xT<\277\251l\2752\005\243=I5%<R7\225=b\027\245\273\273\302\006>\005t\366\273\t\241\353=M\3715=\220>.\273\236\370I=rM-\274\255\n\"\274\220\272q:<`E<]\340v<\031\377\263\275\202\375\240<>H\027\275\227w,\274\245[F=O\252\364\273\361\372\302\273NR#=\224\326E\274\331\275\252<0iF<Q\324&<Hx\263\274\233`=\275\026\034\317\274u7\222<\237\022\341<\003\206}=\305J\201\274=R\307< \202\225\274\335W\004\275\305\032\346\274\317\264\305=ZN/\275R\331\331\274\201\377\035=q$E\274\344\2653=\022Z\251\273\306K\203=\275\372\302<P\330\010\274\203\266q=\036\276\031\274\261Z!\274\241Au=\031?\'\274@9\266\273\333\266v\275O=\t<\330D\226<\354e\000\275Bgs<=\255\231\274L?\016=\325L\212=\302\220\247\274\363\200\310\274 \235\003\274\020\353j\274\230%3=\021Z\225\274@\327\035\275G\252\271\274\272\300\201=\035\301\237\272\023\276\010\275\3709\027=\236\206P\274Djl=\376\210\267\273\320\"9=\023\360\322;\247\273F\275 \006\250;\377\325\265\274+\273\243\272\274\340Z=\240e|:Tf\331\272\227]f<hUY<\315\026\261<\020\204\311\270\347\344V=\320\272B\273\316\376\016;c\363h\273\031\014\177\272\311 3;\365A\311\274\200|\'\273iH\207\273c\330w\273\374\356\273;\236\331\254\273Q!\001\2756\024[\274\021\351+\273\n\036-=R\266\3127n*o:N\026\244;\306\245[\276&\302j\275o\265\034\274m&\234<d\346\276\275\3078+<_\200k=\240\003\274\274\"g\306\274\026\235\206\275JF^=\242\222\022\275\034\355\251\271\277\3170\276\261\231\346\273\371W\014>\002\016\244\273\237\224\t\272\217h\211\275x\023\302\273\366F\002\274n,\216\274\260S\032\274\314\211\'\274\211\025`;5>\262\275\214\002)\276d\n\230;\363r\037=;h9;Ux8\275\204\255\332\274o\214\251:`X0<K.\310\274\225\206\014<\244\311\273\275m\321\302\272i\035\004=\206\\l9\rI\221\272jO\314:\251/\247;jj\037=0\001c8\024\220\342=6Q\325\272\363\330\200<\201q\254\274X\305\342:\024;\017=\217\375f\2740\257\371:wS\031\275r\271f\273\225e#<\243an\273\254:\255\274xA+\275\000,\270\271\232\214\036=\350\264\262\270\004\204\221<\256h\236;\264\005+\272\335\200I<\312u\350<<H6<\327\347E\275AY\204\272\207\327\340<\"v\020:U\240\233\2725\207\264\273G\016~;\260X|<\266f\377\273\307\230\206=b`9\273\232\361\221<<\335%\274\3343\263\273\365\242\027\274\250ma\274A\036\016\272\375\300S:K\346\233\273\263\220\353;Jt\250\273J\256\244;.7\265;B\002]:Je\'=\026\227\356\271\234\251R=\2040\210;\177\361\007\276\031\330h=\036\253n\275\373Z\025<f9#<]\217\331\273}\242\301\274~\243\353\273\276\325M\273\357\rm<\343S%\274\005B\265<\345\376\264;\177\200\005<u\034s\274\303h,\274h-\376<\034\037.;\016\375u<7\371z\275\206\324\364\274n\235\013\275\321\177`\274\274su=\366\250\222\274$\326\210=$=\234:x\264\345\274\317\270\035:YR\361\273]\306\224<\242\261\253\273\237\\\332=\255\371\264\274y\325\013>\236\217O<\306\nd\276\224\217\227<z\"\243\275\337\302\221:\'\241\253\273\374G0\275\323-p\275\244\253}\274\014\034?\274$/?>|\007\374\273W\332\225\2765\\k>\203\374\031<\377\305\021\2754\222\025\276&X#\274~\210\255\275\357\331\n<5I\253\274\350:\275\272\212\252\354<\303\204\373=\022\016\264\273\356:\223\275\313*\233\272\270\t\237\275KP\260;*\002z<\341\332i=\347\243\307=\'\240\353;\254\023\232\2754\357\336\273\272\236\002\275\177P\313\273\316\203i\273\\a\025=\320.-\274\232d\323<\371z\261;,\021\323=\202\342k\274\376aQ=\203H\323<\306\222R<i\207\335<\366\014d\274p\247\026\275\303M\365<\023\316\265\274\237j\341=\312\021\262\274\375,\264\274\370\210\223<\030\335\353\274(\327\013=\004\013\334\273h\";\275U\253\230\273+F\316<\213\367L=\210i\204=\276x/=R\013\005\274\357\324\316\273\013\354u<6\336\020\274\357\226^\273\021ES=\340\332\007\273\237\377\210<]\220\206\274\021]Y\273.\315{\274l\372`=}\033\335<\007G#=\201\266G;K\322\205<\312\374\020\275\310\225(=3\365\301\274#^\241=\224\337\235\274\267\336R=\031\257\250<\001\323\023\275\227\010\000\275\032\212\341\273v\275\232<\352\267\227\273\232\016g\276d5P\275\267\216\245=$\375\020=k\350\356=L\340%\275\304\211\327\275\253E\374\274\230\347\211\274\350\276\332=(M\033\275\345\337\354<\035\373\272<\200/\246=\247K\001\275\216G\312<\332\202\003>\261\300\233<\024\020\034=3\214\243\275\024\363\363\274>\375Z>i\233F\275\363\227X\274\247j\014\275\036\007\204\275\304\366)=\211\2268\275\177\3400\274\373?J\275\331\177P=\341\203m\274\204\266\004>*6\272=\237:\007\275h1\315=Tc!=o\245\346;Ev\203\275\231F3\274N\240~=\270\220\252\275\251\334\021\276\244\301\373\275u\nD\275\342aV\275g\210\037=\333\272\021>\026??=,\3429=\265\346\261\275\335\231F>OP\237\274\241\262a\276 L\265\274m\271\355=4\243\023\275\032m\356\275\231X\276=\235\365\207\274Tj\270\273-z\251\274\347\242\202=~\0056=\355E\366<\\\326\232=Gxn\275\303\351Z=\314\225*>s\014\032\275P\213\375=\225\016\226\2756\262\325\274\241\363\332=\335\027i\275\343XD=\366\254\000=\242\300\247\275t&\035\275sD\260=\375\037\005=u\3529=\236-p=F\277\204=\233\225\006\275\367\243\364=\037\272\024\275\255\277\250=0=:\275e\306?=\203\356\210<\362%H\275\305\235\302<d\234Q\275ap\316<T\354&\2759\300\365=\036\365\322=\021$4\274\344k\217=\344c\376<G=];\227\206\333=n\307\322\275{\275\244\274`g\227=\372\200\365\272\224]\364=m\026\206\274\271\261\240;=\217\010\275\031\312\356=#\350$>v~\334=xTU;\373Gg;\2731\365\274\'\234K=5\351\014\275E\372\245=\211\311\032\275S\216{<\312\241)\276\177\035e\275\3540\222\275\347\006G\275*3\255=:.\257\274\305\351U\273\243\"\023=\246\t\376;\035\tM<\030W\022=n\230\303\273\\\360\336\274\320n\213\274C\364[\272\032\377\r;\200\031\300<\317\372\276\274\252\203\222<\313\342\312<\256\3523\275\307\225\264=\377\034\217<[GK<!\305\267<\376[\275\274\364\030\034=\372\223\347<qr\007\274GG\225\274\330\3154\275\366\334\t>\220\026\324;#\263\305;\r)\013=.\237\211\273uzG\274\203a4;{\367=\275\330|\002>8Qc\276\255e1\276 Tf\276\275\374\037\275\214q\351>\237H\323;\341\335\202<\247\223\210\276\344\273\214;?\253\327<8\013\033\275\000\205S>\227Jj=\021gC>v\302\212\276\340\270\306<\367\261\004>\377\376\354>\031\026\212=8\3068\275\321\213\277<&\236D\276\r`Z\275tm\314:^\376<\276&\240L\275\214\025\350\274gD\263;\241\226$\274\003#\346\274%\207\217<\217\020V=`\271\232<\277\007\273<\'^\277=@j\312\273F9\255=\'\025\245\274\204\206\332\271\002\376\031\275\007\321\000=\254\332\325\274$\260\005=az\236<E\347b\275\302\272\005>\264=\010=k\240\241<;\362\356<\372\t\014=\237\010;=]\316H;]\324V\274\302\177\372;n\234V\275r\327\212<\314j#;\211:\265;\306\344\017=\312#;\273C\325\352<\227}Y;9\277\t=^\200E=-\364(={1\207=\"Z\376=\373\"\211\273\224\004x\274\264\355\221\274Q\210\202\2723\236`\274L\261A=)\335\275;\304b\2129\323\037\032<n\254A\275C\306\250=\276x\371;\337\003\232=\0050\243;?\243z\2747\356g=5e\305\274\260&2\274\350\001v\273\214\264<\275\302\255\211=#`\205\275cz(<\205J\365<\201\203\200\273\230\257\373\272\371\352\027;i_\332<w\333!=\333\312C=N\272\014<\334U\356<\351h\372\271\226\221\375;\024\371\204\274F\235\207;G\351\016<V@\217<\251=\302\274\206wA<\350\231\001<\275\034\021\275\030\035\323\273\226W\023<\346\327\305;]T\200<\005\241b\273\204%D=o\243)=q\360\341\272A\231p\274\365\356\003\275\316.\215\274\331G\250;\342\252\237<&\326`<\034\324\026\272\256\211\227\273\273\2352;\336\334\367\274\230\370\036=\247Jx\276b\331\013\276i0\312=\361\'\201\275fNi;\005\330\252<\347\030\006=_\204\226\273\357\033J=\366\036Q=\025\306\n\275\234B*>\374J\231=_>\027\275\001\246x\276\010\020M<\211\2270>\206\330\205>\224\205\241=o\365\200>\234$I=\270\363\250\275K\225N\275UR\213\274\220\312l\276\002D\222\275\312&e\274\261\225+<\214\247\234:~\3071\275\330kP\273\373\265c=4g\364<\344z9<\224\r2=\264|\24792^\'=\377\300\223\274\372\320\254;\364\001\277\272\212\360\274<\310i\353\274i\325\345<\0024\347\27435B\275\216\210\334\272\250\251\305<\224W3<\021(\203<\354\214\250<;\202e=M \177=X\016j\273Q\260+\274D-\037\275p*\010<\315!\021\273\315\370\207<\341_K\272\247\001\2019X\031\020<\223]h;w\022\026=\364\206]=\010\342\"=L\0105<\254\342K=\247\026\222\272c(\271\274\202\246\210\274\334\352\000:\336[\204:^\347\034=\233u\230\273\363\306]=X\033\232<\271e\037\275\360\275\035=E\235\377\273\031\326\001=h\231A\274\371\330\023\275\335\375\204=&6\254\274\217\276\227;\255\336\316\272;\013\002\275\2741\010=\250\2127\275\324L\271<N\236\243<\020\360\t\272\005-\227\274\277\264_;\212\326\311\273\255\323\025\274:\251\237\275\274\027\352<\226\334\224=U7\200\274r`\n>\250\250<\275Qp\035\274\214,$= H\212\272\332\272\246<\030\323\220<\240\261\354<\320l\333\274\005\026i\275(\215\247=>\207\033<l\357\365<W\266\225\274\207%\302\274\301e \276\002h\273\274\332\205h=\254\224\004\275\207\230w=b\205!<ye\024\275T\236\210<\334%\210\274\033C\231=\365\305@\274\334\016\300\275~\372\r=\275\330\310=^ef<\334H\013\275\263\021\213<\001<H>\347\253\205<\007X\217=\233\300\017>\373\245\237\275\346R\375\274\255)\013\275\363\201\354=\2305\231\274\204L\206\276\267\"\376<!\002\350<\037\372\374\274\274\n\010=?`\341<\016\274\303=\354\032\207=g\016 \276Q{\334;<\341\361\275\023\002\355=1S\250\274Ciu\2748\255\020<v~\346\275k\023\311<\314z\005>$B\362\274\007\237E\275\021>\006=\351\005\227<\031\306]\274h\271\223=n/\251\274k\2520\274\357{\027=\262\206T\274\375\304\373<\377\335\257<3T\342<\2036\005\275>\030^>,][=\216\326\n=\036\3619=\225\032\235=C=\346\274\340\327B=\301\334\331\274\240\273\266=W\3739\275\020\010\317=M\032\276<\360\244+\275\323\232;=\t\335\210\274\262\305\316\273\304\220r\274i\341\260=\244\013\036=\"\217\232\272\225\300\217\273\355,\216<\245\003k\274~9\217=\263\303\360\2749\245\220\274\355D0\274\211{\223<\357^\234=\3134S=i\255\367\274\276\376\351\274\357\004!>\302\300\246=\003\354\330=\3415\211<8\306\243<\210\250\316\274\321[\300=\307?\316\274,hY\274k%\022\275\233\366\222=\354\351+\275\017%L\275\277f\210\275n\231\021\274d\300\010=xVu\274\024k\016;F/\247=\206X[=d\351\027=\261\325\257=e2\336\274\026\304\326<\321\tm\275\353J\270\274a\246t=\246\206\331\2746\203\343<v\324\325<\260$\235=\254*\016\275Mu+\276\023\025\371=^,\227< \264-=\004\024\021\275nR\016\275\344d\'\274Vj\351\274b1d;\366+\034\275\016u\035\276\206dN=\257\022H\2750\254\"<\021\232\'\274\312\366\211=Q\356W\275<x\273=9&\340\275n?\335<M\231\205;\037e\000>\225\301\372;l)F\276\037\022\341<\016\277V\275\207\010!\275\257*\206=A\212\355\274LlY\275>\337\001;\024CL=\251\341\242==_\277\275\304;D=3f=\275\236\272.\276\340\210\200\274@\337-\2753\352\022=\250qQ\275IH\264<\036\0045\276\227\312)>\202G\314\274t\267\305\275\336\004_=\354\023E\275[\355\340\274\306\235\263=f\304%\275Z\023\026\275K\rW=Bhp\273 \344Z\274\336\363\222;\373\252W\275\370\334\234\274u\345\035;isH\275\301\0268=\311\361\027=\003\3274=\251\204)\275\352z\364\272k\246L\275\267VD=\210A\204=\375\324\023>\014#$\275\260\200\007>\357\221\036\275\005\304\027=\027\303O\275T;]=\257\346\223=z\"W\275\253\375q=\252\026\316\274\374p\300\275Y!\267\274:X->\205F\306=\325\300\314==\375\277=\221\353W=\027\377@\275kH/>\254\353|\275\364!\262\274\241\034$\275f\325\030< \342\346=\373bX\275\006D\205=\222\240\026\275\316\266\340=a]\022>\311\201\010>\0354\005\276 \024\327:jj\024\275F\232\013> \327\021\275Y)#>\363F+\275!\017%>\217\360\034>gVv\275\020y\033\275\235\347\267\273\264\177\266=o[\201\275J\333\214\275\322\236b=mp\225\275oi\305<4\\\354<_\201\267\274\361/\321\275\227\025\263\274\327\222\021\274$\006\005=\273\204\250\274\236\254\004=\2678G<\310\350-={;\225\274\320\301.\276\350\325\246=\316\307\311;9D\336<[k1\275u+\332\274\263\265\236=\230\243\264\274e6d<L\027\303\274\365$%\276$_n<\262\343 \275H\330\253:\243\017\234\274\321!N=\231\331\224\274\343\211\021\274\017\335\223=8\272O>tk\002>\226\tJ=\305\374\220<\374T\242=\376\317\220<\277}\261<8@R=/#.\274\344\376\235\274\212\253\312\274\337#\244=\242\340\220\274\277(W\275\007\031\020=K\303\262<\363m\324\274\240\351\203\275\353\254H\273\026\265\251\275\336\022\"=\330E\330;w\342\026<\233\212\034\276\036\206\303<\005K\306\274\357\006\301\2750\250N\275\212wj=B\202c<\310\005\200=5[\200=n\303\017=oK\301<vr\327\274\371\200]\274P\376\257\275P\022\343\274\305\300\"\274\360\247\013<;\207.\275\223\2308=u}d<\030\033\325<\330\302\253\274I\342\251\274\\\356!\275\306\'\320<\251\025!=\260>\253=\314M\374\274J\301\242<\343$\372\274^\376-=\372\023\000\275\020m\010>\332\267\260:a\236)\275O\267\024=(Z\261\274\253J\323\274\237\2248\2741\303\243=|\315^=*v\243=\227\216\207\274\267\230&=\034:\274\273\244:\251=\267\221\t\275;e\355\273\302\264T=<\343I\274\371\273\220=\222>*<\021\267\027>;#\234\274k\362#=\242~\334=\376\236\304=\336>\251\275f\221\035=\313\240\347\274\247C\327=}\270\376\274\325~\241<U\365\326\274\025\004\346=\021\346-;)\224K\275\212\227\201\275\242\356\331\274\364\021u=wN\213\274\220p.>\"x\262<\233\343\035>[-\233<\230\216\301<]\321\353\273\260\251\215;*\343\217\273\265\005\242\273\2565\002=\262Y\222<\203Y\006;\r\264Z<8\203\344<|\200\324\274\032\235=>\255A\347<\265\371\262;\217\215\002=f\236\006\275\250\276\264\274X\327\267\275\377{3\274i`.\275w\313\341\274\262\3303=G@j\273\264\022\277\274T\225Y=\030\005\223\273\333S\200;\370}\"\273\024CL\274\347D\274\273\370\0354\276\255\246<\275\031\220\023\276\372#\014; ,\257=9y\214\274\314\245\227\272|\246)\276y\343)=\323\215,<t}\302\274\321\023\022>V&4:\366\234\023>6!n>\3144\226<~\006\227=\"\276\340\275z:7\273A$\021>s\364\247\274\223s\306\273m~;;\243\253\020>\344\250E=\037\236\370;b\010X=\316--=0\201\274\275\260\277\231\274ESa=\324q\351<a9m=\326W\310<\300:\242\274\354\002\373\273\325\177q\275\3376\221\273c\227\247\273\352\374C=\n\330e<\315\"\013;\3332\220<T5\342<\3364\376\274\036\214]>e\227/= \204\260<)\rI=\010!\240<\222\027\342\2745\370G<\237\275\252\274E\331j\273a\255\032\2753\016\306=\301UC=\326\356\343\274\002}^=E\034\027\273\016\354\210=\002>X\273\370B\210=\215\255\362<\320>{=\344i\236=r\237\341\273\235\327\253\273XeW=\022\230<\273\327]\243\273\234u\326\274\374\003\002=An\021=9\374\352\274\3760B=U\354\345\2744\275\253=\rH\003=\215\315o=?;\247=\234\344\200\274{^\323\2742\254\014=\274\246\262\274\245NA<R\212\370\274A\230\235=\377\213d=\363\254\014\275\367r\334;S\316\223\273J\320\344<|\357\226\273\305*\240=>\342><kG\007\275Y\323\323;\307\360\266\274\240\365*\273\004\222\316=\032F\332\271a\026\t\273\202\303\204<WB\207<,\030\321<`\200\256\267\244\261\236<|\006\004\274\364\004\275=\277\316\016\273\245\243\341\272/D\017<\263\033\202<3\0047\274%\253[\275`\226\246\273\2626\245\273\346\347\301\273\310\327&\276\005\376\324\274_\334\030\274|\370n=\3751\351\272hK\255<\014\004.;H\324\322\276\001\300j\274\222\265\'<\341\253\262<\236\315\336\275\022\252,<Z\331\375\274+\3026\274\301\037\231\274A\274[\275\244\206l=\351\242L\274\n*\273\271\362\353\333\275KH)\274\360\234\337\273\377U\274=\225\240\313\272L&\370\274\256Us\276\374\274\202\274\317\326u\275E\003!\274\0227\320<\202\032\210:\200z\030\276\225\'d\276\001\366\340;\332 >=Y\334\250;S_\364\274*\322\263\274\301\356\t\2748h\365;?\267\026\274\2164\032<\223\177\275\275b\320>\273\026\026\264<\211L<\272\204E\355\272\261\203\274\273\243y\267<\351h\023=j\2722\271U\224\333=\266\215\260\273\232\202\265=\354f\343\274\000/\026;\227\255\356<\343\026\272\274\364K!\274\250\235^\275\264V\351\273\233Q:<\026\320}\273t\323\341\274xS`\275\310%\371\273\326\375\203=\377\017\347\272\233\313\363<%\273h;\230\037\204<\010\305\257<\331O\255;\271\213\240<\333HZ\2753\362\367\272\027\214\024=nz>\271P\204\235\272\200\3773\275C\021o<W\323\215;k\021(<\033\362F=5\353\005\274\204Q\013=\026\344\"<\000Z\030\273\n@|;\317\263}\275 eA\274[r\010=\2167\027\274\272n\010\272\363\353\270\273[\354\223<n\030\362<\242z\032\274\364z\240=U\030\371\272\322\215e=\007\256B;\000w\225>$<\002=\321\276\t>L6\235<IQ =b\340\327\273q\273C<\277\310:\273\306\320\215\273\354\024\020=\240P\325;\317nw;\\SD<U!y<5\272\276\274g\254j=\364\006\310<\272we;\340\210\363<\360\315\026\275\245I\000\275\232\307\275\275\374`0\274e\266\200\275\322\261\273\274\\\0079\276\nY[\273\245\331\271\274\372A_=\250W|\273G\203&=\\i\235\273\r>-\276J.d\273C\220\021>O\374\365<\007F\367=\376\360\030\274\371\371!\276\021\002k\274?\367\'<\357P\032>[H`=\314*\264;\327}\262\274\313 \031\276\247F\370;\372\364\353\275*\001\307=\372\272z<\221\031\204=\261\025\212\275\0012?9\304\270\332<}L\274<\327\320\274\275\374(\320;\325\220\352\274\034\205\001>!\307\221:l\202\004<\267\335b\272\206\361X><5\022\275RG\232<\331\242\212=\316\203\037=/\025\246<\035\352\254\275\234\321\304\273\033\3767\275\253\320\272\273\310I\230\273\340;\206<%Xo<~O\254;\214R\204<\306\013t9S\202\325\274\361\004Q=\340\202\036\2747\372\240<y\327D=ZR\345:\212\224\037\275\207\302\363=\370\246\245\274\001\306{\274\241\363\374\2748\265\365=&\354H;\233_\336\274\335\312W=\327\350S\273V\307\254=|Um\2738p\254=[#@=$9\202=\217\264\006=Ih\251\275v7\271\273\000n\200=e\211\301;\337\322\247\273-\364\265\274\303(\374<=\367\277<\336z\326=\363\276\345=\311\204\315\274\273K\253=\331\275\307<\201d\217<\253\342\323<\001N\005\275\230\031\032\2758c-=@\234\255\274\177\340\315\273\274\036\314\274\262M\262=\236E\031>y\337\r\275|B\246<\226\030\214\273*\250\016=\"\243\206\273Tb\215=\325\217\321<\347\2341\275\2753\223<\361\356\330<Z\211\034\274\023\026\\\275\303ZY\274\234\352\241\273Z\n\307<\032&\005\271\224v\242:\006\241\204<`E\316<\370h\332\274P\355_\276EOM=\002\246\305;\336\310\355<\010\301\301\2748;\013\274\355c\207=N\313R\274!j\370\273/~\340\274kR\206\276\205e\343;\213\350\275\274\007\317\204<\206\221\n\274\001\221\221<Y\246\270\273\331\220\003=\000\251\252=\371\234\327=\360\360\222\274\314\344X>i\330\314\274s\345\203\275B\205\244;5\351\327\274=\241\000\276C\243\355=~\222\314=e\356\343\274?mP\276\266*$;?\341\351=\016\214l\276\314R\246<\366*\203\274\376\201\244\275\364\350\232<\021\006\205\275\332\360\354\274Sc\351\275Tk\003\274o:\245=r\000\006\276\022\375\273\273\035b\013<F\000e<\201\225*>\343\017\177\274}@\206\273\376\032\257<i\277\022\275{\310\237<t0\037\275\226\346\032\274I\016\014\273\255iH\274\202\354\256\273\222\222\034=o\371]\274,\263q;\235\031\272<\373\3445\274V\222\r\275\222\266\221\276\240]l\274]3\247<\014J\024=\r\343J=\274\205\370\273\216\255C=Z%\310\274\3306@\274y\211\030\275\211\035\373=\320\262k\275\313!\340\274\234\310\351<\275\211\310\273\303H\013<\300_r\27370\252=?\316\005=\262<s=\271\361\370;\335\371\377\273\203\341\177\273\037\376O=\346\336\211\274\315\027\264\273t\032\265\274\035\257\224<6\250+=\303I\216=g\350\350==3\357\274\010\266\220<Pb\202=\317\213\231<\275\306J\274\177\263\026\2752\311\271\273\017(.=\324\177\314\274\"\026\221\274\303\010\373\274p\355\245=\207\336\024>\237\332\003\275g\323\311\273\273r\271\273\312\376\325<\035\000\235\273n\270\006\276\023\035\316\274\234\3224\276\030\256\016=\345d/=\225\241:\275\2739\310<N\253\232\275\3769W\274+\0324=\267B)\275$\352\035=\312\332\235<\2538\203=O\322\317\274wn\250\276\256\036\366=\301\016I<\221\266\016=\30317\275y\254\002\275m\216\010>\356\323\033\275b\265\201=\336\301\364\274\210\317P\2762\2722=\372\250C\275\177\306\270\273\342\205,\275\230\3267=j\224\244\274\256q\254=\271Y?=\273\264b\275\333\020\033>\370\204\333=\255v\273\274\2430\211=n\373\275</N\315\274\347\0143\274p]\274\275\232_\245\275\006\022(\275va\033\276\323\262c=\037\007[\2762\375\027\276T\235\020=t\005c\275\317\304\261\275\346\227\323<J\244\233\275\210!\315\273\204 \001>0\336\200\275\326\337:\276\224j\353\273\000\302C\274\312\025\347\275\363\203\266\274\324\272\020>\250\227\243\274\343\305\224=6\3339;\271\211\364<\204q\020=\033S <\202\035\242\274>N\335;\2156\010\275\035\267\261\274B\252\237<{\177\223\275\346\025r=\315\247\323<\177\314\032=\250\017\363\274j\266\214\276\271\033\333\273\277h\035=\036_K=\330h\r>Tb\026\275\354\346\032=V\024!\275\245\347+>\271O\035\275\225\313S=\013.`\272\311vN\275\263\217\016=l\375/\275\032\364*=6+y\274\273\302\253=\334r\256=%X\003>\373\n\364\274\314T\227=\327\317\014\275\354[\321=]\261u\275\001\355\001\274\275\202\251=\010m\241\274\341\201\243=\376\315\021\276\260&->\032\036\330\274\301\321\026\275J\271\003>\224U\305<\276\031\255\275g\023\301\274I\306\007\275\234\362p=F\307\031\275\234\312\330=\323?\006\275\327\210\200<\3671\024>\323\231q\275\317\344\024\276\374\360H\2759\022\271=\337\236\320\274v\315\246\2737\247\252<\252\326~</\223\223;\307\nU=BeE\272\353\372\337=\025E\346\272\335\016[:\253(9;!`\244\274S\303\254;\033\343q\272Uz`\274\307 \312\273\271\336\316\275\247\371\301;\004\372\204;\014\030\005\271\211\373\326\272\373\007\265\273\304\227\200\275Z\363\017\273\006\343\207\274*\325\277\273\002\n\177\274\376\202\214;\033\322U\273(\213\000=\007\2259\272\235\\\253=~,\033\273\300\276\244\276!\034\t\274\344P\255\275>\274\267;O \323=\350\033\010:\263\363$>&\027\223<\030\000\002\272h\320\024<\366\224)=\2011\007\274\036pM9\3556@\274^\030.\2745\330\201\276\353\216\\\276,A\272;\263\330\353\273\261T\350=%\026\025\274\236\202\257\275\330#\007\273\013\314\033\276\001\3641;\006\347\215:x\354a=\022\034:;>;1=\367#<\273\006\200\230=\327\353.<\3726):.UL=\255\250\205\273\nx\241;\272\375\213<\020\306Q\272h\306\262<H\311\332\272da\350\270F\004G\274\036\313\354;nF\202<\376\200.\271\3357\212<\324\341\236\273\022\002\007>W\"\237\275%IR;\326\007)<C\"\212\274\204\374\241\272`\004\234\274h\006s\273\'E\362<?\313\201\273\034/\301<m\003\264;\257\256\017\273\304\260f;\225\276\265\272*\254 =\311\212\203\272\215|\212<aO\023=2\323\013;\n\025D\274)fA\274$[9\272\231X\373<YR\266\272k9\26798\347\004\275Z\227\247\272\023$\220\274\206\315\251;\221\036\372<\253\251\324\273*\377\022=\252y\344;\276\305\270;\262\r\250\274\263e\001\275\013\217|\273\346\3354<W~S\273M\273\224<\303*\277\273e\220?<\260W\252\273(P\026\273\323%g<\346s\025\272\226\227a=\303>\331\272x\333\362=c\236\330<j\367\037=\225\335-<\227\022T<\026]\320\272\352SA=\010\222\344\273\253\364(\273\233\223\325<i>\343<\372\036%\275\355\3740\273\010\264\230<\332t\205\274\036\3332>\201\214\272\274\230\332)<M\035\233<g)C\275d\231\261\272\003\002\224<\245}\356\273\203\313C\275\265\210\r\274\032\035\234=E\241\340;\353\332\033;)r\264=\236\3566\273z=\227<\030\316\222\270\212\315\252\276\265\246\241<\304\367\336<\177U\315\275\021\337\232\275\357\3630\274\230\205\330>\337l8<\307\243\264;c\340#\276\357B\"=\307\335L:\200]6\274.\264U>\235/\332< \262\022>DZ.\276\240\221{<\331\225\314=\027\020%?9\363\341<b\345\225\275\361\030\027\274\301`\371\275(\345)\275&#<=\0200\215<[\334/\274\210\337\230\271.\212\236\274\241~\374=0<t8\272\2557=\375\345`=Y\266\251\273N\362}<\033Np\274\213v\273\272p|\253<\243~\336\273pU\031\273\347T\230\273\263WB=\244\0255\275%\222\254;\262\350F\275\366\t\252\274o9p>\356\234\207\275\207\243x<\267)\371<n_\237\274\350\200\214;\221\223+\274$i#\274)\231\211\273\0068E\274\010\026b=1\235\002\2730\265\032;8j$=\237\203\300\272\224\216\342=\303z\223:\300jQ=\306o<=\025\257-;\'\324\372<\215\027\277\274\3402y\272\177\355\223<Z{\334\273:\020\327\272\"\341t\274\027\243L=\216\237\361\274\243=\220\274\371\332\031=\303P\224\2742\304\247=\331}\000\275v\372\'=\000)!\2744\r4\275\216\234\032;q\361\257\274\214%.\274*\350y\274}\0269\274\244\036\201==#T\274\310c~;kU\200=\263>0\273\241\337G<\035\275\\9\307\377x>\037\2745<B|\034>\034I\221<-\347\001=\202\210\234\273S\231T=\337\331\026\272\305Wo\273\317\246\347<\030b\245<\240\332\205\273\"\026C<\000\211\362;\034 \335\274\364\262\t>J\010(<3`%;Z\352\003=y\335\240\274\234a\344\274\314\210\351\275x\312(\274A\321V\275\016\016\333\274\223\004\255\273\240\246\014\274\362\316\235\274\265\356\224=\020\013\225\272\257\237\372;p>\264\272\016p/\276\035Ar\275-W\322\275\003N\210\274\341\032\370=q\025\013\274\345\215\220\276\220|\252\274F\334\003\274\r\001&=\342m\362=qk\255<\273m\261\274\305\305\030>\006;h\273q\251\025>\nu\\>\241sW<[ \302=S\035c\276<U\200\272\223\'{>\035\361\013\275\254\005:\276\t\330\002<\314\335\262=\272d\367\275/k\037<\247\302\226=J\305\323<\265z\210\275R\344!\275nj\224<\210\030\304<\340N\014>;\327\271<r\240\243\274[\242\233\273}\213\372;x6*\273\206\312n\273\002\344\301<\023\260\311<\223\345a\273\'\357\220<L\272\376\274\265G\366\274oIo>\307}\014\274X\256\216<\026\207P=\362\277F:w\021\007\275\"\201:=LI\235\274\314\026O\275\026\264\006\275\261w\223=Z\215o\273\353\323\277\274\032\351l=\305kc\270\231\270\224=\325*\265\272\275\246\221=\323P\324<I-\237=\3665\224=\355}\020\275\347\016\215\273\226\307\251=\250\305\017\273\016\244m\2732-\"\275\350r\034=\220Z\243<\232\333\277=\312dd=\206\340\354\274\274\240\240=xz\001<T\023\'\273\347{\223=\350Vj\275\027D\007\275Jc\302<\271\224\251\274\004h\347\274\201\223\357\274<y\207=\361\360\t>\356W\363\274\026\006)=\362=\2048\264\253\330<\016\241j\272wu\033\274\311\273\227<\235\2757=\350\277\023;}\336 =6\315\305\270\325%R=\305\\\037\273\320jd7 \226j\274\316\276<\274\271\301\r\273\327\213\200\273\022\266V\274j\005U\273$V\253=4\022\366\273\267\333\303;u\016D;5\362g\274\207\307\261\273\242\"l\274\210\002\216\273\316\354\000\275\342Q-\273h!r=\233=\366;\370\347\001\273#3I=S\315\303\272\314\234D=\227\262\314\271\nf\263\276b\031\327;\320\013 \275\266\202#;e\201l>w\210m\273\341\317d=\023\205\243<B\250\014:~_\343\2758\225\264<\266\321\206;u\222J;Q\025\241\275a\006V\273$%\226\274p\201=\276\344\246\010<C\n\257<^\216\205<\177\362\262\2728\322C\276U\206x\273v-\230\275\377W\007\2748b=\275\2278\266=\304\"j:\014_\036=\252\003\230\274m\014Q>\3348\227<rk\275\273.fd=^\014\301<O\365\271:\345J\036=e\207f7\224\0326<\0358\n\273\237\340U\271\233E\201\274\264!\313<\201\352\341\273\246\227p\273\364\323q\275\306:]\272L\370f>(P\336\275\356\242\314;\322\375I<\006z$\274\345\250\205\272\336\n\240;\216\350\272\273Y\240\325<\204\037\343\272\023&\335<\270Kh;FR\307\272\305\313\016;\300\002\253\272Wg\221=\277\262z:\363\224\n=\256\364\025=[\360\037<\306T\204:{|5\274\373\214\2518\035\212\021=\307|\013\273\342$\2377\203f\030\275\267\325m<\225\335\331\274t\225w\273\030\3562=\352*9\273Wx\227=)U\336\274\261\342\027<\034\032\375\274\315L\360\274\202\315\201\273\251\300\020\274\231\303\277\273\203\343\354<x\263C\2732\235\245<\275!\304<\270|\320\271\000\356\211<\034\200\275\272O5\005=Y\267\2239\000\201\370=1.\247\275\231P\312<\275CU\274\357\220C\275\252\356\325\272i`\342\274a\033\274\273\345@\345\272m\306\363<M!G\275S\020\024\274\023\236\340;^\265\336\274\251\341\271;Zr\370\275aM?=f)\n\274J\312\006=\222<:;R\352$=\010\300\274=\246<\243\273\262\370p=|\177n\274Xf\227=3\255\366<w\262\003\274l\001\270\275\262\335+\274\240g-\275\325m)\273J@B<\025\274\241=n\344\325=\315\360\224\274\366\020g\274\254\022R\273\006\211\252\275W\335\037<n\240\326<<\302d\274\017?\033=ZS\262=v\004%\274\265\314 \274e\357)=\220\377\302\272w\370\013>\020oV\274\213\332\376:\332\331\334=\244\000r=%\255\025>\334\250\275<3\001\245\275f8S\274-\347S\275\t[\005<\275\340$\274\373\323\033\276d#\020\275z3M\275\331M\004\273C\017\252<X\334\274\275Y\216\300=\272q\254\274\222\352\370:\344\305\321\272\261\200x=oII\273\374\203\026\2730\363\010=0\337\200\275r\365\312\274\234\360\016<\212\362\271=G\260\033\273aBS;\037\026Q>\240\317n\274\217\337\354<PZ\244=\2112Z=\224U\275=2\373\313\273\360\220\367=\254\313\237\274\265o#\276(\274\335=}\243\032\274\030\264\337\2756\362)\274\373\006\232\275\225\312?\2734\373\242\274q\030\272\275l\272\207\273T\333\002\274m\330\254\2758\342\025\273A\021\216\274[n\017\274\2039\t\273P\201t=W\304V\275JL\331\274\005\220\221\275\367\330\014\275\337\307\222;\340\003\245\275\253$\350<\026\032g\275\356\350n\275\2302\223>\226LS=O \347\274\250\201\261\273\'z\233<\205\275\210\274k\027\224\275\302\322\350\275\3463,\274,I\003\276}\261@\274gu\214\275P\306J\273\352\223,\274\302\341\270<\317F\030\275\335[K<G\254\200\274a\223*\273\266\220\246\274p\370f\273Tc\025:vz\215<\232=\361\273\033\216\347\272S\330\024;p\370\241=\265\277\230\274\375Z\230\275\332Q|:$\314\013<q\264h<\242\\\243<2\314\236:\311jh=\326\201\211\273p\225\266<G-\266\273\215\360\257\276\030\020\327\273\251\036\375\273o\321\212<a\375\201\272y\244H<p\371\376\271\2347\234<\217fg=-\2447>nl\224;\021\363\035=\313+\354\273\320\214\223=\372[\036\273\246\331\022<\013\310\313\275\202\371\037=E\330 \274\302\364\'\274^\266S\275\034\276\327;p\323)\275u\026\004\272\223\355\210<\311\340\t=m\334\244;\212\025\332;\233Y$\2758u\335\273\276{\211\275\200\322\2076\007\300\326=}\247X<W}A\273\306\211\004\275\245\013\t<\316T\016\275=\202\367\273r.\023=Q\361\024=\255\337T\274Fio<:E\305<u*\034\273\216\030\232\273\257\\Y\273\036{\3369m\264\341<tQ\343\273\213\027\321\273#V\314;\323\273\302=p\322\244\274\'k\233\2752\232\310\274vZy<G\020\337<\023d\223;$c\325;-\306\037;S}\370\273\314:\025\275~\177\001\274>\310r=\034\256\316\274\000\347\r\274[#\320<R\341\336\271\236Ee<&N\031\271dG/<4\223\016=S\271\247<\\\274~<\331+\265<F\324F\2730f2\274\234\343\274\273U\017\2738QM\303<\3005\363;\320\'\207<#\010\262<\217\013\266=\301\026\236\274\031\354\243<\352\372\217<\346\314\214<\0179\026\274_\252j\275\2775\334;#\025@<j\376\353\273X`\323<\271\203\320\273q\337\270<r\311\200=\373\246\005\274;\217G\274\262\'/\272\023o\021=\225\325!\272\3173g\275\206\021\002<\243\245\n\275\277e\200\273\300\367#\275\216\216\317\2734O?=\347\366|\2736v\240\273\374\275Q;ASK\275\272`/=\324\031\300\272l\345$\274\253*M;\270B\337:=\324\332<\244\236_\273\335\300\231\274\264\377v\274\315p\002\275\311A\'\273\302\320\257\274\242+\264<o#)\274\n1\231\275\341\375^\274\352\317\007\275\026\333\354\273\\\305Q\274\326\337\020=\322\t@\274\263\270\326=%^ \276D\2556>\321\007\275=\005\026f=\\\301\023=\031\021\022=0D\220\272\357o(\275\235h:>\245>\200\275 \215\r\2758\304\266;\347\353S\276\371\032\006\275\225\213D=_J\314\274\346\224\306:\356L\223\275d\223\352\275\346\300\n\275\030\267\024>\3539\334\274]\035i>\024\372\242<9\024\212\276\347v\322=\363\3221<O\302\235=\366\323\273\274\212\000\005\275\355Q\t;6\004w=f\rF\274\342\022L\275$t\272\273F)\363\275`5\334\273\227\2400\274\350\033T\273:\212\240\273z\346\002=\267Bz\275\274\034V=\026\221\234\273\315\022q=i\342\360;;\016f\276\230O\302\274\236a\375:7\023\251\274\177\315\n=`\214\020\275\035\223\356<\016\216\365\274,X\007=\366S\352\273/\310I=mwI;\375\235\362\274\016\007\312\274\234\367O\274<9\001=7Uk\274\006b*=\\\360\312<(\253\257\275\261\276\321\274\2274\355\275\367\016\265\273\277\021\366;X\006\223\273\242y\220\273\242sH\274\0251S\275\\\337\272<\254\347B\275\333\347|\274\214|\243;\022\202\325\274\243\206\030\274\336\032\372\274\371S\270\275\000\363\203=}\343\020\275i\\\216=\322\220\010\275\347\023\032\274$\330\025\274\334;)=\322\303o=^\"\030\275\204\006@\274\344BH\274w\246d=\323\2768\274\330\271\204\274\037^\005<\337:\241=:\264\243;U\314\355<Q.8\274\263\270E\275\3452\\\274\355\243\311\273\217.9=\034\361\r\274\255*\220=8\317/\273\306\010\223<\331\245\341:G?\202=ofd=\261}\345;h\220\206<\300\253\357\274\036\036L\275V*\r\274\267\007\244\274rO\365;\276\000\326\273\267\177\243\273\373\360\265\273\212\212<\275h\323\004=\316\322L\274O\357\313<\314\005\033\274\271\216U\275\317UF\275b\353\251\275\263\214_=\212\277\301\275\022>\336<r2\263;\353_\221;\007\017\226;\177w\336=.)\\\275\303\004\317\274\301\317\212:\023\340\006>w\374\312\274 %\023>B#\255:\347\025\216<jD.\276%\350\307\275\003\007\323\274Y\374\234\2755\214\007\274S\356\230<`\243\265<\014\343\345;cY\t>B^\335\272\227C\321\273\221\346\304;8~\037\275\360\370\251<\365t\212=\036\233n<\316\363\341<j\331\204<\350\374\005\274n\2532\274)\302t\274A&0\274\215\000\332\273\263\t\177=*\347\354\274Ij\240=\200lv\273\010\006i<=\327\024<t\031\327=\314fZ<\t\207t<4\350$=)\357r=\202<z\275\332?V<\340D\005\275i\314\352<d\032\215\271\230\\\321=\241(\261<dd@\275$\233==\030\206C\2742\377\370<g!\037\274\315\003X=\303\220\245<\332\215e=\342b\300<\353 \274\274\333\257I\274\277_u=\300e\223\274g\244\333\273\220\352>=\211W\273\274\001*Z=\275q?\275\202\222K=\272\215\\;\025o\031=L#\231=\376\254\t=\030\2707\275&|\237\2732/u\275\305\234\224=@\232\020\275\360\325\020=\321e\252\273\373\372Y=-R\001\273\024\017n\2754\364\036;.4S\274\311U\"=O\310\031\274\'\275\262\275N\035S<[\306\035;\2352z<\2572\307;\333\266\373\273\304?\021=\216\271\021\274\227\021G\273\n\347\203\272`\215\253\274\024\r%<\227\337\000</4\030=0\300\225\274\010Z\370=\r\330\025=y\366\264;c\361\263<JD\031<\270\004\3278\271(\334=\010\206\245\274~\250\257\274\362%\314\274\1777\034\276\330\023B\273\006O\376\274\353W\272\273\276`$\274\020k\007=\314/\231\273-#\\=\335e\206<\312/\201<Q\2350=\025M\300=\221]\024\274]\016\230\274\2669\213;\030?\031\274\252a*=~\025g\275\204\322:\274\323\215\205\274\211\241\317\273\304\032\247<\\\342\211=9n\333\275\211P\207<\031\333Y;j\002\247\275O\177\302<xH\370\274\356\340\222<\313\360\303\275)5\206\274\255\020b\276DA\227\274%\273\326\274x\347G=<;\342\273\350\262f\275\273\346\234\272\354\206\023=\362\232Q<r\007)\275\246n\231<\330\002B\275#?\001\274\233-\277\274\314*\030\274~0N\273\210\260}\275n\3141\275\226\357\346;\363\025S<\025\364\236\274c\331\316\274\240}\261<\020\000h=\344\007X<\200B\317<G\271;=\334)\225;\244\036\301=\340\327\013\275\230\307\233\275\224\005\003\275\034\032\251=\340\002\016\275A\331\005\275Z\370Q\274\374\247 \274\253G)=\347\n\257\273\000pm=F\234\255<\244\235\270\274\265\235\306<{\237D\275\236x\353\273\374\005\021=\031\234\016\274\306\037l\273\225\320>\275\"\202\261\273(c\221<\221]\001\275+\237\203=\261\006\244\274\277\3743=\366\262U=\031\021\204<(.\\\275\356\2619\275y?\305;\242hz<>\034\r\275\250\000K\273\234%\343\274\345EL=\343\273:=]\014\026\275\300\235\313\274\260\240*\274\335\257\300;\264\255\237\273v\217S\274\304\310\030\273\333\277-\274\341\n\001;\223\005\251\273\023\323\303:\274\376\216\272\265\363\030\271\320\237\2308)-$\2746\367\340\273>Hx\274\002\225\2359(qW\273\216\235\3279\2657Y\274&\370+\273\367\312\233\272\251\312\211\273\231\374t<^\327\270\272\224M~;\340\2628;^\343\255\273\337\326\370:\304w\r=\342\000\302;\235\2023;\330\220\244\273\200B\244\270d\2650\273\341H\223:\227dQ\274\354ui\274\274\243b\273\032Y\277;\375\376\333<\307P\232\274\275\353\202<A\330D;\004\326W;\243\030\024\275\320\375\'<\2707\305:\306\003\2279\372y\251\274\027\343N;G\313\231\273.\262\364;XS\334\272\215\247P<\257\214\271\273\321\206\314;\312\365\016=\276\020\014<i\365\002\274S\024C<\000#/<T\225\036\274\236\017`\2746\246\315;\254\231\023;\272.+\274\013\032>\273wr\230\274\220\327l\272\312\310G\274\264\253\224;\311\233u\273}?\306:\\\375\335;`\326\006\271\354\032\0069aA\203\274\021\223\023\274\205\321\224\274\212\306\2608c0\312\271\227\tG:\210\000\030<^Q\336;\354\324\022\2739zQ\274\366\000\256;\336\340\201\273\005\347\253<\360\234|;\240m\036\274\2331\020;,\203\322:\314\340\003<+\t\213:\r\313(\274+\256C\271@\261\016\274\252\240\252:5\354]\274\277\212R\273\344.-\274H\261\275:#1\233\272\363\000z:\366k#<S\\\210\271\317\305\0079\200\315J\274\257\363B\274\365y6;\337\336+;\304\216\031\274}~\3439cY\370\273\262O\341;2n(\273^N\334;\310\233\234;\307\353\251\273\330\317\r\274L2\232;\006q\n\274z5\004;\362G\310:SK*\273\302\252\030\273\265\035\312\272\272\261\r\271\215\200\264\273\rW\221:1\343\n=\027\273F=\016\240\t\275\236\242?</\316\365\274\024\177\337\273B\351Q\274\203\"3\274 \305\355\270\255\3552;\336\021\233<6t\235\274i\000\314;Y\361\237=\224\022\215\274\334}\212>%KK=\214\317\264\2678\327\201<K\376\006<\342\334\006=y$\242=\242\325\367\273\320\224T<\273\335\017\2754\252C\275\302\310\365;\016D\372\273=\030\233;5\246k\274\252\345\271<\253\375C\273XQK:\305\216\006\276\224\020\364\272\331.\312\274N\006\273=\\\336=\275H\250\236=\374\317\311<H\356\023\274!\277\221<\221\004\026>56\236\274\374\342\224\274\314K\272\275\366/ =\311V\237=\361\326<\276;GV9E\225H<\340\254\317=\371hn=!B\233=\277\r\'\274\017\222\302=S\202<\275\350\263\274\2742.\310\275\032\255\357\274\246\363\033\275\261\216 \274\321\263I\275\017g\362\274\366\367\350=\365\321C=\026<D\275\0342\242<\014^I\2753\177\344\273t\326\034\275beO\274\316\354\212\272Wv=\274^h\231<\325\205\316\274;\0109<\347\304)>\347R\344\274\340\357\317=\nVf>\213)z:\341r\001<\034\234\276\275a\2051=T\014&=t\214e\274k\332\260<!QD\275\366P\233=\363:\305\275\224\212\025\274\356\232C=H6s\274\316\353\t>\226\232\037\273\347\371_<L\237T=[/#;\022u\204\273\263\276k\274\205\275\311\273\302a\001\274\325!1\274\272\341\302\272[\377\347<\244\305\003=\272{?\274\234\363#\275\303\206\005\275\204\371\237\274\263\262\007>\304\327C=\005\361m<L\333\225\274\2434,=\257\2278=\001\361\037<\010JJ\274_\371\303:\021\177\"\275\371\334\374<\246BP\2759Q\002\274!z\363<-xj\274\347\210\357<C\022P\273\264\265\001\274Kp\n\273,\2455\274\346\201\217\272\026Os\273I\231i:X\016\202\2730\226+;B9\2719\321\3539\272\3104\254\271\242\026\000<\027\032\305:\351\263\205\272\245Y\307\272\350\340\247\273\336\370\346\272h^\037\270%\311\007\273x\225E;\334\274\244:J\226\267\2726\363\315:\226:\351;jZ\265:iMw;\320p;\272u:\253:s@\234\273\271\250\213:\\Q<:\333\350d7]E\224=\346r\"\274\177\017b=\031\023\275;\035a\001=\320\031\020<\t\240\367\272\266XW\274\312\\\241\273\274\300\226\273\316\341P;%\311\301\273\214\266\031:\235\247\220<(,Z\274\000\221\315\274\206\222\034\275\313&\371\267\004P\004\275C\\\237\274t\314\n\274\rtB\275Q\202\277\273\303\017Q\275\203\010\026<r\250\010=\270\257\225\274|W\035<\376/\274\273C\363\016;\277\223\370\273\003[\364:\266C\013;\345\014\373\272\020\361\024\274\373L\240\273\030V#\273FDt:\253\325\004\274c\323&;\350\002\3239n\351S;[o\3178\350E\234<\202U\225:y\241\231\272\220\206\037\273\241Z8\274\223\024<:235\272\336\341\003\274\3212z\2735\363\327\270bZ9\274\240\242!;\004\301+<\304\304+\273\271b\003\273\001m\025:\335\021g:\342\225\\\273\037\236\201:\260b\002\274:\202U\270nf\240\273\356\262c\273\2303L\274\247\315\207;B\007\202\273\276\277G:\312\004\025\273\022|\037;\252o\2729\2453h;\312)\210\273\017\252\242;\254\243V\273\304\024,\273|\323\307\272\206s\"\274\343\362h\273\243K\337\273^\266\021<\272\235w<\203\222b:GL\241;\032\r\023;\361\035r;~\274\303:3\233F\274\017\215\241;\320\276&:\\\343\327\273\223\202\210:F\0148<\036\356\2517\250a\322<7F\377\272; \303;\325\t\3728\353K\246;\311i:\2729\026W;\377C:\272\264\306\223\271\2713\231;\206@W:\223\304C<\216\307,8f\266U:>k!9pDz<\363\002=;OV\234:\n\360\344:0\251\270\273`\341\033;9\252s\273Vv\270\272\251\205\204;\333`\325\272\241i\243<\327\246\223\273\374\356\370\272\017\240\024<\323\346\377\271\373O\010;\\q\242\271\275Ey<c\205\247\273\220\304\364<o\367\210;\242\200y\274A\322\213;~\346\005\274\256\244A\272\206R\306\273\210\230\303\271\027N\274;\255\260\220\273\305\237\3718\301\346\033=\032O\000\273\260~c\274P\001\237<#\030&;\214\'Z\273\301\032\200<O\177\032\273\343\242a\273#\335|\273}\025\274\274\343c\030\274\347\021\027<U>\000:\221\034\267:\rK\274\273\021[\220\2730\333\034:\366\340\350:|\352\221<\301$r\273n\372\035<\355\217\013\270\326\340\320;\006\254A\272\034\205\212<*\340G\272\022\t\241\271\314\226O;\367\'z;\203\240\222<0b37\223\221\366;D\371\3719\006\215\361<\262\000\036<\311\020\023;z`\314;\226L6\273\324\263\242;a\212\310\2738\302\n\273\3660\240;\204\230\337\272uh\363\272\316O/\2733\257\221\272\001#\024<\036\037\341\271Ll\n<\025\242\307\271\367WF<\032\260\022\273U\326\244;\r\246\035;\007T\235\272\257\364\003\272\231\326\025;\244\206 \272\367\272s\271)\340\007;\030\264\240;\010\223\332;\304\025\215\273D\213\034<\260\345]9\271\034\n<\242\217\213;\002)\207;\354\342\017;\250\031\237;\370l\227;G\033\020<\031\304\037\273\215\262\304\272\361\340\356\272\003\3637\272p\021\013\274\260\270)8\355\005c;uy\360\271\372\007D<{\345\211\271\366\236\307\274\230\351\n\2744\275_=C\242=\273` \240\274u\275}\273\364\211\327\274u\026\030\273k8X\273\312\274t;\305\2257\274\215M\212<Vk\325\271\241]H\275\374\r>\272\005\346\346\274\004\004q<\232\277 \273\26498\274\304\0222\274}\342z\2741\223V\274\301\244i\274e\202\332<\'k\r\274N\341U>\245c\376\273\366X\211\274\311\032X\274\205\034\303\2735>\214<\267\021t\273\244\313\021>\n\203\023\276\2259M=D\232\350<\316\325\205=Z\265\267<U\341\222<\230\220\352:\214\235l\274~B\032<\304\022|\275q\332u< B48\020\375^\274>\270>\274\364\244\022=C-\201\275h3\333:\375\322%\275;\023\261\274\304\277\027\274\"NE><\222\272\273x\237;>L!\033<\366\224\222\275\261\266\217:+\313B:|\325\351=`L\276\274A\035\335\274\303k\002<FH\263=\304\207]\2758\330\365\274lE\234\273U\227\312\274\r\224\212\273\326A\266=L\214\307\272jTg\273\305Q\361\274D\240\215\274\201\270\241<t\317\251\271 \351\016\275g/.:\361\302\024\276\223tl\273a,R;\223o\314\274C0R=u&t\274\377\316\255;l\310\225\274\261Al\274\371\025\347\273\361\232 ==\037|<S\020\200\274\215\241\321\273\266\306\265\273\002\371Q<\255i\224\273x\337Q=\226v\006\274$Y\016\273~W%\275\376R\277\275\256\232j\273J+\353<P{(\273\214j[\273E\222c\275\313\350\024\274\312S\033\274C\031W\275\336D\"\275\240\215m\271z\262\364:\316\312\r\274\221\207$\274[h\\\275\306\2722=\254\236\210\274@\016\t<\223\340\245\274\231\270W\275X\270\020\274\331\014\264<\250D\201=S7\244\274\026\362><\323;\275\2731> <\013\026d\273x\323\365=0\313\360:@\240\303<s&\002<\240\374\335\273\253rM;\257Mj=8\325\331\273\332\n\n;\320\023\340:\020>O<\315\305\332\274\037\200\023\273\016\263\344<sP\333\2736\261-\273 <\356\274~\324\024<\331RW<#\302\372<v\272-<\276R\371\2735\361\333;\231\202\000\27562\237\272\362%\032\275\230\354\025\274c\032&<\001\261m=\253\224+;ifG\275Q\313\034<?\006\361\275\tvD=\314\022N=\022\222F\275\270\303\271<\250\377*\275\376\214\027\275\017\325?<--\306<\277\352:=\026)\"\275\325\262n<8\"s\274\334\371v;\t/d=\366R+<\245\234Z<8\215c<&\337\220=L\005%;\301e\231=\320\354\027>\322\236(=\016\257\321\274\314\226\013\275h \227=0\367\010\2755@,\275F\257\314\274\252H\243;\336U9\275l\224\025\275\215\230\272<=\232\005=\021\330$=\265\240\036<5qj\274\353^~;@\340V<\303\340\317\273\3662\004;\337Q\361\274\3302\223<\3147\353\27463\016<F\000:=z\333\200\274)\250\037=-j\207\2755\243j<\024!\230<Y\227\32597\224Y<\321T$=\026$-<Y\264\\\275T=$\274j\016\214;\333r)\274HM\356;\202\207k=<RF;\220$\252<m@4<p\336\004=\3461\204<\nq*=\351X\224<JID9\301=!;X\305^\272\200V\350\273\201\250\331:S\336\246\274x\375\323<Q\351J\273Os\030=B\235-=\027\235 \274\254h\014=f#\016\275UI\337<\262\024\206<\274\367x\275\364\360[<\313a\332\274m\022/<\010\215|\274\262\357\337\273V\315\003=\032\356U<.m\t<!}U=vb\017;\221\344\255\274+l\035<\263W\244<l\347\024\275[Y\222\275\342\006\266\274\032\020/\275\327\200v<Cl+=\323\225F<\334\271\363;{\301%\275:\316(;j\320\346\273s2{\274\304\267\n\275\005\216\021=P?@\275?e\210\275S\211c\274O@\017\275)\210\327<\257!\001=q\225C:\256\326\257<.\017\240\272\373r%=}\356\266\274z\265\224\273\373\3172=\226+\320\274E.\207<\271\211\025\275\234r\021<tk\376\275\206\326\270\274\006\n*>\344[K\275\204Yg=<|\030\274\247\335\021=\213\347s\274\033 q<@\247T=S\006\322<8\254\336\273\364z\352<L\231\361=\214\037\261\274\314\374\362\273)\241L:]\301\001\275\223\263\306<;\312\246\274\360\263W\274\200\315\254\275\277\305y<\206\223\026\276\343v\035<\321`\253=\273\242u\275\212\307\240<\032>\202=n\025\337;\030\340\026\275\016\344/\273\000QU\275\315:\026\275\244\323U\275\200\313\376\274\213\205\205;\277\217h<\0329\014\276\250\246|<\371:\005<xo\004\275\356n\255<\345\356\027\274x7\266\274\262\3157\274{)*=u\tq\275\360.\035\275H\356\342\274jzO\275\336\036`\275\337/\027=\250\333:\274\201q\026=&/\235;>\356^=\370\"\351\275.\332\240;\372X==[\366:\275\317\013\201<\217\035\203\273\275@\022<\340\276\240\275h;7\2752\202z\275\031j+\274C\221\372\274s\270g<\"\031e\275-\342\304<\375\224\005<\363\025\341\274x\2054\274\310z9\275}\0012=\000\231\263\274F\003\033=Sw\245\275\214\250\246\275\014@X\271#$\316;\344\274\237;\211\346\013=iIV\275\213\344\033=\342\3508\275\246\2509=i\025\271\275&^\360<>;`=\356\365\333</a\212<\025\303\352\274];\016<*\242\376\274\246\230\225\274\333\242\007\275~o\031\274\205\007\312\274\365\211\262;\345\331\0369?\314\314;@X\023;U}\234\274X\204C\272\365D\247\272H\306@\273t\212|\274\370\300\223<\375\005\232\274\177\234\266\2749!\347\273\250\251\236\274\024\335\001=7\010\022<9\010\2509\016we<\257\354\251\272\202\355\255<t4\261<\313\220\375;tY\243<\273\031\016\275\350\350\265;\332w7\274\327\250+;\265\0232=N\301\002\274=U\376=\305C\214\272\330\0302<\200B#\273-\261\363=%\227\217\273\301\005\003;j$\246\275\030T7\274\352\013\306;}\240J<\253\377\247\275\323)\350\273:N\302=\323Ie\275M\266q\274:\303!\275\020\020%<\203K\372\273\343\361\357\275 \n;\272\256\247_\274.\301N<*\237?\274\243r\030=\261\267%<\271cw<)\211\025;V\307+\275q\244\276;\247\270\227\274\232\227\254\274\214e\017\275d\324]\274\347\311\214\272^\274\272;\243\210\003\274\2703\320;e\003\025;\343,\230\274\354\033\324:\264\306\271;x.\024\274%\312\r\274\t\032\252<\373\002\342\274\247vV;\274\225]\274\035w\005\275l\362V\274Vs\266;\276\205D\274\263\334\261<\037\027\332\273\005\n\265<%\2320\275\347\227\323;q\333\232<\000\031\020\275\362\323\250;\243\000\262\274\\5.;\3652#\275\200\357\323\274++$\275\316B\300\274\350/b\274\221\236\224;\321\247\356\274\221\215\301;\027\033\021;\223\210!\273\337\217l\274\250(\205\273{(\232;oK\254\274Z\372\237<\315\200\r\275:M\320\274m/\336\274\240\242\346\272\305\244\311<\240\355\335;\375\234a\274\322-\301<P\315-\2748\256\277<)\245/\275BQ\031\274\304\004\272<\026\031P\274\016u\254;>\201A\274\272/\";DR\357\275\177m\241=>\243\372=I\204p;\343\253\323<\367Ou\272\342\"\250\275\210)\001\274*\300R\273k_K\273om\325;B\211\330\272,\235\2569|\243\353<\'#\270\273N:W\2769un<sq\013<wW\342\274\213F\345\275w\326q\275^jO\273\247t6\274\353\202\344<\210\032\305\273\342=I=\376\321\255\273\367]7\274<N4=i[L\273\267\256\347:G\256\271\273s\213V\275Xoj>\'o\324=\232g$\274;\252\320=\352i\242;\002\'_>\313\037\352<\277\255\025\275y7C\275\354yf\274*x\r\275\275;\010\273\202\302S>\021\316\020<r\337-=\324\265(\276b\0351<\254\2122\274\370\215\270\275\312\3646\275\035\304\212\275\232\373C\275\332\177\206\275\271\t\226\274x\256-=\245]\362=v\024\233<\001)\237=6\341]\275\004X\221=\324\0136=^\347\005=\265\005\371=Z,o>\215\005\014<\235\235\037>*\375%\272\340\010\020\274\376\236\306\273B\337\245\273R\353.<\206\313W<\310e\031<\260O\0229\025\331\206<\231z~:\260\234\356=\354\372#>t\343S<\036\341\261\274`r3\276\334:\210\275\014q\233\275\304dy\274\347\260\213=\361\311\256\273\335\'D>\372\370C\275\3078\025\274\334\035\320<1O\003\2734gg=`\215\240\273\"\267S\274\254x\221=\202\243X=%f\202=P\204\247=(\\\"\272Y$M\275\312\340\376\273\301\323K\273\033\225A\274\024\302\\;\363\373\r;\3611\022\275?\230-=\370\250\202\273\321V?=\363\271v\274~\263\233<x\211\214\274(a\254<#\302\220\275\017\265\342<\243\223\222\274{G\202=\301o\265\273\205\253\336=Y8\211=\335\037m\274\214\250\216<=7\320\272\264\200\037=\344:\222\273\032\217\216<\340\311v\272/[c\273F\230\323;\365\240\214;\034\272\t\273`\240=<8`9;p\371\202:<|\213<n\253B\273\360#\371<0\235\003;X\261/\272\311-\204\273@\023Q\274\264\000\370;\272r\002;\014\223\252\272M\322\303\274\307p\373;Y\320\303\274\313\322\216\273\n\275\241<D\201\303\273\376\217\377\274\302`\007\274\304\361\004<\366H\"<\255\272\362\272\223)\240<\224\010\024\273JH\365\273I\237\327\274\\\005^<\037\270\320<D2\334\274G\303#=7\022Y\273\256T\245\274\275\n\224\274\305.\244\271\032\264s<J\337\177\274i\223\3219\211na<\333\273&\275\004\331\010;I\221I\273\227\200,:\036\277\311\275+l\253\274F\031!\275\022x\003\275\370\302#\275\200N]<X\272C<Y\231#<\354|\343\274i\222\025=\034\220\305\272Oe\241:+\300\312<\270\022\257<?\332\003=\303\035\253\273\350*\340\273\211\335H;X\376=\274<\326\010\273\003\n\010;\271\\\322:\354\327\010:5\036\013=|\302y9O\362-=b\2556;\263p\013<t\'M\271\301\321\255\274\207\027\203<\257S\2719\270\335\0319\247\001\223\274\365\260\020<\340)*\275O\312\010\272R~\006=!\n\362\273\250\274=<+\255S\274\365\206\001<>\027a<\234\307\001\2731\374a<\270\002\313\272v\t\240<\356\026\212:\221sY\274ed\351\273D1Y\274\272\326\000\273&WW<\202\245R;X\336\026:\337\326\231<\372~\231\273\256Do<S\273{\274\210\337\215<\006\275E\273\304\340y\27433z;\241\227%\273\271g\216\273\030\3625<tm\020<\335\330\312<\2762\003:\353&\316<r\013\346\273\336O\004\275\375;O<.\303\026<\n\336\342\2738\230\340\272\352\214\025=\013\341\007\273O\247)<\\qL:\200w8\272\377\277/<\347\277\017\275\247z/\273\320\371h\275\266E%\274\356\217\233\272P\314\006\275\3246\016;\354V\352\274\226)\343;\301\270P=l\000\237\274`\251\266=T\236\312\2738\316\2539.\321\200<r\321\217\274\273\376\020=\257d\006>\316\273\256\272\266R>\275$\372\237\274{\304(\276q\235\\\274\036\037$\272\227\353\206\274!\210\002:\272a\016\274Y\2154;\343e\366<@}\265=\310V:\276zI\201\275\031\2262>\235\217.\275?\362\032>\303\021B<\370\330\362;\016b\224\275\177$\005=E\337i<,-\244\274\0046\350\275\277\232\\=\360\273\n?2\332n>\326\004\371:<\210\235=,\350\302\274\007Wa=\004\rc\275\212\344+=<\303\310\275\323\200*\275\375\032k>\317\035V\275\227L\025\275\236\276\035>\375j\021=PE6\276\203\301\016\275?+\270=2p\245\274\267|\215\275\362\027Z<EA\037\275\272\217)\273\237\263Q\274\2051>\274\346\274\t\273\270U\001\276\177y\331:\204\315\001\275Z\275\211<\3473#=\341\352\365\274P\252\312\273\361\237\266=J\023\333\270\273\233\222<!\277\206\274\223\316(=\005SA\274f\363B\273\255\\\017\276\302\350\360\274\333S5=\237\207K\275\177\226_\272$2\246\274A\335\221:{\357\243<e7\267:\312\266N=\264\222\313\273\365@b\275\033\351\377<\022\330\347\274\243\202\322\272G\302\037\274\362\261%\274\304C\351\272]\304\235\275\256\264\263<\036\254\301;2-\t=\315\353\325<Q\347\267\274\215rd=\220\026\020=\316\214\370;\205-?<\371\261\241\273\364\000==K\361/\274w\366\033\273\307\321*\275\237\026\301\274(\030I=2\210\203\273\354g2:\344\034y<\346Z]9\"\357\356\273\275V ;\232@\210>\023\272`\273\212\273\273=V\243\355\273\004\371P=;\265T\273\221\300\'\276\006/\326:A\267\366\273\201\232\356<\201D\027\274\366\334\022<\250\336\202\273\361m\247\274\035\251\014<MR\317\275)\205\244<\374A\177;$\337\231\274*\034Z\275>S\274\275.fD\276b\277\261\274x\267\242<\233\335\253;\223J{\275\3549\341\273F\037(\275\276\324z=\376\330\265:\370\025\306\274\352\261\233\273u\256\377\275\351e\347\274\014\247\336<=\201\023<\344\350q\276\205\330&=\325\031\034\273\363\357\246;\234h\260\274K\355 >U\367\216=w\331g\274L\233\021<\345\262\316>Wz\346\274\0021\347\275V\020\207=\016j\240:+\004\204\275\327\273$\276=\275\243\275\002)7>\233\2015\275.\356\377\275\337\332\000=\272F\275>\027\031\254=5M\255=\232\211\204<\331\2305\273\255h\326\275k\010\321<\352;=<<#\335<9=8>m\216\272\2732\364Z\275\326M\203\273\177\361\017\276-b\227;nA\023\274f\351\323=\314T\177:\301Lb<\205m\017\274\273c\n>C\007\262<\217\231?=2\377\201<:\254\317;:\372\341\273H\235\271\274\3477\317\275\324\360\247\275\267x\323\274\\\275\033=*n\203<OW8=\363\252;<\3400\r\275\360\373l=\376\315\245:Zp\307\274\236\261w\273\200\310\2008\335\227\\;\352\016\301<\260\241\275<=c\025<\322\331\200\273\302\354\346\274X\223L;Q_\277\273\302MT=8\017\250\274\014\"\034\274\001\315r<\021\004\017\276\006\202><f\030P\274V\'\363\273\353\321\323\274\232\273\032<\274\341\351=\r\344\340\275=\316\201=\252~\021\275\272\304\257\274\222\306\r<(\345\034=\271\037\"=\033\366T\275\023*\'<\374\017\013;\331x\027=\234\344O\273\202\010q\274uR\364<\211h\240=\030y\235<OD8=\300Ze\274\233\235\265\274\230\002\261\274\377\312\345\273Fd-=\354c\017;,,;<\260g\205<K\314\006=\375/\022\275\256Z\247:!\331\210=\312-r<Y\374\013=\365\320\375\274t\344\267\274\254.c<\227\375\266\274\267B\013<)\0201\275\351\365K\273\217\263\261\272\037\013,\275\010\231\303<\373\306^\274x\"\t=\"m\026\274\230R\323=\331\234\254\274\351\2160=\215U\010=%A~\275N\177\347:\205i\376=u\361\221;\203K\"\274*\363j\275\020\201U\2748\205\007\275\300\270\365\274\301\001\332<E\253/<ZJ\245\275F\300\021\275)A\010=\225/y<\251\234=<\346\016]<\tS\203\274\276\267\362\274|Y\002\275T\241\027\274YKa\274\342<\373=\225\373\002\274\204\306h<\006\205\243<\267\241\'\275\036\272s\273a\353\313<\317\263\014=O1T=\361H\343<\273\220.;\0233]\274\334&\370=\316}u\274,\264\372\273\204\362\024=\256\343I\274\1773N<d&\302<\374N/;I\t0\275QC\265=CR\322<\\J\374<\013\221H=\206\216]=\325\223\303\274\356\377p<\013$\035\275\313\235Y<\017\224i\275!\226\211=\375\201\360;\247-4\275}\2746=\372\212P\274@y\307<S}\014\274\344P\264=\227\333G=n1\275=\340\343`=\202\2456=\274\353k\274B\210\223=\n\362\303\274\356\303\001\274|\263\032\274\261i\256<I\2154=\035\261\351<d\207\232=<\270\033\2756\017\247=/H\243=\0241\355<bn\376;\227\213L\274=7\260\274\352\346A=i\333#\275\236\3111=\037\203E\275\261\365\270=\032\235\307<\030\251R\275\241\025\371\274\n\013g\274\213h/=M/\021\274\027@\000\274xL\016\274`\365W\274hf~\274\370C\315\274\364H\003<$\226\277;\0336_<^\031\230;R\007c\274zY\312<\245\320D\275\314\232\031;\034\320\005\275\002N-<\223\231\375\274\324\253\020\275P\235\233\273\001x\222\272Js\316<\241\034\034=y\005\232\273V\364q<v{\212\274\354\035w<$\215\220\274\252\226w;\333g\016=\352V\035\275\306 C<]\370\212\274\320S\307;ga\356=\355\324\320<Z0\230<\002Z~\275\312<\035>\327/F\274:\365[=\217e\221\274\362\276\332;\355,\266\275\006q\275<\213\340\200=NW\035\273\360y\237\275\023&\007<=\210\020\275)\203\003\276\23323\274\242\013:=r\014[=B\310\250<\002f\264\274X\256\305\273\205<~\275\340\225I\273\367V`\275?\363\247\275\306\205\325;9\037\026=\271\261\272<\323\225[\275\305\261\251\274e?n\275\223\023\314\272\r\347\227<\246\262\310\274`\203\021\274\212G\005<\207F\266\275\203e<<`V\240;\013\322\203\274\261aP=O\366l\275]\326\240;\3677\213\274\273=\371;:{\211\274*\002\241:Fd\032\274\313ua\274\304\217\017\275\tuE=\247]f\274R:\311<|\201\253\274\203\371{<\301\'m\275\337\375\375\272\031\302\025=\364+,\275.\224D<\236-\n\275s*\312;\245N\004\275\025\033,\2740\033\300\272+q\303\272 S\317\274\331\362\002<\021G\022\275k4V<!\035\223;\004MT\273\314\2649=+\317C\275\221R\210=\331\373\000\275\371a-<\321\244\357\274\366\312\231\275\004\312\336\274\003{\003=\313@g<|\320E=\262\207\201\275\315\214\332<qB5<\223\230\202<N\232\255\274\356|\013=\000\013>=u\271\222<\021\020G<\255.1\275\266\032\277;\344\313\233=\212 \331\273\206\037\211<!=-<\023N8\273\353t$\274 T\341\274{\232\004\274\333\376&\273\005\\\272;=e/\274\360W\014\274\'\003\004<\211\273\233<\210\014\242\274\352\266\241=\361\361F=\000\356\3078T\020\361<\376\274\006=\357=\271:\256k\264<\307e\333\274[L\355;\303\007\013\275\013\'\316=U\003]<k\252\030\275\302F\301\274x\206\365\273\3123\277;B\313\247\273<\001\006\276\261\330\223=\273\r\001>\033\330V\275\265\013;\276\270O\0368w\310\262=\275\3118\273E\317\022\274M\\\313\274\330W0<\372M\215<\002\310\204\274g\302\006\276\255\326\033=\233/A=\370\245\331\274\377J\004<\302F\361<\270\315t=\256f\005=D\314\320\272\266J\320<\266\351\254\272\264\365\323\274Q\362\251=-\313\344;\021y\276\274\260\240\356\274\340m\211\274,nI\275{\220\234\273A]O=\255\250=\274V\274;=4N9<@*C=\326\2671\274\234^\327=\374\362\r\274\314\276C\273~\273\355;\233-\217\274?\022\221\274\356\261[<\3776\373;\237\233\334\274\031<L=\"\375\344=\021?\233;\375v\013={\035d=\275[\243;\020x\314\274G\003\027\275\266x\035=~\213\032\275\310\315\222=\215\2031=A\336\016\275\252\343\323\273\370\356\364\273\371\216\253=\315:\343\273\311C\266;\007<\262\273lX\270;w)|\273\241[\226=]\256\020\274\"\"\026\275M7\005\2744K$\273\367\271\313\274\373\341\235;\325\360\300\274&\001\324\274]\235\272=\273\314\263\274\006/U=.\326\245=\"[\215<&\014k<\354+\341\274@\032\255;\201\200=\274\244\221\037\275\235:\203\272\221\224\031\275\262\325\236<H@\211\275bN.\275\235\250\n\275AN\363\273\311i\036<\332\210\263\273w3\253<uD4\274\020\333\32598\345`\272\212\313\246;\256$\214;\277\2302<\240\352\3776\274\322\037;\313B^<H\202\235:2\332\"=\223\221\\:l\035s;\321\237\3329\001\332`\274<~\313;\232l\r;\335#\001;\030\033\246\274\277\362><I\007\300\274 \323\260\273\217\3072<O\222\201;\037\265\214\273\321c@\274\236\260%<\2211\325\273/p\234:\254|\002<\262y\236\272f\330\200\274\266\200\004\273\305\333\253<Q\234\267<\013u\200\2743\337\243<6;z\273>\320\356\273\342K\006\274\276\026\253<\342\037i\2742&\'\275Z\251\016\270\330\375\206\272MAC\274[l^<T&R8G\265\021;\224\375\247\275\230\270|\272uM\270\274s\270\255\272\334\213\360\274\2314\310<\215\2518\275\016\\&\274\24076=\3745\340<K\324\364:\022\211w\274\317\257\275<\304\243(<\350J\272<2\032\333\274V\263\2629y\n\306\273G@L<\242\354\252;\322\343\214\272\004\235\001\271\r7\024:\367\355\231<P\246\336:)\252t=#\334\325:\302*`;\210\336+\271A[\360\273O\374L=\013\331\222;*7+<\200q\203\274\201#^<S\2174\275:C\227\273y\341\244<\256S/;[V\204\273F\355\224\274\340B\372;\304\272I\274\252x\255:Vi\207<\315\217\250\272,HE=\261\321\343\273\274Hv;H\211x\273\000c\212\273\026v\352\272&\222\'\274}\222G8\303\277^9\276b\020<\205f\017<\312\243\257<\307\tr\274\276|D=\366Y\2229\006z\027\274\351\210t\274\0321@;5\342\371\273\233s\243\273\035\266\210<\034\202\202<F\0332;\310\345\272<O\027\200;_o\360\274\203L\023\273\023\201;<\010\3701;\236\370i:\2247W<\375>\232\272\272\232U=H\370#\275%n\336\274Y\231#;\217\024\351\274\245\324\242\272B\246T\275\344\235}\2738\220 \2733\027w\274=_\r\274.P~\274(\374<<\350|s\275`dz\274\374\"\r\276\201\361\327<\213\224]\273J\235\215\272\376\0366\275\200o\311<\274!\022=\225\217\004\2746\203\234=\373\307\002\275\177d\313>\261D#\274\304}\367\273\307\352\204\274\222\355\237\273\357F\020\274\035\347#\273\216\223\222<\266\334\345\275`\301\323=\212\274\n\275Z|9;\210\313\275\274\031EM\275\264`\240<<\337\267;\223\370\234=\314\267m\275\324\302$=u\177\234\274\262\336\007=\300\313\310<?\222\035>\350J\244\275\250\353d\273`\034\'\273\227\2059<\374M$=+1\203<*8\352<\273\340\036>1\214\251\274\272*\251=\233C\234<\221\034\366\274\202\212E>\340\333O<Vr\177\2752\006\304;\010\223\227=A\t\310\275\002aJ=~y\373\272N8y\275R\246\250\272\2371\211=\260I\235\273$\036O\273x\344\213\275\253\332\033\274\tl\244\2749\300\217<\361\241:<G[\325\274\212\257-=\267r\232=JU\302\272\366\t\225\274}\304\223=\366\364\361<*\356\027\274\267\022O\274\026\036x=\213A8\275cXe\275PoL=\304\n\003\274\032\211\030\275\204\266\226\273G\006b\275_\035\243\273\013\253C=V\200>\275`\375\357<\277n!\274\205u\305\275H\\\235\272HF\366<\003\271\010\272+\"\017\273\252\037\237\275\266\306\363;\206\333\353\273\030\037h;#\007!\275X3\223\274W\222a\274\026\303\'<T\215N\275\022\301\331\274\225\235\036>5\230\375<\345F\273\274\360\316Q\274\206\366\367;\307\023\023\275\331W\342<;/\200<x\214\035\274\343(\221;\345\301\235\273cU\021\275N8\020\273\005\020\330\272\232\"\035\273z\343\237;^\353L\273\211\013\232<\301Y^\273\324F\312<\314\030D\271\207\357\341\271\300\365\250<\247\222\007\272NG\n=j\306\322:\2257\220\2726~\212\273tF\376\273{bD<\310\026\3639\025FR;2\223\347\274X\253\t9\034s\362\274\211\315\234\273\311\375c<\253\322\\\273\276\n\\<\336:(\2744xl\273\370\342<<\031\006\003\273T4\256<\31761\273f\307\265\273H\270\271:\035.\t\274\373\261\213<\371\354n\274\255\373\010=z\031+<\317\010\235\273;\266E\274\263\337r<\001\232\274<\307\375`\274B\"\004;\377\261\257;e\233\256\274<\315\210\2741[\231\274vF\030\272\033\307\016\275^b\201\274en$\275\n\207\005\274791\275\004\037!<\300k\277\274a\346\026<8s\"=\336\371\n=wiJ=u\374^\274C\210\210<\022\231\"<F\333\233;o\220\026\274#\201[;(\240\004\2746^<<\260ed\273\316S\256<\215\357\342\270\"\335\005\272\374P==\245\0309;\021LC=(r\324:\010\210z\273\257\230\255\273\360\t&\273y\355\237=\271\222\253:\237\032\030<W\304\244\274M{M;\027\323Z\275-\265\274\273\003\233\023=\020\375Z\273\274\333{<\232X\224\274\350\222y:\203,L<\222G\367\272l \317<v\360:\273\263G\236<k\"S:\241\313\300\273\266\307@\274\206\030\264\272\377\362,\2735\014/;#|X9S8\356\271%\301\321<\334\016g:\312\353+<h\177\230\274\364\300\360<\342l\232\273Z&\331\273\022\356.<\n\277\377\272\354\254\236\274%\005\352;\010\255\276;\037\016\365<5\326\007\274\303\000\212<Efe\273\367\307\301\274\307\240\034\274\341\273\301;z\3670\273\'\"\350\272\227/\036=\033J\"\273\325\300\n\275`\003\271\274\234\337p\275\337\301\262;\372\267\322\271\2052\351\273\220\317\277<-\177\036\274\023\322\002\274\215\247\311;)#\025\274\274x\270\271T\231\243;2\371\327\274\272\000\007\274H\031\177<%\244\024=\264\303+\273\317;A<;\032\r\274&\360\333\274\2606\242<g\374\257\274~{\244\274>\334\253\274\024\237\221>D\"R;\326Y\n\275\302F\032\275\340C4\274k\210\342<\020\264\256\273\202\316\335=\242\023l\276\230\333d\275>\032\202=\310_\234\274\354v\201;m\237\335\275H\242\032<*\031\215\274\216T\326\275\245\010\324\275\3573-<G\r\030\274uD\205\275`\030e<l\004\215\272l\027!\274\3078\030:\360\333Q\275\025\036\205\275\204\313\323;1\033B=\275F\001=<\313\341=\255\023H;\361&\227\276\3216\322\273\246\363\371\274\027\241\336=\347\000X\274\226\331T\275/l\005\274\257<\204=\234S\265\275\252\014\364\275j3B<Q;\325\275yt\362\273\275\366\370=$\337\027\274H\251\377\273\354w\216\274J\346\325\274\246\265\211\273G\257\016<6\021\026=\2306K\274\335A\241\275\007\361:=\341k)\273\0203\310;|U\270=\007\"\007\275oI\242=\253\353\361\274\204\001,<\250\223\314\274/Y\242=R\337s=\375\230\004\275D)\037\275\360\3618\274z\026\360\274/\231\317\273\361oH=\016\223\374\274\360 \277\274*\270\013\273\337\006\207\275Q\020\330\273\374\262%=&\257\'\274>Z\350\273b\213\252\274o\234l\274\327\226\267<%\211\324\274lT\321\274W\255\037\274\r\034\312\273\235\2600=\\\214\264\274\245\313:\275\356d\200=GJ\006\275\370\346\365<]\360\006\275+\313\217\275\375k\273\274\321i2=*\310\177<\230U(\275ML\331\274\003(@\274.\236\260;)\362\247\273\225\323\000\275\352\271?\274;|\210<W\323\345\273\215\313\020<\254\026\261:*\201&<\343\225l\273~T-:.d\242\274\020\262\004\272b\016\242\274\010\034\000\273\366\375\321\273\235\306\026<\004@d\274f\023\214;\354\356p\2727\026r; \231,;\216\246\r;\302\014\014\273\212L\306:)\374\312\274\346\033\021<\210\370\321<\3316\330;\334!);\242\2419\274\346\302Q:C\351h\274\321\227\330:\215\331\347<\3471\021=r\362N\274\301I\223\274y\350\217<h\002\'\2758\375\006\270\201\365\277<l\007S<a*\372;>\355\262\274\017\306!=\354\267\250:\345\030t\274\231\241\027=\023\336\326:\352u\306<L]\336\272\351X\305=\307N\260\274\'\316\225<\036\327\245<s\021\034=\232\267\362\274<\355Y\275wQ\242\274\005\341\200\274\320\243\037\275\317\0354<\330#\252\274(Tt\274E:U\274GCs\275M~\244\274\003\207\265<O\341\240\272\020J\n=RJ\004;\241\257\241<`O\006\272\262\362\3059\361b3\275\032\033\305\273tp\030\275q\351]\273J\355\360\273k\301\303;0<\323<b(\252=\364\324\254\272\270\030\016<\334T\275\274{_);\013\254\256<\027s\337;=b\036\275^\247\026<p\335J\271x\244d<\223d7;K\340\217\274\324\322\211:\271\241\211\272^\312\275:\255w{\274M%a\274\265\311\363<@\3709<H\252\352<z\257\212\272m\253\241;qY\204\273\206&\023\272\034C\021\275 &J;}b\233\274\300\214\010\272\273_\034<\037x\t<\311\353X<3\230\3009F\236\271\272\005\233N<zU9\275e\2031;$V#\275\361\363\000<c^M\274\220\021\370;\3632h<\206\301\026\274\007\005J;\372_\202<`4\004\267\277\001$\275\263\033\316:\232g[\275#\277X=\241`\035=\320t\270;\216\232A\275\013\362\362:\226\370q\275\030\350\252:\254\000\207;\221\026G\274\002C\270<#5~\275\22345<\242\017\223\270m\325\005\275\315\316\357=\315FO\275@e\226;\236\353\373;\240\350\351\274\377\306\353<\251\300\037=\264\265\210<\374\3137:\372<\r\274E\023\370\274\341\226\207\272\335\014,=\254\271\022<\267\236\362;\321\023\307:\251\234\201;;nc=\216\207\026=Z@\303;\314:\233\275\243\003\326\274\017k\267\274\3330\003\275\2263\224<I1.\273V&\220=\034\320\344\273Hw/<\036\362\302\274\244\033c<h\342\206<d\260\001\275vL\003\274\216\332\r;\0239\314=k\251=\274L\213z<$\255\231\274\351o\220\274\221}U\275\233;S\274\252a(=\016dw\275\355\367q;+\2428>9G\001<\335#o>\205\366\217\274s\3377<Dt =\035e\"=\254\335\t<~]\351\274}\321\317:\357(\320\275\356\333\t\27398\211;\347\334\340\274\327\n\274<J\263r\275\240O\262<d\216\277\275\004\353\030\275\332\033\002=L\336 \276\324\025\333\272S\3037;re\301\275\036p\032=R,\004\276\257\201\271<I\306L\275\312U\221\274\005!\010<\233/\214\275v\306(=A\007\314<\237\004\351;\204R\210\272c\316\250;OH\234:\246\240J=+g\t=Dg9=\347\3208\275\023`\023;+.\345\274\364L\331:n\371\215;\347\003`\274\330V\032=\037~\274:C\343\023=w\034\r\276\332i\017\275\031\232\276=Dt\322\275\342\010\305<\364b\'=\323\251\363<\020}\033=\3709\254\274+\'\350<\251\343\313\274\240\327?\2749j\363<\321\204\225\275\016\350[=j!\203=!\002\367;\325Y\243<-\331f;\225\267\325\274\3536\270<\277~\337;\346\301S<fz\271<\213\333\034\274\340\356\262\274c\214V\274\302B\265\273,\354\352<\372\253\276\274f\224a=1\311\304:_S\017=\345qr\274I\020\223\275U\2025=p\304\004<\205\304\007<\336\t\352\274\"\337\033\275L\354\265<X\t\230\274\332\017C<\363\n\257\274K-R\276\200\177)\274\230\257(\275;\020\362<\331\367d\274q\374\320<\177\020\004\274:|`\275\352\261C\274j\352\377=\027\026(=\311 \233=\264\3634<j\337\201:C\027\211<\203}\271\274\350O\233\275(:\220\274\022G\302\274?\227\256\273\340\025\271\271F\316\250\273\235\004\262=\037\n\245\274\'\036\240<\346\310F\273 \326\336\275\244\314\222\274\013\371A<v~>\275\312=\215=\"-\340\272?\"1\276\236\351e>N\243\010\274\262\022\031\275\344\351,\275\006\306)=\373\263\202<\325\2767=\353L\214<\363\215\034=;\330\230<$y\234\274mH!\274\344$\t;\235\236N\274\032\201\302\273\365\330^<\3660;\275~\225\201=\327\n\t;@4\325\271o\360`\274\347#\370\275\037\367o\275\016\244\205<q\001\277<\361\227:=\254n9\275\271\3152=\"d\372\274Go#=\3665\307\274\354\234\361=\316m\352\274/\2431\275WV-=\371\201c\274%\273\344<0\276\n\274\013\363[=\357r\325<\341\312\346<\220\2153=\023\274+\275\220\333\030\274O\003k=\0373e\274\313\275\256\273E9\3759d\021\005\275\230\306$=>\267\340\274\371\343\034=\303%y\274\332<@<W\236\207=\207_\003=\001\252j\275\370\004\025;{\3306\275i\356\202=6\262\007\275\253\001\022<\311\226\274\274SQ\201=\2236\005\275\3769\\\275:\356\276\274\373\242i\274l\3335=\253\026\002\274\233\321[<te\330:GR\351\274\037\"6\273\203\211R\274\354\271]\271-@\237\274\010\310\232:`\317\250\272S\254\320\274\316&\306\273D\021\302\274vX\2178NO\016\274k}\022\272\230\337\251;y\027\230\273\242\350\261\272g\224\030;\234C\275<.\3510\274PyY<\0334\346;\212\316\245\271\354\t\303\273\016\'\361;*\223\002<\005-\263;\373#\t\274+\321\236:\212\304\036\274\017\353\337:\\~\225<SV\033\275\373\266M;\230\321\312\274\276\204o<Wn\340\274^\322~\273M;\017;g05<$\311\321\273\t\307v\274 